#version: 0.2
č Ċ
ã Ģ
ï ¼
Ġ Ġ
ä ¸
ãĢ ģ
å ı
ä »
ï¼ Į
ãĢ Ĥ
æ ľ
å ħ
i n
ç »
å Ī
ç ļ
çļ Ħ
å ®
ç Ķ
e r
è ¯
å Ĭ
o n
æ ĸ
ä º
å Ĳ
æ ķ
ä ½
è ¿
å ¤
è ®
ï Ĥ
ïĤ ·
å º
e n
a t
ä ¹
ĠĠ ĠĠ
ç Ľ
æ ĺ
ï¼ Ľ
r e
æ Ī
çĶ ¨
ãĢĤ čĊ
ï¼Ľ čĊ
" ,
a n
å Į
æķ °
æ ŀ
o r
æĺ ¯
å ·
æ į
ĠĠ Ġ
é Ģ
å ¼
s t
in g
é ĩ
ä¸ İ
ĥ ½
æ µ
è ĥ½
æ İ
æį ®
ç ¨
ï¼ ļ
i on
æ ł
a l
e d
ç¨ ĭ
" )
( "
, čĊ
å Ń
ä» ¥
ç Ĳ
i t
çĲ Ĩ
Ġ ("
ãĢĤ ")
ãĢĤ") ,čĊ
å· ¥
æ ¨
åĪ Ĩ
æ¨ ¡
æ Ĺ
æ Ģ
åı ¯
æķ° æį®
é Ĺ
åı Ĭ
å Ľ
å ŀ
è ¡
æĸ ĩ
Ġ "
å Ĩ
ç ł
åŀ ĭ
ç İ
Ġ A
ä¸ į
å ľ
äº İ
å ¸
è §
æĪ Ĳ
ç ®
åĬ ¡
c t
åĮ ĸ
å ¹
å® ŀ
é Ļ
åı ĳ
æĹ ¶
ï¼ Ł
ä¹ Ī
a r
Ģ ä¹Ī
ä» Ģä¹Ī
ĠĠĠĠ ĠĠĠ
é ¢
en t
c k
ç «
ï¼Ł ",
r o
ä¸ Ģ
æµ ĭ
å į
æ ı
æ Ĭ
æ¨¡ åŀĭ
d e
å °
åħ ¨
é ¡
éĢ ļ
å Ĵ
Ġ s
at ion
åĴ Į
l e
å Ł
an d
è ¦
ï¼Ł", "
å ¯
è ¾
éĩ ı
i s
çĽ ®
Ġ c
ä ¼
i c
ä»Ģä¹Ī æĺ¯
= =
m p
æ Į
å¼ Ģ
çİ °
e b
æĢ §
ä ¿
ä¸ Ń
å ĩ
ç Ń
ä» ¶
åĲ İ
l o
ä½ ¿
çĶ Ł
æĸ ¹
a s
ç ½
c h
³ »
ç ³»
åĪ ¶
è® ¡
åŃ ¦
W eb
è¿ ĩ
åŁ º
ï¼ļ čĊ
ä»¥ åıĬ
e s
å ½
çł ģ
åº Ķ
éĹ ´
ç º
Ġ re
ä¸ ª
æİ ¥
è¯ ģ
è¦ ģ
å ī
åĮ ħ
æı Ĳ
t h
æľ ¬
åĲ Ī
Ġ and
æľ ī
ç« ¯
è ´
è ĩ
åľ ¨
A I
æ Ķ
é ĺ
æľ į
åħ ³
åº ¦
æ ³
æ ī
æ ĭ
æŀ Ħ
e t
£ Ģ
æ £Ģ
å »
åī į
æ Ŀ
Ġ S
é ª
Ġ C
åĬ Ľ
åº ĵ
t e
å ¾
åı Ĥ
ä» £
æŀ Ĳ
æľį åĬ¡
P I
æ Ń
Ġ p
è¡ Į
ä½¿ çĶ¨
éª Į
ç §
ä½ ľ
åĪĨ æŀĲ
å¼Ģ åıĳ
Ġ f
é¡ ¹
å ±
å İ
ç» Ł
å¸ ¸
å» º
ç ©
ç» ĵ
é Ŀ
Ġ P
å¹ ¶
æľ º
å¤ į
é¢ Ħ
ç® ¡
é¡¹ çĽ®
o ck
é Ľ
Ł ¥
ä ¾
å® ī
ä¸ º
å¯ ¹
éĽ Ĩ
å ¿
æµ ģ
å·¥ ç¨ĭ
w a
å® ļ
å®ī åħ¨
Q L
è °
è¡ ¨
ä¸ ļ
åĲ ĳ
èĥ½ åĬĽ
ç ´
Ġ in
æĸ °
éĹ ®
æĮ ģ
é ĥ
éĥ ¨
ä»£ çłģ
ä¸ Ĭ
æ ¡
æ Ļ
è ģ
ä¹ ł
åĬ ¨
åŃ¦ ä¹ł
e m
Ġ E
çł Ķ
ç®¡ çĲĨ
è® Ń
åŃ ĺ
ĠA I
åħ ¥
ç» ı
è° ĥ
S QL
ä½ į
å ĵ
Ġ m
ç» ĥ
éĩ į
æ ģ
é ľ
æİ §
åŁº äºİ
. čĊ
R e
å¤ ļ
å¼ ı
æł ĩ
o de
ç ¡
ä¸ ĭ
è®Ń ç»ĥ
£ İ
é £İ
è¿ Ľ
çĶ¨ äºİ
æŀ ľ
ç³» ç»Ł
r i
¤ º
å Ļ
ç ¤º
Ġ d
çĽ ¸
å®ŀ çİ°
a ct
i l
ç´ ¢
çĽ ĳ
éľ Ģ
Ħ çĲĨ
å¤ ĦçĲĨ
è§ £
åĻ ¨
è¯ Ń
åº ı
éĻ ©
éĿ ¢
é£İ éĻ©
u t
é ħ
Ġ b
æĸĩ ä»¶
ç© ¶
çłĶ ç©¶
éħ į
j s
s e
è¯ ķ
çĶŁ æĪĲ
m ent
æĪ ·
å ĳ
è® ¾
æĪ ĸ
or m
== ==
å Ģ
æ ±
ï¼ ī
a d
i g
u l
v er
± »
ç ±»
åı ĺ
o st
å ¢
æ Ľ
è µ
è ½
ï¼ Ī
in e
R ed
æģ ¯
Red is
p r
u b
ç ī
åı¯ ä»¥
åĲİ ç«¯
ç½ ®
åİ Ĩ
g re
è Ģ
æľ Ł
è® ¤
æĭ ¬
« ĺ
ç ¼
é «ĺ
Ġ čĊ
ar t
åĩ º
v e
æ ²
æł Ī
ĠA PI
çº ¿
åĮħ æĭ¬
æ± Ĥ
. js
u re
Ġ a
ä» »
å® Į
it y
åĽ ŀ
æĶ ¯
èĩ ª
¦ Ĥ
å Ŀ
äº ¤
a g
u n
æ Ł¥
ç ķ
Ġ /
Ġ de
è¾ ĵ
k a
Ĥ ¨
åĬ ł
æĢ ģ
ost gre
c e
s er
y th
æľº åĪ¶
yth on
I D
f orm
p p
åĨ ħ
æĹ¶ éĹ´
ostgre SQL
v al
å ģ
è ·
Ġ t
ä¼ ĺ
ä¿ ¡
çĽ¸ åħ³
g ine
r an
æ ¶
pr ing
gine er
o k
Ġ Web
åĲ Į
çŃ ī
åºĶ çĶ¨
ä»» åĬ¡
o t
æµĭ è¯ķ
éĢļ è¿ĩ
æ ·
ç ľ
ç Ł
Ġ B
æľ Ģ
ä½ ĵ
å¤ §
a in
Ġ e
æķ ´
æĸĩ æ¡
æĬ Ģ
æĸĩæ¡ £
i f
ãĢģ P
äº §
æķ°æį® åºĵ
åį ĩ
ock er
æ º
ç Ĥ
é ļ
å® ¹
æĻ º
æĶ¯ æĮģ
D ocker
p e
u e
ç® Ĺ
é¢ ĺ
æŀĦ å»º
éľĢ è¦ģ
æĽ ´
â Ģ
å ¥
æ Ħ
Ġ w
ĵ åºĵ
ä» ĵåºĵ
è¿ Ļ
åľ °
åį ķ
éĺ Ł
æ³ ¨
åıĤ ä¸İ
ç¡ ®
G o
c o
é Ķ
æĪ ĳ
å¹ ³
æıĲ åįĩ
å± ķ
è®¾ è®¡
æĬĢ æľ
a ck
äº Ĩ
ä½ İ
at e
es s
æµģ ç¨ĭ
æİ§ åĪ¶
æĬĢæľ ¯
S ock
è ¶
åı £
åĪ °
å· ®
ä¿ Ŀ
éĹ® é¢ĺ
Sock et
a v
ï¼Į åĮħæĭ¬
è¯ Ĩ
è¿ ŀ
ä¹ ī
åıĤ æķ°
æº Ĳ
Ġ F
Ġ st
éĢļ å¸¸
æ³ ķ
åĢ ¼
A PI
o mp
åħ ¶
ç» ´
ç® Ģ
æŃ ¥
u d
å ¦Ĥ
Ġ N
ç» Ħ
çĶ¨ æĪ·
å·¥ ä¸ļ
ç« ĭ
å½ ĵ
æ£Ģ ç´¢
éªĮ è¯ģ
ï¼Į å¹¶
åħ Ī
çĽ ĸ
éĽĨ æĪĲ
form er
æ¶ Ī
J av
Ġ |
ä¸ »
åħ ·
æķ Ī
æİ ¨
åĽ ¢
wa y
æĻº èĥ½
J W
e e
æ ¯
åĪ Ĺ
å¤ ©
å·¥ ä½ľ
JW T
L L
U ID
æ ĥ
at a
éĻ į
çº §
æŃ £
ä¾ Ŀ
Jav a
P ython
i b
o f
p t
åħ ĥ
ïĤ· åıĤä¸İ
åĽ ¾
çİ ¯
ct ion
éĻ Ĳ
é¢Ħ æµĭ
è¿ŀ æİ¥
å½ĵ åīį
S pring
ç Ł¥
ï¼Į ä¸į
en d
éĢ ī
æı ı
æĬ ¥
å¾ ®
åĵ į
ul l
å¢ ĥ
è®¤ è¯ģ
val u
åĽ¢ éĺŁ
LL M
Ġ T
åı °
å¤ ±
æŀ ¶
å° Ĩ
çİ¯ å¢ĥ
R A
S c
p o
u al
è¯ Ħ
on t
ïĤ· ä½¿çĶ¨
æĺ İ
åŃĺ å
è¿Ľ è¡Į
J S
äº º
å¼ Ĥ
åı¯ è§
çŃ Ķ
Web Socket
Re act
åĿ Ĺ
è¾ĵ åĩº
åŃĺå Ĥ¨
S E
d u
i d
i st
t er
v ic
ä¹ ĭ
è°ĥ çĶ¨
ri pt
gineer ing
ok en
o l
é Ĵ
Ġ en
Ĩ çĽĸ
è¿ Ĳ
åħ¨ æłĪ
è¦ ĨçĽĸ
Ġf or
wa re
ĠE n
R E
Â ·
è Ń
è¯ į
æł ·
å¸ Ī
è§ Ħ
ä¸Ģ ä¸ª
ä¿ ®
èĩ ´
Ġp ro
é¢Ħ èŃ
èģ Į
ran s
æĦ ı
Sc ript
é¢ĦèŃ ¦
G it
ä» İ
åĪ «
ic ation
lo w
ç½ ²
å·¥ç¨ĭ å¸Ī
åĲĳ éĩı
éĥ¨ ç½²
éħį ç½®
ag e
æ· ±
of t
æŀ¶ æŀĦ
i mp
p en
u s
´ æİ¥
çĽ ´æİ¥
or t
å° ı
çĽ® æłĩ
è¡¨ ç¤º
åĳ Ĭ
ç¼ ĸ
ä¿¡ æģ¯
æ¶Ī æģ¯
æĬ¥ åĳĬ
rans former
S T
i r
l a
é ģ
Ġ M
ľ ç¨ĭ
è® °
æĸĩ æľ¬
ä¼ °
æĮ ĩ
å½ ķ
æıĲ ä¾
æ£Ģ æŁ¥
å¿ ĥ
èµ Ħ
æıĲä¾ Ľ
a il
i z
o se
¨ Ģ
ç ¦
è ¨Ģ
é ķ
Ġ Â·
åı ª
åħ ¬
è¯ ·
è¯ »
è¿ ľç¨ĭ
å¤ Ł
å° ±
è®¡ ç®Ĺ
æİ¥ åı£
æ¡ Ī
è¯Ń ä¹ī
è¯Ń è¨Ģ
==== ====
èµ ĸ
è· ¯
å±ķ ç¤º
ä¾Ŀ èµĸ
valu ation
éķ ¿
O pen
a f
a m
² Ĺ
Â ł
å ²Ĺ
Ġ imp
ä» ĸ
ç» Ń
æķ ħ
çĲĨ è§£
çİ ĩ
å®ŀ æĹ¶
æ£Ģ æµĭ
åīį ç«¯
ç»ı éªĮ
çľ Ł
çĤ ¹
å¹³ åı°
omp ose
oft ware
å²Ĺ ä½į
d ing
e w
i le
u r
æ ¬
ç ĭ
Ġ an
en ce
å· ²
è¾ ĥ
ä¸Ń çļĦ
ç½ ĳ
çĽĳ æİ§
èĢ Į
åĨħ å®¹
åħ¶ ä»ĸ
çĭ ¬
C h
T ransformer
e x
e st
s s
¶ æĢģ
ç Ĭ
on f
æĸ Ń
äº Ĵ
at ed
åĮ º
éĢ Ĥ
èĥ½ å¤Ł
it h
æĹ ł
åľ º
æĬ ¤
å° ĳ
æĶ ¹
éĺ ²
ç§ į
ç»ĵ æŀĦ
æĻ ¯
ig n
åıĺ éĩı
å®Į æĪĲ
ĠB o
éļ ľ
éĻį ä½İ
RA G
è¯Ħ ä¼°
çĬ ¶æĢģ
ãĢģ Docker
æį ¢
æĸ¹ åĲĳ
ç§ »
ç»ĵ æŀľ
ä¼ĺ åĮĸ
çŁ ³
ĠBo ot
l y
y pe
æ ´
Ġ -
ï¼Į ä½
ï¼Į ä½¿
å¼ ķ
æł ¹
åĽ ł
as k
ç§ ĳ
ç© º
å¢ ŀ
çī ¹
äº¤ äºĴ
ual ity
vic e
åľº æĻ¯
- ser
u m
¯ ä»¶
¿ éĹ®
åı ĸ
ç» Ļ
è® ¿éĹ®
æİ Ĵ
æł ¼
å¯ ¼
çŃ ĸ
çĶŁ äº§
æī «
ĠC ompose
ä¸ļ åĬ¡
è½ ¯ä»¶
art s
å®Į æķ´
éĶ ®
æĥ ħ
æł¹ æį®
O N
e l
» è¾
æ »
Ġ n
Ġ q
åĲ «
éĢ »è¾
æĬ Ĭ
ä¼ ļ
lo ud
as s
è¿ĩ ç¨ĭ
å½ Ĵ
æĿ ĥ
å± Ĥ
çķ Į
ç¦ »
éĢ»è¾ ĳ
T T
o m
o ut
o un
± åĮħ
æ ®
æ Ĳ
Ġ g
Ġ h
åı ²
çĶ ±
äº ĭ
ä¹ ħ
æĺ¯ ä¸Ģ
åį ı
Ġs e
å¯ Ĩ
è¾ ¹
æĢ§ èĥ½
åĩ Ĩ
åĮħ åĲ«
åħ³ ç³»
æĿ ¥
å¿ ħ
æĮģ ä¹ħ
ä½į ç½®
çĽĳ æµĭ
é£İéĻ© é¢ĦèŃ¦
ç±» åŀĭ
åİĨ åı²
ee p
éĴ ±åĮħ
çĭ¬ ç«ĭ
ype Script
b ed
e ct
o b
¸ å¿ĥ
æ °
ç ¬
Ġ Q
Ġ çļĦ
è¯ ¯
åĬ Ł
æł ¸å¿ĥ
æ¨¡ åĿĹ
åĩ ı
ode l
æĬĢæľ¯ æłĪ
å¦Ĥ æŀľ
æķħ éļľ
æ¬ ¡
onf ig
bed ding
" :
H ub
f low
i m
t ain
u ser
ãĢģ T
åı į
éĩ Ĭ
ic al
æĸ¹ æ¡Ī
èĩ ³
æī §
èģ Ĭ
å¥ ½
co m
ä¹ĭ éĹ´
Git Hub
æī« æıı
åĬŁ èĥ½
- t
K af
P ostgreSQL
i o
å £
ç ģ
Ġ D
Ġ te
ãĢģ E
ãĢģ N
ãĢģ S
or y
å¹ ¿
é¡ µ
mp le
è´ ¥
æľº åĻ¨
éĩį å¤į
åºı åĪĹ
å¤± è´¥
åĩı å°ĳ
Kaf ka
: čĊ
a b
æ Ĥ¨
è ī
in t
å® ĺ
å¤ ĸ
è® º
åı¯ èĥ½
ä¼ ł
åº¦ åŃ¦ä¹ł
ä¾ ĭ
æµģ å¼ı
ï¼ī čĊ
æ² Ł
ãĢģP ostgreSQL
å¾® æľįåĬ¡
æł· æľ¬
G P
g g
± åĵį
æ ¸
Ġ =
ģ ç§»
Ĩ åĮĸ
ľ ç´¢
ł åĨ
ï¼Į æĶ¯æĮģ
æľ ª
äº Į
è¿ ģç§»
an g
åĨ łåĨ
å¸ ĥ
å®ŀ éªĮ
ä¸Ģ èĩ´
é¡ »
å½ ±åĵį
è´ £
æĭ Ł
æĿ Ĥ
å¾ Ĺ
åĢ Ļ
çķ ¥
çľ ĭ
ate way
æ¯ Ķ
çŁ¥ è¯Ĩ
åı¯è§ ĨåĮĸ
est JS
ï¼Įä½ Ĩ
æĲ ľç´¢
å¿ħ é¡»
æĮģä¹ħ åĮĸ
æľºåĻ¨ åŃ¦ä¹ł
æ²Ł éĢļ
åĨłåĨ Ľ
- st
A pp
G O
I n
P E
f it
i ve
v ing
ç Ħ
ç Ĩ
Ġ r
ãĢģ F
ä» ĺ
ï¼Į ä»¥
ï¼Į åı¯ä»¥
äº Ľ
åĲ ¦
an t
åŁº ç¡
è´ ¨
è´ Ł
æī Ģ
åİ Ł
å¤į æĿĤ
å¤ļ ä¸ª
ve lo
è¾ĵ åħ¥
ä¼ĺ åħĪ
æ³¨ æĦı
ä¸» è¦ģ
æ·± åº¦åŃ¦ä¹ł
è¯· æ±Ĥ
çŃĸ çķ¥
æī§ è¡Į
å®ĺ æĸ¹
åŁºç¡ Ģ
H TT
t t
u st
u te
x p
³ å®ļ
ç ĵ
é ©
Ġ lo
Ġ UID
ãĢģ C
ï¼Į çĶ¨äºİ
æĸ ¯
æĺ¯ åĲ¦
åĨ µ
ct or
Ġs c
Ġs oftware
Ġre p
ĠC loud
ç»Ł è®¡
åĵ ģ
Ġd ata
éľĢ æ±Ĥ
ment ation
è½ ¬
ç¼ ĵ
ure ka
åĿ ĩ
åĲĮ æĹ¶
æ¯ ı
Ġen gineering
èģĬ å¤©
åĢĻ éĢī
çĦ ¶
è´¨ éĩı
HTT P
) čĊ
G A
g r
r u
u th
v i
¥ åº
¦ æĸ¯
½ æķ°
æ Ĵ
ç ħ
é ĵ
Ġ R
ãĢģ Redis
ãĢģ JWT
ï¼Į è¦ĨçĽĸ
ç» Ī
è¯ Ŀ
ïĤ· å®ŀçİ°
ïĤ· çłĶç©¶
ïĤ· æŀĦå»º
çĽ ĺ
or k
åŃ Ĳ
æĢ ¥
å¸ Į
ar d
ä¸Ģ ä¸ĭ
éĢļ ä¿¡
åŁ Ł
åĩ ½æķ°
åºĶ æĢ¥
ç»ı åİĨ
éĩį æĸ°
è§£ éĩĬ
ve ctor
åģ ¥åº
ue st
Ġw ith
æİ¨ çĲĨ
ib er
å¼Ĥ æŃ¥
è¿Ĳ è¡Į
ĠEn gineer
æ® µ
æ° Ķ
æķħéļľ æ£Ģæµĭ
velo p
çĵ ¦æĸ¯
éĵ ¾
åģ¥åº ·
S C
i er
m ar
o c
o ver
o ok
p y
r on
» ç»ĵ
ç Ī
Ġ ä¸ª
Ĩ åŁŁ
ãĢģ æķ°æį®
ãĢģ å®īåħ¨
ä» ħ
ï¼Į èĢĮ
åħ į
åĪ Ļ
å® ¢
er s
å¤ ĩ
al l
al y
åĽ ½
åĨ Į
åĨ Ļ
ä¸į åĲĮ
é¢ ĨåŁŁ
Ġc on
æĮ ī
as e
å»º ç«ĭ
ä¸Ĭ ä¸ĭ
åĽŀ çŃĶ
æ³¨ åĨĮ
ç®Ģ åİĨ
åĵį åºĶ
éģ ¿
æĺ¯ä¸Ģ ç§į
ç¼ĵ åŃĺ
vi ew
ä¸Ĭä¸ĭ æĸĩ
a c
a p
f ile
p at
s p
è ĭ
Ġ L
Ġ ro
Ĩ Ĵ
Ĩ çĤ
ãĢģ M
åĬ ŀ
ïĤ· D
at or
å¼ º
ç¨ ³å®ļ
åĨ ³
åıĳ çİ°
æıĲ é«ĺ
æĿ ¡
æŃ ¢
ĠP ython
wa gg
åĬ¨ æĢģ
åĳ ĺ
çī Ī
èĩª åĬ¨
åģ ļ
æľĢ ç»Ī
RE ST
ä¿® æĶ¹
Ġimp ro
-ser vice
çĪ ĨçĤ
éģ¿ åħį
wagg er
çĪĨçĤ ¸
/ S
G ateway
I M
S ee
W GA
g vector
i p
q uest
x se
æ ¦Ĥ
Ġ [
Ġ l
Ġ Re
er i
è¿ ĺ
at ch
re fit
åĽ ´
åĨ »ç»ĵ
ar ch
Ġc ode
æĸ¹ æ³ķ
æľ¬ åľ°
ĠS pring
å¾ Ħ
éĽĨ åĲĪ
éĥ¨ åĪĨ
il ity
Ġt o
åºĶçĶ¨ å¼Ģåıĳ
ä½ĵ ç³»
å¥ ĸ
è®° å½ķ
è¯Ńè¨Ģ æ¨¡åŀĭ
çľŁ å®ŀ
Ġan aly
æĥħ åĨµ
eep See
im e
-t o
å£ «
çĨ Ł
æ³¨æĦı åĬĽ
æĴ Ń
å®¢ æĪ·
WGA N
xse c
eepSee k
- GP
R M
S S
Z ust
a mple
f in
i ver
s it
§ ĭ
ª è¡¨
± åĬ¨
å §ĭ
ç ¥
è Ĭ
Ġ +
ãĢģ Kafka
ä» ·
ä» ªè¡¨
ï¼Į å¸¸
ï¼Į å®ŀçİ°
ï¼Į æıĲåįĩ
è¿ °
ïĤ· P
ïĤ· åŁºäºİ
ïĤ· è®¾è®¡
en ch
éĢ Ł
éĩ ĩ
éĩ ĳ
åı¯ å¤į
åĨ į
ä¸į èĥ½
éĢļ çŁ¥
Ġs er
mp t
åŁº çº¿
å¾ ģ
ä½ľ ä¸º
ä»£çłģ ä»ĵåºĵ
il t
æ² ¡
æ² ¹
çº¿ ç¨ĭ
Ġe valuation
è¶ ħ
è¯Ĩ åĪ«
æıı è¿°
å¾® è°ĥ
JS ON
ĠEn gineering
èµĦ æºĲ
è·¯ å¾Ħ
Ch arts
çŁ³ æ²¹
çī¹ å¾ģ
oun tain
æ¸ ħ
é© ±åĬ¨
åºĶæĢ¥ ç®¡çĲĨ
mar k
çĪĨçĤ¸ é£İéĻ©é¢ĦèŃ¦
Zust and
ample s
èĬ Ĥ
ä»ªè¡¨ çĽĺ
ench mark
/ xsec
T oken
V ue
a st
i ka
j ob
l l
m it
t ri
¢ ¯
º «
â ĨĴ
æ ¢¯
ç Ļ
ç Ŀ
è º«
Ġ React
Ġ us
Ĥ æµĭ
ãĢģ æķ°æį®åºĵ
er ver
åĬ ©
åĲ ¯
ïĤ· å¼Ģåıĳ
ĠĠĠĠ ĠĠĠĠĠĠĠ
re ad
éĢ Ĵ
åŃ Ĺ
åĪĨ ç±»
å®ŀ éĻ
ar n
ent ion
æĬ ķ
çĽ® åīį
æĸ¹ å·®
ch n
è¯ģ æį®
æ³ Ľ
å»º æ¨¡
ç»ĵ åĲĪ
èģ Ķ
em ent
ĠE valuation
Ġd App
Ġa c
âĢ ĵ
ç®Ģ åįķ
po sit
æĺİ ç¡®
éĢĤ åĲĪ
é¡µ éĿ¢
Ġimpro ving
æ²¡ æľī
ika flow
æ¢¯ åº¦
å®ŀéĻ ħ
C U
D F
_ ran
s h
s is
ç ĥ
è ¸
Ġ on
Ġ ä¸İ
Ġ th
ä¸ ¤
ç» ľ
è¯ ¢
è¯ ´
en c
è¡ ¡
ï¼Ł", čĊ
åį ļ
ic s
çº ¦
è¦ģ æ±Ĥ
è´ ¹
te mp
å± ŀ
éĹ® çŃĶ
ut ion
åıĺ åĮĸ
èĢ ħ
äº¤ ä»ĺ
æŁ¥ è¯¢
pp ort
ç¡® è®¤
po int
å¼Ĥ å¸¸
ä¿® å¤į
iz ation
å·² ç»ı
ç½ĳ ç»ľ
ç§ĳ çłĶ
è¾¹ çķĮ
ä¹ĭéĹ´ çļĦ
åĬŀ åħ¬
çĻ »
_ran k
- S
/ m
A T
D eepSeek
G em
L A
M Q
P U
c l
c ur
g o
l at
l ication
m a
p gvector
u pport
y st
¥ å¿
¹ éħį
ç ª
ç ĸ
è Ħ
è Į
è Ļ
Ġ LLM
ļ æľ¬
ï¼Į åĮħåĲ«
in d
in i
in ess
ç» ª
åĪ Ĵ
æĸ Ļ
ä½ ł
è¿ ½
ïĤ· C
en er
åĮ ¹éħį
or al
or age
æĹ ¥å¿
åĽ º
çŃ ¾
éĿ¢ è¯ķ
ç®Ĺ æ³ķ
âĢ Ŀ
æĦ Ł
åľ° åĽ¾
è¶ ³
ç»´ æĬ¤
æķĪ æŀľ
ull MQ
äºº å·¥
æĮĩ æłĩ
å¯¼ èĩ´
å¤ĸ éĥ¨
è®º æĸĩ
velop ment
èĭ ±
Ġanaly sis
chn ical
posit ory
çĥ Ń
åįļ å£«
Gem ini
yst em
èĦ ļæľ¬
èĮ ĥ
æĹ¥å¿ Ĺ
- Transformer
. com
X SE
c ont
g ent
o p
p lo
r ont
s c
± ¡
¶ æ®µ
â ī
æ ¼
è ±¡
Ġ ass
Ī å¸Į
ãĢģ AI
ãĢģ é£İéĻ©
ãĢģ çĶ¨æĪ·
ãĢģ Spring
ãĢģ æµģå¼ı
ï¼Į ä¸º
ï¼Į éĢļå¸¸
çļĦ æķ°æį®
å® ¡
è® ©
ïĤ· A
ïĤ· B
ä¸İ éĥ¨ç½²
åĪĨ éħį
åı¯ éħįç½®
ä¸į æĺ¯
è§ ģ
is ion
Ġc h
ic ro
æĸ¹ å¼ı
è®¡ è´¹
åŃ¦ éĩĳ
th ers
éĺ ¶æ®µ
ĠC SS
te gr
ĠP ostgreSQL
ä»£çłģ åĪĨæŀĲ
ä»£çłģ æĻºèĥ½
em bedding
åĵ Īå¸Į
æłĩ åĩĨ
è¿Ľ ç¨ĭ
Ġb ack
çłĶç©¶ æĸ¹åĲĳ
åĽŀ å½Ĵ
pp lication
å¤§ åŃ¦
if ier
äº§ åĵģ
âĢ ľ
æİ§åĪ¶ åĽ¾
åħ· å¤ĩ
å¤© æ´
éĻĲ æµģ
åı¯è§ Ĥæµĭ
du ction
è¿Ĳ ç»´
åĲĳéĩı æ£Ģç´¢
è¯» åıĸ
å°± ç»ª
======== ========
çŁ³ åĮĸ
æİĴ åºı
Ġq uality
å¯Ĩ çłģ
éĴ±åĮħ è¿ŀæİ¥
ç¬ ¦
ĠQ uality
io temp
çģ «
ä¸Ģèĩ´ æĢ§
è´Ł è´£
çĵ¦æĸ¯ çĪĨçĤ¸é£İéĻ©é¢ĦèŃ¦
oc u
pat iotemp
/S ub
å¥ĸ åŃ¦éĩĳ
æĥħåĨµ ä¸ĭ
åı¯å¤į çİ°
è¸ ª
çĻ» å½ķ
è¿½ è¸ª
XSE C
å¤©æ´ ¥
åı¯è§Ĥæµĭ æĢ§
patiotemp oral
B K
C A
F e
H A
I T
L S
T e
U T
a ch
b ack
j ect
l an
m bedding
u ilt
w ind
¢ «
æ ĵ
æ ļ
ç ²
è ¢«
Ġ H
Ġ U
Ġ ä¸į
Ġ Redis
Ĭ æĸŃ
ãĢģ åĲİç«¯
ãĢģ æµĭè¯ķ
ï¼Į éĢļè¿ĩ
ï¼Į è¿Ļ
åĪ ĩ
çļĦ è¯Ŀ
è¯ ¥
è¯ ĬæĸŃ
åĲ Ħ
æĺ ł
ä»¥ ä¸Ĭ
å·¥ åħ·
ro mpt
é¡ º
Ġc l
ä¼ ¼
Ġre pository
æī ©
æī ¾
æĭ ©
æĿ ¿
ĠS erver
ĠC ode
Ġf ront
ĠP ub
å®ļ ä¹ī
Ġin ter
èģ ļ
èĢ ĥ
Ġa uth
çŁ Ń
æĽ´ æĸ°
Ġw ork
éĢī æĭ©
ter m
ail wind
Open Fe
ly way
æł¼ å¼ı
åįı ä½ľ
ç¬ ¬
GO RM
æīĢ æľī
xp eri
è½¬ æį¢
Ġro ute
Ġ[ čĊ
ç¥ ŀ
äººå·¥ æĻºèĥ½
èĮĥ åĽ´
ocu mentation
BK DF
OpenFe ign
/ Open
A R
D B
b u
b ase
u ator
¢ å¤į
ª äºĽ
Â ²
è £
Ġ In
į ä½ľ
ãĢģ æĸĩä»¶
ä» ½
ï¼Į æĪĳ
åĪ ©
çĶ¨ çļĦ
or d
or ch
ç¨ĭ åº¦
è§ Ĵ
ct uator
åıĳ å¸ĥ
æ¨¡åŀĭ çļĦ
å° ½
ä¸Ń éĹ´
ch arts
æľī æķĪ
æĶ ¶
éĿ ŀ
å¯¹ è±¡
åĬ¨ ä½ľ
åĵ ªäºĽ
æģ ¢å¤į
Ġd ocumentation
çĽĳ çĿ
è§£ åĨ³
ag es
çķ Ļ
Ġde velopment
åĨħ åŃĺ
val id
è¶ Ĭ
ä¿Ŀ è¯ģ
åħ· æľī
æŃ£ å¼ı
åĿĹ éĵ¾
è§Ħ æ¨¡
ç¼ĸ çłģ
ç¼ĸ åĨĻ
éķ¿ æľŁ
ex ifier
åĮº åĿĹéĵ¾
å¼ķ åħ¥
æĿĥ éĩį
æĭŁ åĲĪ
tt ention
fin al
åĲ¯ åĬ¨
èĭ± æĸĩ
æĵ įä½ľ
ç² ¾
é¡º åºı
ç¥ŀ ç»ı
çĽĳçĿ £
. py
/ F
/ v
B atch
E T
I N
N estJS
b o
i es
m o
p ad
y ment
» åĬł
é ĥ½
Ġ Docker
Ġ åıį
Ġ WGAN
ł æĢ§
ä¸ ī
ãĢģ Web
ãĢģ å¼ĤæŃ¥
ä» į
ï¼Į æĺ¯
åĪ Ŀ
on ing
åĲ į
æĪ ¿
éĢ Ĳ
it ect
åĪĨ æķ°
åĪĨ å¸ĥ
æĢ Ŀ
åı¯ éĿ
æĪĲ æľ¬
ct ure
ent s
ç« ŀ
ä¸Ģ æ¬¡
åį ³
Ġs upport
le et
Ġc omp
ä¸Ń æĸĩ
ä¸Ń åĽ½
as ed
as oning
æıĲ ç¤º
åľ¨ ä¸į
å» ¶
ĠS t
å± Ģ
ĠP CA
å¹¶ åıĳ
å¿ «
Ġin cl
æĸ° çĸ
Ġm an
Ġm odel
ç´¢ å¼ķ
Ġb enchmark
ul t
ĠWeb Socket
æ· »åĬł
æķ´ çĲĨ
ud ing
ort s
èµĦ æĸĻ
ail ed
ex t
ç©º éĹ´
å¢ŀ åĬł
äºĭ ä»¶
ab ility
Ġlo g
ru cture
ron e
æ¦Ĥ çİĩ
å®¢æĪ· ç«¯
ï¼Įå¸¸ çĶ¨äºİ
èº« ä»½
Ġus ing
åĽº å®ļ
ïĤ·B uilt
Ġauth ent
åĪ© çĶ¨
itect ure
åı¯éĿ łæĢ§
Ġincl uding
æĸ°çĸ Ĩ
B ullMQ
C I
M art
P R
a k
c al
e ad
f er
f ul
g e
o w
o re
r is
u p
¤ çŁ
½ Ĳ
æ ħ
é »
é ½Ĳ
Ġ J
Ġ çĽ¸åħ³
Ġ Gateway
Ķ ç¦»
ãĢģ ä½¿çĶ¨
ãĢģ ä»ĵåºĵ
ãĢģ éĥ¨ç½²
ãĢģ Zustand
ãĢģ ä»ªè¡¨çĽĺ
ãĢģ Vue
ï¼Į åŁºäºİ
ï¼Į çĶŁæĪĲ
ï¼Į æ¶
ï¼Į éĻįä½İ
åħ ¼
ç» ĩ
çļĦ WebSocket
çļĦ æĥħåĨµä¸ĭ
ä½ ķ
è¿ Ł
ïĤ· E
ïĤ· S
ïĤ· æ·»åĬł
ä¹ ¦
ä¹ Ł
æĺ ¾
", čĊ
éĢ ģ
ç¨ĭ åºı
") čĊ
å·¥ èī
éĹ Ń
ä¸į ä»ħ
åıĳ è¡¨
æĹ¶ åºı
æĹ¶ ç©º
ck et
å° Ħ
è¾ ¾
Ġc om
å¼Ģ å±ķ
åĲİ ç»Ń
as h
ch em
ä»¥åıĬ åŁºäºİ
ä»¥åıĬ è¿Ĳç»´
åºĶ åĻ¨
Ġre quest
AI åĵįåºĶ
åħ³ éĶ®
åħ³ éĹŃ
æľįåĬ¡ åıĳçİ°
Ġp ad
ä¸º ä»Ģä¹Ī
å¿ Ĩ
å·¥ç¨ĭ èĥ½åĬĽ
ĠE thers
Re charts
å¤ļ åħĥ
æłĩ çŃ¾
ri b
çĽ¸ ä¼¼
çĽĳ ç®¡
éĿ¢ åĲĳ
æĸĩä»¶ åŃĺåĤ¨
js on
åĳ ¨
art if
ĠAPI s
Ġa pplication
åĽŀ æ»
æĹ¶éĹ´ åºıåĪĹ
è· ¨
Ġt oken
æľĢ é«ĺ
ä½ĵ çİ°
Ġe x
if ication
ãĢģP R
éļ Ķç¦»
è¿Ļ è¾¹
æºĲ çłģ
ĠN ode
ç»Ħ ç»ĩ
å·¥ä¸ļ å®īåħ¨
å·¥ä¸ļ äººå·¥æĻºèĥ½
way point
åĪĹ è¡¨
å·¥ä½ľ æµģ
æĥ ³
æŃ£ å¸¸
ä¾Ŀ æį®
éĻĲ åĪ¶
åĽ¢éĺŁ ç®¡çĲĨ
ĠT ypeScript
du c
åħ¨æłĪ å·¥ç¨ĭå¸Ī
æĬ¥åĳĬ çĶŁæĪĲ
la y
è®° å¿Ĩ
è¯Ńä¹ī çº§
åīįç«¯ é¡µéĿ¢
ç»ĵæŀĦ åĮĸ
æ´ »
ask s
Ġse ed
ãĢģT ypeScript
ãĢģT ailwind
com mit
ãĢģE ureka
ãĢģS wagger
å¹¿ æĴŃ
ãĢģF iber
å¤įæĿĤ åº¦
ãĢģC onfig
åĿĩ åĢ¼
èģĬå¤© åĲİç«¯
çħ §
çħ ¤çŁ
ãĢģJWT è®¤è¯ģ
ïĤ·çłĶç©¶ çĶŁ
æķħéļľæ£Ģæµĭ ä¸İ
åģ¥åº· æ£ĢæŁ¥
æĿ¡ ä»¶
çīĪ æľ¬
èĩªåĬ¨ åĮĸ
REST ful
tri pe
enc y
ãĢģæµģå¼ı AIåĵįåºĶ
icro Mart
ä»£çłģæĻºèĥ½ å¹³åı°
Ġback end
å°±ç»ª æ£ĢæŁ¥
æĺł å°Ħ
çŁŃ æľŁ
xperi ence
Ġåıį åºĶåĻ¨
æĪ¿ éĹ´
ä¸ŃåĽ½ çŁ³æ²¹
å»¶ è¿Ł
Ġauthent ication
ris ma
å·¥èī º
artif act
åĽŀæ» ļ
çħ¤çŁ ¿
- user
M icroMart
O UT
U M
c ess
h tt
h ook
n ot
p h
s amples
y SQL
{ "
¤ æĸŃ
æ Ĥ
ç Į
è İ
é Ĥ
Ġ ]
Ġ æ¨¡åŀĭ
Ġ as
Ġ JWT
ãĢģ Java
ï¼Į ä»İ
åħ ±
ç» §
åĪ ¤æĸŃ
å® ¶
on go
è¿ ĳ
è® ¸
ïĤ· éĽĨæĪĲ
at h
æĺ ĵ
it bu
æ¨¡ å¼ı
è§ Ī
å¹ ´
éĻ ¤
åħ¨ èģĮ
Ġs ystem
Ġc over
es ign
åĲĪ å¹¶
éĺ ħ
ĠC PU
te ll
é¢Ħ å¤ĦçĲĨ
å¯¹ åºĶ
Ġin tegr
act ion
il l
ï¼ī ï¼Į
æĽ ¿
è½ ½
çī ©
çī ĩ
ag ement
un t
Ġde plo
éļ ı
æĻº æħ
æĶ¯æĮģ è¿ľç¨ĭ
éĶ ģ
éĶ Ļ
ä¿Ŀ æĮģ
ä¿Ŀ æĬ¤
ä¿Ŀ çķĻ
Ġst ructure
ç»Ħ åĲĪ
ï¼Įå¹¶ æĶ¯æĮģ
vic es
è§Ħ åĪĻ
Ġpro duction
ç¼ĸ ç¨ĭ
åħ¬ å¼Ģ
è·¯ çº¿
oun d
è¯¯ å·®
ãĢģN ode
ab le
èī ²
æ¯Ķ è¾ĥ
-st orage
ï¼ĮèĢĮ æĺ¯
æĮī çħ§
ac le
Ġser vice
æ¸ħ çĲĨ
è¡¡ éĩı
LA M
Ġwork flow
è§Ĵ èī²
Ġman agement
åĳ¨ æľŁ
lay GO
htt p
èİ ·
ongo DB
itbu cket
æĻºæħ §
Ġstructure d
- p
/ B
A U
D exifier
E OUT
H ikaflow
L o
M ask
O R
_ refit
d d
l iver
m odel
r ation
r ics
t oken
y n
{ }
´ æĹ¶
è Ī
Ġ çŃī
Ġ åºĶçĶ¨
Ġ Go
Ġ user
Ġ GitHub
Ġ arch
ĺ è®¤
Ľ å»º
Ń ä»£
ä¸ ´æĹ¶
ãĢģ æ¨¡åŀĭ
åı ī
ä» ĭ
ï¼Į åĩıå°ĳ
åĪ Ľå»º
æķ £
è¿ Ńä»£
ïĤ· I
re d
æķ° éĩı
æį Ł
it e
æķ°æį® çľĭ
è§ ī
ro ss
ä¸Ģ æŃ¥
åħ¨ éĥ¨
le t
le arn
éĩı åĮĸ
is k
Ġc ont
åĲİ åı°
Ġre view
Ġre asoning
åľ¨ è¯»
ĠS e
æľįåĬ¡ åĻ¨
åĪĨæŀĲ ä¸İ
å¼Ģåıĳ ç»ıéªĮ
Ġf ile
å¤į åĪ¶
å®ļ ä½į
ç´ ¯
Ġm ain
Ġm ult
éĩį çĤ¹
Re layGO
è®Ńç»ĥ éĽĨ
ment ed
åĳ ½
ç±» åĪ«
åĲİç«¯ å¼Ģåıĳ
ç¼ º
æ² »
Ġde liver
åģ ı
åģ ľ
æ· ·
å®¹ åĻ¨
éĺŁ åĪĹ
æĬĢæľ¯ æĸĩæ¡£
å¦Ĥ ä½ķ
ç»Ħ ä»¶
ib le
ol d
è§Ħ åĪĴ
ST R
ir al
am m
ï¼Įä½¿ æ¨¡åŀĭ
åĽł ä¸º
-ser ver
Ġn ot
å½Ĵ å±ŀ
åįı è°ĥ
ĠD ata
Ġte chnical
ä¾ĭ å¦Ĥ
Ġr isk
Ġrep orts
æ¯ı ä¸ª
IM EOUT
éĩĩ çĶ¨
èĬĤ çĤ¹
æ³Ľ åĮĸ
Ġac ross
cur ity
lat form
çª ģ
Ġfront end
èģļ åĲĪ
/Open API
çĽĳçĿ£ åŃ¦ä¹ł
èº«ä»½ è®¤è¯ģ
é» ĺè®¤
åħ¼ å®¹
çĮ ®
Ġ] ,čĊ
ï¼Įä»İ èĢĮ
ç»§ ç»Ń
Ġintegr ation
Ġdeplo yment
éĶĻ è¯¯
Ġarch itecture
æķ°æį®çľĭ æĿ¿
- b
- g
/ /
/ E
/ T
/ t
/ NestJS
: //
C H
C CU
D PE
I L
O M
S UM
_ F
a ce
a uth
c ast
e ck
f ailed
i k
n e
n ing
p ar
r act
s w
s ist
s ign
u x
u ard
u py
¡ è¶³
¡ çĮ®
¨ é½Ĳ
² ģ
¿ çľŁ
ç ¿
è Ĳ
é ²ģ
Ġ v
Ġ åıĬ
Ġ is
Ġ ä¸Ń
Ġ Java
Ġ ob
Ġ âĢĵ
Ġ valid
Ġ waypoint
ģ è®¸
Į é²ģ
ä¸ ĵ
ãĢģ L
åı ¸
ä» ¤
ä» ¿çľŁ
ï¼Į å°Ĩ
ï¼Į èĥ½å¤Ł
ï¼Į æıĲé«ĺ
ï¼Į è¿ĺ
æľ Ľ
æľ ¨é½Ĳ
åħ ģè®¸
in ux
åĪ ł
çļĦ çĲĨè§£
en ar
ä¹ Įé²ģ
an ce
æĺ¯ åľ¨
st ri
st ru
æł ĳ
åĪĨ ç¦»
éĹ ¨
ĠA ttention
å®ŀ ä¾ĭ
é¢ Ŀ
ro l
ro le
Ġs amples
Ġs chem
æĸ¹ éĿ¢
è¿ĩ æĭŁåĲĪ
åŁº åĩĨ
å½ ¢
Ġre sp
è¯ģ æĺİ
è´ ¡çĮ®
æĶ ¾
æī į
æĿ Ł
te ction
Ġp ull
ĠP LS
éĽĨ ä¸Ń
æĸ° å¢ŀ
ä¸Ĭ çº¿
è°ĥ åıĤ
Ġm ess
Ġm ountain
éĩį è¦ģ
ç¡ ¬
è¿Ľ ä¸ĢæŃ¥
ut ure
èĩª çĦ¶
Ġde sign
åĨħ éĥ¨
å¤§ éĩı
Ġe xperience
è¿Ļ ä¸ª
è¿Ļ äºĽ
åįķ åħĥ
ä¿Ŀ åŃĺ
åħ· ä½ĵ
åħĥ æķ°æį®
ï¼Įä¸į èĥ½
ï¼Įä¸į è¦ģ
du stri
Ġpro ject
èģĮ è´£
æıĲä¾Ľ åŁºç¡Ģ
iz e
éĢĤ çĶ¨äºİ
æĹł æķĪ
éĺ² æĬ¤
åĽł æŀľ
çī¹ å®ļ
çĶŁäº§ çº§
ä¸ļåĬ¡ éĢ»è¾ĳ
è½¯ä»¶ å¼Ģåıĳ
æ» ¡è¶³
æĿ¥ æºĲ
mple mented
æĤ¨ å¥½
ä¼ł æĴŃ
Ġcon sist
çĨŁ æĤ
æ³¨æĦıåĬĽ æľºåĪ¶
ä»· åĢ¼
éĢŁ åº¦
Ġser vices
æĬķ éĢĴ
è¯´ æĺİ
ener ated
åįļå£« åľ¨è¯»
âī ¥
æī© å±ķ
ĠIn former
ï¼ĮæĪĳ è¿Ļè¾¹
å°½ éĩı
bo ard
ĠJ upy
ph an
http s
ïĤ·I mplemented
æįŁ å¤±
Ġmain tain
é»ĺè®¤ åħ³éĹŃ
-g enerated
/E Charts
ik it
enar io
ä¹Įé²ģ æľ¨é½Ĳ
Ġresp on
dustri al
çĨŁæĤ ī
ĠJupy ter
# #
( samples
- d
/ C
/ čĊ
/ AI
/ å¯¼
/ æ³¨åĨĮ
/ å°±ç»ªæ£ĢæŁ¥
A D
A ctuator
L O
N T
P y
T op
T orch
V al
] čĊ
_ d
a Mask
e y
e arn
p th
q u
r y
r um
u er
x t
¥ ä¸İ
¦ æĪ·
´ éľ
µ çĽĸ
· æĸ°
¿ Ģ
æ ¿Ģ
è į
Ġ I
Ġ åĴĮ
Ġ å¼Ģåıĳ
Ġ if
Ġ of
Ġ åħ¨æłĪ
Ġ æİ¥åı£
Ġ å·²
Ġ èĩ³
Ġ ç»Łè®¡
Ġ åºĶçĶ¨å¼Ģåıĳ
Ġ æİ§åĪ¶åĽ¾
Ġ RESTful
ĭ å·®
Į æı
ĵ åº¦
ãĢ Ĭ
ãĢ ĭ
ãĢģ ä»£çłģ
ãĢģ åŁºäºİ
ãĢģ å¤ļ
ãĢģ çİ¯å¢ĥ
ãĢģ æ¶Īæģ¯
ãĢģ æī«æıı
ãĢģ å½±åĵį
ãĢģ æľºåĻ¨åŃ¦ä¹ł
ãĢģ åģ¥åº·
ãĢģ éĢļçŁ¥
ãĢģ åºĶæĢ¥ç®¡çĲĨ
ãĢģ job
ãĢģ pgvector
ãĢģ è®¡è´¹
ãĢģ embedding
ãĢģ åĲĳéĩıæ£Ģç´¢
ãĢģ çŁ³åĮĸ
ãĢģ åı¯è§ĤæµĭæĢ§
ãĢģ OpenFeign
ãĢģ BullMQ
ãĢģ æľįåĬ¡åıĳçİ°
ãĢģ Recharts
ãĢģ æĹ¶éĹ´åºıåĪĹ
ãĢģ commit
ãĢģ åĲİåı°
ä» Ĭ
ï¼Į å¯¹
ï¼Į çłĶç©¶
ï¼Į ä¸Ģä¸ª
ï¼Į å±ķç¤º
ï¼Į æĬĢæľ¯æłĪ
ï¼Į ä¹Ł
ï¼Į ä½ĵçİ°
ï¼Į æĽ¿
ï¼Į ä¾ĭå¦Ĥ
ï¼Į éĩĩçĶ¨
ãĢĤ è¯¥
ç» Ĩ
ç» ķ
åĪ Ĭ
åĪ ·æĸ°
çļĦ ä¿¡æģ¯
çļĦ å®Įæķ´
çļĦ å¼ĤæŃ¥
è¯ ¦
ä½ Ĩ
è® ®
ïĤ· åľ¨
ïĤ· åĬł
ïĤ· å»ºç«ĭ
ïĤ· ç¼ĸåĨĻ
ïĤ· å¼ķåħ¥
ïĤ· åıĳè¡¨
at es
at ure
re s
re am
æĺ¯ ä»Ģä¹Ī
æĺ¯ å°Ĩ
ä¸İ åı¯å¤įçİ°
ä¸İ ä»¿çľŁ
æµ ·
æµ ĵåº¦
æİ Įæı
ï¼ļ å¯¹
ï¼ļ å®īåħ¨
ï¼ļ éĿ¢è¯ķ
ï¼ļ ãĢĬ
çĲĨ å·¥
åĪĨ åıĳ
æ¨¡ æĭŁ
åı¯ å±ķç¤º
åı¯ ç»´æĬ¤
æķ°æį® çļĦ
æķ°æį® æİ¥
æķ°æį® åĪĨæŀĲ
åıĬ çĶŁäº§
åŀ ¢
åĨ ²
ĠA pp
ĠA ir
ĠA gent
ä¸į å®īåħ¨
æĪĲ åĪĨ
æĪĲ æŀľ
åĮĸ å·¥
ro ach
and ing
å¼Ģ å§ĭ
çĶŁ åĳ½
åŃ¦ ä¸ļ
Web hook
ä»¥åıĬ WebSocket
Ġre al
ä¸ª äºº
è¯ģ ä¹¦
åĲĪ ä½ľ
è´ ¦æĪ·
AI çĶŁæĪĲ
AI åħ¨æłĪå·¥ç¨ĭå¸Ī
et y
et aMask
ĠS oftware
ĠS patiotemporal
ĠS LAM
ĠC onfig
å¾ ħ
åıĤ èĢĥ
ä»£ ä¸įå®īåħ¨
æľįåĬ¡ ä»¥åıĬ
æľįåĬ¡ è¾¹çķĮ
ç§ ģ
ä½ľ çĶ¨
åĪĨæŀĲ ä»¥åıĬ
Ġf ull
åİ »
åİ Ĥ
ç»ĵ åŀ¢
å¹¶ æıĲåįĩ
é¢Ħ éĺ²
å®īåħ¨ æĢ§
å®īåħ¨ çĽĳç®¡
ç´ ł
æĸ° åĨłåĨĽ
æĮģ ç»Ń
ĠE mbedding
ç»ı è¿ĩ
SQL è¿ģç§»
ä¸ĭ çļĦ
ä¸ĭ éĻį
è®Ńç»ĥ æķ°æį®
è®Ńç»ĥ æ¨¡åŀĭ
é£İ æł¼
è¿Ľ åº¦
Ġd rone
é£İéĻ© è¯Ħä¼°
æĸĩä»¶ åħĥæķ°æį®
éħį å¯¹
ï¼ī åĪĨæŀĲ
åıĺ æĽ´
ï¼Ī S
pr int
åĲİç«¯ æľįåĬ¡
åĲİç«¯ æŀ¶æŀĦ
æľŁ åĪĬ
é«ĺ æķĪ
.js on
æĶ¯ ä»ĺ
èĩª çĽ¸åħ³
èĩª æ²»
äº¤ æĺĵ
un k
çĽ¸åħ³ æĢ§
ä»»åĬ¡ å¤ĦçĲĨ
ĠB ased
å¤§ è¯Ńè¨Ģæ¨¡åŀĭ
ãĢģP BKDF
ãĢģP risma
äº§ çĶŁ
äº§ å±ķç¤º
åįķ åıĺéĩı
äºĨ ä¸Ģä¸ª
è¿ŀ ç»Ń
æºĲ ä»£çłģ
ĠF iber
ĠF ore
Ġst ate
éĢļå¸¸ çĶ¨äºİ
ĠN ew
ç»Ħ æĪĲ
éĽĨæĪĲ æµĭè¯ķ
ä¸» æĪĲåĪĨ
æŃ£ ç¡®
ïĤ·åıĤä¸İ åºĶæĢ¥ç®¡çĲĨ
é¢Ħæµĭ çłĶç©¶
è¿ŀæİ¥ çĶŁåĳ½
è¿Ľè¡Į æķ°æį®
WebSocket èģĬå¤©åĲİç«¯
ist rib
éĴ ¥ä¸İ
åħ¨æłĪ AI
æĦı è¯Ĩ
éħįç½® ä»¥åıĬ
ĠM odel
èµĦ äº§å±ķç¤º
åħ¬ åı¸
è¯Ńä¹ī æĲľç´¢
======== čĊ
è·¯ çĶ±
å±ķç¤º äºĨ
af ety
æķħ é¢Ħéĺ²
å®ŀæĹ¶ éĢļä¿¡
å®ŀæĹ¶ WebSocketèģĬå¤©åĲİç«¯
åīįç«¯ çķĮ
ç½ĳ åħ³
çĽĳæİ§ æĸ¹æ¡Ī
æĶ¹ åıĺ
éĺ² çģ«
ï¼Įä½ ł
ç©º æ°Ķ
äº¤äºĴ æµģç¨ĭ
åľºæĻ¯ ä¸ĭçļĦ
ç»Ļ æĪĳ
è®¿éĹ® æİ§åĪ¶
æİĴ è¡Į
ĠCompose ä»¥åıĬ
ä¸ļåĬ¡ æľįåĬ¡
Ġn q
ç¦» æķ£
æ® ĭå·®
Ġg ener
äºĭ æķħé¢Ħéĺ²
å¯Ĩ éĴ¥ä¸İ
ĠçļĦ çħ¤çŁ¿
è¯¯ æĬ¥
æł¸å¿ĥ æľŁåĪĬ
èĩ³ PostgreSQL
å£ °
çģ ¾
Ġte st
Ġte am
ãĢģN estJS
ãĢģN ext
ä¼ł éĢĴ
æµģå¼ı API
å¾®æľįåĬ¡ å¹³åı°
å¾Ĺ åĪ°
ant is
Ġsc enario
éľĢæ±Ĥ çĲĨè§£
èģĬå¤© åİĨåı²
ïĤ·æŀĦå»º äºĨä¸Ģä¸ª
å¸Į æľĽ
çĵ¦æĸ¯ æµĵåº¦
Ġä¸ª ä¸»æĪĲåĪĨ
ãĢģå®īåħ¨ çĽĳæµĭ
åĽ½ å®¶
é¢ĨåŁŁ çŁ¥è¯Ĩ
ãĢģM ySQL
ãĢģM ongoDB
ïĤ·D esign
ç¨³å®ļ æĢ§
ĠRe quest
ïĤ·è®¾è®¡ äºĨ
éĩĩ æł·
è·¯å¾Ħ çļĦæĥħåĨµä¸ĭ
é©±åĬ¨ çļĦ
ast API
ãĢģæķ°æį®åºĵ è®¾è®¡
ä¸¤ ä¸ª
ç§ĳçłĶ é¡¹çĽ®
æķĪæŀľ è¯Ħä¼°
cont ent
æ¼ ı
ãĢģAI ä»£çłģåĪĨæŀĲ
ãĢģé£İéĻ© é¢Ħæµĭ
éĻĲæµģ æľºåĪ¶
================ ========čĊ
å¯Ĩçłģ åĵĪå¸Į
ç¬¦ åĲĪ
çģ« çģ¾
çĵ¦æĸ¯çĪĨçĤ¸é£İéĻ©é¢ĦèŃ¦ çłĶç©¶
å¤©æ´¥ çĲĨå·¥
æļ ´éľ
GORM æĮģä¹ħåĮĸ
è½¬æį¢ ä¸º
è£ ħ
ä¸ŃéĹ´ ä»¶
åĮºåĿĹéĵ¾ äº¤äºĴ
ç¥ŀç»ı ç½ĳç»ľ
éĢĲ æŃ¥
æĢĿ ç»´
ç«ŀ æĢģ
ä¸Ńæĸĩ æł¸å¿ĥæľŁåĪĬ
æıĲç¤º è¯į
å¿« éĢŁ
æĸ°çĸĨ å¤§åŃ¦
ãĢģä½¿çĶ¨ éĩı
ï¼Įæ¶ µçĽĸ
çļĦWebSocket æ¶Īæģ¯
çĽ¸ä¼¼ åº¦
æĸĩä»¶åŃĺåĤ¨ æľįåĬ¡
Ġapplication s
è¯Ńä¹īçº§ ä»£çłģ
æķħéļľæ£Ģæµĭä¸İ è¯ĬæĸŃ
æĪ¿éĹ´ ç®¡çĲĨ
Ġsystem s
çī© è¿ĩç¨ĭ
éļı æľº
åĳ¨æľŁ ç®¡çĲĨ
itbucket ä»£çłģä»ĵåºĵ
AU C
èģļåĲĪ çī©è¿ĩç¨ĭ
cast ing
par ation
åĪł éĻ¤
éĽĨä¸Ń éħįç½®
ç¡¬ ç¼ĸçłģ
æĹłæķĪ JSON
uer y
Ġèĩ³ ä»Ĭ
ï¼Įä¸Ģä¸ª åŁºäºİ
ï¼ĮæĽ¿ ä»£ä¸įå®īåħ¨
ãĢĤè¯¥ é¡¹çĽ®
ïĤ·åĬł æ·±
æİĮæı ¡
ï¼ļå®īåħ¨ å·¥ç¨ĭ
ï¼ļéĿ¢è¯ķ åı¯å±ķç¤º
åı¯ç»´æĬ¤ æĢ§
æķ°æį®æİ¥ åħ¥
ĠApp roach
åŃ¦ä¸ļ å¥ĸåŃ¦éĩĳ
è´¦æĪ· ç®¡çĲĨ
èĩªæ²» åĮº
ĠFore casting
è¿ŀæİ¥çĶŁåĳ½ åĳ¨æľŁç®¡çĲĨ
èµĦäº§å±ķç¤º åıĬ
åīįç«¯çķĮ éĿ¢
éĺ²çģ« æľį
ç©ºæ°Ķ è´¨éĩı
ĠçļĦçħ¤çŁ¿ çĵ¦æĸ¯çĪĨçĤ¸é£İéĻ©é¢ĦèŃ¦
å¤©æ´¥çĲĨå·¥ å¤§åŃ¦
æļ´éľ ²
ï¼ĮæĽ¿ä»£ä¸įå®īåħ¨ çļĦ
- on
E mbedding
L P
Q uery
_ V
a y
c i
c ord
g ith
i e
i an
l ib
m an
o d
o ol
p end
p iral
s u
s or
s ure
t ack
u de
u ran
v ents
x ed
{ term
´ å¹³
» è§ī
½ åľ°
ç ¢
é ¦
Ġ or
Ġ it
Ġ åĲİ
Ġ ID
Ġ Git
Ġ RAG
Ġ out
ģ æŃ¢
ī åıĬ
ı æĦŁ
ı è§Ī
ĳ å®ļ
Ķ åĽŀ
ä¸ Ķ
ãĢģ g
ãĢģ è¡Į
ãĢģ React
åı ¥
ï¼Į ä¸İ
ï¼Į èĥ½
ï¼Į æľī
ï¼Į æĹ¶éĹ´
ï¼Į åĲĮæĹ¶
ï¼Į éģ¿åħį
ï¼Į åĨį
ï¼Į éĢĤåĲĪ
ç» ĳå®ļ
çļĦ éĹ®é¢ĺ
çļĦ ç®ĢåİĨ
åĬ ¿
äº ī
åĲ Ĺ
æķ ıæĦŁ
ä½ Ļ
è¿ ĶåĽŀ
å¤ ´
ïĤ· L
at ing
re p
re ct
or er
ä¸İ å·¥ç¨ĭ
ä¸İ çľŁå®ŀ
æµ ıè§Ī
al let
å·¥ åľ°
åĪĨ ä¸º
æķ°æį® å¤ĦçĲĨ
åıĬ ç»ĵæŀľ
ä¸į è¦ģ
å¸ ¦
æĪĲ åĳĺ
å¹ »è§ī
å®ŀ è·
ar m
ro m
ro ute
ro duc
åį ģ
Ġc la
Ġc ap
ic ip
çİ° æľī
çŃ Ľ
åĲİ æīį
lo cal
Ġre mo
æİ¥ è¿ĳ
æıĲ åıĸ
æľī åºı
ĠS QL
å¾ Ī
æľįåĬ¡ è°ĥçĶ¨
è¡Į ä¸ļ
ä½¿çĶ¨ çļĦ
Ġf e
é¡¹çĽ® ç±»åŀĭ
è° ¢
è¡¨ è¾¾
Ġin stru
Ġin dustrial
ä¸Ĭ ä¼ł
em ory
em ant
ĠE Charts
åħ¥ åı£
Ġd ash
Ġb u
è½ »
art icip
æ±Ĥ èģĮ
èĩª çĶ±
æŁ¥ æī¾
åĬł åħ¥
åĬł è½½
Ġt r
åĲĮ ä¸Ģ
æľĢ å°ı
ä½ĵ éªĮ
Ġw h
Ġw allet
åįķ ä½į
co ver
å¹³ åĿĩ
ate g
ï¼ĮåĮħæĭ¬ æ¨¡åŀĭ
ĠF ull
Ġst ream
ĠN um
çĶ¨æĪ· ä½ĵéªĮ
æİ¨ å¹¿
ï¼Įä¸į éľĢè¦ģ
ĠT IMEOUT
Ġen v
èģĮ ä¸ļ
å°ı æĹ¶
la ude
æĮĩ ä»¤
ç¦ ģæŃ¢
åıª èĥ½
è®¡ç®Ĺ æľº
Open AI
åīįç«¯ å¼Ģåıĳ
çľŁ æŃ£
å¼ķ çĶ¨
ç§ĳ åŃ¦
å¢ŀ å¼º
um an
TT L
om ain
Ġg uard
æ° ´å¹³
æ¨¡åĿĹ åĮĸ
ang u
-st ack
ä¼ĺåħĪ çº§
Ġsc an
Ġdata base
ãĢģæķ°æį® å¤ĦçĲĨ
Ġcon ne
sp ace
è¶ħ è¿ĩ
åĬ© äºİ
read iness
å±ŀ äºİ
ç¡®è®¤ ä¸Ģä¸ĭ
-S tack
çª Ĺ
èĻ ĳ
èĻ ļ
sc ent
Ġass ess
å®¡ è®¡
ĠU I
Ġinter action
èĢĥ èĻĳ
ç¬¬ ä¸ī
Ġsupport ing
å±Ģ éĥ¨
fer ence
Ġcom mit
ãĢģJava Script
å¹´ ä»¥ä¸Ĭ
Ġcover ing
æĶ¯æĮģè¿ľç¨ĭ åĬŀåħ¬
Ġworkflow s
èİ· å¾Ĺ
æĻºæħ§ å·¥åľ°
è¿Ńä»£ äº¤ä»ĺ
Ġdeliver y
old out
èĲ ½åľ°
Ġschem a
Ġconsist ency
åĨ² çªģ
Ġscenario s
ïĤ·Design ed
gith ub
uran ce
æµıè§Ī åĻ¨
åıĬç»ĵæŀľ åı¯è§ĨåĮĸ
å®ŀè· µ
emant ic
Ġdash board
èĩªçĶ± èģĮä¸ļ
ĠNum Py
Ġconne ction
) ï¼ĽčĊ
- -
- re
- file
- readiness
. m
. )čĊ
/ O
/ p
/ API
@ q
A gent
D is
G IL
H S
K ey
M A
M AT
N LP
P ro
P rompt
_ P
_ T
_ or
_ pat
_ local
a pe
c all
c rum
e ar
f or
f ill
g ist
i or
l ing
l ision
n p
n er
n or
n ess
r c
v id
¢ éĺħ
® åĬ©
¹ è®Ń
å Ķ
æ Ł
Ġ &
Ġ k
Ġ ä»¥åıĬ
Ġ ä½¿çĶ¨
Ġ é¡¹çĽ®
Ġ Vue
Ġ artifact
Ĥ ç§»
ħ åĬ©
ĭ åĬ¿
ï¼ ģ
ãĢģ ä»»åĬ¡
ãĢģ è¯Ħ
ãĢģ æĢ§èĥ½
ãĢģ å¤±è´¥
ãĢģ çī¹å¾ģ
ãĢģ åĽŀå½Ĵ
ãĢģ ç»Ħç»ĩ
ãĢģ åĪĨæŀĲä¸İ
ï¼Į åı¯
ï¼Į åľ¨
ï¼Į å¤ļ
ãĢĤ å¦Ĥæŀľ
åħ ħ
åħ Ń
ç» į
çļĦ æ¨¡åŀĭ
çļĦ ç³»ç»Ł
çļĦ åħ³ç³»
çļĦ è¯·æ±Ĥ
çļĦ åħ¨èģĮ
er ing
on ment
å¤ ª
è® ¢éĺħ
ïĤ· In
en g
ĠĠĠĠ ĠĠĠĠĠĠĠĠĠĠĠ
re ss
æĪ ª
", "
æķ° åĢ¼
æĺ¯ ä¸Ģä¸ª
éĩ Į
al ization
ed ge
it ed
æķ°æį® è¿Ľè¡Į
åĽ Ľ
è¡ ¥
Ġ" {}
ĠA ctuator
äºİ ç®Ģåįķ
å¸ ®åĬ©
åıĳ éĢģ
ro un
ä¸Ģ å®ļ
ä¸Ģ ç»Ħ
ä¸Ģ éĶ®
åį Ĭ
åį ł
æ¨¡åŀĭ åıĤæķ°
Ġs ol
Ġs afety
Ġs emantic
ation s
le m
le s
le mentation
åŁ ¹è®Ń
and id
è¾ ħåĬ©
Ġc onfig
ä¸Ń æľŁ
ä¸Ń å¿ĥ
åĲİ çļĦ
lo ck
è®¡ æķ°
è¿ĩ æľŁ
åºĶ è¯¥
Ġre fin
ä¸ª å²Ĺä½į
æľ¬ ç§ĳ
æľī ä»Ģä¹Ī
æĶ ¿
éĺ ³
éĺ »
æī ¹
æĭ Ĩ
et rics
ĠS wagger
te amm
te xt
æŃ ¤
Ġp er
Ġp latform
ç§ ¯
Ġf leet
å¸¸ è§ģ
åĲĳ ä¼łæĴŃ
æĻ °
SQL ite
æģ ¶
è®Ńç»ĥ æł·æľ¬
è¿Ľ åħ¥
Ġb e
Ġb us
se ed
orm alization
æ± ł
ig ence
è½ ®
ï¼Ī SC
åĲİç«¯ æķ°æį®
èĢ ¦
æľŁ éĹ´
åĩº çİ°
äº¤ åıī
Ġde t
åģ ĩ
è· Ł
Ġt asks
ä½ĵ å·¥ä½ľ
æķ´ ä½ĵ
if est
å¥ Ĺ
åįķ çĭ¬
co ll
éĶ Ģ
ä½İ é£İéĻ©
æĬĢæľ¯ æĸ¹æ¡Ī
è¶ ĭåĬ¿
Ġst orage
ĠN estJS
éªĮè¯ģ éĽĨ
ä¸» ä½ĵå·¥ä½ľ
æİ¨ åĬ¨
å¤© çĦ¶
éĻį ç»´
åħĥ ç´ł
å½ĵåīį åĨłåĨĽ
çŃĶ æ¡Ī
ol lision
è¯į è¡¨
å°ı è§Ħæ¨¡
è¡¨ç¤º æ¨¡åŀĭ
ir onment
éģ ĵ
å°± åı¯ä»¥
Ġimp ort
Ġimp lementation
Ch unk
ï¼Įä½¿ åħ¶
ç»Ļ æĤ¨
è½¯ä»¶ ç³»ç»Ł
å®Įæķ´ çļĦ
éĶ® åĢ¼
ON N
äºĭ åĬ¡
Ġse en
æĿ¥ èĩª
çĭ¬ç«ĭ çļĦ
": "
åıį åĲĳä¼łæĴŃ
-t ime
å¾®æľįåĬ¡ æŀ¶æŀĦ
æľª æĿ¥
ï¼Įä»¥ éĻįä½İ
åİŁ åĪĻ
åİŁ å§ĭ
xp ress
Ġlo ck
æ¯ı å¤©
çĦ¶ åĲİ
velop ed
over nor
ï¼ĮèĢĮ ä¸įæĺ¯
all back
åĨ³ çŃĸ
éģ¿åħį éĩįå¤į
Ġl en
è¿ĺ æľī
åĽ´ ç»ķ
ïĤ·P articip
æ¸ħ æĻ°
æĬķ åħ¥
èģĶ ç³»
çº¦ æĿŁ
éĹ®çŃĶ ç³»ç»Ł
å·²ç»ı å®ĮæĪĲ
ç§ĳçłĶ ä¸»ä½ĵå·¥ä½ľ
/m antis
LA B
åĮ¹éħį åº¦
æ¼ Ĥç§»
ï¼Įä¸º åĲİç»Ń
ïĤ·A dd
Ġch eck
Te chnical
æļ Ĥ
ï¼Įè¿Ļ ä¸ªå²Ĺä½į
åĪĩ åĪĨ
ä»¥ä¸Ĭ çļĦåħ¨èģĮ
åĵªäºĽ æĸĩä»¶
ç¥ŀç»ı åħĥ
åĪĿ å§ĭ
å®¢æĪ·ç«¯ ä¸İ
ead er
ïĤ·E valu
ä¸ºä»Ģä¹Ī éľĢè¦ģ
æľĢé«ĺ çļĦ
not ation
tell igence
unt ime
ä»ĭ ç»į
learn ed
Ġcont rol
Ġreview er
ç´¯ è®¡
/t asks
Ġv is
å½¢ æĪĲ
è¿Ľä¸ĢæŃ¥ æ²ŁéĢļ
Ġrespon s
æ¿Ģ æ´»
res ent
istrib ution
-on ly
çŃĽ éĢī
è½» éĩı
Ġwh ile
Ġstream ing
Ġenv ironment
å°ıæĹ¶ ä»¥ä¸ĬçļĦåħ¨èģĮ
angu age
çªĹ åı£
.m d
@q q
Dis cord
_or acle
_pat h
crum b
Ġconfig ur
è¿ĩæľŁ æĹ¶éĹ´
Ġrefin ement
teamm ate
Ġbus iness
coll ision
ïĤ·Particip ated
ç§ĳçłĶä¸»ä½ĵå·¥ä½ľ å·²ç»ıå®ĮæĪĲ
ïĤ·Add ed
å°ıæĹ¶ä»¥ä¸ĬçļĦåħ¨èģĮ æĬķåħ¥
" čĊ
( f
+ +
- a
- cont
. a
/ h
/ Redis
/ Spring
/ WebSocket
/ ang
/ pgvector
/ åĽŀæ»ļ
A L
C PU
D E
H P
I V
L earn
M E
M y
N ode
O D
O LO
R O
R RE
R IM
S HA
U I
V a
W ork
Y OLO
Z ook
_ a
_ b
_ v
_ RE
_ CU
c onfig
c andid
d iver
d istribution
e val
e ureka
e veloped
f leet
i v
i ent
i lo
k y
m in
m ess
n al
o us
o tell
s model
s ky
t lib
y Torch
¡ ŀ
¡ éªĮ
¤ ä¸İ
¥ æľī
¦ ľ
¨ ģ
© éĺ
© åº¦
¬ ä¸Ĭ
® ä»¶
¯ ä¸Ģ
¯ å¥½
° å¯
± ç³»
µ æ´»
¼ åĲĪ
å ĸ
å ¡ŀ
å ¨ģ
æ ĳ
æ ¦ľ
é Ł
Ġ (
Ġ >
Ġ {
Ġ å
Ġ at
Ġ æķ°æį®
Ġ åĲĪ
Ġ åīį
Ġ ç³»ç»Ł
Ġ un
Ġ éªĮè¯ģ
Ġ åıª
Ġ å¦Ĥæŀľ
Ġ Kafka
Ġ job
Ġ Gemini
Ġ json
Ġ çĨŁæĤī
ĺ è¦ģ
Ļ æĢģ
ļ æľª
ä¸ ľ
ä¸ °å¯
ãĢģ d
ãĢģ åĪĨ
ãĢģ é¡¹çĽ®
ãĢģ ä¾Ŀèµĸ
ãĢģ éĩįå¤į
ãĢģ å®ŀéªĮ
ãĢģ æĪĲæľ¬
ãĢģ è·¨
ãĢģ èº«ä»½è®¤è¯ģ
ãĢģ åİ»
ãĢģ æĪĲåĳĺ
ãĢģ æĬĢæľ¯æĸ¹æ¡Ī
åı ·
ï¼Į ä½¿çĶ¨
ï¼Į Java
ï¼Į RAG
ï¼Į ç»ĵåĲĪ
ï¼Į æĺİç¡®
ï¼Į å¯¼èĩ´
ï¼Į åĽłä¸º
ãĢĤ ä¸į
ãĢĤ ä½¿çĶ¨
æľ Ī
åħ «
åħ ¸
ç» Ŀ
ç» ¼åĲĪ
çļĦ åĪĨæŀĲ
çļĦ é¡¹çĽ®
çļĦ è§£
çļĦ æķ°æį®åºĵ
çļĦ åĢ¼
çļĦ æŀ¶æŀĦ
çļĦ åĨħå®¹
çļĦ æł¸å¿ĥ
åĬ ±
æĸ ½
äº Ķ
æķ Ļ
ïĤ· AI
ïĤ· Re
ïĤ· Python
ïĤ· Git
at ive
at plo
at smodel
re ak
æĺ¯ æ¨¡åŀĭ
æĺ¯ çĶ¨äºİ
å· ¦
st acle
ä¸İ å®īåħ¨
ä¸İ éªĮè¯ģ
æµ ®
æł ¡éªĮ
ed ian
æ¨¡ æĿ¿
æĢ »
åı¯ çĶ¨
æķ°æį® ç»ĵæŀĦ
åıĬ é¡¹çĽ®
åıĬ ä¹ĭ
åĨ ¯
ĠA RIM
è§ Ĩ
æĪĲ çĨŁ
åıĳ çĶŁ
åıĳ ç»ĻæĤ¨
ï¼Ł å¦Ĥæŀľ
é¢ ĳ
ent ly
ro duction
æ¨¡åŀĭ è°ĥçĶ¨
de pend
de scent
å° ļæľª
and as
is ited
Ġc or
ä»Ģä¹Īæĺ¯ S
ä»Ģä¹Īæĺ¯ Python
ä»Ģä¹Īæĺ¯ æĸĩæľ¬
as el
ch ain
ch ron
è¿ĩ æ»
åŁº æľ¬
Ġre ad
Ġre ference
Ġre distribution
æĶ »
æ³ ¢
æĭ ¥æľī
ĠC STR
å¾ ĭ
æľįåĬ¡ çļĦæŀ¶æŀĦ
Ġp ath
å¼Ģåıĳ å·¥ç¨ĭå¸Ī
Ġf orm
Ġf low
ç»Ł ä¸Ģ
å¸¸ çĶ¨çļĦ
å»º è®¾
éĿ ĻæĢģ
ĠP resent
ĠP andas
éĽĨ åŀĭ
è° ±ç³»
è¡¨ çİ°
èĥ½åĬĽ ä¸İ
ä¸Ĭ çļĦ
ä¸Ĭ éĿ¢
ĠE vents
åŃĺ åľ¨
è°ĥ æķ´
Ġm emory
å¤ļ ç§į
ri k
åĻ ª
çĽ¸ åĲĮ
å¤ĦçĲĨ çļĦ
ut ed
ut om
Ġb o
Ġb reak
è®¾ å®ļ
è®¾ ç½®
è®¾ å¤ĩ
ig h
ub y
åı¯ä»¥ åľ¨ä¸į
gre ss
èĢ Ĺ
æľŁ å¾ħ
çº¿ ä¸Ĭ
Ġa utom
åĽŀ æº
ag n
un ction
Ġde tection
pp end
Ġt ask
Ġt ime
çŃī åĬŁèĥ½
æµĭè¯ķ éĽĨ
çŁ ©éĺ
ĠB ullMQ
å¤§ å°ı
æķ´ ä¸ª
æĬĢ èĥ½
éľĢè¦ģ æĽ´
éľĢè¦ģ æİĮæı¡
æĽ´ åĬł
æĽ´ éĢĤåĲĪ
åľ° çĤ¹
åįķ çº¿ç¨ĭ
æ³¨ åħ¥
ç¡® å®ļ
æĪĳ çĽ®åīį
åıĤæķ° æĽ´æĸ°
ĠF CCU
Ġst rik
éĢļå¸¸ æĮĩ
ud it
ï¼Įå¹¶ ä½¿çĶ¨
ï¼Įå¹¶ éĢļè¿ĩ
æİ¨ è¿Ľ
æİ¨ éĢģ
æĻºèĥ½ ç³»ç»Ł
ib ility
å½ĵåīį ä½įç½®
ĠT ransformer
ual ization
äºº æľº
ist ant
ol low
éĴ Ī
Ġen sure
RE AD
Ġpro mpt
Ġpro cess
åĲĳéĩı è¡¨ç¤º
æ¶Īæģ¯ ä¼łéĢĴ
ĠM ountain
ĠM atplo
iz er
è¯Ńä¹ī æ£Ģç´¢
éķ¿ æĹ¶éĹ´
Âł Python
å²Ĺä½į æııè¿°
Ġan sw
å·² æľī
åħ¶ä»ĸ ä»»åĬ¡
Ch ain
æĹł äººæľº
çĬ¶æĢģ ç®¡çĲĨ
åĽł æŃ¤
åľºæĻ¯ çļĦ
è½¯ä»¶ äº¤ä»ĺ
el sky
æĬĬ ç®ĢåİĨ
ä¼ļ è¯Ŀ
æĿĥ å¨ģ
out er
Ġse curity
å¯Ĩ éĽĨåŀĭ
åĩĨ ç¡®
ä½įç½® ç¼ĸçłģ
eep er
åıį é¦
çģ µæ´»
å¹¿ æ³Ľ
å¤±è´¥ éĺ¶æ®µ
èī ¯å¥½
gg ing
æ¸ ©åº¦
äºĮ åĪĨç±»
ang Chain
æĮģä¹ħåĮĸ åŃĺåĤ¨
æ²ŁéĢļ èĥ½åĬĽ
è¾ĵåħ¥ ä¸İ
åŁºç¡Ģ èĥ½åĬĽ
é© ¬ä¸Ĭ
æĺ¯åĲ¦ æĶ¯æĮģè¿ľç¨ĭåĬŀåħ¬
Ġrep roduc
æ¯ı æ¬¡
ĠR outer
è¿Ĳè¡Į æĹ¶
ï¼ĮèĢĮ ä¸į
èĭ ¥
ïĤ·D ata
ïĤ·D eveloped
ç¨³å®ļ çļĦ
ip le
ĠRe view
å¥ĸ åĬ±
ä»· æł¼
ï¼Įå¸¸ è§ģ
Token izer
çĿ Ģ
åŃĹ èĬĤ
æ¢¯åº¦ ä¸ĭéĻį
sh ape
Ġth e
ution s
å¼Ĥå¸¸ æ£Ģæµĭ
-S ent
-S HA
/m etrics
ma x
å¯¼èĩ´ çļĦ
è®© æĪĳ
Ġch at
tegr ated
Te ch
lan e
ĠH otell
Ġcl ue
Ġfront ier
è£ Ĥ
ç²¾ ç®Ģ
ãĢģå¼ĤæŃ¥ å¤ĦçĲĨ
ç«ŀ äºī
Ġcomp le
ĠSt ack
æ¦Ĥçİĩ åĪĨå¸ĥ
ow n
Ġseed s
not ification
éĤ £
éĤ ®ä»¶
åĲĪå¹¶ åĪ°
éĺħ è¯»
ç¼ĸç¨ĭ è¯Ńè¨Ģ
Lo RA
Lo ss
yn chron
red i
ĠSe curity
Ġmult iple
åģı å·®
åģľ æŃ¢
æ·· åĲĪ
Ġnot ification
æ³ĽåĮĸ èĥ½åĬĽ
-b ased
ç¿ »
Ġvalid ation
Ġmess age
èĩªçĦ¶ è¯Ńè¨Ģ
Ġproject s
çī¹å®ļ ä»»åĬ¡
Ġmaintain ability
-d rone
Val ue
_d ata
qu i
æİĴè¡Į æ¦ľ
Ġtest s
Ġremo te
Ġtr ack
èĻļ æĭŁ
Ġassess ment
ç¬¬ä¸ī æĸ¹
å®ŀè·µ ç»ıéªĮ
ear er
vid ence
åĶ ¯ä¸Ģ
æŁ Ĳ
çļĦç³»ç»Ł æĢ§
ïĤ·In tegrated
Ġsol utions
éĺ» å¡ŀ
åģĩ è®¾
ONN X
æļĤ æĹ¶
ï¼Įè¿Ļä¸ªå²Ĺä½į æĺ¯åĲ¦æĶ¯æĮģè¿ľç¨ĭåĬŀåħ¬
ïĤ·Evalu ated
.a ppend
/ang elsky
IV E
RRE NT
Zook eeper
_CU RRENT
candid ates
ilo t
mess ages
åĸ Ħ
æĳ ĺè¦ģ
éŁ ³
ä¸°å¯ Į
ïĤ·Re view
atsmodel s
ĠARIM A
asel ine
åĽŀæº ¯
çŁ©éĺ µ
ĠMatplo tlib
æĬĬç®ĢåİĨ åıĳç»ĻæĤ¨
åıįé¦ Ī
ĠHotell ing
/angelsky diver
# ï¼Į
% čĊ
% ãĢģ
% ï¼Į
% ï¼Ľ
% ï¼ī
& A
( S
( )ï¼ĽčĊ
- c
- k
- s
- or
- learn
- space
- seed
- Learn
. .
. du
/ M
/ P
/ b
/ æ¨¡åŀĭ
/ ç±»
/ ä»ĵåºĵ
/ åĽ¢éĺŁ
/ ex
/ é£İéĻ©é¢ĦèŃ¦
/ éĩįå¤į
/ æľºåĻ¨åŃ¦ä¹ł
/ In
/ é¢ĨåŁŁ
/ WGAN
/ Gemini
/ è®¡è´¹
/ final
/ æĹ¶åºı
/ åĽ¢éĺŁç®¡çĲĨ
/ ç§ģ
/ GORMæĮģä¹ħåĮĸ
/ è´¦æĪ·ç®¡çĲĨ
/ èµĦäº§å±ķç¤ºåıĬ
/ YOLO
= F
A C
A SS
A ttention
B O
B itbucketä»£çłģä»ĵåºĵ
B earer
C OM
C laude
D D
D R
D e
D ro
E D
E R
E ureka
F T
F IT
F lyway
F uture
I F
I S
L DPE
L ay
N orm
P M
P ad
P ull
P BKDF
R uby
S wagger
S erver
S patiotemporal
S tripe
T h
T ypeScript
T ool
U L
U SUM
W S
W MA
_ _
_ m
_ as
_ co
_ final
a i
b or
c y
c ision
e ering
g et
g roun
h art
h ew
i us
i ents
l i
l in
l ask
l anding
m s
m on
n q
n iver
o ur
p ut
p rompt
p roduction
r it
r ateg
s QL
s ity
w w
w ord
y le
} )čĊ
¢ äºĮ
£ è
£ ģ
¤ å·¥ä½ľ
¥ °
¥ çĶ¨
¥ æł¼
§ Ľ
© ä½Ļ
ª ī
ª é©±åĬ¨
« æĥħ
¬ åĮĸ
¬ åĽŀ
® éĢļ
± åĮĸ
² ç»ıåİĨ
´ åĿ
µ Į
¶ å°
¸ è¡Įä¸ļ
¹ èĪ
¼ æİ¨è¿Ľ
½ ľ
¾ å°
¾ æŀĦå»º
¾ æ°Ķ
å µĮ
æ §Ľ
æ ½ľ
ç ĩ
ç £ģ
è Ĥ
é ¥°
ĉ æľĢé«ĺ
Ġ O
Ġ al
Ġ åĪĨ
Ġ å®ŀçİ°
Ġ æĪĸ
Ġ æŀĦå»º
Ġ âĢ
Ġ ç»´
Ġ çĶ¨æĪ·
Ġ end
Ġ è°ĥçĶ¨
Ġ æŀ¶æŀĦ
Ġ å¹³åı°
Ġ çĽĳæİ§
Ġ æį¢
Ġ äº¤äºĴ
Ġ è¿ĩç¨ĭ
Ġ æĲ
Ġ æĸ¹æ¡Ī
Ġ åĬŁèĥ½
Ġ æ·±åº¦åŃ¦ä¹ł
Ġ æĺ¯åĲ¦
Ġ æķħéļľæ£Ģæµĭ
Ġ è¶ħ
Ġ JSON
Ġ Zustand
Ġ çº¦
Ġ ç¡®è®¤
Ġ embedding
Ġ äº§åĵģ
Ġ éĴ±åĮħè¿ŀæİ¥
Ġ XSEC
Ġ åįıä½ľ
Ġ ç¬¬
Ġ ç©ºéĹ´
Ġ æĹ¶åºı
Ġ å¤ļåħĥ
Ġ å¹´
Ġ åİĤ
Ġ è¿Ľè¡Įæķ°æį®
Ġ è¯Ńä¹īæĲľç´¢
Ġ å®ŀæĹ¶WebSocketèģĬå¤©åĲİç«¯
Ġ å¾®æľįåĬ¡å¹³åı°
Ġ æķħéļľæ£Ģæµĭä¸İè¯ĬæĸŃ
Ġ å¥Ĺ
Ġ å°ıæĹ¶ä»¥ä¸ĬçļĦåħ¨èģĮæĬķåħ¥
Ġ æ¸©åº¦
Ģ åħ±
ģ æĢ§
Ĥ ¬åĮĸ
ĥ åľ
ĥ æ°Ķ
Ĩ æŀ¶
Ī åĢ¼
ī çŃī
İ å¸
ı çİ°æľī
Ĳ æĸĻ
ĳ çº¦
ĳ ç¿
Ĵ åĽ¢
Ķ èĩªæ²»åĮº
ķ å£«
ķ è§ģ
ĸ éĿ¢
ĺ é¡¹çĽ®
ĺ ä¹¦
Ŀ æ°Ķ
ł æĭŁåĲĪ
Ń å»º
ä¸ ¥æł¼
ãĢģ åıĳ
ãĢģ åį
ãĢģ åľ¨
ãĢģ åīį
ãĢģ ä»£
ãĢģ å®ļ
ãĢģ é«ĺ
ãĢģ åĬł
ãĢģ åıĤä¸İ
ãĢģ Go
ãĢģ API
ãĢģ å·¥ä¸ļ
ãĢģ UID
ãĢģ è¿ŀæİ¥
ãĢģ å½ĵåīį
ãĢģ è®¤è¯ģ
ãĢģ åĽ¢éĺŁ
ãĢģ WebSocket
ãĢģ æĬ¥åĳĬ
ãĢģ æĸĩæľ¬
ãĢģ è¿ľç¨ĭ
ãĢģ æİ¥åı£
ãĢģ å®ŀæĹ¶
ãĢģ æĸŃ
ãĢģ åıĺéĩı
ãĢģ çĬ¶æĢģ
ãĢģ çĶŁäº§
ãĢģ é£İéĻ©é¢ĦèŃ¦
ãĢģ éĴ±åĮħ
ãĢģ user
ãĢģ å¾®æľįåĬ¡
ãĢģ çŁ¥è¯Ĩ
ãĢģ æ·±åº¦åŃ¦ä¹ł
ãĢģ è¯·æ±Ĥ
ãĢģ éĵ¾
ãĢģ é¢ĨåŁŁ
ãĢģ æĮī
ãĢģ åĵįåºĶ
ãĢģ file
ãĢģ REST
ãĢģ Gateway
ãĢģ ä»£çłģä»ĵåºĵ
ãĢģ DeepSeek
ãĢģ æĮĩæłĩ
ãĢģ Gemini
ãĢģ éĴ±åĮħè¿ŀæİ¥
ãĢģ GORM
ãĢģ åıĳå¸ĥ
ãĢģ åĲ¯åĬ¨
ãĢģ èĭ±æĸĩ
ãĢģ å¹¶åıĳ
ãĢģ åı¯éĿłæĢ§
ãĢģ å·¥ä¸ļå®īåħ¨
ãĢģ å·¥ä½ľæµģ
ãĢģ åĽ¢éĺŁç®¡çĲĨ
ãĢģ åīįç«¯é¡µéĿ¢
ãĢģ ç»ĵæŀĦåĮĸ
ãĢģ å¹¿æĴŃ
ãĢģ å¤įæĿĤåº¦
ãĢģ RESTful
ãĢģ å°±ç»ªæ£ĢæŁ¥
ãĢģ è§Ĵèī²
ãĢģ æĬĢæľ¯æĸĩæ¡£
ãĢģ auth
ãĢģ Actuator
ãĢģ ç§ģ
ãĢģ åıĺæĽ´
ãĢģ æĶ¯ä»ĺ
ãĢģ äº¤æĺĵ
ãĢģ è¯Ńä¹īæĲľç´¢
ãĢģ ç½ĳåħ³
ãĢģ äºĭæķħé¢Ħéĺ²
ãĢģ éľĢæ±ĤçĲĨè§£
ãĢģ çĵ¦æĸ¯æµĵåº¦
ãĢģ ç§ĳçłĶé¡¹çĽ®
ãĢģ éĻĲæµģæľºåĪ¶
ãĢģ åĮºåĿĹéĵ¾äº¤äºĴ
ãĢģ ç«ŀæĢģ
ãĢģ æıĲç¤ºè¯į
ãĢģ è¯Ńä¹īçº§ä»£çłģ
ãĢģ æĪ¿éĹ´ç®¡çĲĨ
ãĢģ èģļåĲĪçī©è¿ĩç¨ĭ
ãĢģ éĽĨä¸Ńéħįç½®
ãĢģ æĹłæķĪJSON
ãĢģ è´¦æĪ·ç®¡çĲĨ
ãĢģ åīįç«¯çķĮéĿ¢
ãĢģ è¿Ńä»£äº¤ä»ĺ
ãĢģ np
ãĢģ SQLite
ãĢģ eureka
ãĢģ è®¾å¤ĩ
ãĢģ æ²ŁéĢļèĥ½åĬĽ
ãĢģ ä»·æł¼
ãĢģ å¼Ĥå¸¸æ£Ģæµĭ
ãĢģ notification
ãĢģ ç¬¬ä¸īæĸ¹
ãĢģ Zookeeper
ãĢģ çĩ
åı ¦
åı ³
åı Ĺ
åı ¬åĽŀ
ä» ¬
ï¼Į C
ï¼Į AI
ï¼Į åĪĨæŀĲ
ï¼Į æĸĩæ¡£
ï¼Į åıĤä¸İ
ï¼Į Go
ï¼Į Spring
ï¼Į Sc
ï¼Į å°±
ï¼Į å®ĮæĪĲ
ï¼Į æī«æıı
ï¼Į å½±åĵį
ï¼Į ä¸»è¦ģ
ï¼Į è¯ĨåĪ«
ï¼Į CU
ï¼Į DeepSeek
ï¼Į çłĶç©¶æĸ¹åĲĳ
ï¼Į åħ·å¤ĩ
ï¼Į è¿½è¸ª
ï¼Į å·¥åħ·
ï¼Į åľ¨ä¸į
ï¼Į è®Ńç»ĥéĽĨ
ï¼Į çĨŁæĤī
ï¼Į æıĲåıĸ
ï¼Į OpenAI
ï¼Į å¢ŀå¼º
ï¼Į MAT
ï¼Į Prompt
ï¼Į æİ¨åĬ¨
ï¼Į å½¢æĪĲ
ï¼Į æľŁå¾ħ
ï¼Į åĽłæŃ¤
ï¼Į Ruby
ãĢĤ ãĢĤ
ãĢĤ ç³»ç»Ł
ãĢĤ æĽ
ãĢĤ çĲĨè§£
ãĢĤ èĥ½å¤Ł
ãĢĤ åĲĮæĹ¶
ãĢĤ çĽ®åīį
çļĦ de
çļĦ AI
çļĦ Spring
çļĦ æĸ¹æ³ķ
çļĦ æľ¬åľ°
çļĦ æ¢¯åº¦
çļĦ å·¥ä¸ļå®īåħ¨
çļĦ èº«ä»½è®¤è¯ģ
çļĦ éĩįè¦ģ
çļĦ å®ŀæĹ¶WebSocketèģĬå¤©åĲİç«¯
çļĦ æµģå¼ıAPI
çļĦ å¾®æľįåĬ¡å¹³åı°
çļĦ éĻĲæµģæľºåĪ¶
çļĦ çĵ¦æĸ¯çĪĨçĤ¸é£İéĻ©é¢ĦèŃ¦çłĶç©¶
çļĦ æĹłæķĪJSON
çļĦ çĶ¨æĪ·ä½ĵéªĮ
çļĦ ç»¼åĲĪ
çļĦ è¯Ńä¹īæ£Ģç´¢
å® ĥ
å® ¤å·¥ä½ľ
er ature
äº «
åĲ ¾å°
ïĤ· Web
ïĤ· å¯¹
ïĤ· å®īåħ¨
ïĤ· å¤ĦçĲĨ
ïĤ· éĢļè¿ĩ
ïĤ· æıĲåįĩ
ïĤ· å·¥ä¸ļ
ïĤ· React
ïĤ· è¾ĵåĩº
ïĤ· Transformer
ïĤ· å®ĮæĪĲ
ïĤ· æł¹æį®
ïĤ· é£İéĻ©é¢ĦèŃ¦
ïĤ· PostgreSQL
ïĤ· è´Łè´£
ïĤ· æĹ¶ç©º
ïĤ· å¼Ģå±ķ
ïĤ· å·¥ä¸ļäººå·¥æĻºèĥ½
ïĤ· ä¸ŃåĽ½çŁ³æ²¹
ïĤ· èĩªæ²»åĮº
ïĤ· NLP
ïĤ· ç§¯
ïĤ· Technical
ïĤ· Work
en sor
at ic
çĽ Ĭ
ï¼Ľ éĩıåĮĸ
re el
re sh
æĪ ĺé¡¹çĽ®
æķ° æĹ¶éĹ´
æŀ ģ
or ing
or iz
éĢ ł
ä¸İ å¸¸
ä¸İ é¡¹çĽ®
ä¸İ Redis
ä¸İ éĹ®é¢ĺ
ä¸İ JWT
ä¸İ PostgreSQL
ä¸İ æķħéļľæ£Ģæµĭ
ä¸İ åĽŀçŃĶ
ä¸İ ç¼ĵåŃĺ
ä¸İ éĢļçŁ¥
ä¸İ çĪĨçĤ¸é£İéĻ©é¢ĦèŃ¦
ä¸İ çĥŃ
ä¸İ Gemini
ä¸İ åı¯éħįç½®
ä¸İ è¿Ĳç»´
ä¸İ çĻ»å½ķ
ä¸İ åıĳå¸ĥ
ä¸İ åĽ¢éĺŁç®¡çĲĨ
ä¸İ å·¥èīº
ä¸İ ä¸Ĭçº¿
ä¸İ æ³¨æĦıåĬĽæľºåĪ¶
ä¸İ è¯ģä¹¦
ä¸İ æĶ¯ä»ĺ
ä¸İ å®ŀæĹ¶éĢļä¿¡
ä¸İ ä¸ļåĬ¡æľįåĬ¡
ä¸İ GORMæĮģä¹ħåĮĸ
ä¸İ è®¢éĺħ
ä¸İ å¤©çĦ¶
ä¸İ èģĶç³»
ä¸İ Bitbucketä»£çłģä»ĵåºĵ
ä¸İ Flyway
æµ ªé©±åĬ¨
èĥ½ æºĲ
ï¼ļ åŁºäºİ
ï¼ļ å®ŀçİ°
ï¼ļ ä»ĵåºĵ
ï¼ļ Go
ï¼ļ Java
ï¼ļ React
ï¼ļ æ·±åº¦åŃ¦ä¹ł
ï¼ļ ä»ħ
ï¼ļ çŁ³æ²¹
ï¼ļ ä¸įä»ħ
ï¼ļ å·¥èīº
ï¼ļ AIåħ¨æłĪå·¥ç¨ĭå¸Ī
ï¼ļ config
ï¼ļ LDPE
ion al
al se
ä»¥ ä¸ĭ
å·¥ è´
å·¥ åĨµ
åĪĨ çīĩ
æĹ §
åı¯ è®Ńç»ĥ
åı¯ åıĺ
åı¯ è¿ŀæİ¥
åı¯ çĭ¬ç«ĭ
åı¯ çĶ¨çļĦ
åı¯ æŃ£å¸¸
åı¯ å®¡è®¡
æķ°æį® åĴĮ
æķ°æį® éĽĨ
æķ°æį® ç®¡çĲĨ
æķ°æį® éĽĨæĪĲ
æķ°æį® å»ºç«ĭ
æķ°æį® æķ´çĲĨ
æķ°æį® å½Ĵå±ŀ
æķ°æį® æĻºèĥ½ç³»ç»Ł
åıĬ åŁºäºİ
åıĬ é£İéĻ©
åıĬ çĽ¸åħ³
åıĬ åıĺéĩı
åıĬ åĲĦ
åıĬ æĸĩä»¶åŃĺåĤ¨
åıĬ è·¨
åıĬ æĬĢæľ¯æĸĩæ¡£
åıĬ ä¸ļåĬ¡éĢ»è¾ĳ
åıĬ çĽĳæİ§æĸ¹æ¡Ī
åıĬ äºĭæķħé¢Ħéĺ²
åıĬ åĮºåĿĹéĵ¾äº¤äºĴ
åıĬ èĥ½æºĲ
åıĬ æķ°æį®æĻºèĥ½ç³»ç»Ł
åŀ ĥåľ
æĸĩ åĳĺ
æĸĩ å¯Ĩçłģ
çł ´åĿ
åŀĭ åŃĺåĤ¨
åŀĭ åľºæĻ¯
ĠA ss
ĠA pplication
ä¸į éľĢè¦ģ
ä¸į è¶³
ä¸į å¤ª
äºİ è¿ŀæİ¥
å¸ ģ
æĪĲ ä¸º
åĮĸ ä¸º
åĮĸ åŃ¦ä¹ł
åĮĸ äº¤äºĴ
åĮĸ ä¸İåı¯å¤įçİ°
å®ŀ æĸ½
å®ŀ æĪĺé¡¹çĽ®
éĻ Ĩ
éĻ ¢äºĮ
æĹ¶ ä»»åĬ¡
ar ge
ar get
ä»Ģä¹Ī éĹ®é¢ĺ
ä»Ģä¹Ī éĥ½
ä¸Ģ è¡Į
ä¸Ģ ç§į
æ¨¡åŀĭ å¯¹
æ¨¡åŀĭ éĽĨæĪĲ
åħ¨ éĩı
åħ¨ æµģç¨ĭ
Ġs h
Ġs et
Ġs piral
Ġs rc
le ase
åŁ İå¸
éĩı è®¾å®ļ
is e
çĽ® å½ķ
Ġc at
Ġc ollision
ä»Ģä¹Īæĺ¯ R
mp erature
å¼Ģ æ¸ħçĲĨ
çİ° åľ¨
eb ook
æĢ§ åĴĮ
æĢ§ ä¸İéĥ¨ç½²
ä¸Ń ä½į
ä¸Ń çŃī
ä¸Ń è¿Ľè¡Į
ä¸Ń è¢«
ä¸Ń å¼ķåħ¥
åĩ »
åĲİ éĿ¢
åĲİ æľŁ
lo g
çĶŁ å¥ĸåŃ¦éĩĳ
çĶŁ åŃ¦ä¸ļå¥ĸåŃ¦éĩĳ
as es
ç½ ķè§ģ
ç³» æķ°
åĪ¶ åŃĺåĤ¨
åĪ¶ åħ¨æłĪ
åŃ¦ ä½į
è¿ĩ å¤§
åŁº éĩĳ
ä»¥åıĬ å·¥ç¨ĭ
ä»¥åıĬ Docker
ä»¥åıĬ Go
ä»¥åıĬ åĽ¢éĺŁ
ä»¥åıĬ æ¶Īæģ¯
ä»¥åıĬ åīįç«¯
ä»¥åıĬ å¤±è´¥
ä»¥åıĬ æľ¬åľ°
ä»¥åıĬ job
ä»¥åıĬ åĮºåĿĹéĵ¾
ä»¥åıĬ å·¥ä¸ļäººå·¥æĻºèĥ½
ä»¥åıĬ æĪ¿éĹ´
ä»¥åıĬ Webhook
ä»¥åıĬ AIçĶŁæĪĲ
ä»¥åıĬ å¤§è¯Ńè¨Ģæ¨¡åŀĭ
ä»¥åıĬ è®¿éĹ®æİ§åĪ¶
ä»¥åıĬ æĿ¥èĩª
ä»¥åıĬ ç¨³å®ļçļĦ
ä»¥åıĬ åĲİæľŁ
éĹ´ éĢļä¿¡
Ġre s
Ġre tri
Ġre duc
ä¸ª æľįåĬ¡çļĦæŀ¶æŀĦ
æİ¥ åĲİç«¯
åī ©ä½Ļ
åī ĸéĿ¢
æıĲ äº¤
æľ¬ èº«
åĲĪ çĲĨ
æľī è·¯çĶ±
ç«¯ åĪ°
ç«¯ Java
ç«¯ çĤ¹
åľ¨ ä½İ
åľ¨ LLM
åľ¨ ç½ĳ
åľ¨ åĲİç«¯æŀ¶æŀĦ
åľ¨ æĸ°çĸĨå¤§åŃ¦
åľ¨ äºİè¿ŀæİ¥
AI ç³»ç»Ł
AI å¤ĦçĲĨ
AI æĸĩæ¡£
AI åĽŀçŃĶ
AI åºĶçĶ¨å¼Ģåıĳ
AI ä»£çłģåĪĨæŀĲ
AI æĥ³
AI åħ¼å®¹
AI çļĦå®Įæķ´
AI é©±åĬ¨çļĦ
AI ä¸İå·¥ç¨ĭ
éĺ ĪåĢ¼
åħ³ èģĶ
æī ĳç¿
æĭ Ľ
et ro
et ry
æ£Ģ åĩº
æ£Ģ çİĩ
æĿ ĲæĸĻ
ĠS CI
ĠS tripe
ĠS ize
ĠS hew
ĠC I
ĠC omp
ĠC ET
åºĵ å¼Ģåıĳ
åºĵ éĹ®çŃĶ
æľįåĬ¡ è¿Ľè¡Į
æľįåĬ¡ çĽ´æİ¥
æľįåĬ¡ åĲ¯åĬ¨
æľįåĬ¡ çĭ¬ç«ĭçļĦ
æľįåĬ¡ éĹ´éĢļä¿¡
Ġp gvector
Ġp lan
Ġp ages
Ġp ract
Ġp redi
ä½¿çĶ¨ æİ§åĪ¶
ç§ °
ç§ Ģåħ±
ç§ ĺä¹¦
ä½ľ åĵģ
åĪĨæŀĲ çłĶç©¶
åĪĨæŀĲ åı¯è§ĨåĮĸ
åĪĨæŀĲ æĪĲæŀľ
åĪĨæŀĲ æºĲä»£çłģ
åĪĨæŀĲ çļĦçĶ¨æĪ·ä½ĵéªĮ
å¼Ģåıĳ æµģç¨ĭ
å¼Ģåıĳ æ¨¡å¼ı
Ġf ail
Ġf ollow
é¡¹ æ³¢
åİ ħ
å»º è¡¨
ç© ¿
éĿ ĴåĽ¢
ĠP ro
ĠP risma
ĠP ath
å¹¶ åŃĺåĤ¨
å¹¶ ä¿ĿæĬ¤
é¢Ħ æľŁ
ç®¡ æĬ¥åĳĬçĶŁæĪĲ
é¡¹çĽ® ä¸Ń
é¡¹çĽ® æĹ¶éĹ´
é¡¹çĽ® éľĢæ±Ĥ
é¡¹çĽ® ç»ıåİĨ
é¡¹çĽ® æııè¿°
é¡¹çĽ® è§Ĵèī²
å¯¹ æ¯Ķ
å¯¹ æīĢæľī
å¯¹ å®īåħ¨çĽĳç®¡
å¯¹ æİ¥åĲİç«¯
å·¥ç¨ĭ æĬ¥åĳĬ
å·¥ç¨ĭ è´¨éĩı
å·¥ç¨ĭ å·¥åħ·
å·¥ç¨ĭ æĬ¥åĳĬçĶŁæĪĲ
å·¥ç¨ĭ æĸ¹éĿ¢
å·¥ç¨ĭ æĢĿç»´
å·¥ç¨ĭ åľºæĻ¯çļĦ
å®ļ ä»·
å®īåħ¨ è®¾è®¡
å®īåħ¨ å·¥ä½ľ
å®īåħ¨ åľºæĻ¯
å®īåħ¨ çĽĳæµĭ
å®īåħ¨ åŁºçº¿
å®īåħ¨ æķıæĦŁ
åĲĳ åŀĭåľºæĻ¯
èĥ½åĬĽ æıĲåįĩ
èĥ½åĬĽ è½¬
èĥ½åĬĽ ç»ĦåĲĪ
Ġin depend
æĸ° çĶŁå¥ĸåŃ¦éĩĳ
éĥ¨ å¤©æ´¥
éĥ¨ éĹ¨
ä»£çłģ å®ŀçİ°
ä»£çłģ å½±åĵį
ä»£çłģ ä¸Ĭä¸ĭæĸĩ
ä»£çłģ æ¦Ĥ
ä»£çłģ æł¼å¼ı
ä»£çłģ å¼ķçĶ¨
ä¸Ĭ äº¤äºĴ
ä¸Ĭ èĪ
æ¡ Ĩæŀ¶
æĻ ®éĢļ
èģ ĺ
åĬ¨ æīĳç¿
åŃ¦ä¹ł çİĩ
åŃ¦ä¹ł åĨħå®¹
ĠE ureka
ç®¡çĲĨ æĸĩæ¡£
ĠAI åºĶçĶ¨
ĠAI é©±åĬ¨
ĠAI ä»£çłģæĻºèĥ½
åħ¥ ä¸İæ³¨æĦıåĬĽæľºåĪ¶
ç»ı å¸¸
è°ĥ åº¦
è°ĥ è¯ķ
ä½į æİ§åĪ¶
ä½į æııè¿°
Ġm e
Ġm od
éĩį æī«
æİ§ ä½ĵç³»
åŁºäºİ Redis
åŁºäºİ JWT
åŁºäºİ Kafka
åŁºäºİ WGAN
åŁºäºİ BullMQ
åŁºäºİ Server
Re call
å¤ļ æľº
å¤ļ éĺ¶æ®µ
å¤ļ æĹ¶éĹ´åºıåĪĹ
å¤ļ å®ŀä¾ĭ
å¼ı UI
æłĩ é¡¹çĽ®
æłĩ æ³¨
æłĩ è¯Ĩ
ç¡ ķå£«
è®Ńç»ĥ çĽ®æłĩ
è®Ńç»ĥ Loss
è¿Ľ åĪ¶åŃĺåĤ¨
çĶ¨äºİ èģĬå¤©åİĨåı²
ç³»ç»Ł è¿Ĳè¡Į
ç³»ç»Ł æĦıè¯Ĩ
ç³»ç»Ł å»ºè®¾
ç³»ç»Ł å®īåħ¨åŁºçº¿
ri v
Ġd i
Ġd is
å®ŀçİ° è®¤è¯ģ
å®ŀçİ° æĮĩæłĩ
å®ŀçİ° æľįåĬ¡åıĳçİ°
å®ŀçİ° éĽĨä¸Ńéħįç½®
å®ŀçİ° æľįåĬ¡éĹ´éĢļä¿¡
act ual
éľĢ æĸĩä»¶
å¤ĦçĲĨ æĸ¹å¼ı
å¤ĦçĲĨ ä»¥åıĬåŁºäºİ
åĻ¨ ç»ĵåŀ¢
è¯Ń æ³ķ
éĿ¢ çļĦç³»ç»ŁæĢ§
é£İéĻ© æİ§åĪ¶
é£İéĻ© å¹¶ä¿ĿæĬ¤
Ġb ase
Ġb ound
Ġb aseline
æĸĩä»¶ æĸĩæ¡£
æĸĩä»¶ åĨħå®¹
æĸĩä»¶ ç±»åŀĭ
æĸĩä»¶ æķ´çĲĨ
æĸĩä»¶ éĩįæī«
çłĶç©¶ é¡¹çĽ®
çłĶç©¶ æīĢ
çłĶç©¶ çĶŁåŃ¦ä¸ļå¥ĸåŃ¦éĩĳ
éħį é¢Ŀ
se paration
çĶŁæĪĲ åĻ¨
çĶŁæĪĲ åĽ¢éĺŁ
çĶŁæĪĲ embedding
ment s
æĪ· åı¯ä»¥
æĪĸ å¯¹æİ¥åĲİç«¯
ï¼ī åºĶçĶ¨
ï¼ī æĸĩæ¡£
ï¼ī ä½ĵç³»
ï¼ī çļĦæµģå¼ıAPI
ï¼ī ä»¥åıĬæĿ¥èĩª
ad d
ad er
ad ius
ul ar
åıĺ æį¢
æĽ Ŀæ°Ķ
ï¼Ī LLM
ï¼Ī çİ¯å¢ĥ
ï¼Ī HTTP
ï¼Ī Dexifier
ï¼Ī ä¸ªäºº
ï¼Ī ä¸Ńæĸĩæł¸å¿ĥæľŁåĪĬ
ï¼Ī æķħéļľæ£Ģæµĭä¸İè¯ĬæĸŃ
ï¼Ī ç´¯è®¡
ï¼Ī production
ï¼Ī æĽĿæ°Ķ
Redis çĬ¶æĢģ
Redis åħ¼å®¹
ub rics
åĲİç«¯ éĢ»è¾ĳ
åĲİç«¯ è¿Ľç¨ĭ
åĲİç«¯ å·¥ç¨ĭèĥ½åĬĽ
é«ĺ äºİ
é«ĺ çº§
art y
åĩº ä¿¡æģ¯
ĠAPI çļĦde
çº¿ æĢ§
çº¿ æ²ŁéĢļ
åĮħæĭ¬ React
åĮħæĭ¬ å·¥ä¸ļäººå·¥æĻºèĥ½
åĽŀ æĶ¶
äº¤ æį¢
æŁ¥ èĥ½åĬĽ
Ġde pth
åĬł æĿĥ
åĬł åĽº
ID ä¸ŃéĹ´ä»¶
åĨħ å®¡
è· Ŀ
Ġt er
ä¼ĺ ç§Ģåħ±
çĽ¸åħ³ çļĦ
çĽ¸åħ³ æµģç¨ĭ
çĽ¸åħ³ é¢ĨåŁŁçŁ¥è¯Ĩ
çĽ¸åħ³ ä»£çłģä¸Ĭä¸ĭæĸĩ
çĽ¸åħ³ åĲİç«¯éĢ»è¾ĳ
åĲĮ åĪ¶åħ¨æłĪ
çŃī æµģç¨ĭ
åºĶçĶ¨ æľįåĬ¡
åºĶçĶ¨ åĬŁèĥ½
åºĶçĶ¨ å·¥ç¨ĭæĸ¹éĿ¢
ot ion
ot ebook
æµĭè¯ķ ç»ıéªĮ
ĠB O
ĠB enchmark
æľĢ æĸ°
æľĢ å¤§
å¤§ è§Ħæ¨¡
Ġe l
Ġe xp
Ġe vidence
æĸĩæ¡£ èĥ½åĬĽ
æĸĩæ¡£ çĶŁæĪĲ
æĸĩæ¡£ æµıè§ĪåĻ¨
ãĢģP ull
ãĢģP HP
æķ°æį®åºĵ è¿ģç§»
æķ°æį®åºĵ ä¸İç¼ĵåŃĺ
çĤ īçŃī
æĶ¯æĮģ ä»¥åıĬåĲİæľŁ
Docker file
æŀĦå»º Docker
æŀĦå»º è°ĥçĶ¨
æŀĦå»º å®ŀæĹ¶
æŀĦå»º ä¸İéĥ¨ç½²
æŀĦå»º Hikaflow
æŀĦå»º RelayGO
å¥ ĳçº¦
Ġw eb
ä»ĵåºĵ æĸĩæ¡£
ä»ĵåºĵ æī«æıı
ä»ĵåºĵ æ³¨åĨĮ
ä»ĵåºĵ åĪĨæŀĲçļĦçĶ¨æĪ·ä½ĵéªĮ
è¿Ļ å²Ĺä½į
åįķ æ¨¡åĿĹ
Go åĲİç«¯å¼Ģåıĳ
Go çļĦå®ŀæĹ¶WebSocketèģĬå¤©åĲİç«¯
co unt
æıĲåįĩ è®¤è¯ģ
æıĲåįĩ å¤įæĿĤ
æıĲåįĩ åı¯éĿłæĢ§
æıĲåįĩ ç³»ç»Łè¿Ĳè¡Į
è®¾è®¡ å®Įæķ´
äºĨ å¯¹
äºĨ è§£
äºĨ æľįåĬ¡è¾¹çķĮ
äºĨ åĽ´ç»ķ
äºĨ å®īåħ¨çĽĳæµĭ
æµģç¨ĭ ä¸İJWT
æİ§åĪ¶ éĶģ
æİ§åĪ¶ ä¸İåıĳå¸ĥ
æĬĢæľ¯ æĬĢèĥ½
åĪ° ä¸įåĲĮ
åĪ° å¤ļåħĥ
å·® å¼Ĥ
éĹ®é¢ĺ åıĬ
ï¼ĮåĮħæĭ¬ åĽ¢éĺŁ
ï¼ĮåĮħæĭ¬ WebSocket
ï¼ĮåĮħæĭ¬ éĴ±åĮħ
ï¼ĮåĮħæĭ¬ DeepSeek
ï¼ĮåĮħæĭ¬ éĴ±åĮħè¿ŀæİ¥
ï¼ĮåĮħæĭ¬ çĻ»å½ķ
ï¼ĮåĮħæĭ¬ å®¢æĪ·ç«¯
ï¼ĮåĮħæĭ¬ auth
ï¼ĮåĮħæĭ¬ éľĢæ±ĤçĲĨè§£
ï¼ĮåĮħæĭ¬ ä¼ļè¯Ŀ
ï¼ĮåĮħæĭ¬ ä»£çłģæ¦Ĥ
ï¼ĮåĮħæĭ¬ ä»ĵåºĵæ³¨åĨĮ
åıĤæķ° é«ĺæķĪ
ĠF AR
ĠF uture
ĠF astAPI
ĠF DD
ĠF lask
Ġst atsmodels
Ġst eering
æ³ķ ä»İ
æ³ķ èĥ½åĬĽæıĲåįĩ
API éĽĨæĪĲ
API è°ĥçĶ¨
API ç½ĳåħ³
API è®¿éĹ®æİ§åĪ¶
ç»´ åĲ¾å°
ç®Ģ ä»ĭ
æŃ¥ éª
æŃ¥ æİ¨çĲĨ
ĠN ormalization
ĠN otebook
çĶ¨æĪ· æķ°æį®
çĶ¨æĪ· æ³¨åĨĮ
çĶ¨æĪ· çļĦWebSocketæ¶Īæģ¯
å·¥ä¸ļ åľºæĻ¯
å·¥ä¸ļ è¿ĩç¨ĭ
å·¥ä¸ļ è¿Ĳè¡Į
å·¥ä¸ļ æķ°æį®éĽĨ
æ£Ģç´¢ ç»ĵæŀľ
æ£Ģç´¢ è´¨éĩı
éªĮè¯ģ èĥ½åĬĽ
ï¼Įå¹¶ æıĲä¾Ľ
ï¼Įå¹¶ ä¿®å¤į
ï¼Įå¹¶ ä¿Ŀè¯ģ
ï¼Įå¹¶ çĶŁæĪĲåĽ¢éĺŁ
ï¼Įå¹¶ æŀĦå»ºDocker
åħĪ ç¡®è®¤ä¸Ģä¸ĭ
éĽĨæĪĲ èĥ½åĬĽ
éĽĨæĪĲ åı¯ç»´æĬ¤æĢ§
æ¶Ī éĺ²
ä¸» è¯·æ±Ĥ
ä¸» åĬ¨æīĳç¿
æĻºèĥ½ åĮĸ
æĻºèĥ½ åĨ³çŃĸ
å·¥ä½ľ ç»ıåİĨ
JWT æľºåĪ¶
JWT å¯ĨéĴ¥ä¸İ
çº§ æķħéļľ
çº§ å·¥ç¨ĭæĬ¥åĳĬ
åħĥ ç»Ħ
ïĤ·åıĤä¸İ å¹¿
ïĤ·åıĤä¸İ çŁ³æ²¹
ïĤ·åıĤä¸İ å¤©æ´¥
ïĤ·åıĤä¸İ å·¥èīº
ïĤ·åıĤä¸İ åĽ½å®¶
ïĤ·åıĤä¸İ è½¯ä»¶äº¤ä»ĺ
ïĤ·åıĤä¸İ å·¥è´
ïĤ·åıĤä¸İ è°ĥè¯ķ
åĽ¾ è¯ĬæĸŃ
éĻĲ é¢ĦèŃ¦
éĻĲ äºİç®Ģåįķ
é¢Ħæµĭ å¹³åı°
é¢Ħæµĭ æĢ§èĥ½
è¿ŀæİ¥ åĪ°ä¸įåĲĮ
å½ĵåīį çĬ¶æĢģ
ï¼Įä¸į å±Ģ
è®¤è¯ģ çļĦWebSocket
è®¤è¯ģ ä¸İå®ŀæĹ¶éĢļä¿¡
è®¤è¯ģ ç³»ç»Łå®īåħ¨åŁºçº¿
åĽ¢éĺŁ åįıä½ľ
åĽ¢éĺŁ å¼Ģå±ķ
LLM éĽĨæĪĲèĥ½åĬĽ
å°Ĩ æĮģä¹ħåĮĸ
å°Ĩ AIæĥ³
çİ¯å¢ĥ åıĺéĩı
çİ¯å¢ĥ ä¹ĭéĹ´çļĦ
çİ¯å¢ĥ åı¯å¤įçİ°
çİ¯å¢ĥ æķ°æį®çļĦ
po ut
è¯Ħ å®¡
ïĤ·ä½¿çĶ¨ Go
ïĤ·ä½¿çĶ¨ Spring
ïĤ·ä½¿çĶ¨ PostgreSQL
ïĤ·ä½¿çĶ¨ Zustand
ïĤ·ä½¿çĶ¨ OpenFeign
ïĤ·ä½¿çĶ¨ Eureka
ïĤ·ä½¿çĶ¨ å¤ļéĺ¶æ®µ
æĺİ æĸĩå¯Ĩçłģ
è¿Ľè¡Į åīįç«¯
äºº ç±»
äºº åĪĹè¡¨
åı¯è§ ģæĢ§
WebSocket å®¢æĪ·ç«¯ä¸İ
React åīįç«¯é¡µéĿ¢
åŃĺåĤ¨ èģĮè´£
SE æİ¥åı£
SE æµģå¼ıAPI
è°ĥçĶ¨ æµģç¨ĭ
ol la
åħ¨æłĪ é¡¹çĽ®
åħ¨æłĪ ä¸ļåĬ¡
åħ¨æłĪ äº¤ä»ĺ
è¦ĨçĽĸ Node
è¯į åħĥ
è§Ħ å¾ĭ
èģĮ ä½įæııè¿°
é¢ĦèŃ¦ åıĬèĥ½æºĲ
ä»İ ä¸´æĹ¶
ä»İ åįķåıĺéĩı
åĲĳéĩı æķ°æį®åºĵ
éĥ¨ç½² å®īåħ¨æĢ§
éĥ¨ç½² ä¸İè¿Ĳç»´
éĥ¨ç½² éªĮè¯ģèĥ½åĬĽ
æ·± åħ¥
oft max
å°ı åŀĭ
çĽ®æłĩ è¾ĵåĩº
çĽ®æłĩ åľ°åĽ¾
ä¿¡æģ¯ ç¡¬ç¼ĸçłģ
æ¶Īæģ¯ å½Ĵå±ŀ
æ¶Īæģ¯ ä»¥åıĬæĪ¿éĹ´
æĬ¥åĳĬ é¡¹çĽ®
ir d
la ce
ĠM etaMask
ĠM DR
æĮĩ å®ļ
æĮĩ éĴĪ
æıĲä¾Ľ ç»Ļ
iz ed
è¯» åįļå£«
è¿ľç¨ĭ è½¯ä»¶å¼Ģåıĳ
è¿ľç¨ĭ åĲĪä½ľ
æİ¥åı£ çļĦéĻĲæµģæľºåĪ¶
æ¡Ī ä¾ĭ
ä¾Ŀèµĸ prompt
ä¾Ŀèµĸ æ£Ģç´¢è´¨éĩı
éķ¿ ç§ĺä¹¦
Âł React
Âł æķ°æį®åĪĨæŀĲ
Ġimp act
çĲĨè§£ è½¯ä»¶ç³»ç»Ł
å®ŀæĹ¶ æ¶Īæģ¯ä¼łéĢĴ
å®ŀæĹ¶ AIå¤ĦçĲĨ
å®ŀæĹ¶ åĲİç«¯å·¥ç¨ĭèĥ½åĬĽ
ç»ıéªĮ ä¸°å¯Į
ompose éªĮè¯ģ
æ¬ łæĭŁåĲĪ
Ġan notation
è¾ĥ é«ĺ
è¾ĥ ä½İ
è¾ĥ å¼º
ä¸ŃçļĦ ç«ŀæĢģ
ä¸ŃçļĦ GoåĲİç«¯å¼Ģåıĳ
çĽĳæİ§ æ¨¡åŀĭ
çĽĳæİ§ æĢ§èĥ½
çĽĳæİ§ ä¸İæķħéļľæ£Ģæµĭ
åħ¶ä»ĸ ç§ĳçłĶé¡¹çĽ®
ss ue
åĮº åĪĨ
åĮº è®ºæĸĩ
èĥ½å¤Ł çĲĨè§£è½¯ä»¶ç³»ç»Ł
æĹł çĽĳçĿ£åŃ¦ä¹ł
å°ĳ éĩı
éĺ² æİ§ä½ĵç³»
ç»ĵæŀĦ è®¾è®¡
å®ĮæĪĲ æķħéļľæ£Ģæµĭ
å®ĮæĪĲ æķ°æį®æİ¥åħ¥
éļľ ç¢
çĬ¶æĢģ è¿½è¸ª
ãĢģDocker æŀĦå»º
ãĢģDocker file
ãĢģDocker ä»¥åıĬWebSocket
æĸ¹åĲĳ éĢĤçĶ¨äºİ
ĠBoot å¾®æľįåĬ¡
ĠBoot çļĦå¾®æľįåĬ¡å¹³åı°
ï¼Įä½¿ æľįåĬ¡è¾¹çķĮ
ï¼Įä½¿ ä¸ļåĬ¡æľįåĬ¡
åĽł åŃĲ
ç§ĳ éĻ¢äºĮ
äº¤äºĴ éĹ®é¢ĺ
ç»Ļ åĩº
è®¿éĹ® æĹ¥å¿Ĺ
æİĴ çīĪ
æİĴ æŁ¥èĥ½åĬĽ
å¯¼ åĲĳåŀĭåľºæĻ¯
çĶŁäº§ å°±ç»ª
çĶŁäº§ çļĦSpring
çĶŁäº§ ä¸İå·¥èīº
ĠCompose çİ¯å¢ĥ
ĠCompose åģ¥åº·æ£ĢæŁ¥
ĠCompose éħįç½®ä»¥åıĬ
è½¯ä»¶ æŀ¶æŀĦ
è½¯ä»¶ äº§åĵģ
el ie
æ» ¥çĶ¨
Ġn a
Ġn o
ä¼ļ è®®
ass istant
ass word
è¿ĩç¨ĭ çĽĳæİ§
è¿ĩç¨ĭ å¼Ĥå¸¸
å±Ĥ çº§
å±Ĥ ç½ĳç»ľ
å±Ĥ éĿ¢çļĦç³»ç»ŁæĢ§
éĢ»è¾ĳ ä¸İéĢļçŁ¥
Ġg overnor
Ġh uman
Ġh igh
äºĭ å®ŀ
æĺ¯ä¸Ģ æ¬¡
åįı è®®
Ġse paration
æĢ§èĥ½ è¯Ħä¼°
æĢ§èĥ½ çłĶç©¶é¡¹çĽ®
åĮħåĲ« åĵªäºĽæĸĩä»¶
åĮħåĲ« åħ«
çĽĳæµĭ çĽĳç®¡
çĽĳæµĭ æķ°æį®åĪĨæŀĲ
ç±»åŀĭ æıĲç¤º
éĴ±åĮħ çļĦèº«ä»½è®¤è¯ģ
éĴ±åĮħ äº¤äºĴéĹ®é¢ĺ
ĠçļĦ é£İéĻ©è¯Ħä¼°
ĠçļĦ å¼Ģåıĳæ¨¡å¼ı
æł¸å¿ĥ ä»·åĢ¼
æł¸å¿ĥ ä½ľçĶ¨
æ¨¡åĿĹ åı¯çĭ¬ç«ĭ
ãĢģT oken
éĩĬ æĶ¾
èĩ³ åı¯å®¡è®¡
æī§ æ³ķèĥ½åĬĽæıĲåįĩ
GitHub ä¸İBitbucketä»£çłģä»ĵåºĵ
ĠD eepSeek
ĠD exifier
ãĢģE Charts
ãĢģE thers
ãĢģE xpress
ãĢģE WMA
ãĢģS PE
ãĢģS tripe
ãĢģS SEæµģå¼ıAPI
æµģå¼ı AIåĽŀçŃĶ
å¾®æľįåĬ¡ éĽĨæĪĲåı¯ç»´æĬ¤æĢ§
GP T
ï¼ĮæĶ¯æĮģ åı¯éħįç½®
ï¼ĮæĶ¯æĮģ éĺ²æĬ¤
ï¼ĮæĶ¯æĮģ æĸĩä»¶åħĥæķ°æį®
ï¼ĮæĶ¯æĮģ è¯Ńä¹īçº§ä»£çłģ
ï¼ĮæĶ¯æĮģ å¤ļç§į
ï¼ĮæĶ¯æĮģ åħ¨éĩı
äºĮ åıī
äºĮ è¿ĽåĪ¶åŃĺåĤ¨
è¿ģç§» æī§è¡Į
è¿ģç§» èĩ³PostgreSQL
è¿ģç§» èĩ³åı¯å®¡è®¡
å®ŀéªĮ ä¸İä»¿çľŁ
å½±åĵį åĪĨæŀĲä»¥åıĬ
çľĭ åĪ°
æ¯Ķ ä¸įåĲĮ
åı¯è§ĨåĮĸ ä»ªè¡¨çĽĺ
åı¯è§ĨåĮĸ åºĵå¼Ģåıĳ
åı¯è§ĨåĮĸ åĪĨæŀĲæĪĲæŀľ
æĮģä¹ħåĮĸ ä¸İåı¯éħįç½®
æ²ŁéĢļ åıĬçĶŁäº§
-st yle
Ġr adius
ãĢģF lyway
ãĢģF CCU
ãĢģF astAPI
ï¼Įä»¥ æıĲé«ĺ
ï¼Įä»¥ æıĲåįĩå¤įæĿĤ
å¤ļä¸ª è¿ľç¨ĭè½¯ä»¶å¼Ģåıĳ
ä¸»è¦ģ å·¥ä½ľ
ä¸»è¦ģ åŃ¦ä¹łåĨħå®¹
Ġlo cal
ãĢģC STR
ãĢģC USUM
ãĢģC omposeéªĮè¯ģ
ï¼ĮçĶ¨äºİ ä»£çłģä»ĵåºĵ
ï¼ĮçĶ¨äºİ çĶ¨æĪ·æķ°æį®
ï¼ĮçĶ¨äºİ å®ŀæĹ¶AIå¤ĦçĲĨ
Ġsc ikit
Ġrep lan
ĠCloud ä»¥åıĬGo
ç»Łè®¡ çĽĳæİ§ä¸İæķħéļľæ£Ģæµĭ
ç»Łè®¡ è¿ĩç¨ĭçĽĳæİ§
åĵģ ç®¡çĲĨ
èģĬå¤© æķ°æį®
HTTP S
gr amm
ãĢģRedis ä¸İPostgreSQL
ï¼Įè¦ĨçĽĸ çĶ¨æĪ·
ï¼Įè¦ĨçĽĸ å®īåħ¨æĢ§
ï¼Įè¦ĨçĽĸ åĲİç«¯æľįåĬ¡
ï¼Įè¦ĨçĽĸ ä»£çłģæł¼å¼ı
ï¼Įè¦ĨçĽĸ APIç½ĳåħ³
ï¼Įè¦ĨçĽĸ ä»İåįķåıĺéĩı
ïĤ·å®ŀçİ° çĻ»å½ķ
ïĤ·å®ŀçİ° ç»Ħç»ĩ
ïĤ·å®ŀçİ° è¯Ńä¹īçº§
ïĤ·å®ŀçİ° ç»ıè¿ĩ
ïĤ·å®ŀçİ° çĶ¨æĪ·æ³¨åĨĮ
ïĤ·å®ŀçİ° GitHubä¸İBitbucketä»£çłģä»ĵåºĵ
ïĤ·çłĶç©¶ æĪĲæŀľ
ïĤ·çłĶç©¶ å¤ļæĹ¶éĹ´åºıåĪĹ
ïĤ·çłĶç©¶ æĸ¹åĲĳéĢĤçĶ¨äºİ
ïĤ·æŀĦå»º PR
ïĤ·æŀĦå»º åįķåıĺéĩı
ïĤ·æŀĦå»º æĸĩä»¶åŃĺåĤ¨æľįåĬ¡
ïĤ·æŀĦå»º åŁºäºİBullMQ
åŃĲ è¯į
åºĶæĢ¥ ä¸ĵ
æ°Ķ å·¥ç¨ĭ
Ġä¸ª åı¯å¤įçİ°
Ġä¸ª æ½ľ
ãĢģæķ°æį® åĪĨæŀĲ
ãĢģæķ°æį® ä¿ĿæĬ¤
ãĢģæķ°æį® åĪĨæŀĲä»¥åıĬ
ãĢģæķ°æį® åı¯è§ĨåĮĸä»ªè¡¨çĽĺ
ãĢģå®īåħ¨ æ£ĢæŁ¥
ãĢģå®īåħ¨ é£İéĻ©æİ§åĪ¶
ãĢģå®īåħ¨ åĬłåĽº
ä»ħ æŀĦå»ºè°ĥçĶ¨
åĨĻ åħ¥
ä¸įåĲĮ çģ«çģ¾
é¢ĨåŁŁ éĢ»è¾ĳä¸İéĢļçŁ¥
å»ºç«ĭ æķ°æį®å½Ĵå±ŀ
ä¸Ĭä¸ĭæĸĩ çªĹåı£
ac y
ap fill
ĠL anguage
ãĢģM etaMask
åĬŀ æĸĩåĳĺ
å¼º åĮĸåŃ¦ä¹ł
åĬ¨æĢģ åħ³ç³»
åĳĺ è¯ģä¹¦
èĩªåĬ¨ å»ºè¡¨
/S SEæİ¥åı£
æľ¬åľ° ä¸İéĥ¨ç½²
æľ¬åľ° åĲ¯åĬ¨
åºĶçĶ¨å¼Ģåıĳ å·¥ç¨ĭå¸Ī
è®°å½ķ åıĬä¸ļåĬ¡éĢ»è¾ĳ
çľŁå®ŀ å·¥ä¸ļæķ°æį®éĽĨ
å®¢æĪ· åıĬé¡¹çĽ®
ç¥ ¨
ï¼Įå®ŀçİ° åĲĳéĩıæ£Ģç´¢
ï¼Įå®ŀçİ° çīĪæľ¬
ï¼Įå®ŀçİ° ç»ĵåŀ¢
ï¼Įå®ŀçİ° ä¸ĢéĶ®
ï¼Įå®ŀçİ° è¿ĩç¨ĭå¼Ĥå¸¸
ï¼ĮæıĲåįĩ éķ¿æĹ¶éĹ´
ï¼ĮæıĲåįĩ æľįåĬ¡åĲ¯åĬ¨
ï¼ĮæıĲåįĩ çİ¯å¢ĥåı¯å¤įçİ°
ï¼ĮæıĲåįĩ éĥ¨ç½²å®īåħ¨æĢ§
ï¼ĮæıĲåįĩ æľ¬åľ°ä¸İéĥ¨ç½²
ïĤ·P yTorch
ïĤ·åŁºäºİ Spring
ïĤ·åŁºäºİ ç®Ĺæ³ķ
ïĤ·åŁºäºİ æĹ¶ç©º
ïĤ·è®¾è®¡ åĲĦ
ïĤ·è®¾è®¡ AIä»£çłģåĪĨæŀĲ
ïĤ·è®¾è®¡ åŁºäºİRedis
åı¯å¤į çĶ¨çļĦ
ä¸įèĥ½ çĽ´æİ¥
éĢļçŁ¥ æµģç¨ĭ
éĢļçŁ¥ åĬŁèĥ½
ä½ľä¸º åħ¨æłĪAI
ä½ľä¸º ç»Łä¸Ģ
ä»£çłģä»ĵåºĵ éĹ®çŃĶç³»ç»Ł
è¶ħ åıĤæķ°
è¶ħ è¶Ĭ
è¯ĨåĪ« åıĬæĬĢæľ¯æĸĩæ¡£
è·¯å¾Ħ çĶ¨äºİèģĬå¤©åİĨåı²
é©±åĬ¨ éħįç½®ä»¥åıĬ
åºĶæĢ¥ç®¡çĲĨ åİħ
Ġus age
ãĢģæķ°æį®åºĵ ç»ĵæŀĦè®¾è®¡
ïĤ·å¼Ģåıĳ åŁºäºİServer
ïĤ·å¼Ģåıĳ æĪĸå¯¹æİ¥åĲİç«¯
ïĤ·å¼Ģåıĳ Reactåīįç«¯é¡µéĿ¢
read crumb
åŃĹ åħ¸
æĸ¹å·® è§£éĩĬ
å»ºæ¨¡ ä¸İä»¿çľŁ
å»ºæ¨¡ ä»¥åıĬå¤§è¯Ńè¨Ģæ¨¡åŀĭ
èģĶ åĲĪ
èģĶ ç½ĳ
ĠdApp å¼Ģåıĳç»ıéªĮ
Ġac cess
Ġth ird
ä¸¤ åı¥
éĹ®çŃĶ ä»¥åıĬåĽ¢éĺŁ
åıĺåĮĸ ä¸İçĪĨçĤ¸é£İéĻ©é¢ĦèŃ¦
ä¿®å¤į ä»¥åıĬAIçĶŁæĪĲ
ç§ĳçłĶ ç»ıåİĨ
åĬŀåħ¬ å²Ĺä½į
åĬŀåħ¬ å®¤å·¥ä½ľ
AT S
DeepSeek ä¸İGemini
cur acy
lat ive
pgvector çļĦè¯Ńä¹īæ£Ģç´¢
çĸ «æĥħ
ĠLLM åºĶçĶ¨å¼Ģåıĳå·¥ç¨ĭå¸Ī
ï¼ĮåĮħåĲ« Redis
ï¼ĮåĮħåĲ« PostgreSQL
ï¼ĮåĮħåĲ« Gateway
ï¼ĮåĮħåĲ« å®ļä»·
ïĤ·C ont
ïĤ·C ET
çŃ¾ åıĳ
âĢĿ ãĢĤčĊ
æĮĩæłĩ æİ¥åı£
å¤ĸéĥ¨ çŁ¥è¯Ĩ
å¤ĸéĥ¨ åħ¥åı£
è®ºæĸĩ åıĳè¡¨
çĥŃ æļ´éľ²
çĥŃ åĻ¨ç»ĵåŀ¢
çĥŃ çĤīçŃī
åįļå£« çłĶç©¶çĶŁåŃ¦ä¸ļå¥ĸåŃ¦éĩĳ
æĹ¥å¿Ĺ è®°å½ķ
-Transformer çļĦçĵ¦æĸ¯çĪĨçĤ¸é£İéĻ©é¢ĦèŃ¦çłĶç©¶
âī Ī
ãĢģAI éĹ®çŃĶ
ãĢģé£İéĻ© åĪĨå¸ĥ
ãĢģé£İéĻ© è¯ĨåĪ«åıĬæĬĢæľ¯æĸĩæ¡£
ãĢģçĶ¨æĪ· ç®¡çĲĨ
ãĢģçĶ¨æĪ· ä»ªè¡¨çĽĺ
ãĢģçĶ¨æĪ· èµĦäº§å±ķç¤ºåıĬ
ãĢģæµģå¼ı åĵįåºĶ
ï¼Įä¸º çĶ¨æĪ·
ï¼Įä¸º å¤ļå®ŀä¾ĭ
ä¸İéĥ¨ç½² åı¯éħįç½®
åı¯éħįç½® è¿ĩæľŁæĹ¶éĹ´
icro ser
è®¡è´¹ ä¸İè®¢éĺħ
æłĩåĩĨ å·®
Ġback groun
åĽŀå½Ĵ çĽĳæİ§æ¨¡åŀĭ
äº§åĵģ å·¥ç¨ĭèĥ½åĬĽ
æİ§åĪ¶åĽ¾ çĽĳæİ§
æİ§åĪ¶åĽ¾ åĪ°å¤ļåħĥ
åħ·å¤ĩ å®Įæķ´çļĦ
åħ·å¤ĩ è¾ĥå¼º
è¯»åıĸ è·¯å¾ĦçļĦæĥħåĨµä¸ĭ
çŁ³åĮĸ å®īåħ¨
çŁ³åĮĸ åħ¬åı¸
å¯Ĩçłģ æł¡éªĮ
ä¸Ģèĩ´æĢ§ éĹ®é¢ĺåıĬ
ä¸Ģèĩ´æĢ§ ä¸İéĥ¨ç½²åı¯éħįç½®
/Sub å¹¿æĴŃ
/Sub çļĦWebSocketæ¶Īæģ¯
è¿½è¸ª ä»¥åıĬåŁºäºİ
åı¯è§ĤæµĭæĢ§ ä¸İéĹ®é¢ĺ
Te mperature
ĠH ikaflow
ĠU niver
ãĢģåĲİç«¯ æŀ¶æŀĦ
ãĢģåĲİç«¯ æľįåĬ¡ä»¥åıĬ
ï¼ĮéĢļè¿ĩ çĶŁæĪĲembedding
ï¼Įè¿Ļ æĺ¯ä¸Ģä¸ª
åĪĩ æį¢
åĲĦ æ¨¡åĿĹåı¯çĭ¬ç«ĭ
Ġcl ients
èģļ ç±»
/Open AIåħ¼å®¹
AR L
AR CH
ãĢģæĸĩä»¶ æķ´çĲĨ
ãĢģæĸĩä»¶ ä¸Ĭä¼ł
ãĢģæĸĩä»¶ æĸĩæ¡£æµıè§ĪåĻ¨
åıĳå¸ĥ äºĭä»¶
æĶ¶ çĽĬ
ç²¾ ç¡®
é¡ºåºı æİ§åĪ¶
/F iber
/F lyway
IN G
IN AL
NestJS åĲİç«¯æŀ¶æŀĦ
ãĢģå¼ĤæŃ¥ äºĭä»¶
ãĢģå¼ĤæŃ¥ ä»»åĬ¡å¤ĦçĲĨ
ä»į æľī
ä»į åı¯æŃ£å¸¸
å¹¶åıĳ æİ§åĪ¶éĶģ
å¿« çļĦ
äºĭä»¶ å¤ĦçĲĨä»¥åıĬåŁºäºİ
Ġlog in
Ġlog ic
æĸ°çĸĨ ç»´åĲ¾å°
CI å·¥ä½ľæµģ
ak e
ĠçĽ¸åħ³ å¼Ģåıĳ
ĠçĽ¸åħ³ ä¸ļåĬ¡éĢ»è¾ĳ
ĠçĽ¸åħ³ åºĶçĶ¨åĬŁèĥ½
ĠGateway ä½ľä¸ºç»Łä¸Ģ
ãĢģä½¿çĶ¨ æĹ¥å¿Ĺ
ãĢģä»ĵåºĵ ç®¡çĲĨ
ãĢģä»ĵåºĵ æī«æıı
ãĢģä»ĵåºĵ ç»ĳå®ļ
ãĢģéĥ¨ç½² æĸĩæ¡£
ãĢģéĥ¨ç½² ä»¥åıĬè¿Ĳç»´
ãĢģéĥ¨ç½² æĶ¯æĮģä»¥åıĬåĲİæľŁ
ãĢģä»ªè¡¨çĽĺ å¼Ģåıĳ
ãĢģä»ªè¡¨çĽĺ å±ķç¤º
ï¼ĮåŁºäºİ æ®ĭå·®
ï¼ĮåŁºäºİ DeepSeekä¸İGemini
ï¼ĮçĶŁæĪĲ ç»ĵæŀĦåĮĸ
ï¼ĮçĶŁæĪĲ AIæĸĩæ¡£
ï¼Įæ¶ īåıĬ
ï¼ĮéĻįä½İ èĩªçĽ¸åħ³
ï¼ĮéĻįä½İ å®ŀæĹ¶æ¶Īæģ¯ä¼łéĢĴ
ï¼ĮéĻįä½İ æ»¥çĶ¨
ïĤ·E HS
ïĤ·S patiotemporal
ïĤ·æ·»åĬł Spring
ïĤ·æ·»åĬł åģ¥åº·æ£ĢæŁ¥
ïĤ·æ·»åĬł Redisåħ¼å®¹
æĺ¾ åŃĺ
ç¨ĭåºı ä¼ĺåĮĸ
ä¸įä»ħ å±ķç¤ºäºĨ
ä¸įä»ħ ä¾Ŀèµĸprompt
æĹ¶åºı èĩªçĽ¸åħ³
æĹ¶ç©º é¢ĦæµĭçłĶç©¶
å¼Ģå±ķ ç©ºæ°Ķè´¨éĩı
ä»¥åıĬåŁºäºİ çĶ¨æĪ·çļĦWebSocketæ¶Īæģ¯
ä»¥åıĬè¿Ĳç»´ åĨħå®¹
ä»¥åıĬè¿Ĳç»´ åı¯è§ĤæµĭæĢ§
Ġrequest s
åħ³éĶ® è¯į
åħ³éĶ® èģĬå¤©åİĨåı²
å·¥ç¨ĭèĥ½åĬĽ çļĦæł¸å¿ĥ
æłĩçŃ¾ çļĦæķ°æį®
éĿ¢åĲĳ åĮĸå·¥
éĿ¢åĲĳ çĶŁäº§çļĦSpring
Ġtoken ä¸ŃéĹ´ä»¶
Ġtoken çŃ¾åıĳ
ä½ĵçİ° äºĨåĽ´ç»ķ
ãĢģPR åĪĨæŀĲ
ãĢģPR æĬ¥åĳĬ
ãĢģPR æķ°æį®å¤ĦçĲĨ
å·¥ä¸ļå®īåħ¨ çĽĳæµĭ
æĥ³ åħĪç¡®è®¤ä¸Ģä¸ĭ
æĬ¥åĳĬçĶŁæĪĲ æµģç¨ĭ
å¹¿æĴŃ åŁºç¡Ģèĥ½åĬĽ
åĿĩåĢ¼ æ¼Ĥç§»
ïĤ·çłĶç©¶çĶŁ åĽ½å®¶
ïĤ·çłĶç©¶çĶŁ åŃ¦ä¸ļå¥ĸåŃ¦éĩĳ
ïĤ·çłĶç©¶çĶŁ æĸ°çĶŁå¥ĸåŃ¦éĩĳ
æķħéļľæ£Ģæµĭä¸İ è´¡çĮ®
èĩªåĬ¨åĮĸ èĦļæľ¬
ãĢģæµģå¼ıAIåĵįåºĶ çĶŁæĪĲ
ãĢģæµģå¼ıAIåĵįåºĶ è¾ĵåĩº
ĠåıįåºĶåĻ¨ ä¿ĿçķĻ
ä¸ŃåĽ½çŁ³æ²¹ ä¹Įé²ģæľ¨é½Ĳ
ä¸ŃåĽ½çŁ³æ²¹ çļĦå·¥ä¸ļå®īåħ¨
çħ¤çŁ¿ çĵ¦æĸ¯æµĵåº¦
-user ä»¥åıĬjob
Ġæ¨¡åŀĭ è°ĥçĶ¨
Ġas ynchron
åħ± äº«
ïĤ·éĽĨæĪĲ Stripe
ïĤ·éĽĨæĪĲ åŁºäºİKafka
è§Ī çĶŁæĪĲ
Ġcover age
çīĩ æ®µ
ï¼Įå¹¶æĶ¯æĮģ éĥ¨ç½²ä¸İè¿Ĳç»´
ï¼Įå¹¶æĶ¯æĮģ æµģå¼ıAIåĽŀçŃĶ
æ¯Ķè¾ĥ çģµæ´»
-storage è°ĥçĶ¨æµģç¨ĭ
ï¼ĮèĢĮæĺ¯ è®¾è®¡å®Įæķ´
æĻºæħ§ åŁİå¸
-p arty
/B itbucketä»£çłģä»ĵåºĵ
token å¯ĨéĴ¥ä¸İ
ĠçŃī æķ°æį®åºĵ
ĠçŃī åı¯è§ĨåĮĸåºĵå¼Ģåıĳ
ä¸´æĹ¶ åĬŀåħ¬å²Ĺä½į
ãĢģæ¨¡åŀĭ è®Ńç»ĥ
ãĢģæ¨¡åŀĭ è°ĥåº¦
ï¼Įåĩıå°ĳ åĨħéĥ¨
ï¼Įåĩıå°ĳ ç¡¬ç¼ĸçłģ
ĠSe arch
æľįåĬ¡åĻ¨ ä¹ĭéĹ´
åĪĨæŀĲä¸İ æĬ¥åĳĬçĶŁæĪĲæµģç¨ĭ
å®ļä½į åıĬçĽĳæİ§æĸ¹æ¡Ī
ç´¯ äºĨå®īåħ¨çĽĳæµĭ
Ġmult i
åģı å¥½
å®¹åĻ¨ åĮĸ
å¦Ĥä½ķ çĲĨè§£
ç»Ħä»¶ å®ŀçİ°æĮĩæłĩ
ï¼Įä½¿æ¨¡åŀĭ èĥ½å¤Ł
åįıè°ĥ èĥ½åĬĽ
åįıè°ĥ åıĬçĽ¸åħ³
/OpenAPI æĸĩæ¡£
/T ypeScript
sw arm
Ġis su
Ġä¸Ń ç§ĳéĻ¢äºĮ
Ġob stacle
ä¸ĵ ä¸ļ
ãĢģL DPE
ãĢģL inux
ï¼Įå°Ĩ æĸĩä»¶åħĥæķ°æį®
ï¼Įå°Ĩ åħ³éĶ®èģĬå¤©åİĨåı²
ï¼Įèĥ½å¤Ł å®ĮæĪĲæķ°æį®æİ¥åħ¥
ï¼ĮæıĲé«ĺ å·¥ç¨ĭè´¨éĩı
ï¼ĮæıĲé«ĺ è®¤è¯ģç³»ç»Łå®īåħ¨åŁºçº¿
ï¼Įè¿ĺ ä¾Ŀèµĸæ£Ģç´¢è´¨éĩı
ï¼Įè¿ĺ ä½ĵçİ°äºĨåĽ´ç»ķ
éĹ¨ æ§Ľ
å®ŀä¾ĭ å¹¿æĴŃåŁºç¡Ģèĥ½åĬĽ
é¢Ŀ å¤ĸ
æĸ¹éĿ¢ åħ·å¤ĩè¾ĥå¼º
è´¡çĮ® å®ļä½įåıĬçĽĳæİ§æĸ¹æ¡Ī
Ġmess ages
èĩªçĦ¶ ç§ĳåŃ¦
éĢĤçĶ¨äºİ æĻºæħ§åŁİå¸
éĺ²æĬ¤ åĪĨæŀĲçłĶç©¶
çĶŁäº§çº§ AIç³»ç»Ł
çĶŁäº§çº§ ç³»ç»ŁæĦıè¯Ĩ
è½¯ä»¶å¼Ģåıĳ ç»ıåİĨ
æĬķéĢĴ è®°å½ķ
æĬķéĢĴ çļĦè§£
æī©å±ķ æıĲä¾ĽåŁºç¡Ģ
æįŁå¤± åĩ½æķ°
/ECharts é£İæł¼
/C D
/AI æ¨¡åŀĭè°ĥçĶ¨
/å¯¼ åħ¥
/å¯¼ åĩºä¿¡æģ¯
/æ³¨åĨĮ æİ¥åı£çļĦéĻĲæµģæľºåĪ¶
/å°±ç»ªæ£ĢæŁ¥ ç«¯çĤ¹
Actuator åģ¥åº·æ£ĢæŁ¥
èį £è
ĠI ssue
Ġå¼Ģåıĳ åĲİç«¯æľįåĬ¡
Ġåħ¨æłĪ åºĶçĶ¨
Ġç»Łè®¡ å»ºæ¨¡
Ġç»Łè®¡ éĩıè®¾å®ļ
ĠåºĶçĶ¨å¼Ģåıĳ æıĲä¾ĽåŁºç¡Ģ
ãĢĭ ï¼Į
ãĢģä»£çłģ è¯¦
ãĢģä»£çłģ æĸĩæ¡£çĶŁæĪĲ
ãĢģåŁºäºİ éĴ±åĮħçļĦèº«ä»½è®¤è¯ģ
ãĢģåŁºäºİ pgvectorçļĦè¯Ńä¹īæ£Ģç´¢
ãĢģå¤ļ åľ°çĤ¹
ãĢģå¤ļ å®ŀä¾ĭå¹¿æĴŃåŁºç¡Ģèĥ½åĬĽ
ãĢģçİ¯å¢ĥ çĽĳæµĭ
ãĢģçİ¯å¢ĥ é©±åĬ¨éħįç½®ä»¥åıĬ
ãĢģæ¶Īæģ¯ æĮģä¹ħåĮĸåŃĺåĤ¨
ãĢģæ¶Īæģ¯ ä»¥åıĬæ¶Īæģ¯
ãĢģæī«æıı è¿Ľåº¦
ãĢģæī«æıı çĬ¶æĢģè¿½è¸ª
ãĢģå½±åĵį åĪĨæŀĲ
ãĢģå½±åĵį è¶ĭåĬ¿
ãĢģåģ¥åº· ä¸İå®īåħ¨
ãĢģéĢļçŁ¥ æľįåĬ¡ä»¥åıĬ
ãĢģéĢļçŁ¥ åıĬæĸĩä»¶åŃĺåĤ¨
ãĢģåºĶæĢ¥ç®¡çĲĨ åıĬé£İéĻ©
ãĢģè®¡è´¹ ç³»ç»Ł
ãĢģè®¡è´¹ ä»¥åıĬWebhook
ãĢģembedding s
ãĢģembedding çĶŁæĪĲ
ãĢģçŁ³åĮĸ å®īåħ¨
ãĢģçŁ³åĮĸ çŃīæµģç¨ĭ
ãĢģåı¯è§ĤæµĭæĢ§ ä»¥åıĬç¨³å®ļçļĦ
ãĢģæĹ¶éĹ´åºıåĪĹ é¢Ħæµĭå¹³åı°
ãĢģæĹ¶éĹ´åºıåĪĹ å»ºæ¨¡ä»¥åıĬå¤§è¯Ńè¨Ģæ¨¡åŀĭ
ãĢģcommit åħ³èģĶ
ãĢģcommit è¿½è¸ªä»¥åıĬåŁºäºİ
ãĢģåĲİåı° éĺŁåĪĹ
ãĢģåĲİåı° ä»»åĬ¡å¤ĦçĲĨ
ï¼Įå¯¹ æ¯Ķä¸įåĲĮ
ï¼ĮçłĶç©¶ ä¸įåĲĮçģ«çģ¾
ï¼ĮçłĶç©¶ çħ¤çŁ¿çĵ¦æĸ¯æµĵåº¦
ï¼Įå±ķç¤º ç«¯åĪ°
ï¼Įå±ķç¤º åľ¨ä½İ
ï¼ĮæĬĢæľ¯æłĪ åĮħæĭ¬React
ï¼ĮæĬĢæľ¯æłĪ è¦ĨçĽĸNode
ï¼Įä½ĵçİ° äºĨæľįåĬ¡è¾¹çķĮ
ï¼Įä½ĵçİ° è¶ħè¶Ĭ
ï¼ĮéĩĩçĶ¨ JWTæľºåĪ¶
ï¼ĮéĩĩçĶ¨ çİ¯å¢ĥåıĺéĩı
çļĦå®Įæķ´ æµģç¨ĭ
çļĦå¼ĤæŃ¥ ä»ĵåºĵæī«æıı
çļĦå¼ĤæŃ¥ éĢļçŁ¥æµģç¨ĭ
è¯¦ ç»Ĩ
ïĤ·åľ¨ WebSocketå®¢æĪ·ç«¯ä¸İ
ïĤ·åľ¨ çĸ«æĥħ
ïĤ·å»ºç«ĭ çŁ³åĮĸå®īåħ¨
ïĤ·ç¼ĸåĨĻ çĶŁäº§å°±ç»ª
ïĤ·ç¼ĸåĨĻ CIå·¥ä½ľæµģ
ïĤ·å¼ķåħ¥ SQLè¿ģç§»
ïĤ·å¼ķåħ¥ PBKDF
ïĤ·åıĳè¡¨ ä¸Ńæĸĩæł¸å¿ĥæľŁåĪĬ
ature s
ä¸İåı¯å¤įçİ° éĽĨæĪĲæµĭè¯ķ
æµ· å¤ĸ
æµ· ä¸ĬèĪ
åĪĨåıĳ æľºåĪ¶
åĪĨåıĳ æµĭè¯ķ
æ¨¡æĭŁ çłĶç©¶
æ¨¡æĭŁ ä¸İçĥŃ
åıĬçĶŁäº§ æķ°æį®ç®¡çĲĨ
ĠAgent åºĶçĶ¨å¼Ģåıĳ
ĠAgent å·¥ä½ľæµģ
åĮĸå·¥ çĶŁäº§ä¸İå·¥èīº
Webhook çļĦåĪĨæŀĲ
ä»¥åıĬWebSocket åĪĨåıĳæµĭè¯ķ
ä¸ªäºº ç®Ģä»ĭ
AIçĶŁæĪĲ çļĦæĹłæķĪJSON
ĠConfig å®ŀçİ°éĽĨä¸Ńéħįç½®
åıĤèĢĥ å¹³åı°
åİĤ åĬŀæĸĩåĳĺ
å¹¶æıĲåįĩ APIè®¿éĹ®æİ§åĪ¶
å¹¶æıĲåįĩ å¾®æľįåĬ¡éĽĨæĪĲåı¯ç»´æĬ¤æĢ§
å®īåħ¨çĽĳç®¡ æī§æ³ķèĥ½åĬĽæıĲåįĩ
è¿Ľåº¦ æİ¨éĢģ
é£İéĻ©è¯Ħä¼° èĥ½åĬĽ
ï¼īåĪĨæŀĲ ä½ĵç³»
ï¼īåĪĨæŀĲ æ¨¡æĿ¿
åıĺæĽ´ ç®¡çĲĨ
ï¼ĪS SE
ï¼ĪS PM
äº¤æĺĵ çĽ¸åħ³æµģç¨ĭ
éĽĨæĪĲæµĭè¯ķ ä»¥åıĬWebSocketåĪĨåıĳæµĭè¯ķ
ïĤ·åıĤä¸İåºĶæĢ¥ç®¡çĲĨ éĥ¨å¤©æ´¥
ïĤ·åıĤä¸İåºĶæĢ¥ç®¡çĲĨ æĸĩä»¶æķ´çĲĨ
åħ¨æłĪAI ä»£çłģæĻºèĥ½å¹³åı°
å±ķç¤ºäºĨ å®ŀæĹ¶åĲİç«¯å·¥ç¨ĭèĥ½åĬĽ
å®ŀæĹ¶éĢļä¿¡ æ¨¡å¼ı
äº¤äºĴæµģç¨ĭ éĹ®é¢ĺ
åľºæĻ¯ä¸ĭçļĦ æ£Ģåĩº
åľºæĻ¯ä¸ĭçļĦ çĥŃæļ´éľ²
ĠComposeä»¥åıĬ SQLè¿ģç§»
ĠComposeä»¥åıĬ Actuatoråģ¥åº·æ£ĢæŁ¥
æ®ĭå·® è¿ŀæİ¥
Ġgener ation
è¯¯æĬ¥ é£İéĻ©
è¯¯æĬ¥ çİĩ
ïĤ·æŀĦå»ºäºĨä¸Ģä¸ª éĿ¢åĲĳçĶŁäº§çļĦSpring
ïĤ·æŀĦå»ºäºĨä¸Ģä¸ª åħ¨æłĪAIä»£çłģæĻºèĥ½å¹³åı°
Ġä¸ªä¸»æĪĲåĪĨ è§£éĩĬ
ãĢģå®īåħ¨çĽĳæµĭ åıĬäºĭæķħé¢Ħéĺ²
ĠRequest è¯Ħå®¡
ïĤ·è®¾è®¡äºĨ æ¨¡åĿĹåĮĸ
ïĤ·è®¾è®¡äºĨ åĮħåĲ«åħ«
è·¯å¾ĦçļĦæĥħåĨµä¸ĭ åıĳå¸ĥäºĭä»¶
é©±åĬ¨çļĦ JWTå¯ĨéĴ¥ä¸İ
æķĪæŀľè¯Ħä¼° æĬ¥åĳĬé¡¹çĽ®
æ¼ı æ£Ģçİĩ
ãĢģAIä»£çłģåĪĨæŀĲ æıĲç¤ºè¯į
å¯ĨçłģåĵĪå¸Į ä¸İå¸¸
çģ«çģ¾ æ¨¡æĭŁçłĶç©¶
è£ħ é¥°
éĢĲæŃ¥ è¿ģç§»èĩ³PostgreSQL
ãĢģä½¿çĶ¨éĩı æĹ¥å¿Ĺ
ãĢģä½¿çĶ¨éĩı è¿½è¸ª
ï¼Įæ¶µçĽĸ AIåºĶçĶ¨å¼Ģåıĳ
æĪ¿éĹ´ç®¡çĲĨ ä¸Ńå¼ķåħ¥
èģļåĲĪçī©è¿ĩç¨ĭ éĻįç»´
ï¼Įä¸Ģä¸ªåŁºäºİ Spring
ï¼Įä¸Ģä¸ªåŁºäºİ GoçļĦå®ŀæĹ¶WebSocketèģĬå¤©åĲİç«¯
ãĢĤè¯¥é¡¹çĽ® ä¸įä»ħå±ķç¤ºäºĨ
ãĢĤè¯¥é¡¹çĽ® å±ķç¤ºäºĨå®ŀæĹ¶åĲİç«¯å·¥ç¨ĭèĥ½åĬĽ
ïĤ·åĬłæ·± å¯¹å®īåħ¨çĽĳç®¡
ïĤ·åĬłæ·± äºĨå¯¹
éĺ²çģ«æľį æ¨¡æĭŁä¸İçĥŃ
éĺ²çģ«æľį çģ«çģ¾æ¨¡æĭŁçłĶç©¶
ç©ºæ°Ķè´¨éĩı æĹ¶ç©ºé¢ĦæµĭçłĶç©¶
æļ´éľ² å¹¶æıĲåįĩAPIè®¿éĹ®æİ§åĪ¶
ï¼ĮæĽ¿ä»£ä¸įå®īåħ¨çļĦ æĺİæĸĩå¯Ĩçłģ
ï¼ĮæĽ¿ä»£ä¸įå®īåħ¨çļĦ èĩªåĬ¨å»ºè¡¨
ci i
man ifest
Ġit em
Ġout put
ãĢģg ateway
ãĢģè¡Į æĶ¿
ï¼Įä¸İ å®¢æĪ·åıĬé¡¹çĽ®
ï¼Įæľī åĬ©äºİ
ï¼ĮæĹ¶éĹ´ æ¯Ķè¾ĥçģµæ´»
ï¼ĮåĲĮæĹ¶ å°ĨæĮģä¹ħåĮĸ
ï¼Įéģ¿åħį å®īåħ¨æķıæĦŁ
ïĤ·L angChain
rep lace
rect ness
ä¸İçľŁå®ŀ å·¥ç¨ĭåľºæĻ¯çļĦ
Ġcla mp
æľįåĬ¡è°ĥçĶ¨ å¹¶æıĲåįĩå¾®æľįåĬ¡éĽĨæĪĲåı¯ç»´æĬ¤æĢ§
Ġfe atures
Ġinstru mentation
Ġbu g
æ±ĤèģĮ æĸ¹åĲĳ
cover age
ï¼ĮåĮħæĭ¬æ¨¡åŀĭ æİ¨çĲĨ
æ°´å¹³ æī©å±ķæıĲä¾ĽåŁºç¡Ģ
ãĢģæķ°æį®å¤ĦçĲĨ éĢ»è¾ĳ
Ġcommit ment
å¹´ä»¥ä¸Ĭ å¼Ģåıĳç»ıéªĮ
Ġschema ä¸İFlyway
-re lative
/API èĥ½åĬĽè½¬
Ġk eep
Ġé¡¹çĽ® åĪ¶
ãĢģè¯Ħ è®º
ãĢģå¤±è´¥ å¤ĦçĲĨ
ãĢģçī¹å¾ģ åĪĨæŀĲ
ãĢģåĽŀå½Ĵ å½±åĵįåĪĨæŀĲä»¥åıĬ
ãĢģåĪĨæŀĲä¸İ åı¯è§ĨåĮĸ
ï¼Įåı¯ çĶ¨äºİ
ï¼Įå¤ļ æŃ¥æİ¨çĲĨ
çļĦåħ³ç³» åŀĭåŃĺåĤ¨
çļĦè¯·æ±Ĥ è¿ĩæ»
æķ°æį®è¿Ľè¡Į å¤ĦçĲĨ
ĠActuator åģ¥åº·
åıĳéĢģ éĻĲæµģ
åįĬ ä¸»åĬ¨æīĳç¿
åįł çĶ¨
lem etry
åŁ¹è®Ń é¡¹çĽ®
ä¸Ńå¿ĥ åĮĸäº¤äºĴ
Ġper form
æģ¶ åĮĸ
ï¼ĪSC I
åĲİç«¯æķ°æį® ä¸Ģèĩ´æĢ§éĹ®é¢ĺåıĬ
èĢ¦ èĥ½åĬĽ
æľŁéĹ´ åıĬä¹ĭ
äº¤åıī éªĮè¯ģ
Ġdet ailed
ï¼Įä½¿åħ¶ èĥ½å¤ŁçĲĨè§£è½¯ä»¶ç³»ç»Ł
å¾®æľįåĬ¡æŀ¶æŀĦ èĥ½åĬĽ
åĮ¹éħįåº¦ æľĢé«ĺçļĦ
ï¼Įä¸ºåĲİç»Ń å·¥ä¸ļ
åĪĿå§ĭ åĮĸ
Ġvis ualization
++ /
/Redis éĽĨæĪĲæµĭè¯ķä»¥åıĬWebSocketåĪĨåıĳæµĭè¯ķ
/WebSocket è®¡æķ°
/åĽŀæ»ļ ä»¥åıĬè¿Ĳç»´åĨħå®¹
CPU å¯ĨéĽĨåŀĭ
_b atch
_RE FIT
ient ed
¤ä¸İ åħ¬å¼Ģ
Ġ> =
Ġå Ĥ¬åĮĸ
ĠåĲĪ åĲĮåĪ¶åħ¨æłĪ
ä¸ľ åºĶæĢ¥ä¸ĵ
ãĢģd App
ãĢģåĪĨ æĶ¯
ãĢģé¡¹çĽ® éħįç½®
ãĢģä¾Ŀèµĸ åı¯è§ģæĢ§
ãĢģéĩįå¤į ä»£çłģå¼ķçĶ¨
ãĢģå®ŀéªĮ å¯¹æ¯Ķ
ãĢģæĪĲæľ¬ æİ§åĪ¶
ãĢģè·¨ éĥ¨éĹ¨
ãĢģåİ» ä¸Ńå¿ĥåĮĸäº¤äºĴ
ãĢģæĪĲåĳĺ åĪĨéħį
ãĢģæĬĢæľ¯æĸ¹æ¡Ī è®¾è®¡
ï¼Įä½¿çĶ¨ æĪ·åı¯ä»¥
ï¼Įç»ĵåĲĪ åŁºäºİJWT
ï¼Įæĺİç¡® åŃĺåĤ¨èģĮè´£
ãĢĤä¸į è¿ĩ
ç»Ŀ å¯¹
çļĦæķ°æį®åºĵ åıĺæĽ´ç®¡çĲĨ
æķĻ èĤ
ä¸İéªĮè¯ģ èĦļæľ¬
æµ® æłĩé¡¹çĽ®
Ġcor rectness
Ġread iness
æĶ» è¯»åįļå£«
æĭ¥æľī Web
èĥ½åĬĽä¸İ åįıè°ĥèĥ½åĬĽ
ä¸ĬéĿ¢ æĺ¯
åĻª å£°
åı¯ä»¥åľ¨ä¸į éĺ»å¡ŀ
agn ation
çŃīåĬŁèĥ½ æ¨¡åĿĹ
æĽ´åĬł æ¸ħæĻ°
Ġstrik e
ï¼Įå¹¶ä½¿çĶ¨ Recharts
ï¼Įå¹¶éĢļè¿ĩ Bearer
è¾ĵåħ¥ä¸İ çĽ®æłĩè¾ĵåĩº
Ġreproduc ible
ï¼ĮèĢĮä¸į æĺ¯ä¸Ģæ¬¡
å¥ĸåĬ± æ¨¡åŀĭ
çĿĢ éĻĨ
/metrics æĮĩæłĩæİ¥åı£
å¯¼èĩ´çļĦ è¯¯æĬ¥é£İéĻ©
è®©æĪĳ å¤įåĪ¶
è£Ĥ åĮĸ
ç²¾ç®Ģ çīĪ
Ġcomple x
éĤ®ä»¶ éĢļçŁ¥åĬŁèĥ½
ĠSecurity å®ŀçİ°è®¤è¯ģ
æ··åĲĪ æ£Ģç´¢
Ġtrack ing
èĻļæĭŁ çİ¯å¢ĥ
ïĤ·Review ed
%ï¼ī ï¼Ľ
-or iented
.du mp
/P LS
/æ¨¡åŀĭ è¯Ħä¼°
/ä»ĵåºĵ è®¿éĹ®
/é£İéĻ©é¢ĦèŃ¦ å»ºæ¨¡
/éĩįå¤į ä»£çłģåĪĨæŀĲ
/In former
/è®¡è´¹ ç®¡çĲĨ
/æĹ¶åºı é¢Ħæµĭ
/ç§ģ æľīè·¯çĶ±
/èµĦäº§å±ķç¤ºåıĬ äº¤äºĴæµģç¨ĭ
=F alse
Dro pout
Lay er
_as cii
our ce
ªī ä¸İè¯ģä¹¦
±åĮĸ åĵģç®¡çĲĨ
¶å° ¾æ°Ķ
¸è¡Įä¸ļ å®īåħ¨çĽĳç®¡æī§æ³ķèĥ½åĬĽæıĲåįĩ
¹èĪ ¶å°¾æ°Ķ
¼æİ¨è¿Ľ æĢ§èĥ½çłĶç©¶é¡¹çĽ®
¾æŀĦå»º MicroMart
åµĮ åħ¥ä¸İæ³¨æĦıåĬĽæľºåĪ¶
ç£ģ çĽĺ
ĠåĪĨ ä½įæİ§åĪ¶
ĠæŀĦå»º åīįç«¯é¡µéĿ¢
ĠâĢ Ķ
Ġç»´ èģļåĲĪçī©è¿ĩç¨ĭéĻįç»´
ĠçĶ¨æĪ· äº¤äºĴæµģç¨ĭéĹ®é¢ĺ
ĠçĽĳæİ§ åıĬåıĺéĩı
Ġæį¢ çĥŃåĻ¨ç»ĵåŀ¢
Ġè¿ĩç¨ĭ æĸ¹å·®
ĠæĲ Ńå»º
Ġæĸ¹æ¡Ī è¯¯æĬ¥çİĩ
Ġæ·±åº¦åŃ¦ä¹ł æĸ¹æ³ķ
Ġè¶ħ éĻĲé¢ĦèŃ¦
Ġäº§åĵģ å¼Ģåıĳæµģç¨ĭ
ĠéĴ±åĮħè¿ŀæİ¥ åıĬåĮºåĿĹéĵ¾äº¤äºĴ
Ġç©ºéĹ´ æĸ¹å·®è§£éĩĬ
ĠæĹ¶åºı åĪĨæŀĲ
Ġå¤ļåħĥ åĽŀå½ĴçĽĳæİ§æ¨¡åŀĭ
ĠåİĤ éķ¿ç§ĺä¹¦
Ġè¿Ľè¡Įæķ°æį® é¢Ħå¤ĦçĲĨ
Ġè¯Ńä¹īæĲľç´¢ å·¥ç¨ĭå¸Ī
Ġæķħéļľæ£Ģæµĭä¸İè¯ĬæĸŃ çļĦå®Įæķ´æµģç¨ĭ
Ġå¥Ĺ çľŁå®ŀå·¥ä¸ļæķ°æį®éĽĨ
Ġæ¸©åº¦ æķ°æį®å»ºç«ĭ
ĥæ°Ķ é¢ĦèŃ¦
ıçİ°æľī è¯»åıĸè·¯å¾ĦçļĦæĥħåĨµä¸ĭ
Ķèĩªæ²»åĮº åºĶæĢ¥ç®¡çĲĨåİħ
ãĢģåıĳ ç¥¨
ãĢģåį ±åĮĸåĵģç®¡çĲĨ
ãĢģåľ¨ çº¿æ²ŁéĢļ
ãĢģåīį åĲİç«¯æķ°æį®ä¸Ģèĩ´æĢ§éĹ®é¢ĺåıĬ
ãĢģä»£ å¸ģ
ãĢģå®ļ æĹ¶ä»»åĬ¡
ãĢģé«ĺ ç®¡æĬ¥åĳĬçĶŁæĪĲ
ãĢģåĬł çĥŃçĤīçŃī
ãĢģåıĤä¸İ èĢħ
ãĢģAPI æµĭè¯ķ
ãĢģå·¥ä¸ļ çĽĳæµĭæķ°æį®åĪĨæŀĲ
ãĢģè¿ŀæİ¥ å¯¼åĲĳåŀĭåľºæĻ¯
ãĢģåĽ¢éĺŁ è®¾ç½®
ãĢģè¿ľç¨ĭ åįıä½ľ
ãĢģå®ŀæĹ¶ ç³»ç»Ł
ãĢģæĸŃ å¼Ģæ¸ħçĲĨ
ãĢģåıĺéĩı è´¡çĮ®å®ļä½įåıĬçĽĳæİ§æĸ¹æ¡Ī
ãĢģçĬ¶æĢģ æĮģä¹ħåĮĸ
ãĢģçĶŁäº§ æķ°æį®æķ´çĲĨ
ãĢģéĴ±åĮħ éĽĨæĪĲ
ãĢģçŁ¥è¯Ĩ æ£Ģç´¢
ãĢģè¯·æ±Ĥ IDä¸ŃéĹ´ä»¶
ãĢģéĵ¾ ä¸Ĭäº¤äºĴ
ãĢģé¢ĨåŁŁ æľįåĬ¡
ãĢģæĮī éľĢæĸĩä»¶
ãĢģåĵįåºĶ å¼ıUI
ãĢģGateway åıĬåĲĦ
ãĢģä»£çłģä»ĵåºĵ è¿ŀæİ¥
ãĢģæĮĩæłĩ çĽĳæİ§
ãĢģåĲ¯åĬ¨ è¿ģç§»æī§è¡Į
ãĢģå¹¶åıĳ å®īåħ¨è®¾è®¡
ãĢģå·¥ä¸ļå®īåħ¨ æĻºèĥ½åĮĸ
ãĢģå·¥ä½ľæµģ èĩªåĬ¨åĮĸ
ãĢģåĽ¢éĺŁç®¡çĲĨ ä»¥åıĬåīįç«¯
ãĢģåīįç«¯é¡µéĿ¢ å¼Ģåıĳ
ãĢģç»ĵæŀĦåĮĸ è®¿éĹ®æĹ¥å¿Ĺ
ãĢģå¹¿æĴŃ æ¶Īæģ¯ä»¥åıĬæĪ¿éĹ´
ãĢģè§Ĵèī² å±Ĥçº§
ãĢģæĬĢæľ¯æĸĩæ¡£ åıĬè·¨
ãĢģç§ģ èģĬ
ãĢģåıĺæĽ´ æĸĩä»¶éĩįæī«
ãĢģæĶ¯ä»ĺ äºĭä»¶å¤ĦçĲĨä»¥åıĬåŁºäºİ
ãĢģäº¤æĺĵ è®°å½ķåıĬä¸ļåĬ¡éĢ»è¾ĳ
ãĢģç½ĳåħ³ è·¯çĶ±
ãĢģéľĢæ±ĤçĲĨè§£ èĥ½åĬĽä¸İåįıè°ĥèĥ½åĬĽ
ãĢģçĵ¦æĸ¯æµĵåº¦ é¢Ħæµĭ
ãĢģåĮºåĿĹéĵ¾äº¤äºĴ ä»¥åıĬ
ãĢģç«ŀæĢģ æ£Ģæµĭ
ãĢģæıĲç¤ºè¯į å·¥ç¨ĭ
ãĢģè¯Ńä¹īçº§ä»£çłģ éĹ®çŃĶä»¥åıĬåĽ¢éĺŁ
ãĢģæĹłæķĪJSON ä¿®å¤įä»¥åıĬAIçĶŁæĪĲ
ãĢģè¿Ńä»£äº¤ä»ĺ åıĬåŁºäºİ
ãĢģnp m
ãĢģè®¾å¤ĩ é¢ĦèŃ¦åıĬèĥ½æºĲ
ãĢģä»·æł¼ ä¸İæĶ¯ä»ĺ
ãĢģç¬¬ä¸īæĸ¹ APIéĽĨæĪĲ
ãĢģçĩ ĥæ°Ķé¢ĦèŃ¦
åı¬åĽŀ çİĩ
ï¼ĮåĪĨæŀĲ Pull
ï¼Įæĸĩæ¡£ æĻºèĥ½
ï¼ĮåıĤä¸İ å¤ļä¸ªè¿ľç¨ĭè½¯ä»¶å¼Ģåıĳ
ï¼ĮSc ikit
ï¼Įå®ĮæĪĲ æķħéļľæ£Ģæµĭä¸İè´¡çĮ®
ï¼Įæī«æıı æºĲä»£çłģ
ï¼Įå½±åĵį åĽłåŃĲ
ï¼Įè¯ĨåĪ« æĸĩä»¶ç±»åŀĭ
ï¼ĮCU SUM
ï¼ĮçłĶç©¶æĸ¹åĲĳ åĮħæĭ¬å·¥ä¸ļäººå·¥æĻºèĥ½
ï¼Įåħ·å¤ĩ ç½ķè§ģ
ï¼Įè¿½è¸ª ä»£çłģå½±åĵį
ï¼Įå·¥åħ· è°ĥçĶ¨
ï¼Įåľ¨ä¸į çł´åĿ
ï¼ĮçĨŁæĤī å·¥ä¸ļè¿Ĳè¡Į
ï¼ĮæıĲåıĸ åĩ½æķ°
ï¼Įå¢ŀå¼º é¢ĨåŁŁéĢ»è¾ĳä¸İéĢļçŁ¥
ï¼ĮMAT LAB
ï¼ĮPrompt å·¥ç¨ĭ
ï¼Įå½¢æĪĲ åı¯å¤įçĶ¨çļĦ
ï¼ĮæľŁå¾ħ è¿Ľä¸ĢæŃ¥æ²ŁéĢļ
ãĢĤç³»ç»Ł åı¯è¿ŀæİ¥
ãĢĤæĽ ¾æŀĦå»ºMicroMart
ãĢĤçĲĨè§£ çĶŁäº§çº§AIç³»ç»Ł
ãĢĤèĥ½å¤Ł å°ĨAIæĥ³
ãĢĤåĲĮæĹ¶ æĭ¥æľīWeb
ãĢĤçĽ®åīį åľ¨æĸ°çĸĨå¤§åŃ¦
çļĦAI ä½¿çĶ¨æİ§åĪ¶
çļĦæľ¬åľ° äºĮè¿ĽåĪ¶åŃĺåĤ¨
çļĦç»¼åĲĪ èĥ½åĬĽç»ĦåĲĪ
ïĤ·å¯¹ å®ŀéªĮä¸İä»¿çľŁ
ïĤ·å®īåħ¨ æĻºèĥ½
ïĤ·å¤ĦçĲĨ æĹ¶åºıèĩªçĽ¸åħ³
ïĤ·æıĲåįĩ æĸĩæ¡£èĥ½åĬĽ
ïĤ·å·¥ä¸ļ AI
ïĤ·è¾ĵåĩº åı¯è§ĨåĮĸåĪĨæŀĲæĪĲæŀľ
ïĤ·æł¹æį® é¡¹çĽ®éľĢæ±Ĥ
ïĤ·è´Łè´£ ä¼ļè®®
ïĤ·æĹ¶ç©º é¢Ħæµĭ
ïĤ·å¼Ģå±ķ å¤ļåħĥ
ïĤ·ä¸ŃåĽ½çŁ³æ²¹ ä¼ĺç§Ģåħ±
ïĤ·èĩªæ²»åĮº åįļå£«çłĶç©¶çĶŁåŃ¦ä¸ļå¥ĸåŃ¦éĩĳ
ïĤ·ç§¯ ç´¯äºĨå®īåħ¨çĽĳæµĭ
ïĤ·Work ed
ï¼ĽéĩıåĮĸ çĽĳæİ§æĢ§èĥ½
reel ance
æķ°æĹ¶éĹ´ å¯Ĩçłģæł¡éªĮ
ä¸İé¡¹çĽ® æĸĩæ¡£
ä¸İRedis çļĦå¼ĤæŃ¥ä»ĵåºĵæī«æıı
ä¸İåĽŀçŃĶ åĪĨçīĩ
ä¸İçĻ»å½ķ è®¤è¯ģ
ä¸İåĽ¢éĺŁç®¡çĲĨ åĬŁèĥ½
ä¸İä¸Ĭçº¿ é£İéĻ©è¯Ħä¼°èĥ½åĬĽ
ä¸İä¸ļåĬ¡æľįåĬ¡ åĪĨç¦»
ä¸İGORMæĮģä¹ħåĮĸ èģĬå¤©æķ°æį®
ä¸İå¤©çĦ¶ æ°Ķå·¥ç¨ĭ
ä¸İèģĶç³» äººåĪĹè¡¨
æµªé©±åĬ¨ åīĸéĿ¢
ï¼ļä»ĵåºĵ æķ°æį®æİ¥åħ¥
ï¼ļä»ħ çĶ¨
ï¼ļçŁ³æ²¹ ä¸İå¤©çĦ¶æ°Ķå·¥ç¨ĭ
ï¼ļä¸įä»ħ ä»ħæŀĦå»ºè°ĥçĶ¨
ï¼ļå·¥èīº å·¥ç¨ĭå¸Ī
å·¥åĨµ ä¸ĭ
åı¯çĶ¨çļĦ è½¯ä»¶äº§åĵģ
åŀĥåľ ¾
ĠAss urance
åĮĸä¸º åı¯çĶ¨çļĦè½¯ä»¶äº§åĵģ
åĮĸä¸İåı¯å¤įçİ° çļĦæķ°æį®åºĵåıĺæĽ´ç®¡çĲĨ
å®ŀæĸ½ æİ§åĪ¶åĽ¾çĽĳæİ§
æĢ§ä¸İéĥ¨ç½² åı¯ç»´æĬ¤æĢ§
ä¸Ńä½į æķ°
åŁºéĩĳ åįĬä¸»åĬ¨æīĳç¿
ä»¥åıĬå·¥ç¨ĭ åĪĨæŀĲåı¯è§ĨåĮĸ
ä»¥åıĬå¤±è´¥ æĹ¥å¿Ĺè®°å½ķ
ä»¥åıĬæľ¬åľ° éĥ¨ç½²éªĮè¯ģèĥ½åĬĽ
ä»¥åıĬåĮºåĿĹéĵ¾ æķ°æį®éĽĨæĪĲ
ä»¥åıĬå·¥ä¸ļäººå·¥æĻºèĥ½ çłĶç©¶
ä»¥åıĬè®¿éĹ®æİ§åĪ¶ çĽ¸åħ³åĲİç«¯éĢ»è¾ĳ
Ġreduc ing
ç«¯Java å¾®æľįåĬ¡æŀ¶æŀĦèĥ½åĬĽ
åľ¨LLM åºĶçĶ¨å·¥ç¨ĭæĸ¹éĿ¢
åľ¨ç½ĳ é¡µ
åľ¨åĲİç«¯æŀ¶æŀĦ æĸ¹éĿ¢åħ·å¤ĩè¾ĥå¼º
åľ¨äºİè¿ŀæİ¥ AIä¸İå·¥ç¨ĭ
AIçļĦå®Įæķ´ äº§åĵģå·¥ç¨ĭèĥ½åĬĽ
AIé©±åĬ¨çļĦ ä»£çłģæĻºèĥ½å¹³åı°
ĠShew hart
æľįåĬ¡è¿Ľè¡Į å®¹åĻ¨åĮĸ
æľįåĬ¡çĽ´æİ¥ æļ´éľ²å¹¶æıĲåįĩAPIè®¿éĹ®æİ§åĪ¶
æľįåĬ¡çĭ¬ç«ĭçļĦ PostgreSQL
Ġpredi ction
ä½ľåĵģ éĽĨ
åĪĨæŀĲæºĲä»£çłģ æĸĩä»¶
Ġfail ure
é¡¹æ³¢ æµªé©±åĬ¨åīĸéĿ¢
éĿĴåĽ¢ åĳĺ
å¹¶åŃĺåĤ¨ èĩ³PostgreSQL
å¯¹æīĢæľī æľįåĬ¡è¿Ľè¡Įå®¹åĻ¨åĮĸ
å·¥ç¨ĭæĢĿç»´ ä¸İä¸Ĭçº¿é£İéĻ©è¯Ħä¼°èĥ½åĬĽ
ä»£çłģå®ŀçİ° å±ĤéĿ¢çļĦç³»ç»ŁæĢ§
ç®¡çĲĨæĸĩæ¡£ å·¥ä½ľ
ĠAIåºĶçĶ¨ å·¥ç¨ĭå¸Ī
ĠAIé©±åĬ¨ ä»£çłģæĻºèĥ½å¹³åı°
ĠAIä»£çłģæĻºèĥ½ å·¥ç¨ĭå¸Ī
ç³»ç»Łå»ºè®¾ æķĪæŀľè¯Ħä¼°æĬ¥åĳĬé¡¹çĽ®
é£İéĻ©å¹¶ä¿ĿæĬ¤ è®¤è¯ģä¸İå®ŀæĹ¶éĢļä¿¡
çłĶç©¶æīĢ éĺ²çģ«æľįçģ«çģ¾æ¨¡æĭŁçłĶç©¶
éħįé¢Ŀ çļĦAIä½¿çĶ¨æİ§åĪ¶
ï¼īä½ĵç³» åĨħå®¡
ï¼īä»¥åıĬæĿ¥èĩª ä¸ŃåĽ½çŁ³æ²¹çļĦå·¥ä¸ļå®īåħ¨
ï¼Īä¸ªäºº å®ŀæĪĺé¡¹çĽ®
ï¼Īç´¯è®¡ æĸ¹å·®
ï¼ĪæĽĿæ°Ķ æ±ł
RedisçĬ¶æĢģ è¿ģç§»èĩ³åı¯å®¡è®¡
åĲİç«¯è¿Ľç¨ĭ ä»įåı¯æŃ£å¸¸
ĠAPIçļĦde mo
æķ°æį®åºĵè¿ģç§» èĦļæľ¬
Dockerfile å¯¹æīĢæľīæľįåĬ¡è¿Ľè¡Įå®¹åĻ¨åĮĸ
æŀĦå»ºå®ŀæĹ¶ èģĬå¤©åĲİç«¯
æŀĦå»ºHikaflow ä½ľä¸ºåħ¨æłĪAI
æıĲåįĩè®¤è¯ģ ä¸Ģèĩ´æĢ§ä¸İéĥ¨ç½²åı¯éħįç½®
æıĲåįĩç³»ç»Łè¿Ĳè¡Į åı¯è§ĤæµĭæĢ§ä¸İéĹ®é¢ĺ
æİ§åĪ¶ä¸İåıĳå¸ĥ åı¯éĿłæĢ§
ï¼ĮåĮħæĭ¬åĽ¢éĺŁ åĪĽå»º
ï¼ĮåĮħæĭ¬WebSocket è¿ŀæİ¥çĶŁåĳ½åĳ¨æľŁç®¡çĲĨ
ï¼ĮåĮħæĭ¬éĴ±åĮħ çĻ»å½ķ
ï¼ĮåĮħæĭ¬å®¢æĪ·ç«¯ æ³¨åĨĮ
ï¼ĮåĮħæĭ¬ä»£çłģæ¦Ĥ è§ĪçĶŁæĪĲ
åıĤæķ°é«ĺæķĪ å¾®è°ĥ
æ³ķä»İ æ¨¡åŀĭ
å·¥ä¸ļè¿ĩç¨ĭ ç»Łè®¡çĽĳæİ§ä¸İæķħéļľæ£Ģæµĭ
ï¼Įå¹¶ä¿®å¤į AIçĶŁæĪĲçļĦæĹłæķĪJSON
ï¼Įå¹¶ä¿Ŀè¯ģ åĲĦæ¨¡åĿĹåı¯çĭ¬ç«ĭ
ï¼Įå¹¶çĶŁæĪĲåĽ¢éĺŁ çº§å·¥ç¨ĭæĬ¥åĳĬ
æ¶Īéĺ² çłĶç©¶æīĢéĺ²çģ«æľįçģ«çģ¾æ¨¡æĭŁçłĶç©¶
ä¸»è¯·æ±Ĥ è·¯å¾ĦçļĦæĥħåĨµä¸ĭåıĳå¸ĥäºĭä»¶
æĻºèĥ½åĨ³çŃĸ æĶ¯æĮģ
çº§æķħéļľ éļĶç¦»
ïĤ·åıĤä¸İå¹¿ ä¸ľåºĶæĢ¥ä¸ĵ
ïĤ·åıĤä¸İçŁ³æ²¹ åĮĸå·¥çĶŁäº§ä¸İå·¥èīº
ïĤ·åıĤä¸İå¤©æ´¥ æµ·ä¸ĬèĪ
ïĤ·åıĤä¸İå·¥èīº çĽĳæµĭ
ïĤ·åıĤä¸İåĽ½å®¶ èĩªçĦ¶ç§ĳåŃ¦
ïĤ·åıĤä¸İè½¯ä»¶äº¤ä»ĺ åħ¨æµģç¨ĭ
ïĤ·åıĤä¸İå·¥è´ ¸è¡Įä¸ļå®īåħ¨çĽĳç®¡æī§æ³ķèĥ½åĬĽæıĲåįĩ
ïĤ·åıĤä¸İè°ĥè¯ķ éĴ±åĮħäº¤äºĴéĹ®é¢ĺ
éĻĲäºİç®Ģåįķ APIè°ĥçĶ¨
è¿ŀæİ¥åĪ°ä¸įåĲĮ åĲİç«¯è¿Ľç¨ĭä»įåı¯æŃ£å¸¸
ï¼Įä¸įå±Ģ éĻĲäºİç®ĢåįķAPIè°ĥçĶ¨
è®¤è¯ģçļĦWebSocket è¿ŀæİ¥çĶŁåĳ½åĳ¨æľŁç®¡çĲĨ
åĽ¢éĺŁåįıä½ľ ç»ıéªĮ
åĽ¢éĺŁå¼Ģå±ķ è¿ľç¨ĭåĲĪä½ľ
çİ¯å¢ĥä¹ĭéĹ´çļĦ ä¸Ģèĩ´æĢ§
çİ¯å¢ĥæķ°æį®çļĦ åĬ¨æĢģåħ³ç³»
ïĤ·ä½¿çĶ¨PostgreSQL ä¸İGORMæĮģä¹ħåĮĸèģĬå¤©æķ°æį®
ïĤ·ä½¿çĶ¨Zustand è¿Ľè¡Įåīįç«¯
ïĤ·ä½¿çĶ¨OpenFeign å®ŀçİ°æľįåĬ¡éĹ´éĢļä¿¡
ïĤ·ä½¿çĶ¨Eureka å®ŀçİ°æľįåĬ¡åıĳçİ°
ïĤ·ä½¿çĶ¨å¤ļéĺ¶æ®µ Dockerfileå¯¹æīĢæľīæľįåĬ¡è¿Ľè¡Įå®¹åĻ¨åĮĸ
olla bor
åħ¨æłĪä¸ļåĬ¡ åºĶçĶ¨
åħ¨æłĪäº¤ä»ĺ èĥ½åĬĽ
ä»İä¸´æĹ¶ RedisçĬ¶æĢģè¿ģç§»èĩ³åı¯å®¡è®¡
æ¶Īæģ¯å½Ĵå±ŀ éĢĲæŃ¥è¿ģç§»èĩ³PostgreSQL
ä¸ŃçļĦç«ŀæĢģ é£İéĻ©
ä¸ŃçļĦGoåĲİç«¯å¼Ģåıĳ èĥ½åĬĽ
éĺ²æİ§ä½ĵç³» çļĦçĲĨè§£
éļľç¢ į
ĠBootå¾®æľįåĬ¡ åıĤèĢĥå¹³åı°
ï¼Įä½¿æľįåĬ¡è¾¹çķĮ æĽ´åĬłæ¸ħæĻ°
ï¼Įä½¿ä¸ļåĬ¡æľįåĬ¡ åı¯ä»¥åľ¨ä¸įéĺ»å¡ŀ
ĠComposeåģ¥åº·æ£ĢæŁ¥ æľºåĪ¶
ĠComposeéħįç½®ä»¥åıĬ Swagger
elie f
çĽĳæµĭçĽĳç®¡ ç³»ç»Łå»ºè®¾æķĪæŀľè¯Ħä¼°æĬ¥åĳĬé¡¹çĽ®
æł¸å¿ĥä»·åĢ¼ åľ¨äºİè¿ŀæİ¥AIä¸İå·¥ç¨ĭ
ï¼ĮæĶ¯æĮģåı¯éħįç½® tokenå¯ĨéĴ¥ä¸İ
ï¼ĮæĶ¯æĮģéĺ²æĬ¤ æĢ§èĥ½è¯Ħä¼°
ï¼ĮæĶ¯æĮģæĸĩä»¶åħĥæķ°æį® æĮģä¹ħåĮĸä¸İåı¯éħįç½®
ï¼ĮæĶ¯æĮģè¯Ńä¹īçº§ä»£çłģ åºĵéĹ®çŃĶ
ï¼ĮæĶ¯æĮģå¤ļç§į å®ŀæĹ¶éĢļä¿¡æ¨¡å¼ı
ï¼ĮæĶ¯æĮģåħ¨éĩı æī«æıı
æ²ŁéĢļåıĬçĶŁäº§ ç®¡çĲĨæĸĩæ¡£å·¥ä½ľ
ï¼Įä»¥æıĲåįĩå¤įæĿĤ é¢ĦæµĭæĢ§èĥ½
ï¼ĮçĶ¨äºİä»£çłģä»ĵåºĵ åĪĨæŀĲ
ï¼ĮçĶ¨äºİå®ŀæĹ¶AIå¤ĦçĲĨ è¿Ľåº¦æİ¨éĢģ
gramm ing
ãĢģRedisä¸İPostgreSQL æŀĦå»ºå®ŀæĹ¶èģĬå¤©åĲİç«¯
ï¼Įè¦ĨçĽĸä»£çłģæł¼å¼ı æ£ĢæŁ¥
ï¼Įè¦ĨçĽĸä»İåįķåıĺéĩı æİ§åĪ¶åĽ¾åĪ°å¤ļåħĥ
ïĤ·å®ŀçİ°ç»Ħç»ĩ ä¸İåĽ¢éĺŁç®¡çĲĨåĬŁèĥ½
ïĤ·å®ŀçİ°è¯Ńä¹īçº§ ä»£çłģä»ĵåºĵéĹ®çŃĶç³»ç»Ł
ïĤ·å®ŀçİ°ç»ıè¿ĩ è®¤è¯ģçļĦWebSocketè¿ŀæİ¥çĶŁåĳ½åĳ¨æľŁç®¡çĲĨ
ïĤ·å®ŀçİ°çĶ¨æĪ·æ³¨åĨĮ ä¸İçĻ»å½ķè®¤è¯ģ
ïĤ·å®ŀçİ°GitHubä¸İBitbucketä»£çłģä»ĵåºĵ éĽĨæĪĲ
ïĤ·çłĶç©¶æĪĲæŀľ éĢĤçĶ¨äºİæĻºæħ§åŁİå¸
ïĤ·çłĶç©¶æĸ¹åĲĳéĢĤçĶ¨äºİ å·¥ä¸ļå®īåħ¨çĽĳæµĭ
ïĤ·æŀĦå»ºPR åĪĨæŀĲä¸İæĬ¥åĳĬçĶŁæĪĲæµģç¨ĭ
ïĤ·æŀĦå»ºåįķåıĺéĩı çĽĳæİ§æĸ¹æ¡Ī
ïĤ·æŀĦå»ºåŁºäºİBullMQ ä¸İRedisçļĦå¼ĤæŃ¥ä»ĵåºĵæī«æıı
Ġä¸ªåı¯å¤įçİ° åĪĨæŀĲ
Ġä¸ªæ½ľ åıĺéĩı
ãĢģæķ°æį®åĪĨæŀĲä»¥åıĬ æĻºèĥ½åĨ³çŃĸæĶ¯æĮģ
ãĢģå®īåħ¨é£İéĻ©æİ§åĪ¶ åıĬçĶŁäº§æķ°æį®ç®¡çĲĨ
ãĢģå®īåħ¨åĬłåĽº ä»¥åıĬè¿Ĳç»´åı¯è§ĤæµĭæĢ§
æľ¬åľ°åĲ¯åĬ¨ ä¸İåı¯å¤įçİ°éĽĨæĪĲæµĭè¯ķ
ï¼Įå®ŀçİ°åĲĳéĩıæ£Ģç´¢ çĽ¸åħ³ä»£çłģä¸Ĭä¸ĭæĸĩ
ï¼Įå®ŀçİ°çīĪæľ¬ åĮĸä¸İåı¯å¤įçİ°çļĦæķ°æį®åºĵåıĺæĽ´ç®¡çĲĨ
ï¼Įå®ŀçİ°ç»ĵåŀ¢ å·¥åĨµä¸ĭ
ï¼Įå®ŀçİ°ä¸ĢéĶ® æľ¬åľ°åĲ¯åĬ¨ä¸İåı¯å¤įçİ°éĽĨæĪĲæµĭè¯ķ
ï¼Įå®ŀçİ°è¿ĩç¨ĭå¼Ĥå¸¸ è¯ĨåĪ«
ï¼ĮæıĲåįĩéķ¿æĹ¶éĹ´ ä»ĵåºĵåĪĨæŀĲçļĦçĶ¨æĪ·ä½ĵéªĮ
ï¼ĮæıĲåįĩæľįåĬ¡åĲ¯åĬ¨ é¡ºåºıæİ§åĪ¶
ï¼ĮæıĲåįĩçİ¯å¢ĥåı¯å¤įçİ° æĢ§ä¸İéĥ¨ç½²åı¯ç»´æĬ¤æĢ§
ï¼ĮæıĲåįĩæľ¬åľ°ä¸İéĥ¨ç½² çİ¯å¢ĥä¹ĭéĹ´çļĦä¸Ģèĩ´æĢ§
ïĤ·åŁºäºİç®Ĺæ³ķ å»ºæ¨¡ä¸İä»¿çľŁ
ïĤ·åŁºäºİæĹ¶ç©º åµĮåħ¥ä¸İæ³¨æĦıåĬĽæľºåĪ¶
ïĤ·è®¾è®¡åĲĦ æľįåĬ¡çĭ¬ç«ĭçļĦPostgreSQL
ïĤ·è®¾è®¡AIä»£çłģåĪĨæŀĲ æµģç¨ĭ
è·¯å¾ĦçĶ¨äºİèģĬå¤©åİĨåı² ä¸İèģĶç³»äººåĪĹè¡¨
åıĺåĮĸä¸İçĪĨçĤ¸é£İéĻ©é¢ĦèŃ¦ éĹ®é¢ĺ
ï¼ĮåĮħåĲ«å®ļä»· æĸ¹æ¡Ī
ãĢģé£İéĻ©è¯ĨåĪ«åıĬæĬĢæľ¯æĸĩæ¡£ ç¼ĸåĨĻ
ãĢģçĶ¨æĪ·èµĦäº§å±ķç¤ºåıĬ äº¤æĺĵçĽ¸åħ³æµģç¨ĭ
ï¼Įä¸ºå¤ļå®ŀä¾ĭ æ°´å¹³æī©å±ķæıĲä¾ĽåŁºç¡Ģ
è®¡è´¹ä¸İè®¢éĺħ ç³»ç»Ł
Ġbackgroun d
åħ·å¤ĩå®Įæķ´çļĦ åħ¨æłĪäº¤ä»ĺèĥ½åĬĽ
/SubçļĦWebSocketæ¶Īæģ¯ åĪĨåıĳæľºåĪ¶
ĠUniver sity
ãĢģåĲİç«¯æľįåĬ¡ä»¥åıĬ åħ¨æłĪä¸ļåĬ¡åºĶçĶ¨
ï¼ĮéĢļè¿ĩçĶŁæĪĲembedding å¹¶åŃĺåĤ¨èĩ³PostgreSQL
ï¼Įè¿Ļæĺ¯ä¸Ģä¸ª AIé©±åĬ¨çļĦä»£çłģæĻºèĥ½å¹³åı°
/OpenAIåħ¼å®¹ æ¨¡åŀĭéĽĨæĪĲ
ãĢģæĸĩä»¶ä¸Ĭä¼ł ä»¥åıĬ
ãĢģå¼ĤæŃ¥äºĭä»¶ éĢļä¿¡
å¹¶åıĳæİ§åĪ¶éĶģ æľºåĪ¶
æĸ°çĸĨç»´åĲ¾å° Ķèĩªæ²»åĮºåºĶæĢ¥ç®¡çĲĨåİħ
ĠçĽ¸åħ³ä¸ļåĬ¡éĢ»è¾ĳ ä»¥åıĬåĮºåĿĹéĵ¾æķ°æį®éĽĨæĪĲ
ĠGatewayä½ľä¸ºç»Łä¸Ģ å¤ĸéĥ¨åħ¥åı£
ãĢģä»ĵåºĵç»ĳå®ļ ä»¥åıĬè®¿éĹ®æİ§åĪ¶çĽ¸åħ³åĲİç«¯éĢ»è¾ĳ
ãĢģéĥ¨ç½²ä»¥åıĬè¿Ĳç»´ æĢĿç»´
ãĢģéĥ¨ç½²æĶ¯æĮģä»¥åıĬåĲİæľŁ ç»´æĬ¤
ï¼ĮåŁºäºİæ®ĭå·® å®ŀæĸ½æİ§åĪ¶åĽ¾çĽĳæİ§
ï¼ĮåŁºäºİDeepSeekä¸İGemini åĪĨæŀĲæºĲä»£çłģæĸĩä»¶
ï¼ĮçĶŁæĪĲç»ĵæŀĦåĮĸ æĸĩä»¶æĸĩæ¡£
ï¼Įæ¶īåıĬ éĴ±åĮħè¿ŀæİ¥
ï¼ĮéĻįä½İèĩªçĽ¸åħ³ å¯¼èĩ´çļĦè¯¯æĬ¥é£İéĻ©
ï¼ĮéĻįä½İå®ŀæĹ¶æ¶Īæģ¯ä¼łéĢĴ ä¸ŃçļĦç«ŀæĢģé£İéĻ©
ï¼ĮéĻįä½İæ»¥çĶ¨ é£İéĻ©å¹¶ä¿ĿæĬ¤è®¤è¯ģä¸İå®ŀæĹ¶éĢļä¿¡
ïĤ·æ·»åĬłRedisåħ¼å®¹ è·¯å¾ĦçĶ¨äºİèģĬå¤©åİĨåı²ä¸İèģĶç³»äººåĪĹè¡¨
å¼Ģå±ķç©ºæ°Ķè´¨éĩı é¢ĦæµĭçłĶç©¶
ä»¥åıĬåŁºäºİçĶ¨æĪ·çļĦWebSocketæ¶Īæģ¯ åıĳéĢģéĻĲæµģ
å·¥ç¨ĭèĥ½åĬĽçļĦæł¸å¿ĥ è¯ģæĺİ
Ġtokenä¸ŃéĹ´ä»¶ æıĲåįĩè®¤è¯ģä¸Ģèĩ´æĢ§ä¸İéĥ¨ç½²åı¯éħįç½®
åĿĩåĢ¼æ¼Ĥç§» åľºæĻ¯ä¸ĭçļĦæ£Ģåĩº
ïĤ·çłĶç©¶çĶŁåĽ½å®¶ å¥ĸåŃ¦éĩĳ
ä¸ŃåĽ½çŁ³æ²¹ä¹Įé²ģæľ¨é½Ĳ çŁ³åĮĸåħ¬åı¸
Ġasynchron ous
ïĤ·éĽĨæĪĲStripe è®¡è´¹ä¸İè®¢éĺħç³»ç»Ł
ïĤ·éĽĨæĪĲåŁºäºİKafka çļĦå¼ĤæŃ¥éĢļçŁ¥æµģç¨ĭ
ï¼Įå¹¶æĶ¯æĮģéĥ¨ç½²ä¸İè¿Ĳç»´ èĲ½åľ°
ï¼Įå¹¶æĶ¯æĮģæµģå¼ıAIåĽŀçŃĶ è¾ĵåĩº
ï¼ĮèĢĮæĺ¯è®¾è®¡å®Įæķ´ ç³»ç»Ł
ĠçŃīåı¯è§ĨåĮĸåºĵå¼Ģåıĳ åīįç«¯çķĮéĿ¢
ï¼Įåĩıå°ĳåĨħéĥ¨ æľįåĬ¡çĽ´æİ¥æļ´éľ²å¹¶æıĲåįĩAPIè®¿éĹ®æİ§åĪ¶
ï¼Įåĩıå°ĳç¡¬ç¼ĸçłģ æľįåĬ¡è°ĥçĶ¨å¹¶æıĲåįĩå¾®æľįåĬ¡éĽĨæĪĲåı¯ç»´æĬ¤æĢ§
åįıè°ĥåıĬçĽ¸åħ³ åĬŀåħ¬å®¤å·¥ä½ľ
Ġä¸Ńç§ĳéĻ¢äºĮ åĮºè®ºæĸĩ
ï¼Įå°Ĩæĸĩä»¶åħĥæķ°æį® ä¸İä¸ļåĬ¡æľįåĬ¡åĪĨç¦»
ï¼Įå°Ĩåħ³éĶ®èģĬå¤©åİĨåı² ä»İä¸´æĹ¶RedisçĬ¶æĢģè¿ģç§»èĩ³åı¯å®¡è®¡
ï¼ĮæıĲé«ĺå·¥ç¨ĭè´¨éĩı æİ§åĪ¶ä¸İåıĳå¸ĥåı¯éĿłæĢ§
ï¼Įè¿ĺä½ĵçİ°äºĨåĽ´ç»ķ AIçļĦå®Įæķ´äº§åĵģå·¥ç¨ĭèĥ½åĬĽ
æĬķéĢĴçļĦè§£ èĢ¦èĥ½åĬĽ
/EChartsé£İæł¼ ç»Ħä»¶å®ŀçİ°æĮĩæłĩ
/æ³¨åĨĮæİ¥åı£çļĦéĻĲæµģæľºåĪ¶ ä»¥åıĬåŁºäºİçĶ¨æĪ·çļĦWebSocketæ¶Īæģ¯åıĳéĢģéĻĲæµģ
/å°±ç»ªæ£ĢæŁ¥ç«¯çĤ¹ ä»¥åıĬDocker
èį£è ªīä¸İè¯ģä¹¦
ãĢģä»£çłģè¯¦ æĥħ
ãĢģå¤ļåľ°çĤ¹ çİ¯å¢ĥæķ°æį®çļĦåĬ¨æĢģåħ³ç³»
ãĢģçİ¯å¢ĥé©±åĬ¨éħįç½®ä»¥åıĬ çĶŁäº§çº§ç³»ç»ŁæĦıè¯Ĩ
ãĢģæ¶Īæģ¯ä»¥åıĬæ¶Īæģ¯ æĬķéĢĴè®°å½ķ
ãĢģæī«æııçĬ¶æĢģè¿½è¸ª ä»¥åıĬå¤±è´¥æĹ¥å¿Ĺè®°å½ķ
ãĢģå½±åĵįè¶ĭåĬ¿ ä»¥åıĬå·¥ç¨ĭåĪĨæŀĲåı¯è§ĨåĮĸ
ãĢģéĢļçŁ¥æľįåĬ¡ä»¥åıĬ æĸĩä»¶åŃĺåĤ¨æľįåĬ¡
ãĢģéĢļçŁ¥åıĬæĸĩä»¶åŃĺåĤ¨ å»ºç«ĭæķ°æį®å½Ĵå±ŀ
ãĢģåºĶæĢ¥ç®¡çĲĨåıĬé£İéĻ© éĺ²æİ§ä½ĵç³»çļĦçĲĨè§£
ãĢģè®¡è´¹ä»¥åıĬWebhook çŃīåĬŁèĥ½æ¨¡åĿĹ
ãĢģçŁ³åĮĸçŃīæµģç¨ĭ å·¥ä¸ļåľºæĻ¯
ãĢģåı¯è§ĤæµĭæĢ§ä»¥åıĬç¨³å®ļçļĦ è½¯ä»¶æŀ¶æŀĦ
ãĢģæĹ¶éĹ´åºıåĪĹé¢Ħæµĭå¹³åı° åıĬæķ°æį®æĻºèĥ½ç³»ç»Ł
ãĢģcommitåħ³èģĶ åĪĨæŀĲ
ãĢģcommitè¿½è¸ªä»¥åıĬåŁºäºİ WebhookçļĦåĪĨæŀĲ
ï¼Įå¯¹æ¯Ķä¸įåĲĮ åĿĩåĢ¼æ¼Ĥç§»åľºæĻ¯ä¸ĭçļĦæ£Ģåĩº
ï¼ĮçłĶç©¶ä¸įåĲĮçģ«çģ¾ åľºæĻ¯ä¸ĭçļĦçĥŃæļ´éľ²
ï¼ĮçłĶç©¶çħ¤çŁ¿çĵ¦æĸ¯æµĵåº¦ åıĺåĮĸä¸İçĪĨçĤ¸é£İéĻ©é¢ĦèŃ¦éĹ®é¢ĺ
ï¼Įå±ķç¤ºç«¯åĪ° ç«¯Javaå¾®æľįåĬ¡æŀ¶æŀĦèĥ½åĬĽ
ï¼Įå±ķç¤ºåľ¨ä½İ å»¶è¿Ł
ï¼Įä½ĵçİ°äºĨæľįåĬ¡è¾¹çķĮ è®¾è®¡
ï¼Įä½ĵçİ°è¶ħè¶Ĭ ä»£çłģå®ŀçİ°å±ĤéĿ¢çļĦç³»ç»ŁæĢ§
ï¼ĮéĩĩçĶ¨çİ¯å¢ĥåıĺéĩı é©±åĬ¨çļĦJWTå¯ĨéĴ¥ä¸İ
ïĤ·åľ¨WebSocketå®¢æĪ·ç«¯ä¸İ æĪ¿éĹ´ç®¡çĲĨä¸Ńå¼ķåħ¥
ïĤ·åľ¨çĸ«æĥħ æľŁéĹ´åıĬä¹ĭ
ïĤ·ç¼ĸåĨĻCIå·¥ä½ľæµģ ä¸İéªĮè¯ģèĦļæľ¬
ïĤ·å¼ķåħ¥SQLè¿ģç§» èĦļæľ¬
ïĤ·åıĳè¡¨ä¸Ńæĸĩæł¸å¿ĥæľŁåĪĬ è®ºæĸĩ
ĠConfigå®ŀçİ°éĽĨä¸Ńéħįç½® ç®¡çĲĨ
ïĤ·åıĤä¸İåºĶæĢ¥ç®¡çĲĨéĥ¨å¤©æ´¥ æ¶Īéĺ²çłĶç©¶æīĢéĺ²çģ«æľįçģ«çģ¾æ¨¡æĭŁçłĶç©¶
ãĢģå®īåħ¨çĽĳæµĭåıĬäºĭæķħé¢Ħéĺ² çĽ¸åħ³é¢ĨåŁŁçŁ¥è¯Ĩ
ïĤ·è®¾è®¡äºĨæ¨¡åĿĹåĮĸ NestJSåĲİç«¯æŀ¶æŀĦ
ïĤ·è®¾è®¡äºĨåĮħåĲ«åħ« ä¸ªæľįåĬ¡çļĦæŀ¶æŀĦ
ãĢģAIä»£çłģåĪĨæŀĲæıĲç¤ºè¯į è®¾è®¡
å¯ĨçłģåĵĪå¸Įä¸İå¸¸ æķ°æĹ¶éĹ´å¯Ĩçłģæł¡éªĮ
è£ħé¥° åĻ¨
ï¼Įä¸Ģä¸ªåŁºäºİGoçļĦå®ŀæĹ¶WebSocketèģĬå¤©åĲİç«¯ ç³»ç»Ł
ãĢĤè¯¥é¡¹çĽ®ä¸įä»ħå±ķç¤ºäºĨ LLMéĽĨæĪĲèĥ½åĬĽ
éĺ²çģ«æľįæ¨¡æĭŁä¸İçĥŃ éĺ²æĬ¤åĪĨæŀĲçłĶç©¶
ï¼ĮæĽ¿ä»£ä¸įå®īåħ¨çļĦæĺİæĸĩå¯Ĩçłģ å¤ĦçĲĨæĸ¹å¼ı
ï¼ĮæĽ¿ä»£ä¸įå®īåħ¨çļĦèĩªåĬ¨å»ºè¡¨ æĸ¹å¼ı
ãĢģè¡ĮæĶ¿ åįıè°ĥåıĬçĽ¸åħ³åĬŀåħ¬å®¤å·¥ä½ľ
ï¼Įä¸İå®¢æĪ·åıĬé¡¹çĽ® åĽ¢éĺŁå¼Ģå±ķè¿ľç¨ĭåĲĪä½ľ
ï¼ĮåĲĮæĹ¶å°ĨæĮģä¹ħåĮĸ æ¶Īæģ¯å½Ĵå±ŀéĢĲæŃ¥è¿ģç§»èĩ³PostgreSQL
ï¼Įéģ¿åħįå®īåħ¨æķıæĦŁ ä¿¡æģ¯ç¡¬ç¼ĸçłģ
ä¸İçľŁå®ŀå·¥ç¨ĭåľºæĻ¯çļĦ ç»ĵåĲĪ
Ġschemaä¸İFlyway æķ°æį®åºĵè¿ģç§»èĦļæľ¬
/APIèĥ½åĬĽè½¬ åĮĸä¸ºåı¯çĶ¨çļĦè½¯ä»¶äº§åĵģ
ãĢģåĽŀå½Ĵå½±åĵįåĪĨæŀĲä»¥åıĬ éĤ®ä»¶éĢļçŁ¥åĬŁèĥ½
çļĦè¯·æ±Ĥè¿ĩæ» ¤ä¸İåħ¬å¼Ģ
ï¼Įä½¿åħ¶èĥ½å¤ŁçĲĨè§£è½¯ä»¶ç³»ç»Ł ä¸İçľŁå®ŀå·¥ç¨ĭåľºæĻ¯çļĦç»ĵåĲĪ
åĮ¹éħįåº¦æľĢé«ĺçļĦ ATS
ĠåĤ¬åĮĸ è£ĤåĮĸ
ĠåĲĪåĲĮåĪ¶åħ¨æłĪ å¼Ģåıĳå·¥ç¨ĭå¸Ī
ãĢģä¾Ŀèµĸåı¯è§ģæĢ§ ä»¥åıĬæľ¬åľ°éĥ¨ç½²éªĮè¯ģèĥ½åĬĽ
ãĢģå®ŀéªĮå¯¹æ¯Ķ åıĬç»ĵæŀľåı¯è§ĨåĮĸ
ãĢģè·¨éĥ¨éĹ¨ æ²ŁéĢļåıĬçĶŁäº§ç®¡çĲĨæĸĩæ¡£å·¥ä½ľ
ï¼Įä½¿çĶ¨æĪ·åı¯ä»¥ è¿ŀæİ¥åĪ°ä¸įåĲĮåĲİç«¯è¿Ľç¨ĭä»įåı¯æŃ£å¸¸
ï¼Įç»ĵåĲĪåŁºäºİJWT çļĦè¯·æ±Ĥè¿ĩæ»¤ä¸İåħ¬å¼Ģ
ï¼Įæĺİç¡®åŃĺåĤ¨èģĮè´£ è¾¹çķĮ
æķĻèĤ ²ç»ıåİĨ
æĶ»è¯»åįļå£« åŃ¦ä½į
ĠSecurityå®ŀçİ°è®¤è¯ģ æµģç¨ĭä¸İJWT
/ç§ģæľīè·¯çĶ± åĪĨç¦»
¹èĪ¶å°¾æ°Ķ çĽĳæµĭçĽĳç®¡ç³»ç»Łå»ºè®¾æķĪæŀľè¯Ħä¼°æĬ¥åĳĬé¡¹çĽ®
ĠåĪĨä½įæİ§åĪ¶ éĻĲ
Ġç»´èģļåĲĪçī©è¿ĩç¨ĭéĻįç»´ èĩ³
ĠçĽĳæİ§åıĬåıĺéĩı çº§æķħéļľéļĶç¦»
Ġæį¢çĥŃåĻ¨ç»ĵåŀ¢ æ¡Īä¾ĭ
ĠæĲŃå»º ç»Łè®¡è¿ĩç¨ĭçĽĳæİ§
Ġäº§åĵģå¼Ģåıĳæµģç¨ĭ çļĦçĲĨè§£
ĠéĴ±åĮħè¿ŀæİ¥åıĬåĮºåĿĹéĵ¾äº¤äºĴ éĢ»è¾ĳ
ıçİ°æľīè¯»åıĸè·¯å¾ĦçļĦæĥħåĨµä¸ĭ æıĲåįĩåı¯éĿłæĢ§
ãĢģè¿ŀæİ¥å¯¼åĲĳåŀĭåľºæĻ¯ ä¸ŃçļĦGoåĲİç«¯å¼Ģåıĳèĥ½åĬĽ
ãĢģåıĺéĩıè´¡çĮ®å®ļä½įåıĬçĽĳæİ§æĸ¹æ¡Ī æķĪæŀľè¯Ħä¼°
ãĢģæĮīéľĢæĸĩä»¶ æī«æıı
ãĢģGatewayåıĬåĲĦ åºĶçĶ¨æľįåĬ¡
ãĢģåĲ¯åĬ¨è¿ģç§»æī§è¡Į åĻ¨
ãĢģå¹¶åıĳå®īåħ¨è®¾è®¡ æĦıè¯Ĩ
ãĢģåĽ¢éĺŁç®¡çĲĨä»¥åıĬåīįç«¯ æķ°æį®çľĭæĿ¿
ãĢģç»ĵæŀĦåĮĸè®¿éĹ®æĹ¥å¿Ĺ ä»¥åıĬ
ãĢģå¹¿æĴŃæ¶Īæģ¯ä»¥åıĬæĪ¿éĹ´ æ¶Īæģ¯
ãĢģæĬĢæľ¯æĸĩæ¡£åıĬè·¨ åĽ¢éĺŁåįıä½ľç»ıéªĮ
ãĢģæĶ¯ä»ĺäºĭä»¶å¤ĦçĲĨä»¥åıĬåŁºäºİ éħįé¢ĿçļĦAIä½¿çĶ¨æİ§åĪ¶
ãĢģäº¤æĺĵè®°å½ķåıĬä¸ļåĬ¡éĢ»è¾ĳ ç®¡çĲĨ
ãĢģè¯Ńä¹īçº§ä»£çłģéĹ®çŃĶä»¥åıĬåĽ¢éĺŁ å·¥ç¨ĭæĬ¥åĳĬçĶŁæĪĲ
ãĢģæĹłæķĪJSONä¿®å¤įä»¥åıĬAIçĶŁæĪĲ ä»ĵåºĵæĸĩæ¡£
ãĢģè®¾å¤ĩé¢ĦèŃ¦åıĬèĥ½æºĲ å®īåħ¨åľºæĻ¯
ãĢģä»·æł¼ä¸İæĶ¯ä»ĺ é¡µéĿ¢
ï¼ĮåıĤä¸İå¤ļä¸ªè¿ľç¨ĭè½¯ä»¶å¼Ģåıĳ é¡¹çĽ®
ï¼Įå®ĮæĪĲæķħéļľæ£Ģæµĭä¸İè´¡çĮ® åĽ¾è¯ĬæĸŃ
ï¼Įåħ·å¤ĩç½ķè§ģ çļĦç»¼åĲĪèĥ½åĬĽç»ĦåĲĪ
ï¼Įåľ¨ä¸įçł´åĿ ıçİ°æľīè¯»åıĸè·¯å¾ĦçļĦæĥħåĨµä¸ĭæıĲåįĩåı¯éĿłæĢ§
ï¼Įå¢ŀå¼ºé¢ĨåŁŁéĢ»è¾ĳä¸İéĢļçŁ¥ æĬķéĢĴçļĦè§£èĢ¦èĥ½åĬĽ
ï¼Įå½¢æĪĲåı¯å¤įçĶ¨çļĦ å·¥ä¸ļ
ãĢĤç³»ç»Łåı¯è¿ŀæİ¥ GitHub
ãĢĤçĲĨè§£çĶŁäº§çº§AIç³»ç»Ł ä¸įä»ħä¾Ŀèµĸprompt
ãĢĤèĥ½å¤Łå°ĨAIæĥ³ æ³ķä»İæ¨¡åŀĭ
ãĢĤçĽ®åīįåľ¨æĸ°çĸĨå¤§åŃ¦ æĶ»è¯»åįļå£«åŃ¦ä½į
ïĤ·å¯¹å®ŀéªĮä¸İä»¿çľŁ æķ°æį®è¿Ľè¡Įå¤ĦçĲĨ
ïĤ·å¤ĦçĲĨæĹ¶åºıèĩªçĽ¸åħ³ éĹ®é¢ĺ
ïĤ·è¾ĵåĩºåı¯è§ĨåĮĸåĪĨæŀĲæĪĲæŀľ ä¸İé¡¹çĽ®æĸĩæ¡£
ïĤ·æł¹æį®é¡¹çĽ®éľĢæ±Ĥ éĽĨæĪĲ
ïĤ·è´Łè´£ä¼ļè®® æĿĲæĸĻ
ïĤ·ä¸ŃåĽ½çŁ³æ²¹ä¼ĺç§Ģåħ± éĿĴåĽ¢åĳĺ
ä¸İåĽŀçŃĶåĪĨçīĩ è¾ĵåĩº
ï¼ļä¸įä»ħä»ħæŀĦå»ºè°ĥçĶ¨ LLM
åŁºéĩĳåįĬä¸»åĬ¨æīĳç¿ ¼æİ¨è¿ĽæĢ§èĥ½çłĶç©¶é¡¹çĽ®
åľ¨LLMåºĶçĶ¨å·¥ç¨ĭæĸ¹éĿ¢ ç»ıéªĮä¸°å¯Į
åľ¨åĲİç«¯æŀ¶æŀĦæĸ¹éĿ¢åħ·å¤ĩè¾ĥå¼º èĥ½åĬĽ
é¡¹æ³¢æµªé©±åĬ¨åīĸéĿ¢ æµ®æłĩé¡¹çĽ®
ï¼īä½ĵç³»åĨħå®¡ åĳĺè¯ģä¹¦
ï¼īä»¥åıĬæĿ¥èĩªä¸ŃåĽ½çŁ³æ²¹çļĦå·¥ä¸ļå®īåħ¨ å®ŀè·µç»ıéªĮ
æŀĦå»ºHikaflowä½ľä¸ºåħ¨æłĪAI å·¥ç¨ĭèĥ½åĬĽçļĦæł¸å¿ĥè¯ģæĺİ
æıĲåįĩç³»ç»Łè¿Ĳè¡Įåı¯è§ĤæµĭæĢ§ä¸İéĹ®é¢ĺ æİĴæŁ¥èĥ½åĬĽ
å·¥ä¸ļè¿ĩç¨ĭç»Łè®¡çĽĳæİ§ä¸İæķħéļľæ£Ģæµĭ åĪĨæŀĲ
ï¼Įå¹¶ä¿®å¤įAIçĶŁæĪĲçļĦæĹłæķĪJSON è¾ĵåĩº
ï¼Įå¹¶ä¿Ŀè¯ģåĲĦæ¨¡åĿĹåı¯çĭ¬ç«ĭ æŀĦå»ºä¸İéĥ¨ç½²
ïĤ·åıĤä¸İå¹¿ä¸ľåºĶæĢ¥ä¸ĵ é¡¹æ³¢æµªé©±åĬ¨åīĸéĿ¢æµ®æłĩé¡¹çĽ®
ïĤ·åıĤä¸İçŁ³æ²¹åĮĸå·¥çĶŁäº§ä¸İå·¥èīº å®īåħ¨å·¥ä½ľ
ïĤ·åıĤä¸İå¤©æ´¥æµ·ä¸ĬèĪ ¹èĪ¶å°¾æ°ĶçĽĳæµĭçĽĳç®¡ç³»ç»Łå»ºè®¾æķĪæŀľè¯Ħä¼°æĬ¥åĳĬé¡¹çĽ®
ïĤ·åıĤä¸İåĽ½å®¶èĩªçĦ¶ç§ĳåŃ¦ åŁºéĩĳåįĬä¸»åĬ¨æīĳç¿¼æİ¨è¿ĽæĢ§èĥ½çłĶç©¶é¡¹çĽ®
ïĤ·åıĤä¸İå·¥è´¸è¡Įä¸ļå®īåħ¨çĽĳç®¡æī§æ³ķèĥ½åĬĽæıĲåįĩ åŁ¹è®Ńé¡¹çĽ®
ïĤ·ä½¿çĶ¨Zustandè¿Ľè¡Įåīįç«¯ çĬ¶æĢģç®¡çĲĨ
ï¼Įä½¿ä¸ļåĬ¡æľįåĬ¡åı¯ä»¥åľ¨ä¸įéĺ»å¡ŀ ä¸»è¯·æ±Ĥè·¯å¾ĦçļĦæĥħåĨµä¸ĭåıĳå¸ĥäºĭä»¶
ï¼ĮæĶ¯æĮģåı¯éħįç½®tokenå¯ĨéĴ¥ä¸İ TTL
ï¼ĮæĶ¯æĮģæĸĩä»¶åħĥæķ°æį®æĮģä¹ħåĮĸä¸İåı¯éħįç½® çļĦæľ¬åľ°äºĮè¿ĽåĪ¶åŃĺåĤ¨
ï¼ĮçĶ¨äºİå®ŀæĹ¶AIå¤ĦçĲĨè¿Ľåº¦æİ¨éĢģ ä¸İåĽŀçŃĶåĪĨçīĩè¾ĵåĩº
ïĤ·çłĶç©¶æĪĲæŀľéĢĤçĶ¨äºİæĻºæħ§åŁİå¸ Ĥ
ïĤ·æŀĦå»ºåŁºäºİBullMQä¸İRedisçļĦå¼ĤæŃ¥ä»ĵåºĵæī«æıı ç³»ç»Ł
ïĤ·åŁºäºİç®Ĺæ³ķå»ºæ¨¡ä¸İä»¿çľŁ åĪĨæŀĲ
ïĤ·åŁºäºİæĹ¶ç©ºåµĮåħ¥ä¸İæ³¨æĦıåĬĽæľºåĪ¶ å¼Ģå±ķç©ºæ°Ķè´¨éĩıé¢ĦæµĭçłĶç©¶
ï¼ĮéĻįä½İæ»¥çĶ¨é£İéĻ©å¹¶ä¿ĿæĬ¤è®¤è¯ģä¸İå®ŀæĹ¶éĢļä¿¡ æİ¥åı£
Ġtokenä¸ŃéĹ´ä»¶æıĲåįĩè®¤è¯ģä¸Ģèĩ´æĢ§ä¸İéĥ¨ç½²åı¯éħįç½® æĢ§
ï¼Įåĩıå°ĳåĨħéĥ¨æľįåĬ¡çĽ´æİ¥æļ´éľ²å¹¶æıĲåįĩAPIè®¿éĹ®æİ§åĪ¶ èĥ½åĬĽ
ï¼Įå°Ĩåħ³éĶ®èģĬå¤©åİĨåı²ä»İä¸´æĹ¶RedisçĬ¶æĢģè¿ģç§»èĩ³åı¯å®¡è®¡ çļĦåħ³ç³»åŀĭåŃĺåĤ¨
ãĢģcommitè¿½è¸ªä»¥åıĬåŁºäºİWebhookçļĦåĪĨæŀĲ æµģç¨ĭ
ï¼Įå¯¹æ¯Ķä¸įåĲĮåĿĩåĢ¼æ¼Ĥç§»åľºæĻ¯ä¸ĭçļĦæ£Ģåĩº èĥ½åĬĽ
ï¼ĮçłĶç©¶ä¸įåĲĮçģ«çģ¾åľºæĻ¯ä¸ĭçļĦçĥŃæļ´éľ² æĥħåĨµ
ï¼Įä½ĵçİ°è¶ħè¶Ĭä»£çłģå®ŀçİ°å±ĤéĿ¢çļĦç³»ç»ŁæĢ§ å·¥ç¨ĭæĢĿç»´ä¸İä¸Ĭçº¿é£İéĻ©è¯Ħä¼°èĥ½åĬĽ
ï¼ĮéĩĩçĶ¨çİ¯å¢ĥåıĺéĩıé©±åĬ¨çļĦJWTå¯ĨéĴ¥ä¸İ åı¯éħįç½®è¿ĩæľŁæĹ¶éĹ´
ïĤ·åľ¨WebSocketå®¢æĪ·ç«¯ä¸İæĪ¿éĹ´ç®¡çĲĨä¸Ńå¼ķåħ¥ å¹¶åıĳæİ§åĪ¶éĶģæľºåĪ¶
ïĤ·åľ¨çĸ«æĥħæľŁéĹ´åıĬä¹ĭ åĲİ
ï¼Įä½¿çĶ¨æĪ·åı¯ä»¥è¿ŀæİ¥åĪ°ä¸įåĲĮåĲİç«¯è¿Ľç¨ĭä»įåı¯æŃ£å¸¸ éĢļä¿¡
( json
( {"
) )čĊ
, {"
- N
- f
- h
- čĊ
- le
- ad
- gr
- refit
- back
- chain
. /
. o
. sh
. add
/ re
/ te
/ åİĨåı²
/ XSEC
/ æķ°æį®å¤ĦçĲĨ
= "
A O
A n
A RM
A CH
B F
B at
C C
C Python
C loud
D ata
E AD
E NT
I C
I G
I ST
J a
L eader
M SE
M ountain
M IT
N et
O ACH
P C
P O
P re
P ost
P PR
S A
S en
S oftware
S oftmax
T E
T IT
W ARM
[ {"
] })čĊ
_ B
_ N
_ n
_ ST
_ SC
_ read
a pt
a us
a ir
a ust
a yment
a red
b ution
c up
d le
d omain
e c
e p
e al
f ess
g or
g le
g apfill
h av
h ip
h ikaflow
h aust
i x
i at
i de
i pe
k ip
l d
l it
l ic
l um
l edge
m ountain
n ar
n ect
n ow
o ute
o dd
o log
q a
q uality
r ch
r ain
r ap
r ator
r phan
r eng
r untime
s ed
t o
t ing
t ype
t ime
t orch
u ch
w ith
w ork
w arm
} ï¼Ł",čĊ
} ")čĊ
} ,{"
} ]})čĊ
¥ ¿
³ °
´ è¶
½ çĦ¶
¾ İ
å ł
ç ¾İ
è ĥ
è ŀ
è ¥¿
é ĨĴ
ĉ æľīæķĪ
ĉ çŁŃæľŁ
ĉ ä¸ŃæľŁ
Ġ G
Ġ V
Ġ _
Ġ j
Ġ ent
Ġ å¹¶
Ġ æĸ°
Ġ æĸĩä»¶
Ġ ver
Ġ æĽ´
Ġ ä»ĵåºĵ
Ġ éĽĨæĪĲ
Ġ è¾ĵåĩº
Ġ Open
Ġ çĬ¶æĢģ
Ġ ä¸ļåĬ¡
Ġ å®Įæķ´
Ġ ä½įç½®
Ġ åı¯èĥ½
Ġ vector
Ġ æİ¨çĲĨ
Ġ æĿ¡
Ġ ä¸¤
Ġ op
Ġ GORM
Ġ OpenFeign
Ġ æķ°æį®çľĭæĿ¿
Ġ æľįåĬ¡è°ĥçĶ¨
Ġ OpenAI
Ġ edge
Ġ éĺ³
Ġ èĭ¥
Ġ own
Ĥ å¯
Ĥ çŃī
ĥ ı
Ī æĿĥ
į åĲĪ
Ĵ åħ¥
Ķ æĸŃ
ļ èĩ³
ä¸ ĥ
ãĢģ B
ãĢģ s
ãĢģ re
ãĢģ å¼Ģåıĳ
ãĢģ æµģç¨ĭ
ãĢģ è¦ĨçĽĸ
ãĢģ æł·æľ¬
ãĢģ èµĦæºĲ
ãĢģ ä¸Ģèĩ´æĢ§
ãĢģ éļĶç¦»
ãĢģ artifact
ãĢģ åŃĲè¯į
ï¼Į åºĶ
ï¼Į ç¡®
ï¼Į åħ¶
ï¼Į åħĪ
ï¼Į çĽ®æłĩ
ï¼Į è¯·
ï¼Į åħ¶ä»ĸ
ï¼Į æł¹æį®
ï¼Į å¦Ĥæŀľ
ï¼Į åı¯èĥ½
ï¼Į å¿ħé¡»
ï¼Į æīĢ
ï¼Į ä¿®å¤į
ï¼Į æĦŁ
ï¼Į æ¯ıä¸ª
ï¼Į æ»¡è¶³
ï¼Į ç»ĻæĪĳ
ï¼Į è¿Ńä»£äº¤ä»ĺ
ï¼Į æ¯ıå¤©
ãĢĤ æĪĳ
ãĢĤ ä¸įèĥ½
åħ ´è¶
in k
in ning
çļĦ èĥ½åĬĽ
çļĦ æľºåĪ¶
çļĦ åıĤæķ°
çļĦ å°±
çļĦ æĸ¹åĲĳ
çļĦ åºıåĪĹ
çļĦ çŃĸçķ¥
çļĦ åĢĻéĢī
çļĦ åĽŀçŃĶ
çļĦ çī¹å¾ģ
çļĦ åŁºæľ¬
çĶ ļèĩ³
er t
er ed
è¯ ĳ
on it
on text
ä½ ı
ïĤ· U
ïĤ· ä¸İ
an n
an cy
æķ° ID
æķ° ç»Ħ
or ies
or phan
or ld
æĺ¯ Python
æĺ¯ åĬ¨æĢģ
æĺ¯ è¯Ńè¨Ģæ¨¡åŀĭ
éĢ Ģ
å¼ ¦
st atic
æİ ĪæĿĥ
ï¼ļ s
ï¼ļ ä¸į
ï¼ļ ",čĊ
al ized
al Post
ed back
ä»¥ åĲİ
ä»¥ åīį
it em
it ies
it iat
åĪĨ å·®
åĪĨ å±Ĥ
åĪĨ é¡µ
åı¯ åŃ¦ä¹ł
åı¯ è¿ģç§»
æķ°æį® ä¸Ĭ
æķ°æį® ä¸ŃçļĦ
æķ°æį® åĪĴ
æķ°æį® ç»§ç»Ń
æķ°æį® ç§ĳåŃ¦
åıĬ ç®¡çĲĨ
æĸĩ åŃĹ
Ġ" {
Ġ" ")
åĨ ³å®ļ
ĠA rch
ä¸į çĽ´æİ¥
ä¸į éĩįæĸ°
ä¸į ç¨³å®ļ
ä¸į åĨį
ä¸į éĢĤåĲĪ
ä¸į åĪłéĻ¤
ä¸į åŃĺåľ¨
è§ Ĥæµĭ
è§ Ĥå¯
ct ed
å¹ ĤçŃī
å®ŀ æķ°
å®ŀ ä½ĵ
ï¼Ł čĊ
ar y
ä¸Ģ åĮĸ
æı Ĵåħ¥
æĬ ¢
æĬ ĺ
æ¨¡åŀĭ åŃ¦ä¹ł
æ¨¡åŀĭ çĶŁæĪĲ
æ¨¡åŀĭ éĢīæĭ©
de pth
åħ¨ åıĤæķ°
Ġs ize
Ġs ource
Ġs kip
Ġs uch
åĴĮ F
åĴĮ ç®¡çĲĨ
åĴĮ è®Ńç»ĥ
åĴĮ ä»»åĬ¡
åĴĮ è®¡ç®Ĺ
åĴĮ è¯Ńä¹ī
åĴĮ ä¾Ŀèµĸ
le ader
Ġc o
Ġc re
Ġc onf
Ġc loud
Ġc ases
å¼Ģ åħ³
å¼Ģ éĶĢ
æĢ§ æµĭè¯ķ
åĲİ åĨį
æĸ¹ ä¾
ch eck
è¿ĩ çļĦ
è¿ĩ åº¦
éĹ´ æİ¥
çº ¯
Ġre gist
Ġre li
è¦ģ çļĦ
åī ª
åĮħ å¤§å°ı
æıĲ åĩº
æıĲ éĨĴ
æľ¬ è½®
åĲĪ éĢĤ
æľī éĻĲ
æľī åĬ©äºİ
åľ¨ å®ŀéĻħ
AI L
åħ³ æ³¨
æī ĭ
æī ĵ
æĭ ¿
ĠS C
ĠS ystem
te lemetry
Ġp r
Ġp ub
Ġp art
Ġp assword
Ġp ayment
Ġp inning
è¡Į ä¸º
éªĮ æĶ¶
åİ ĭ
ç»ĵ è®º
ç»ĵ æĿŁ
ĠP R
ĠP rompt
ĠP BKDF
å¹¶ æĬ¥åĳĬ
å¤į çİ°
é¡¹çĽ® çļĦ
å¿ µ
å·¥ç¨ĭ ä¼ĺåĮĸ
Ġin v
Ġin telligence
Ġin itiat
æĸ° çŃĸçķ¥
ä¸Ĭ éĻĲ
ä¸Ĭ æī¾
è°ĥ æŁ¥
Ġm ig
Ġm ap
Ġm icroser
Ġm onit
ç»ĥ ä½¿çĶ¨
éĩį è®Ńç»ĥ
å¤ļ å¤´
ä¸ĭ éĿ¢
ä¸ĭ ä¸Ģä¸ª
çĶ¨äºİ åľ¨
ri d
Ġd ur
Ġd omain
çĽ¸ å¯¹
act ive
è¯Ń éŁ³
ut f
ut er
ut op
Ġb ill
Ġb lock
se arch
æĪĸ åħ¶ä»ĸ
æĪĸ å®¢æĪ·
æĪĸ èĢħ
ï¼ī ãĢĤčĊ
ad min
èµ ·
åı¯ä»¥ çĽ´æİ¥
åı¯ä»¥ ä¿Ŀè¯ģ
ç¼ ©
é«ĺ ä¼ĺåħĪçº§
art up
åĩº æĿ¥
ve l
Ġa b
ä»» èģĮ
åĽŀ å¤į
ag ent
Ġde mon
åĬł éĢŁ
æľºåĪ¶ éĢļè¿ĩ
val ence
è· ³
Ġt ake
çĽ¸åħ³ åĨħå®¹
çĽ¸åħ³ ä¸ĵä¸ļ
æ¶ īåıĬ
çŃī å¾ħ
åºĶçĶ¨ åľºæĻ¯
ä»»åĬ¡ åĨłåĨĽ
æľĢ å¤ļ
æľĢ ä¼ĺ
å¤§ äºİ
å¤§ éĥ¨åĪĨ
ain ing
Ġe qui
æķ´ æķ°ID
æĸĩæ¡£ åĪĩåĪĨ
if y
åįĩ çº§
æĶ¯æĮģ çļĦè¯Ŀ
pe ci
éľĢè¦ģ ç»ĵåĲĪ
åįķ ä¸ª
co re
co ding
æĪĳ çļĦç®ĢåİĨ
å¹³ æĸ¹
åı£ è¯Ń
åĪ° çļĦ
éĹ®é¢ĺ è§£åĨ³
åıĤæķ° åĨ»ç»ĵ
åıĤæķ° çļĦæ¢¯åº¦
ĠF lyway
Ġst artup
ç®Ģ æ´
å¦Ĥ ä¸ĭ
ĠN ext
æ¶Ī å¤±
æķĪ çİĩ
æİ¨ èį
ïĤ·åıĤä¸İ å¤ļä¸ª
åĽ¾ ä¼ĺåĮĸ
é¢Ħæµĭ ä¸ĭä¸Ģä¸ª
çŁ¥ éģĵ
åĽ¢éĺŁ æĪĸå®¢æĪ·
ĠT e
ĠT ailwind
å¤± æķĪ
è¿Ľè¡Į å½Ĵ
è¿Ľè¡Į åĬłæĿĥ
äºº åĳĺ
è¾ĵåĩº å±Ĥ
åŃĺåĤ¨ ç³»ç»Ł
SE ARCH
id x
id ent
id ation
id dle
ist ory
ist rator
ä¹ĭ ä¸Ģ
ä¹ĭ åīį
ä¹ĭ ä¸Ĭ
ol ving
Ġen ab
Ġen coding
è¿Ĳ ç®Ĺ
Ġpro gress
æĦı æĢĿ
åĲĳéĩı åĮĸ
éħįç½® åĴĮ
æ·± å±Ĥç½ĳç»ľ
us ed
éģ ®
éģ Ĺ
ĠM ySQL
ĠM ongoDB
è®° ä¸Ģä¸ĭ
æĸĩæľ¬ çīĩæ®µ
ä¼° è®¡
æıĲä¾Ľ ä½įç½®
æıĲä¾Ľ ä¾Ŀæį®
åıª è¦ģ
åıª æľī
åıª åľ¨
è¿ľç¨ĭ åĬŀåħ¬
è¿ľç¨ĭ åĽ¢éĺŁæĪĸå®¢æĪ·
éķ¿ åº¦
å¹³åı° åĪĨéħį
å²Ĺä½į è¦ģæ±Ĥ
å²Ĺä½į èģĮè´£
ç½ĳ ä¸Ĭæī¾
åħ¶ä»ĸ åľ°åĽ¾
åĮº åĪ«
éĢĤ éħį
èĥ½å¤Ł åľ¨
èĥ½å¤Ł å¤ĦçĲĨçļĦ
ith ms
æĹł æ³ķ
æĶ¹ åĸĦ
éĺ² æŃ¢
ä¼ĺåĮĸ çĶ¨æĪ·ä½ĵéªĮ
å¢ŀ éķ¿
çī¹ çĤ¹
um mar
ç»Ļ ä½ł
ä¸ļåĬ¡ éľĢæ±Ĥ
æĥħ æĦŁ
ON E
el f
el l
Ġq uest
ä¼ļ å½±åĵį
ä¼ļ å¢ŀåĬł
è¿ĩç¨ĭ ä¸ŃçļĦ
æĿĥ è¡¡
Ġh ead
Ġh oldout
Ġh eal
Ġh istory
çĶ± äºİ
çĶ± å¤ļä¸ª
åħ³ç³» æķ°æį®åºĵ
æĮģä¹ħ æĢ§
ä½įç½® ä¿¡æģ¯
ĠQ A
": [{"
åıį å¤į
åıį æĺł
ĠD e
ĠD esign
ãĢģS C
æĤ¨ çļĦ
ä¼ł è¾ĵ
ang ed
ï¼Įä½Ĩ å¿ħé¡»
ï¼Įä½Ĩ ç§ĳçłĶä¸»ä½ĵå·¥ä½ľå·²ç»ıå®ĮæĪĲ
æ²ŁéĢļ éľĢæ±Ĥ
çĨ ĶæĸŃ
Ġr ubrics
ï¼Įåı¯ä»¥ çļĦ
è´Ł ç»ĵæŀľ
åİŁ çĲĨ
åİŁ åŃĲ
å®ĺæĸ¹ å®¹åĻ¨
åŁºç¡Ģ ä¸Ĭ
Ġsc orer
ç»Łè®¡ éĩı
åĲĮæĹ¶ åĪ©çĶ¨
ard s
éĩįæĸ° è®Ńç»ĥ
è§£éĩĬ åĻ¨
è§£éĩĬ ä¸Ģä¸ĭ
Ġwith out
SC ENT
oc cup
ron g
ers hip
ä¸įåĲĮ ä¸ļåĬ¡éľĢæ±Ĥ
ac ity
sp iral
sp lit
ĠL ive
ĠL inux
ĠL earn
ĠL eader
Ġro om
å¼º åº¦
æľĢç»Ī çĽ®æłĩ
æ¦Ĥ å¿µ
Ġ[ ]čĊ
Ġl arge
ĠRe asoning
eri or
åĨ»ç»ĵ å®ŀçİ°
çĨŁ ç»ĥä½¿çĶ¨
tri bution
åĲ¯ çĶ¨
ïĤ·å¼Ģåıĳ æķ°æį®çľĭæĿ¿
åŃĹ ç¬¦
Ġac count
æ²¡æľī åĲį
æ¢¯åº¦ æ¶Īå¤±
Ġon e
Ġä¸İ åħ¨æłĪé¡¹çĽ®
Ġth at
enc ed
å¼Ĥå¸¸ å¤ĦçĲĨ
upport ing
èĻ ½çĦ¶
âĢĿ čĊ
âĢĿ çļĦ
æĦŁ åħ´è¶
è¶³ å¤Ł
sc orer
âī ¤
Ġass urance
çļĦæķ°æį® ç»ĵæŀĦ
ïĤ·B enchmark
åĪĨéħį åĪ°
æłĩåĩĨ åĮĸ
åĽŀå½Ĵ ä»»åĬ¡
è´Łè´£ åīįç«¯å¼Ģåıĳ
HA SE
ach e
ject ive
Ġä¸į æģ¶åĮĸ
åĪĩ çīĩ
Ġcl ass
æī© å¤§
Ġinter nal
xperi enced
ĠIn telligence
å°½ åı¯èĥ½
éĿŀ çº¿æĢ§
éĿŀ çĽ®æłĩåľ°åĽ¾
è§£åĨ³ æĸ¹æ¡Ī
è§£åĨ³ ä»Ģä¹ĪéĹ®é¢ĺ
valid ation
è¶Ĭ è¿ĩ
è¶Ĭ çķĮ
è§Ħæ¨¡ å¢ŀéķ¿
éķ¿æľŁ è®°å¿Ĩ
ç²¾ åº¦
/F allback
/v isited
éĥ½ æĺ¯
ĠDocker file
åĪĿ æŃ¥
åĲį ç§°
åĪĨå¸ĥ å¼ı
Ġlog ical
å®¢æĪ·ç«¯ åĴĮ
ïĤ·S oftware
æĺ¾ å¼ı
è¾¾ åĪ°
chem ical
rib uted
Ġex ec
Ġex haust
èĩªåĬ¨åĮĸ åıĬç»ĵæŀľåı¯è§ĨåĮĸ
æĺłå°Ħ åĪ°
çī© èģĶç½ĳ
è¡¡éĩı äºĮåĪĨç±»
èİ· åıĸ
yn c
ç±»åĪ« çļĦ
ç¼º åı£
ç¼º å¤±
ï¼Įä½¿æ¨¡åŀĭ åŃ¦ä¹ł
èĬĤçĤ¹ çļĦ
æ³ĽåĮĸ æĢ§èĥ½
/T PE
IL T
_F AIL
Ġob jective
Ġvalid ator
æĸ°å¢ŀ æľºåĪ¶
è¿Ļä¸ª æĸĩä»¶
ï¼ĮæĪĳè¿Ļè¾¹ é©¬ä¸Ĭ
å°½éĩı åĲĪå¹¶
Ġrespon se
-d riv
Val idation
_d ir
Ġåħ¨æłĪ èĩªçĶ±èģĮä¸ļ
Ġå·² æľī
ãĢĭ ãĢĤčĊ
ï¼Įä¹Ł åı¯ä»¥
è®Ńç»ĥæķ°æį® ä¸ŃçļĦ
éħįå¯¹ å®ŀéªĮ
å£° æĺİ
Ġtest ing
Ġteam s
ç¢ °
Ġor phan
ä½Ļ å¼¦
åĪĨä¸º å¤ļä¸ª
Ġcla im
Ġcap ability
Ġcap acity
åĲİæīį åģļ
Ġfe edback
è°¢ æĤ¨çļĦ
Ġinstru ction
Ġbu il
cover y
æĮĩä»¤ å¾®è°ĥ
è®¡ç®Ĺæľº çĽ¸åħ³ä¸ĵä¸ļ
Ġscan s
ãĢģæķ°æį®å¤ĦçĲĨ åıĬ
èİ·å¾Ĺ æĽ´
Ġdashboard s
-- -čĊ
/O OD
Pro fess
_P ASS
ï¼ģ čĊ
æĪª æŃ¢
è¡¥ åħħ
Ġplatform s
Ġimplementation s
æ¿Ģæ´» åĩ½æķ°
è½»éĩı çº§
Ġconfigur able
-a ware
-cont rol
DE SCENT
RO C
_a udit
iv es
Ġat tribution
ï¼Łå¦Ĥæŀľ æĶ¯æĮģçļĦè¯Ŀ
Ġflow s
Ġbo xed
unction s
æĽ´éĢĤåĲĪ ä½¿çĶ¨
ç¡®å®ļ æĢ§
æĪĳçĽ®åīį åįļå£«åľ¨è¯»
READ ME
Ġprocess ing
Ġansw er
åŃĹèĬĤ çłģ
åĲĪå¹¶åĪ° ä¸Ģè¡Į
ç¿» è¯ĳ
æŁĲ ä¸ª
åģĩè®¾ ä½ł
(S upporting
/ex p
Pad Net
UL T
_co lum
lin es
rateg y
ï¼Įä¸»è¦ģ è´Łè´£åīįç«¯å¼Ģåıĳ
resh old
oriz on
æĢ§åĴĮ æĮģä¹ħæĢ§
ä¸Ńè¿Ľè¡Į éĩĩæł·
Ġretri eval
åī©ä½Ļ æĹ¶éĹ´
åĲĪçĲĨ çļĦ
æĭĽ èģĺ
etro chemical
Ġplan ning
Ġpract ical
Ġfollow ing
Ġindepend ently
Ġdi rect
è·Ŀ ç¦»
æŃ¥éª ¤
ïĤ·Cont ributed
åħ³éĶ®è¯į æ£Ģç´¢
Ġissu es
Ġoutput s
Ġperform ance
CPUå¯ĨéĽĨåŀĭ ä»»åĬ¡
ãĢĤä¸įè¿ĩ æĥ³åħĪç¡®è®¤ä¸Ģä¸ĭ
ï¼ĮèĢĮä¸įæĺ¯ä¸Ģæ¬¡ æĢ§
.dump s
åŀĥåľ¾ åĽŀæĶ¶
-le vel
-ad apt
.o pen
Bat is
Ja Va
Pre cision
PPR OACH
Sen ior
_SC O
_read er
aus al
gor ithms
now ledge
reng th
work space
åł Ĩ
èĥ Į
èŀ įåĲĪ
ĉçŁŃæľŁ é«ĺä¼ĺåħĪçº§
Ġå¹¶ ä¼ĺåĮĸçĶ¨æĪ·ä½ĵéªĮ
Ġop er
Ġown ership
ãĢģæµģç¨ĭ èĩªåĬ¨åĮĸåıĬç»ĵæŀľåı¯è§ĨåĮĸ
ãĢģéļĶç¦» æĢ§åĴĮæĮģä¹ħæĢ§
ï¼Įç¡® ä¿Ŀ
ï¼ĮæīĢ ä»¥
ï¼ĮæĦŁ è°¢æĤ¨çļĦ
ï¼Įæ»¡è¶³ ä¸įåĲĮä¸ļåĬ¡éľĢæ±Ĥ
ï¼Įè¿Ńä»£äº¤ä»ĺ åĬŁèĥ½
ï¼Įæ¯ıå¤© åı¯ä»¥ä¿Ŀè¯ģ
ïĤ·ä¸İ è¿ľç¨ĭåĽ¢éĺŁæĪĸå®¢æĪ·
alPost erior
åıĬç®¡çĲĨ é¡µéĿ¢
ĠArch itecture
è§Ĥå¯ Ł
åħ¨åıĤæķ° å¾®è°ĥ
æĸ¹ä¾ ¿
Ġregist ration
Ġreli ability
Ġpart ner
Ġinitiat ives
Ġmig ration
Ġmonit oring
å¤ļå¤´ æ³¨æĦıåĬĽ
utop ilot
Ġbill ing
admin istrator
ä»»èģĮ è¦ģæ±Ĥ
Ġdemon st
Ġtake over
Ġequi valence
ç®Ģæ´ ģ
æİ¨èį Ĳ
ïĤ·åıĤä¸İå¤ļä¸ª å°ıåŀĭ
è¿Ľè¡Įå½Ĵ ä¸ĢåĮĸ
iddle ware
Ġenab ling
ç½ĳä¸Ĭæī¾ ä¸Ģä¸ĭ
Ġquest ion
Ġheal th
åİŁåŃĲ æĢ§
occup ancy
ïĤ·å¼Ģåıĳæķ°æį®çľĭæĿ¿ åıĬç®¡çĲĨé¡µéĿ¢
æ²¡æľīåĲį çļĦé¡¹çĽ®
æĦŁåħ´è¶ £
ï¼ĮæĪĳè¿Ļè¾¹é©¬ä¸Ĭ æĬĬç®ĢåİĨåıĳç»ĻæĤ¨
-driv en
Ġåħ¨æłĪèĩªçĶ±èģĮä¸ļ é¡¹çĽ®
Profess ional
åĲĪå¹¶åĪ°ä¸Ģè¡Į çļĦå°±
_colum nar
-adapt ive
ïĤ·ä¸İè¿ľç¨ĭåĽ¢éĺŁæĪĸå®¢æĪ· æ²ŁéĢļéľĢæ±Ĥ
" å·²
" JSON
( K
( term
( nq
( item
) }
) ãĢģ
) ï¼Į
- act
- ID
- co
- end
- po
- æĸ¹å·®
- go
- Attention
- quality
- agent
. s
. t
. w
. in
. form
. cur
. np
. eval
. replace
/ D
/ L
/ f
/ s
/ ä½İ
/ Jav
/ UID
/ çĽ®æłĩ
/ æ¬
/ App
/ ru
/ commit
/ lane
/ candidates
/ coverage
/ An
/ active
/ JaVa
/ workspace
/ administrator
A S
A W
A c
A ction
A UT
A éªĮæĶ¶
A PPROACH
B M
B o
B PE
B readcrumb
C ON
C ook
C OR
C ontext
C ausal
D IT
D ING
D PO
E po
E xperienced
F P
F ET
F unction
F reelance
G B
G or
G roun
G ER
H F
H R
H ash
H OR
H uman
H READ
H EAD
I P
I CA
J M
J V
K L
K V
L U
L anding
L HF
M R
M V
M ar
M ap
M edian
M IS
N K
N DING
O IN
O rphan
P T
P lan
P ilot
P HASE
Q AéªĮæĶ¶
R es
R IG
R PC
S e
S SE
S åį³
S piral
S FT
S WARM
S elf
T F
T L
T ilt
T LS
T IMEOUT
T ian
U ser
U NDING
W OR
W rit
X T
X in
[ :
] ï¼ĽčĊ
_ R
_ g
_ p
_ th
_ UID
_ GA
_ temp
_ back
_ model
_ COM
_ swarm
_ manifest
_ SA
_ qa
_ runtime
_ scorer
_ AUT
_ CON
_ MIS
a N
b d
b it
b le
b lem
c re
c ing
c ed
c ation
c ay
d ed
d ent
d ro
d ata
d ates
e fit
f ail
f ac
f rom
f ix
g h
g an
g ment
g overnor
h D
h at
i al
i ed
i ck
i ang
j in
j iang
k er
k ä¸ª
k ill
l en
l ine
l ue
l ack
l ist
l ated
l gorithms
m ation
m and
m un
m all
m emory
m edian
m otion
m aining
n ew
n aly
n ormalization
n notation
o RA
o PE
o DB
p m
p is
p ip
p ics
p rom
p ai
q i
q l
q w
r or
r un
r ite
r ating
r alized
s ion
s çŃī
s ue
s af
s ible
s rc
t ical
t op
t ract
t ry
u es
u se
u ide
u gh
v ement
v isited
v Tool
w ser
w all
w ered
} ãĢĤ
} ,čĊ
¥ æµĭ
¦ åıĳ
§ æ´
¨ è¿
¨ çİĩ
¨ è®º
© ç½
© åı¯è®Ńç»ĥ
ª å
ª çİ¯
ª å¿ĥ
° æĥ
° åĩı
² çº¿
² ä»»
´ ©
µ æįŁå¤±
· ä¿®å¤į
¸ é¦
º åº¦
» æī¾
¾ æĸ
â Ī
å Ħ
å ķ
å ³°
å ĥı
è Ĵ
ĉ UID
ĉ æĹł
ĉ æľª
ĉ è¯ģæį®
ĉ åĪĨæķ°
ĉ éļĶç¦»
ĉ å¾Ī
ĉ è¾ħåĬ©
ĉ ä½İé£İéĻ©
ĉ ä¸ŃçŃī
ĉ çŃīå¾ħ
Ġ K
Ġ çĶ¨
Ġ èĥ½
Ġ ar
Ġ æľī
Ġ åľ¨
Ġ å¾
Ġ å¯¹
Ġ ä¸Ĭ
Ġ em
Ġ å¤ļ
Ġ ä¸ĭ
Ġ é£İéĻ©
Ġ ï¼Ī
Ġ åĲİç«¯
Ġ æľĢ
Ġ å°Ĩ
Ġ æ¨¡åĿĹ
Ġ GP
Ġ å¿ħé¡»
Ġ è¾ĵåħ¥
Ġ ä¼ĺåħĪ
Ġ over
Ġ å»ºç«ĭ
Ġ åĨį
Ġ çī¹å¾ģ
Ġ æ²¡æľī
Ġ ä¿®å¤į
Ġ æīĢæľī
Ġ æģ¢å¤į
Ġ åĽºå®ļ
Ġ up
Ġ {"
Ġ åĪ¤æĸŃ
Ġ æ¸ħçĲĨ
Ġ å¤įåĪ¶
Ġ æ¯ıä¸ª
Ġ éħįå¯¹
Ġ å¹´ä»¥ä¸Ĭ
Ġ åĨ¯
Ġ å°ļæľª
Ġ ONNX
Ġ æĪĲä¸º
Ġ actual
Ġ æµĭè¯ķç»ıéªĮ
Ġ odd
Ġ leader
Ġ å¼Ģåħ³
Ġ Validation
Ġ README
Ġ occupancy
Ġ âĪ
ģ åŃĺ
ģ å¢ŀåĬł
ĥ ä¸
Ħ æ¼ı
ħ éĺħè¯»
Ĩ ä¸ļ
Ĩ ä¿®æĶ¹
Ĩ çŁ©éĺµ
ĩ åĪ°
ĩ åĪ«
ĭ è½¬
Į åĲĳ
į åİĨ
İ ä¹Ī
ı å®ŀ
ĳ çĽ
ĳ åº¦
Ĵ æµĭè¯ķ
Ķ ç¤º
Ĺ ç¾İ
Ļ s
ľ æĹ¶
ĠĠ čĊ
ãĢģ D
ãĢģ c
ãĢģ t
ãĢģ æĹ¶éĹ´
ãĢģ è¿Ĳ
ãĢģ ex
ãĢģ å®ĮæĪĲ
ãĢģ ç§»
ãĢģ ç»ĵæŀľ
ãĢģ æŁ¥è¯¢
ãĢģ åĪĨéħį
ãĢģ åĵĪå¸Į
ãĢģ è¿Ľç¨ĭ
ãĢģ èĮĥåĽ´
ãĢģ åĨħåŃĺ
ãĢģ éķ¿æľŁ
ãĢģ ç¨ĭåºı
ãĢģ åħ¼å®¹
ãĢģ é»ĺè®¤åħ³éĹŃ
ãĢģ éļıæľº
ãĢģ æ¨¡åĿĹåĮĸ
ãĢģ éĻįç»´
ãĢģ è¶ħåıĤæķ°
ãĢģ æµ·å¤ĸ
ãĢģ çĿĢéĻĨ
ãĢģ æıĴåħ¥
ãĢģ éħįç½®åĴĮ
ãĢģ éĿŀçĽ®æłĩåľ°åĽ¾
ãĢģ çī©èģĶç½ĳ
ãĢģ JM
ï¼Į a
ï¼Į åį
ï¼Į UID
ï¼Į çĽ´æİ¥
ï¼Į è®¡ç®Ĺ
ï¼Į ç±»åŀĭ
ï¼Į æĤ¨
ï¼Į æľª
ï¼Į æĮī
ï¼Į çĽ®åīį
ï¼Į ç®Ģåįķ
ï¼Į è®©
ï¼Į base
ï¼Į æ¨¡åŀĭçļĦ
ï¼Į åħ·æľī
ï¼Į åıªèĥ½
ï¼Į å¸®åĬ©
ï¼Į çĦ¶åĲİ
ï¼Į éĤ£
ï¼Į åģľæŃ¢
ï¼Į è¾ĥé«ĺ
ï¼Į è®©æĪĳå¤įåĪ¶
ï¼Į ä¹ĭåīį
ï¼Į è®¡ç®ĹæľºçĽ¸åħ³ä¸ĵä¸ļ
ï¼Į åĲĪçĲĨçļĦ
ãĢĤ ï¼Į
ãĢĤ éľĢè¦ģ
ãĢĤ åıĤä¸İ
ãĢĤ åħĪ
ãĢĤ å½ĵåīį
ãĢĤ å°±
ãĢĤ æł¹æį®
ãĢĤ è°¢
ãĢĤ "čĊ
in al
åĪ ļ
çļĦ æĺ¯
çļĦ ä½¿çĶ¨
çļĦ å¹³
çļĦ æĬĢæľ¯
çļĦ æŃ¥
çļĦ äºº
çļĦ åĲĳéĩı
çļĦ çĽ®æłĩ
çļĦ ä¾Ŀèµĸ
çļĦ å²Ĺä½į
çļĦ æ¨¡åĿĹ
çļĦ éĩįå¤į
çļĦ æł·æľ¬
çļĦ æ¯Ķ
çļĦ éĢļä¿¡
çļĦ åıĺåĮĸ
çļĦ XSEC
çļĦ åıĤèĢĥ
çļĦ ç¦»æķ£
çļĦ ç¥ŀç»ıç½ĳç»ľ
çļĦ éļıæľº
çļĦ è¾ħåĬ©
çļĦ æ¦ĤçİĩåĪĨå¸ĥ
çļĦ æłĩæ³¨
çļĦ è¯įåħĥ
çļĦ æķ´æķ°ID
çļĦ ç»Ļä½ł
çļĦ å°½éĩıåĲĪå¹¶
çļĦ è½»éĩıçº§
er e
er an
er ror
on d
åĲ §
è® ²
è® ¨è®º
ïĤ· M
ïĤ· Human
åº ķ
en a
en efit
at as
at ist
at ible
re lease
re ments
re fix
re maining
çĶ¨ è¯į
çĶ¨ ä¾ĭ
an ual
an out
åĮ Ĺç¾İ
æŀ Ŀ
or a
æĺ¯ å¯¹
æĺ¯ åºĶçĶ¨
æĺ¯ Go
æĺ¯ ä»İ
æĺ¯ æĮĩ
æĺ¯ åĿĩ
æĺ¯ è¿Ļå²Ĺä½į
æĺ¯ æıĲä¾Ľç»Ļ
å· ±
éĢ ı
éĢ Ĩä¿®æĶ¹
st ate
st agnation
st rategy
ä¸İ åĽ¢éĺŁ
ä¸İ åŁºç¡Ģ
ä¸İ è´¨éĩı
ä¸İ å®ŀéĻħ
ä¸İ äº§åĵģ
ä¸İ ç¼º
ä¸İ æµ·å¤ĸ
èĥ½ åĮ¹éħį
èĥ½ ä¿Ŀè¯ģ
èĥ½ åĲĪå¹¶
ï¼ļ UID
ï¼ļ é»
al ib
al ist
ed ul
(" ï¼Ł",
(" ./
ä»¥ è¶³å¤Ł
it ion
çĲĨ çĶ±
çĲĨ è®º
æ¨ ª
åĪĨ è¾
åĪĨ è¯į
åĪĨ æŁ¥æī¾
åĪĨ æī¹
æĹ ģå¢ŀåĬł
æĹ ĭè½¬
æĢ »ç»ĵ
æĢ İä¹Ī
åı¯ éªĮè¯ģ
åı¯ éĩįå¤į
åı¯ æī§è¡Į
åı¯ åħ¼
åı¯ éĢĨä¿®æĶ¹
æķ°æį® æ³
åıĬ åħ¶
åıĬ ä»¥ä¸Ĭ
åĽ °æĥ
è¡ °åĩı
Ġ" \
åŀĭ æķ°æį®åºĵ
ĠA WS
ä¸į æĸŃ
ä¸į å¥½
ä¸į å¾Ĺ
ä¸į ä¿®æĶ¹
ä¸į ç¬¦
ä¸į å¸ĮæľĽ
ä¸į ä¸Ģå®ļ
ä¸į å¤©çĦ¶
ä¸į åı¯åıĺ
ä¸į åı¯éĢĨä¿®æĶ¹
å¸ §
è§ ¦åıĳ
æĪĲ å¤ļä¸ª
éĻ Ħ
éĻ ·ä¿®å¤į
æĹ¶ è¾ĵåĩº
æĹ¶ åĢĻ
æĹ¶ éļıæľº
æĹ¶ ä½¿çĶ¨çļĦ
ï¼Ł ç½ĳä¸Ĭæī¾ä¸Ģä¸ĭ
ar ies
ar les
ar ative
ä»Ģä¹Ī æł·
ä»Ģä¹Ī æĹ¶åĢĻ
ent ralized
ro ugh
ro wser
ä¸Ģ åĿĩ
ä¸Ģ æĿ¡
ä¸Ģ éĥ¨åĪĨ
ä¸Ģ èĪ
ä¸Ģ åı¥
æµĭ éĩı
æ¨¡åŀĭ æĪĸ
æ¨¡åŀĭ é¢Ħæµĭ
æ¨¡åŀĭ å°Ĩ
æ¨¡åŀĭ è¾ĵåĩº
æ¨¡åŀĭ æŀ¶æŀĦ
æ¨¡åŀĭ æıĲä¾Ľ
æ¨¡åŀĭ åıª
æ¨¡åŀĭ æĢ§èĥ½
æ¨¡åŀĭ æĿĥéĩį
æ¨¡åŀĭ åĨħéĥ¨
æ¨¡åŀĭ åīª
de fer
de tection
å° ºåº¦
å° ģåŃĺ
åħ¨ éĿ¢
åħ¨ è·¯å¾Ħ
åħ¨ å±Ģ
é¡ ¶
éĢļ çĶ¨
Ġs ch
Ġs mall
ation al
åĴĮ åĪĨæŀĲ
åĴĮ ä¸º
åĴĮ å®īåħ¨
åĴĮ å¤ĦçĲĨ
åĴĮ åĩº
åĴĮ æ£Ģç´¢
åĴĮ æĸĩæľ¬
åĴĮ ä¼ĺåĮĸ
åĴĮ æ²ŁéĢļ
åĴĮ çº¿ç¨ĭ
åĴĮ èµĦæºĲ
åĴĮ åħ¨èģĮ
åĴĮ åĪłéĻ¤
åĴĮ è¿ĶåĽŀ
åĴĮ Value
åĴĮ åĨĻåħ¥
åĴĮ çĲĨè®º
le ction
and om
and ards
å¯ »æī¾
is y
Ġc f
Ġc an
Ġc ore
Ġc ateg
Ġc rit
Ġc alib
Ġc entralized
ic ing
ic es
ä»Ģä¹Īæĺ¯ RAG
ä»Ģä¹Īæĺ¯ æĸ¹å·®
ä»Ģä¹Īæĺ¯ Batch
ä»Ģä¹Īæĺ¯ Top
ä»Ģä¹Īæĺ¯ Agent
ä»Ģä¹Īæĺ¯ Chunk
ä»Ģä¹Īæĺ¯ åģıå·®
ä»Ģä¹Īæĺ¯ äºĮåıī
mp atible
çİ° åľº
ä¸Ń çĶŁæĪĲ
ä¸Ń å®ļä¹ī
ä¸Ń å¸¸çĶ¨çļĦ
åĩ Ń
lo cation
çĶŁ æĢģ
as ync
ch anged
è®¡ åĪĴ
åŃ¦ åİĨ
åŃ¦ ç»ıåİĨ
åŃ¦ èĢħ
Web æľįåĬ¡
è¿ĩ åº¦åŃ¦ä¹ł
è¿ĩ è¿ĻäºĽ
è¿ĩ äºİç®Ģåįķ
è¿ĩ ç§ĳçłĶä¸»ä½ĵå·¥ä½ľå·²ç»ıå®ĮæĪĲ
ä»¥åıĬ æµģç¨ĭ
åºĶ ä»¥
åºĶ çī¹å®ļä»»åĬ¡
çº ²
çº ³
Ġre base
Ġre gress
Ġre qui
Ġre lease
Ġre search
è¦ģ æĬķ
è¦ģ ä¸įè¦ģ
åĮħ è£ħ
th ena
æľ¬ ä»»åĬ¡
åĲĪ è§Ħ
æľī è¾ĥ
æľī è¯ģæį®
æľī åĵªäºĽ
è´ ªå¿ĥ
åľ¨ å½ĵåīį
åľ¨ ç»Ļ
åľ¨ éĿ¢è¯ķ
åľ¨ æłĩåĩĨ
æľį åĽ¢éĺŁ
åħ³ äºİ
åº¦ ä¼ĺåħĪ
åº¦ è¿Ľè¡Įå½Ĵä¸ĢåĮĸ
æĭ ĸ
æŀĦ éĢł
et o
et er
et ad
åīį QAéªĮæĶ¶
ĠS SE
ĠS HA
ĠS afety
ĠS warm
ĠS peci
ĠS ummar
ĠS kill
ĠC all
ĠC ache
ĠC hat
te p
Ġp ool
Ġp ipe
Ġp etrochemical
è¡Į åĬ¨
ä½¿çĶ¨ æ²¡æľī
ä½¿çĶ¨ å¸¦
ç§ ©åı¯è®Ńç»ĥ
å¼Ģåıĳ åŁºåĩĨ
Ġf oc
Ġf rom
Ġf actual
Ġf inal
Ġf anout
å± ±
å± ħ
å± ı
å¸¸ éĩı
ĠP O
ĠP ostgre
ĠP latform
å¹¶ éĻįä½İ
å¹¶ åĩıå°ĳ
å¤į çĶ¨
é¢Ħ è®Ńç»ĥ
é¢Ħ åħĪ
é¢Ħ æ³¨åĨĮ
é¢Ħ å®ļä¹ī
éĽ ªå
å®ī è£ħ
ä¸º äºĨ
ä¸º æŃ£
ä¸º çŁŃæľŁ
å¯¹ åĲĦ
å¯¹ ä¸ŃéĹ´
å¯¹ è¿Ļä¸ª
å¯¹ çº¿ä¸Ĭ
å¯¹ åĪĿæŃ¥
å¿ į
å¿ ĺ
æµģ çķ
å®ļ æľŁ
å®īåħ¨ éĹ®é¢ĺ
å®īåħ¨ éĹ¨æ§Ľ
QL oRA
è¡¨ ä¸ŃçļĦ
èĥ½åĬĽ å¼º
ç´ §
Ġin to
æĸ° æķ°æį®
æĸ° æľºåĪ¶
æĸ° åŁºçº¿
æĸ° åŁºåĩĨ
ä»£çłģ æ³¨
ä»£çłģ çļĦæĥħåĨµä¸ĭ
ä»£çłģ è°±ç³»
ä¸Ĭ å®Įæķ´
åĬ¨ ç«¯
åŃ¦ä¹ł åĵªäºĽæĸĩä»¶
åŃ¦ä¹ł æķ°æį®ä¸ŃçļĦ
ĠE xperience
ĠE xpress
ĠE TL
åŃĺ æĶ¾
åħ¥ åĨħåŃĺ
SQL æ³¨åħ¥
Ġm o
Ġm ost
Ġm ak
Ġm iddleware
Ġm etad
éĩį æŁ¥
éĩį æİĴåºı
Re LU
å¤ļ å±Ĥ
å¤ļ è¿Ľç¨ĭ
å¤ļ Agent
å¼ı æ³ķ
æłĩ è®°
ä¸ĭ è½½
è®Ńç»ĥ åĴĮ
è®Ńç»ĥ æłĩçŃ¾
è®Ńç»ĥ æĹ¶éļıæľº
è¿Ľ åħĪ
çĶ¨äºİ é¢Ħæµĭ
çĶ¨äºİ åŃĺåĤ¨
çĶ¨äºİ è¡¡éĩı
çĶ¨äºİ åĮħè£ħ
Ġd ron
Ġd istrib
Ġd type
çĽ¸ è¿ĳ
å®ŀçİ° çļĦ
å®ŀçİ° æİ¥åı£
å¤ĦçĲĨ æĸĩæľ¬
å¤ĦçĲĨ å¤§éĩı
è§£ æŀĲ
é£İéĻ© ä¼ĺåĮĸ
ut ing
Ġb atch
Ġb ash
Ġb elief
æĸĩä»¶ å¿ħé¡»
æĸĩä»¶ å®ŀéĻħ
æĸĩä»¶ åĬłè½½
çĶŁæĪĲ æĹ¶
çĶŁæĪĲ æ¨¡åŀĭ
çĶŁæĪĲ æ¦ĤçİĩåĪĨå¸ĥ
çĶŁæĪĲ åĮ¹éħįåº¦æľĢé«ĺçļĦATS
åĳ ³
æĪĸ æķ°æį®
æĪĸ ç±»
æĪĸ æĥ
æĪĸ åħ¨éĥ¨
åĢ ¾æĸ
ï¼ī ä¼ĺåħĪ
ig mo
ig ible
ver la
åıĺ å¾Ĺ
ost man
æĽ ²çº¿
è½ ¨è¿
ï¼Ī Python
ï¼Ī è¿ľç¨ĭåĬŀåħ¬
ï¼Ī åĮĹç¾İ
Redis åı¯ä»¥
pr ise
çī Į
åı¯ä»¥ ä½¿çĶ¨
åı¯ä»¥ çĶ¨äºİ
åı¯ä»¥ æıĲä¾Ľ
åı¯ä»¥ ç»§ç»Ń
åı¯ä»¥ å¤ĦçĲĨçļĦ
gre e
è®¤ çľŁ
é«ĺ èĢĮ
é«ĺ è´¨éĩı
é«ĺ åı¯çĶ¨
é«ĺ åĢ¾æĸ
åĩº çļĦæķ°æį®ç»ĵæŀĦ
æ² ¿
åĮħæĭ¬ åħ¥
æ±Ĥ åĴĮ
Ġa gent
ä»» å¿ĥ
ä»» ä½ķ
å®Į åħ¨
å®Į åĸĦ
èĩª æ£Ģ
èĩª è¡Į
èĩª ä¿®
èĩª æ³¨æĦıåĬĽ
èĩª èº«
èĩª åĽŀå½Ĵ
èĩª å·±
Ġde bu
Ġde scent
Ġde cay
åĬł å¯Ĩ
ce pt
æľºåĪ¶ æľīæķĪ
æľºåĪ¶ æĿ¥æºĲ
åĨħ å¤ļä¸ª
æĹ¶éĹ´ å¤įæĿĤåº¦
Ġt rans
Ġt orch
ä¿¡ åı·
çĽ¸åħ³ ç³»æķ°
çŃī éĹ®é¢ĺ
çŃī ä¼ļ
çŃī å¤įæĿĤ
ä»»åĬ¡ åĴĮ
æµĭè¯ķ æĸ¹æ³ķ
æµĭè¯ķ å·¥åħ·
æµĭè¯ķ çĶ¨ä¾ĭ
æµĭè¯ķ ä¸İåŁºç¡Ģ
æµĭè¯ķ çŃīä¼ļ
éĢļè¿ĩ åľ¨
éĢļè¿ĩ SQL
éĢļè¿ĩ è®Ńç»ĥ
éĢļè¿ĩ HTTP
éĢļè¿ĩ åĵĪå¸Į
éĢļè¿ĩ ç´¢å¼ķ
æ· ĨçŁ©éĺµ
çľ ģ
ĠB atch
ĠB itbucket
å¤§ æķ°æį®
Ġe valu
Ġe vents
Ġe pis
if ied
ãĢģP ostman
éļ ¾
éļ Ĳ
å®¹ éĩı
å®¹ æĺĵ
å®¹ å¿į
pe c
ue ues
ç®Ĺ åŃĲ
éľĢè¦ģ æ³¨æĦı
æĽ´ ç¨³å®ļ
æĽ´ å¿«çļĦ
âĢ ¦
âĢ ĳ
âĢ Ļs
æĦ ¿
Ġw ind
Ġw orld
è¿Ļ æĺ¯
è¿Ļ æł·
è¿Ļ ç§į
è¿Ļ æ±ĤèģĮ
Go alPosterior
co ded
æĪĳ ä¼ļ
æĪĳ å·²ç»ı
æĪĳ è¿Ļè¾¹
æĪĳ ä»¬
æĪĳ èĩªå·±
å¹³ è¡¡
è®¾è®¡ ç»ıéªĮ
ack end
ä½İ ç§©åı¯è®Ńç»ĥ
æİ§åĪ¶ æ¯ıæ¬¡
æİ§åĪ¶ çĶŁæĪĲæ¦ĤçİĩåĪĨå¸ĥ
åĪ° åºıåĪĹ
åĪ° æľª
åĪ° å¯¹è±¡
åĪ° è¾¾
å·® åĪ«
éĹ®é¢ĺ åĴĮ
éĹ®é¢ĺ åı¯èĥ½
éĹ®é¢ĺ å¤§éĥ¨åĪĨ
av a
åıĤæķ° åĮĸ
åıĤæķ° éĩı
åıĤæķ° æĪĸ
åıĤæķ° åĴĮè¿ĶåĽŀ
ĠF unctions
Ġst agnation
Ġst andards
éĢļå¸¸ å¯¹
éĢļå¸¸ éľĢè¦ģ
éĢļå¸¸ æĽ´
éĢļå¸¸ è¡¨ç¤º
éĢļå¸¸ ä¸įçĽ´æİ¥
åħ¶ ä¸Ń
åħ¶ å®ļä¹ī
ç»´ åº¦è¿Ľè¡Įå½Ĵä¸ĢåĮĸ
ç®Ģ è¦ģ
ud ge
ud gment
çĶ¨æĪ· åıįé¦Ī
çĶ¨æĪ· è§Ĥå¯Ł
éªĮè¯ģ è¸
åħĪ è¯»åıĸ
åħĪ è®°ä¸Ģä¸ĭ
æ¶Ī è´¹
ä¸» éĶ®
æİ¨ æµĭ
æİ¨ å¯¼
æĻºèĥ½ ä½ĵ
å·¥ä½ľ æ²¡æľī
æŃ£ åĲĳ
æŃ£ æł·æľ¬
æŃ£ è´Ł
æŃ£ åĪĻ
Python çº¿ç¨ĭ
Python è§£éĩĬåĻ¨
Python åŃĹèĬĤçłģ
åĽ¾ ç½ĳç»ľ
åĽ¾ åĥı
è¿ŀæİ¥ æŁ¥è¯¢
å½ĵåīį å®ĺæĸ¹
å½ĵåīį åľ°åĽ¾
å½ĵåīį æĿĥå¨ģ
ï¼Įä¸į å¾Ĺ
ï¼Įä¸į ä¼ļå½±åĵį
éĢī ä¿®
å¾® ä¿¡
åĽ¢éĺŁ è¿Ľè¡Į
ĠT h
ĠT ensor
ĠT ILT
æŀ¶ æĹłäººæľº
å°Ĩ æķ°æį®åĪĴ
RA ME
RA NK
æĺİ æĺ¾
è¿Ľè¡Į æİĴåºı
è¿Ľè¡Į å¤įçİ°
åŃĺåĤ¨ ç©ºéĹ´
du ct
ter nal
è°ĥçĶ¨ éĵ¾
ol ang
è¦ĨçĽĸ æĸ¹åĲĳ
è¯į è¯Ń
è¯į åĲĳéĩı
è§Ħ èĮĥ
ä¸Ģä¸ª ä¸Ģä¸ª
ä¸Ģä¸ª åıĺéĩı
ä¸Ģä¸ª åºıåĪĹ
ä¸Ģä¸ª è·Ł
Ġpro tection
Ġpro motion
Ġpro duct
æĦı ä¹ī
ä»İ ç´¯è®¡
ä»İ è¾ĵåĩºå±Ĥ
åĪ« è¯´
åĲĳéĩı ç©ºéĹ´
imp ort
çĽ´æİ¥ åĬł
çĽ´æİ¥ ä¿®æĶ¹
å°ı çļĦ
çĽ®æłĩ ä¸İ
çĽ®æłĩ åıĺéĩı
çĽ®æłĩ ä¸įæĺ¯
çĽ®æłĩ åĪĩæį¢
è¡¨ç¤º ä¸Ģæ¬¡
ä¿¡æģ¯ åĴĮ
æ¶Īæģ¯ éĺŁåĪĹ
ir mation
la cing
éģ ¥æµĭ
éģ ĩåĪ°
éģ įåİĨ
ĠM AT
æĸĩæľ¬ è½¬æį¢ä¸º
ail s
åħ¬ åħ±
è¯» åĨĻ
å°± çĶ¨
å°± è¡Į
å°± ç»ĻæĪĳ
è®¡ç®Ĺ æĪĸ
è®¡ç®Ĺ åįķåħĥ
æİ¥åı£ æµĭè¯ķä¸İåŁºç¡Ģ
è¯Ńä¹ī çĽ¸ä¼¼åº¦
è¯Ńè¨Ģ åįķä½į
ä¾Ŀèµĸ æľįåĬ¡
ä¾Ŀèµĸ æ³¨åħ¥
éķ¿ æĸĩæ¡£åĪĩåĪĨ
am bd
am oDB
åīįç«¯ å·¥ç¨ĭå¸Ī
å²Ĺä½į æĶ¯æĮģè¿ľç¨ĭ
å²Ĺä½į è¦ģçļĦ
ur r
ur ora
Ġan gle
è¾ĥ å¤§
è¾ĥ å·®
è¾ĥ å¿«çļĦ
ä¸ŃçļĦ æ¯ıä¸ª
åħ¶ä»ĸ ä½įç½®
Ch ann
Ch arles
est s
ss ess
onf irmation
åĮº éĹ´
éĢĤ åºĶçī¹å®ļä»»åĬ¡
æĹł åºı
ç§į åŃĲ
ign ment
å®ĮæĪĲ ç®Ģåįķ
å®ĮæĪĲ æİ¥åı£æµĭè¯ķä¸İåŁºç¡Ģ
éĻįä½İ è¾ĵåħ¥
è¯Ħä¼° åĻ¨
ä¼ĺåĮĸ çīĪ
ä¼ĺåĮĸ è¯Ńè¨Ģæ¨¡åŀĭ
æ´ Ĺ
ï¼Įä½¿ è¯Ńä¹ī
åĽł ç´ł
å¢ŀ éĩı
çī¹ åĪ«
-ser ies
um e
åıĸ æ¶Ī
åıĸ å¾Ĺ
åıĸ åĨ³
è®¿éĹ® çļĦæķ°æį®
è®¿éĹ® åĲİç«¯æķ°æį®
å¯¼ åħ¥
çŃĸ æłĩåĩĨ
éĶ® çļĦ
éĶ® å¿«éĢŁ
æł¹æį® æŁ¥è¯¢
æł¹æį® æįŁå¤±åĩ½æķ°
æł¹æį® åħ¶ä»ĸä½įç½®
æ» ĳ
Ġn pm
Ġn udge
Ġq ueues
æĬĬ ä¸Ģç»Ħ
æĬĬ å²Ĺä½įæııè¿°
è¿ĩç¨ĭ ä¸Ń
æĿĥ éĻĲ
å±Ĥ è¾ĵåĩº
å±Ĥ åįıè®®
om e
out ine
Ġg ate
Ġg rap
Ġg uide
Ġh and
Ġh ard
æĺ¯ä¸Ģ ç±»
åįı ç¨ĭ
Ġse arch
Ġse cre
åħ³ç³» åŀĭæķ°æį®åºĵ
å¿ħ çľĭ
ä½įç½® æł¹æį®åħ¶ä»ĸä½įç½®
åİĨåı² æĬ¥åĳĬ
åİĨåı² åĨ»ç»ĵ
çĭ¬ç«ĭ æĢ§
çĭ¬ç«ĭ å¤ĦçĲĨ
çĭ¬ç«ĭ è¿Ľè¡Įæķ°æį®
çĭ¬ç«ĭ ä»£çłģè°±ç³»
çĭ¬ç«ĭ å®ĮæĪĲæİ¥åı£æµĭè¯ķä¸İåŁºç¡Ģ
ĠçļĦ æıĲåįĩ
ĠçļĦ åĬŁèĥ½
å¦Ĥæŀľ åĨłåĨĽ
å¦Ĥæŀľ å²Ĺä½įæĶ¯æĮģè¿ľç¨ĭ
èĩ³ å°ĳ
å¥½ çļĦ
å¥½ ä½Ĩ
æī«æıı åħ¶ä»ĸä»»åĬ¡
-t arget
io S
é¡µ å·¦
æľºåĻ¨ ç¿»è¯ĳ
åºıåĪĹ ä½įç½®ä¿¡æģ¯
åºıåĪĹ åĪ°åºıåĪĹ
åºıåĪĹ ä¸ŃçļĦæ¯ıä¸ª
åı¯èĥ½ çļĦ
åı¯èĥ½ å¯¼èĩ´
æł·æľ¬ è¿Ľè¡ĮæİĴåºı
æľª è¦ĨçĽĸæĸ¹åĲĳ
äºĮ åĪĨæŁ¥æī¾
ä¸Ģèĩ´ æĪĸ
è´£ ä»»å¿ĥ
çľĭ äºĨ
ï¼Įä½Ĩ ä¸į
ï¼Įä½Ĩ ä¸įèĥ½
ï¼Įä½Ĩ ä¼ļå¢ŀåĬł
æĲľç´¢ æłĳ
å¿ħé¡» åĲĮæĹ¶
å¿ħé¡» è®°å½ķ
æ²ŁéĢļ èĢħ
åĨłåĨĽ åĪ·æĸ°
PE TIT
çĨ µæįŁå¤±
Ġr un
Ġr ace
Ġr andom
ï¼Įä»¥ åĩıå°ĳ
ï¼Įä»¥ èİ·å¾ĹæĽ´
ï¼Įåı¯ä»¥ åľ¨
ï¼Įåı¯ä»¥ çĶ¨äºİ
ï¼Įåı¯ä»¥ éĢļè¿ĩ
ï¼Įåı¯ä»¥ åĩıå°ĳ
ï¼Įåı¯ä»¥ åľ¨ä¸į
äºĽ é¡¹çĽ®ä¸Ń
è´Ł è½½
åİŁ åĽł
åİŁ å¯¹è±¡
å¤ļä¸ª å¯¹è±¡
è¾ĵåħ¥ åĴĮ
è¾ĵåħ¥ è§Ħæ¨¡å¢ŀéķ¿
çŃĸçķ¥ å¿ħé¡»
æī§è¡Į åįķåħĥ
æī§è¡Į PythonåŃĹèĬĤçłģ
å®ĺæĸ¹ çİ¯å¢ĥ
å®ĺæĸ¹ åĪĨæķ°
å®ĺæĸ¹ æºĲçłģ
å®ĺæĸ¹ åįķçº¿ç¨ĭ
Ġlo gging
ï¼ĮçĶ¨äºİ æııè¿°
æĺ¯åĲ¦ çľŁæŃ£
Ġsc al
Ġrep ort
Ġrep air
Ġrep lacing
éľĢæ±Ĥ ç¼ĸåĨĻ
éľĢæ±Ĥ èĲ½åľ°
ç¼ĵ è§£
åĿĩ è¡¡
åĲĮæĹ¶ æī§è¡ĮPythonåŃĹèĬĤçłģ
åĢĻéĢī éĽĨåĲĪ
HTTP ä¹ĭä¸Ĭ
æĴ ŀ
ĠR untime
ĠR oute
ç»Ī æŃ¢
åŃĲ æłĳ
ä¸Ģä¸ĭ åħ·ä½ĵ
åĩ½æķ° æĪĸç±»
ç»ıåİĨ çļĦäºº
éĩįæĸ° æĲľç´¢
éĩįæĸ° åĪĨéħį
éĩįæĸ° è§ĦåĪĴ
Ġwith in
æİ¨çĲĨ ä¼ĺåĮĸ
è¿Ĳè¡Į æľŁéĹ´
éĵ¾ è¡¨
éĵ¾ å¼ıæ³ķ
Ġä¸ª çĭ¬ç«ĭä»£çłģè°±ç³»
åĪĻ ä»İè¾ĵåĩºå±Ĥ
å®¢ æľįåĽ¢éĺŁ
ers ist
Ġcon text
Ġcon nect
å»ºç«ĭ çļĦè¾ħåĬ©
åĽŀçŃĶ çļĦ
ç®ĢåİĨ åĲ§
æĺ¯ä¸Ģç§į éĿ¢åĲĳ
æĺ¯ä¸Ģç§į æľīåºı
æĺ¯ä¸Ģç§į çĶ¨äºİåĮħè£ħ
ç¼ĵåŃĺ é¡¹
ç¼ĵåŃĺ éĿĻæĢģ
ç¼ĵåŃĺ åĩ»
ç¼ĵåŃĺ ç©¿
ç¼ĵåŃĺ éĽªå
ä¸Ĭä¸ĭæĸĩ çļĦ
ä¸Ĭä¸ĭæĸĩ åħ³ç³»
å¼º çļĦ
æıĲé«ĺ æŁ¥è¯¢
åĬ¨æĢģ åıĺåĮĸ
åĬ¨æĢģ è§ĦåĪĴ
åģļ å®ļä½į
åģļ è¿ĩè¿ĻäºĽ
æľĢç»Ī çĬ¶æĢģ
REST æĺ¯ä¸Ģç§įéĿ¢åĲĳ
ä¿®æĶ¹ æ¨¡åŀĭ
Ġimpro vement
Ġl anguage
ĠRe charts
eri a
åĨ»ç»ĵ åıĤæķ°
æĸ¹æ³ķ éĽĨåĲĪ
æĸ¹æ³ķ è¡¨è¾¾
éĽĨåĲĪ è¿Ĳç®Ĺ
éĥ¨åĪĨ ç¥ŀç»ıåħĥ
Ġto pics
Ġanaly z
çĨŁ æģ¶
æ³¨æĦıåĬĽ è®¡ç®Ĺ
RM SE
ïĤ·P rompt
ïĤ·P rep
ïĤ·P roduc
ä¸įèĥ½ åıįå¤į
åŁºçº¿ æ¨¡åŀĭ
åŁºçº¿ ä¸Ĭ
çº¿ç¨ĭ æ±ł
çº¿ç¨ĭ åĲĮæĹ¶æī§è¡ĮPythonåŃĹèĬĤçłģ
æııè¿° ç®Ĺæ³ķ
èµĦæºĲ éªĮè¯ģ
èµĦæºĲ æĵįä½ľ
çī¹å¾ģ å·¥ç¨ĭ
æ¸ħ æ´Ĺ
èĬĤ çĶļèĩ³
èĬĤ çľģ
Token éĽĨåĲĪ
Token æĺ¯è¯Ńè¨Ģæ¨¡åŀĭ
Ġus ed
read s
éĢĴ å½Ĵ
åŃĹ æ®µ
åĪĨç±» ä»»åĬ¡
æĬķ ç®ĢåİĨ
çĽ®åīį ä½ł
chn olog
æ³Ľ åŀĭ
ç»ĵåĲĪ è¿ĻäºĽ
ç»ĵåĲĪ åħ³éĶ®è¯įæ£Ģç´¢
Ġac curacy
æ²¡æľī å·®åĪ«
æ¢¯åº¦ çĪĨçĤ¸
sh ell
Ġth reshold
Ġth rough
è¯´ æĪĳ
è¯´ ä½ł
enc es
çº¦ å®ļ
åıĺåĮĸ çļĦ
point s
ä¹ĭéĹ´çļĦ åħ³ç³»
ä¹ĭéĹ´çļĦ çĽ¸ä¼¼
ä¹ĭéĹ´çļĦ æĺłå°Ħ
ä¹ĭéĹ´çļĦ è¿ĩåº¦
çĻ» è®°
/m ass
/m anual
AT E
AT IVE
lat es
ä½ł çİ°åľ¨
ä½ł å°±çĶ¨
ïĤ·C ode
ïĤ·C loud
ïĤ·C ollabor
åĮ¹éħį åĴĮè¯Ńä¹ī
ç®Ĺæ³ķ å®ŀéªĮ
âĢĿ ï¼Į
ç»´æĬ¤ æĪĲæľ¬
å¤ĸéĥ¨ ä¿¡æģ¯
èĭ± åĽ½
cont ention
sc al
æ¼ Ķç¤º
Ġass et
Ġass ignment
çļĦæķ°æį® éĽĨåĲĪ
è®© åºıåĪĹä¸ŃçļĦæ¯ıä¸ª
ïĤ·A WS
åĵĪå¸Į è¡¨
æłĩåĩĨ åºĵ
è¿Ľç¨ĭ åĨħå¤ļä¸ª
åħ·å¤ĩ çķĻ
æİĴåºı ç®Ĺæ³ķ
ç¬¦ åı·
è´Łè´£ æĬĬ
IT ATIVE
ach ine
è¢« ä¿®æĶ¹
ĠH IST
ĠU se
Ġä¸į åħģè®¸
ãĢģæµĭè¯ķ æĬ¥åĳĬ
ãĢģæµĭè¯ķ è®¡åĪĴ
ï¼Įè¿Ļ å²Ĺä½įè¦ģçļĦ
ï¼Įè¿Ļ äºĽé¡¹çĽ®ä¸Ń
Ġcl ar
æī© åħħ
Ġinter view
Ġinter fac
æł¼å¼ı åĴĮ
ï¼ĮæĪĳ åı¯ä»¥
ç¨ĭåº¦ çļĦ
è§Ĵ åº¦
æľīæķĪ åįķçº¿ç¨ĭ
éĿŀ å¸¸
éĿŀ åĨłåĨĽ
éĿŀ å½ĵåīįåľ°åĽ¾
å¯¹è±¡ æīĢ
å¯¹è±¡ è½¬æį¢ä¸º
åĵªäºĽ çŁ¥è¯Ĩ
åĨħåŃĺ ç®¡çĲĨ
è¶Ĭ å¤§
æŃ£å¼ı éªĮè¯ģ
æŃ£å¼ı æİ¨å¹¿
æĿĥéĩį åĪĿå§ĭåĮĸ
èĭ±æĸĩ PR
èĭ±æĸĩ éĺħè¯»
èĭ±æĸĩ æµĭè¯ķçĶ¨ä¾ĭ
èĭ±æĸĩ çĶ¨æĪ·åıįé¦Ī
æĵįä½ľ åĮħæĭ¬åħ¥
çĽĳçĿ£ å¾®è°ĥ
/F INAL
Batch Norm
IN T
bo x
bo xed
éĥ½ è¾ĥå·®
ï¼Įæĺ¯ é¢Ħæµĭ
ï¼Įæĺ¯ è¡¡éĩı
åĪĿ åŃ¦èĢħ
åĲį åĴĮ
åĲį å®ŀä½ĵ
éĢĲ ä¸ª
æĪĲæľ¬ é«ĺ
ä¸Ģæ¬¡ èĥ½å¤Łå¤ĦçĲĨçļĦ
åį³ åı¯
Ġsupport s
Ġcomp let
Ġcomp arative
ĠSt ructure
ĠSt rength
å¹¶åıĳ ä»»åĬ¡
Ġman ifest
Ġmodel s
Ġmodel ing
ç´¢å¼ķ æĺ¯
èµĦæĸĻ åĪĨæŀĲ
ç©ºéĹ´ å¤įæĿĤåº¦
Ġlog s
æ¦Ĥçİĩ æľĢé«ĺçļĦ
æ¦Ĥçİĩ è¾¾åĪ°
åĽºå®ļ æ¨¡åŀĭ
åĽºå®ļ åİĨåı²
åĪ©çĶ¨ å·²æľī
åĪ©çĶ¨ éĵ¾å¼ıæ³ķ
PR OM
fer ences
ĠJ OIN
ï¼ĮçĶŁæĪĲ ç²¾ç®ĢçīĪ
ï¼ĮçĶŁæĪĲ ä¸Ģä¸ªè·Ł
æĺ¾ ç¤º
Ġcom b
Ġcom mun
åħ³éĹŃ éĥ¨åĪĨç¥ŀç»ıåħĥ
json l
è·¨ æºĲ
åĪĹè¡¨ æİ¨å¯¼
æŃ£å¸¸ å·¥ä½ľ
æŃ£å¸¸ åħ¨èģĮ
ä¾Ŀæį® æĪĸ
éĻĲåĪ¶ åĲĮä¸Ģ
ç»ĵæŀĦåĮĸ æķ°æį®
çīĪæľ¬ å¦Ĥä¸ĭ
æĺłå°Ħ ä¸º
çŁŃæľŁ çŃĸçķ¥
å»¶è¿Ł åĬłè½½
æĤ Ħ
éĻ¤ ä»¥
å¯¹åºĶ çļĦåĢ¼
æĽ¿ æį¢
éļı è¾ĵåħ¥è§Ħæ¨¡å¢ŀéķ¿
éĶģ å®ļ
ä¿ĿæĮģ éĢŁåº¦
ä¿ĿæĮģ é»ĺè®¤åħ³éĹŃ
è·¯çº¿ èĢĹ
ound s
æĮīçħ§ ä»¥ä¸ĭ
è¡¡éĩı æ¨¡åŀĭé¢Ħæµĭ
-p éĩĩæł·
AU DIT
Mask ed
OR T
OR ICA
yn amoDB
{} ï¼Ł",čĊ
è¿Ńä»£ åĻ¨
éĩıåĮĸ æĸ¹æ³ķ
Ġcont act
Ġcont ention
éĩįçĤ¹ å¿ħçľĭ
åĳ½ åĲįå®ŀä½ĵ
æ²» çĲĨ
åģľ çĶ¨è¯į
æ·· æ·ĨçŁ©éĺµ
ç»Ħä»¶ ä¹ĭéĹ´
ï¼Įä½¿æ¨¡åŀĭ éĢĤåºĶçī¹å®ļä»»åĬ¡
èģļåĲĪ çļĦä¿¡æģ¯
çĽĳçĿ£åŃ¦ä¹ł ä½¿çĶ¨å¸¦
ï¼Įä»İèĢĮ åĩıå°ĳ
-b ound
/t mp
OM P
_F INAL
_F RAME
èĲ ¥
Ġv eto
Ġis sue
ĠJava Script
ä»¤ çīĮ
æĺ¯åľ¨ HTTPä¹ĭä¸Ĭ
stru ction
æłĳ å½¢
Ġschem as
è¿ĩæĭŁåĲĪ é£İéĻ©
ä¸Ĭçº¿ äºĨ
ä¸Ĭçº¿ åīįQAéªĮæĶ¶
éĩįè¦ģ çļĦ
è¿Ļä¸ª ç®ĢåİĨ
ä¿ĿåŃĺ éĶ®åĢ¼
ï¼Įä¸įèĥ½ çĽ´æİ¥
ï¼Įä¸įè¦ģ å¤ª
åĽłæŀľ è¯Ńè¨Ģæ¨¡åŀĭ
åĽłæŀľ æ³¨æĦıåĬĽ
æ³¨æĦıåĬĽæľºåĪ¶ ä¸Ń
æ³¨æĦıåĬĽæľºåĪ¶ æľ¬èº«
å°½éĩı åĲĪå¹¶åĪ°
Ġmaintain ing
## #
/C onfirmation
Torch Script
qu ir
rum qi
Ġå·² æıĲä¾Ľä½įç½®
ç»Ĩ èĬĤçĶļèĩ³
çļĦä¿¡æģ¯ è®¡ç®Ĺ
æĺ¯ä»Ģä¹Ī æĦıæĢĿ
æĸ°åĨłåĨĽ åŁºçº¿
æĮģç»Ń åĪ·æĸ°
é«ĺæķĪ åįıä½ľ
.json l
çĽ¸åħ³æĢ§ æİĴåºı
äº§çĶŁ æķ°æį®
ç»ĦæĪĲ çļĦæłĩæ³¨
æŃ£ç¡® é¡ºåºı
åħ¬åı¸ åĲĪä½ľ
ï¼Įä½ł åħĪè®°ä¸Ģä¸ĭ
ï¼Įä½ł å°±ç»ĻæĪĳ
ç»ĻæĪĳ çĶŁæĪĲåĮ¹éħįåº¦æľĢé«ĺçļĦATS
æİĴè¡Į æ¨¡åŀĭ
Ġgener ating
ç¨³å®ļæĢ§ ä¸İè´¨éĩı
ä¸¤ä¸ª åıĺéĩı
è½¬æį¢ä¸º åĴĮä¸º
éĢĲæŃ¥ éĻįä½İ
AUC å¤§äºİ
æİĮæı¡ ä»Ģä¹Ī
Embedding æ¨¡åŀĭ
Query è¡¨ç¤º
Ġor gan
ä¸Ķ æ²¡æľīåĲįçļĦé¡¹çĽ®
ãĢģè¡Į ä¸º
ï¼Įä¸İ æŃ£å¸¸åħ¨èģĮ
ï¼Įèĥ½ åĲĪå¹¶åĪ°ä¸Ģè¡ĮçļĦå°±
ï¼Įèĥ½ ä¸İæµ·å¤ĸ
ï¼Įèĥ½ æµģçķ
ï¼Įæľī è´£ä»»å¿ĥ
ï¼ĮæĹ¶éĹ´ åĴĮåħ¨èģĮ
ï¼ĮåĨį å¼Ģå§ĭ
ï¼ĮéĢĤåĲĪ è¡¨ç¤º
ï¼ĮéĢĤåĲĪ å¤ĦçĲĨå¤§éĩı
ç»ĳå®ļ åĪ°å¯¹è±¡
çļĦéĹ®é¢ĺ è¿Ľè¡Įå¤įçİ°
çļĦç®ĢåİĨ çīĪæľ¬å¦Ĥä¸ĭ
äºī æĬ¢
å¸¦ è¿ĩæľŁæĹ¶éĹ´
å¾Ī å¥½ä½Ĩ
ä½¿çĶ¨çļĦ è®Ńç»ĥæł·æľ¬
æŁ¥æī¾ å¯¹åºĶçļĦåĢ¼
åĬłè½½ ä¸Ģæ¬¡
æľĢå°ı æĸ°åŁºçº¿
å¹³åĿĩ æĥħåĨµä¸ĭ
å¹³åĿĩ ç»Ŀå¯¹
ï¼Įä¸įéľĢè¦ģ å¤ļ
ï¼Įä¸įéľĢè¦ģ è§£éĩĬ
Ġscan ning
è¶ħè¿ĩ å½ĵåīįåĨłåĨĽ
å±Ģéĥ¨ éļľç¢į
èİ·å¾Ĺ çļĦ
æĻºæħ§å·¥åľ° è¡Įä¸ļ
-re lated
Key åĴĮValue
MA E
MAT CH
Pro gramming
_T AS
_T HREAD
_T RIG
gist er
Ġk nowledge
Ġä»¥åıĬ åĲİåı°
ãĢģè¯Ħ åĪĨ
ãĢģæĢ§èĥ½ æµĭè¯ķçŃīä¼ļ
ãĢģåĽŀå½Ĵ æµĭè¯ķ
ãĢģåĪĨæŀĲä¸İ åĽŀæº¯
ï¼Įåľ¨ Transformer
ãĢĤå¦Ĥæŀľ çŃĶæ¡Ī
åħŃ å¯¹
éĩĮ éĿ¢
åįĬ çĽĳçĿ£åŃ¦ä¹ł
åŁ¹è®Ń èµĦæĸĻ
è¾ħåĬ© éĢīä¿®
æľ¬ç§ĳ åıĬä»¥ä¸Ĭ
æľīä»Ģä¹Ī åħ³ç³»
æľīä»Ģä¹Ī ä½ľçĶ¨
æĶ¿ çŃĸæłĩåĩĨ
æī¹ å¤ĦçĲĨ
æĭĨ è§£
æĭĨ åĪĨä¸ºå¤ļä¸ª
å¸¸è§ģ æµĭè¯ķæĸ¹æ³ķ
Ġbe hav
äº¤åıī çĨµæįŁå¤±
Ġdet ails
æİ¨åĬ¨ èĥ½åĬĽ
åħĥç´ł çļĦ
å½ĵåīįåĨłåĨĽ åŁºçº¿ä¸Ĭ
è¯įè¡¨ æĺ¯
å°ıè§Ħæ¨¡ è®Ńç»ĥ
åıįåĲĳä¼łæĴŃ åĪ©çĶ¨éĵ¾å¼ıæ³ķ
æľªæĿ¥ ä¿¡æģ¯
æ¯ıå¤© èĥ½ä¿Ŀè¯ģ
çĦ¶åĲİ çĽ®åīįä½ł
è¿ĺæľī èĥ½åĲĪå¹¶
Ġcheck s
ç¥ŀç»ıåħĥ ä¹ĭéĹ´çļĦè¿ĩåº¦
å®¢æĪ·ç«¯ä¸İ æľįåĬ¡åĻ¨ä¹ĭéĹ´
Ġvis ibility
Ġrespons es
Ġrespons ive
Ġenvironment s
crumb s
Ġconfigur ation
-cont ract
/h ikaflow
/h oldout
My sQL
My Batis
_a utopilot
min er
Ġun saf
Ġun changed
Ġjob s
ï¼Įå¯¼èĩ´ è¯·æ±Ĥ
ï¼ĮåĽłä¸º çº¯
åĨ¯ éĺ³
è§Ĩ ä¸º
è§Ĩ è§ī
åıĳçĶŁ åľ¨
é¢ĳ éģĵ
Ġpath s
Ġpath lib
éĿĻæĢģ æ£ĢæŁ¥
è¡¨çİ° éĥ½è¾ĥå·®
ä¸ĬçļĦ è¡¨çİ°éĥ½è¾ĥå·®
çĽ¸åĲĮ çļĦ
Ġbo th
èĢĹ æĹ¶
çº¿ä¸Ĭ ç¨³å®ļæĢ§ä¸İè´¨éĩı
Ġautom ation
Ġautom ated
éľĢè¦ģæĽ´ å¤ļ
åıĤæķ°æĽ´æĸ° çļĦæŃ¥
Ġprompt s
ä½įç½®ç¼ĸçłģ åĲĳ
å¹¿æ³Ľ ä½¿çĶ¨
èī¯å¥½ çļĦ
ï¼Įå¸¸è§ģ æĵįä½ľåĮħæĭ¬åħ¥
æ¢¯åº¦ä¸ĭéĻį æł¹æį®æįŁå¤±åĩ½æķ°
ç¿» è½¬
èĩªçĦ¶è¯Ńè¨Ģ å¤ĦçĲĨ
æİĴè¡Įæ¦ľ åİĨåı²
Ġremote ly
åĶ¯ä¸Ģ æłĩè¯Ĩ
çŁ©éĺµ æĿ¥
-c lock
-k éĩĩæł·
-s ize
/b elief
AC K
AC ID
COM MIT
De vTool
IS ING
Th read
_m ode
_m antis
ww w
ĠO verla
Ġal location
Ġend points
Ġæĺ¯åĲ¦ è¶Ĭè¿ĩ
Ġembedding s
Ġç¬¬ äºĮ
ãĢģå½ĵåīį çŃĸçķ¥
ãĢģæİ¥åı£ æµĭè¯ķ
ãĢģèĭ±æĸĩ æĬĢæľ¯æĸĩæ¡£
ãĢģèĭ±æĸĩ ä»£çłģæ³¨
åı³ å°±åı¯ä»¥
ï¼Įå°± ç»ĻæĪĳçĶŁæĪĲåĮ¹éħįåº¦æľĢé«ĺçļĦATS
ï¼Įæİ¨åĬ¨ éĹ®é¢ĺè§£åĨ³
ï¼Įæİ¨åĬ¨ éľĢæ±ĤèĲ½åľ°
ãĢĤãĢĤ ãĢĤï¼Į
æŀģ ç«¯
åı¯è®Ńç»ĥ åıĤæķ°
ä¸įè¶³ æĪĸ
ä»Ģä¹Īéĥ½ åĪ«è¯´
ä¸Ģç§į èĩªçĦ¶è¯Ńè¨Ģ
æ¨¡åŀĭå¯¹ æŃ£è´Ł
ä¸Ńè¢« å¹¿æ³Ľä½¿çĶ¨
åĲİéĿ¢ æĪĳä¼ļ
Ġres ume
æıĲäº¤ åīį
ĠSize è¡¨ç¤ºä¸Ģæ¬¡
ĠComp uting
é¢ĦæľŁ ç±»åŀĭ
åŃ¦ä¹łçİĩ æİ§åĪ¶æ¯ıæ¬¡
ç»ıå¸¸ è®¿éĹ®çļĦæķ°æį®
Ġme an
Ġmod ular
Ġdis covery
Ġbound s
çĶŁæĪĲåĻ¨ éĢļè¿ĩ
é«ĺçº§ åīįç«¯å·¥ç¨ĭå¸Ī
äº¤æį¢ è¯·æ±Ĥ
Ġter m
å¤§è§Ħæ¨¡ è®Ńç»ĥ
Ġel if
Ġexp ert
Ġweb hook
è¿Ļå²Ĺä½į åĮ¹éħįåº¦æľĢé«ĺçļĦATS
åĲĳéĩıæķ°æį®åºĵ çĶ¨äºİåŃĺåĤ¨
æĮĩå®ļ éĺĪåĢ¼
æĹłçĽĳçĿ£åŃ¦ä¹ł ä½¿çĶ¨æ²¡æľī
æİĴçīĪ å¥½
æİĴçīĪ è®©æĪĳå¤įåĪ¶
Ġno isy
éĩĬæĶ¾ åĴĮ
GPT Q
çľĭåĪ° æľªæĿ¥ä¿¡æģ¯
ï¼Įä»¥æıĲé«ĺ æľĢç»Ī
HTTPS æĺ¯åľ¨HTTPä¹ĭä¸Ĭ
èģĶåĲĪ ç´¢å¼ķ
ä¸¤åı¥ å°±åı¯ä»¥
ä¸¤åı¥ çĲĨçĶ±
Temperature æİ§åĪ¶çĶŁæĪĲæ¦ĤçİĩåĪĨå¸ĥ
ç²¾ç¡® çİĩ
æĺ¾åŃĺ åįłçĶ¨
æłĩçŃ¾çļĦæķ°æį® è®Ńç»ĥæ¨¡åŀĭ
èĩªåĬ¨åĮĸèĦļæľ¬ å¼Ģåıĳ
èĩªåĬ¨åĮĸèĦļæľ¬ ä¼ĺåħĪ
åģıå¥½ æķ°æį®
Ġitem s
ä¸ĬéĿ¢æĺ¯ å²Ĺä½įæııè¿°
ä¸ĬéĿ¢æĺ¯ æĪĳçļĦç®ĢåİĨ
è¾ĵåħ¥ä¸İçĽ®æłĩè¾ĵåĩº ç»ĦæĪĲçļĦæłĩæ³¨
Dropout è®Ńç»ĥæĹ¶éļıæľº
Layer Norm
åľ¨ç½ĳé¡µ ä¸Ĭå®Įæķ´
åľ¨ç½ĳé¡µ æİĴçīĪå¥½
ollabor ation
è£ħé¥°åĻ¨ æĺ¯ä¸Ģç§įçĶ¨äºİåĮħè£ħ
-h orizon
-gr am
-back end
/re gister
/te am
AO P
TE XT
_B UT
_N UM
_n um
_ST ATE
è¥¿ å®ī
Ġj udgment
Ġåı¯èĥ½ æ¶īåıĬ
Ġèĭ¥ åĨ»ç»ĵ
ãĢģB rowser
ï¼ĮåħĪ ä»Ģä¹Īéĥ½åĪ«è¯´
ï¼ĮçĽ®æłĩ æĺ¯åľ¨
ï¼Įåħ¶ä»ĸ ä»Ģä¹Īéĥ½
ãĢĤä¸įèĥ½ è¢«
ïĤ·U sed
æĺ¯åĬ¨æĢģ ç±»åŀĭ
ï¼ļs idx
ï¼ļä¸į éĻĲ
åĪĨå·® è¶ħè¿ĩå½ĵåīįåĨłåĨĽ
åĪĨå±Ĥ åŁºçº¿
åĪĨé¡µ æŁ¥è¯¢
åı¯åŃ¦ä¹ł åıĤæķ°
Ġ"") .
ä¸įéĩįæĸ° åģļå®ļä½į
è§Ĥæµĭ åĢ¼
å¹ĤçŃī æĢ§
å®ŀæķ° è½¬æį¢ä¸ºåĴĮä¸º
åĴĮF allback
åĴĮç®¡çĲĨ æķ°æį®çļĦ
åĴĮä¾Ŀèµĸ åĮħ
Ġcre ation
Ġconf ident
check point
åħ³æ³¨ åĵªäºĽ
æīĭ åĬ¨
æīĵ å¼Ģ
æĭ¿ åĩºæĿ¥
Ġpr icing
Ġpub lic
åİĭ åĬĽ
Ġinv olving
Ġmicroser vice
ä¸ĭéĿ¢ ç§¯
rid or
Ġdur able
Ġblock chain
Ġab ility
æľºåĪ¶éĢļè¿ĩ åĲİæīįåģļ
è·³ å¸§
æľĢä¼ĺ çļĦ
åįķä¸ª æł·æľ¬
åı£è¯Ń æ²ŁéĢļèĢħ
ĠTe chnolog
è¿Ľè¡ĮåĬłæĿĥ æ±ĤåĴĮ
äººåĳĺ æ²¡æľīå·®åĪ«
æ·±å±Ĥç½ĳç»ľ ä¸ŃçļĦ
éģ® çĽĸ
éģĹ æ¼ı
æĥħæĦŁ åĪĨæŀĲ
ĠDe gree
ĠLearn ing
ĠLeader åĴĮFallback
æ¦Ĥå¿µ æĺ¯ä»Ģä¹Ī
çĨŁç»ĥä½¿çĶ¨ Charles
èĻ½çĦ¶ æĺ¯
Ġclass ifier
å°½åı¯èĥ½ æ·±åħ¥
ç²¾åº¦ è¡¨ç¤º
åĪĨå¸ĥå¼ı éĶģ
å®¢æĪ·ç«¯åĴĮ æľįåĬ¡åĻ¨ä¹ĭéĹ´
Ġexec ution
Ġexhaust ed
è¡¡éĩıäºĮåĪĨç±» æ¨¡åŀĭå¯¹æŃ£è´Ł
ï¼Įä½¿æ¨¡åŀĭåŃ¦ä¹ł çī¹å®ļä»»åĬ¡
_FAIL ED
ï¼Įä¹Łåı¯ä»¥ è¯´
è®Ńç»ĥæķ°æį®ä¸ŃçļĦ ç»ĨèĬĤçĶļèĩ³
ç¢° æĴŀ
ä½Ļå¼¦ çĽ¸ä¼¼åº¦
Ġbuil d
æĪªæŃ¢ æĹ¶éĹ´
ROC æĽ²çº¿
åģĩè®¾ä½ł æĺ¯è¿Ļå²Ĺä½į
ULT I
ï¼ĮèĢĮä¸įæĺ¯ä¸Ģæ¬¡æĢ§ æĬĬ
_SCO PE
èĥĮ æĻ¯
Ġoper ations
ãĢģéļĶç¦»æĢ§åĴĮæĮģä¹ħæĢ§ çŃī
ï¼Įç¡®ä¿Ŀ çº¿ä¸Ĭç¨³å®ļæĢ§ä¸İè´¨éĩı
æĸ¹ä¾¿ çļĦè¯Ŀ
Ġmigration s
Ġdemonst rating
æİ¨èįĲ è¦ģä¸įè¦ģ
"å·² çĶŁæĪĲ
(K eep
-ID F
-co mpatible
-po wered
-æĸ¹å·® æĿĥè¡¡
.s et
.w rite
.in ference
.form at
.cur sor
.np z
/s n
/ä½İ åĪĨ
/Jav Va
/æ¬ §æ´
/ru les
/An dro
/JaVa å®ĮæĪĲç®Ģåįķ
AW Q
Ac curacy
Cook ie
COR S
Epo ch
FET Y
Gor outine
Groun ding
Hash Map
HOR ITATIVE
JV M
MV CC
Plan ner
Tian jin
WOR K
Xin jiang
_g uard
_p refix
_th reads
_temp lates
_back fill
_COM PETIT
_SA FETY
_AUT HORITATIVE
_CON TEXT
_MIS MATCH
ced ing
kä¸ª åĢĻéĢī
lack list
prom otion
pai red
qw en
sçŃī æµĭè¯ķå·¥åħ·
top ics
}ãĢĤ ",čĊ
©ç½ ļ
²ä»» ä¸ĢåĿĩ
¸é¦ ı
åĦ ¿
åķ Ĩä¸ļ
èĴ ¸é¦ı
ĉæľª æİĪæĿĥ
ĉåĪĨæķ° æŃ£åĲĳ
ĉå¾Ī é«ĺ
Ġèĥ½ çĭ¬ç«ĭè¿Ľè¡Įæķ°æį®
Ġå¾ ªçİ¯
Ġä¸ĭ çķĮ
ĠGP U
Ġup dates
Ġæ¯ıä¸ª æĸĩä»¶å¿ħé¡»
Ġå¹´ä»¥ä¸Ĭ æµĭè¯ķç»ıéªĮ
ĠæĪĲä¸º å¼ĢåıĳåŁºåĩĨ
ĠâĪ Ĵ
ĥä¸ ĩåĪ«
ħéĺħè¯» èĭ±æĸĩPR
ıå®ŀ è®¤çľŁ
ĳçĽ Ĵæµĭè¯ķ
ãĢģè¿Ĳ èĲ¥
ãĢģex cept
ãĢģå®ĮæĪĲ æĪĸ
ãĢģç§» åĬ¨ç«¯
ãĢģåħ¼å®¹ æĢ§æµĭè¯ķ
ãĢģæµ·å¤ĸ å®¢æľįåĽ¢éĺŁ
ãĢģæıĴåħ¥ åĴĮåĪłéĻ¤
ãĢģJM eter
ï¼Įåį ĥä¸ĩåĪ«
ï¼ĮçĽ´æİ¥ åľ¨ç½ĳé¡µæİĴçīĪå¥½
ï¼Įè®¡ç®Ĺ é¢Ħæµĭ
ï¼Įç®Ģåįķ ä¸¤åı¥çĲĨçĶ±
ï¼Įbase è¥¿å®ī
ï¼ĮçĦ¶åĲİ ç»Ļ
ï¼ĮéĤ£ ä½łå°±çĶ¨
ï¼Įè®©æĪĳå¤įåĪ¶ å°±è¡Į
ï¼Įè®¡ç®ĹæľºçĽ¸åħ³ä¸ĵä¸ļ ä¼ĺåħĪ
ãĢĤåıĤä¸İ ä¸Ĭçº¿åīįQAéªĮæĶ¶
ãĢĤå°± ä¸¤åı¥å°±åı¯ä»¥
ãĢĤæł¹æį® éľĢæ±Ĥç¼ĸåĨĻ
ãĢĤè°¢ è°¢
çļĦå¹³ åĿĩåĢ¼
çļĦæ¯Ķ ä¾ĭ
çļĦéĢļä¿¡ æĸ¹å¼ı
çļĦåıĺåĮĸ è¶ĭåĬ¿
çļĦéļıæľº ç¨ĭåº¦
eran ker
atas et
atist ics
æĺ¯åĿĩ æĸ¹
ä¸İåĽ¢éĺŁ æĪĲåĳĺ
ä¸İç¼º éĻ·ä¿®å¤į
èĥ½åĮ¹éħį ä¸Ķæ²¡æľīåĲįçļĦé¡¹çĽ®
ï¼ļé» ĳçĽĴæµĭè¯ķ
edul ed
ä»¥è¶³å¤Ł åĪĨå·®è¶ħè¿ĩå½ĵåīįåĨłåĨĽ
åĪĨè¾ ¨çİĩ
æĹģå¢ŀåĬł ä½İç§©åı¯è®Ńç»ĥ
åı¯åħ¼ èģĮ
æķ°æį®æ³ Ħæ¼ı
åĽ°æĥ ĳåº¦
ä¸įå¸ĮæľĽ è¢«ä¿®æĶ¹
ä¸įä¸Ģå®ļ æıĲåįĩ
ä¸įå¤©çĦ¶ åĮħåĲ«
ï¼Łç½ĳä¸Ĭæī¾ä¸Ģä¸ĭ èĥ½åĮ¹éħįä¸Ķæ²¡æľīåĲįçļĦé¡¹çĽ®
ä»Ģä¹Īæł· ç»ıåİĨçļĦäºº
ä»Ģä¹ĪæĹ¶åĢĻ æĽ´éĢĤåĲĪä½¿çĶ¨
ä¸ĢèĪ ¬
ä¸Ģåı¥ è¯Ŀ
æ¨¡åŀĭè¾ĵåĩº è´¨éĩı
æ¨¡åŀĭåıª åĬłè½½ä¸Ģæ¬¡
æ¨¡åŀĭåĨħéĥ¨ çŁ¥è¯Ĩ
æ¨¡åŀĭåīª æŀĿ
åħ¨éĿ¢ éĩįæŁ¥
Ġsch eduled
åĴĮæ²ŁéĢļ æİ¨åĬ¨èĥ½åĬĽ
åĴĮåĨĻåħ¥ ç»´æĬ¤æĪĲæľ¬
Ġcrit eria
Ġcalib ration
async io
è¿ĩåº¦åŃ¦ä¹ł è®Ńç»ĥæķ°æį®ä¸ŃçļĦç»ĨèĬĤçĶļèĩ³
Ġregress ion
Ġrequi rements
è¦ģæĬķ çļĦè¯Ŀ
è´ªå¿ĥ ç®Ĺæ³ķ
åº¦ä¼ĺåħĪ æĲľç´¢
ĠSpeci alist
ĠSummar y
ĠSkill s
ĠCall ing
Ġfoc used
ĠPostgre sQL
å¯¹åĲĦ åıĤæķ°çļĦæ¢¯åº¦
å¯¹ä¸ŃéĹ´ æ¿Ģæ´»
å¯¹çº¿ä¸Ĭ èĭ±æĸĩçĶ¨æĪ·åıįé¦Ī
åŃ¦ä¹łæķ°æį®ä¸ŃçļĦ è§Ħå¾ĭ
Ġmost ly
Ġmak ing
Ġmetad ata
å¤ļAgent ç³»ç»Ł
è¿ĽåħĪ åĩºçļĦæķ°æį®ç»ĵæŀĦ
Ġdron es
Ġdistrib uted
å¤ĦçĲĨæĸĩæľ¬ æĹ¶ä½¿çĶ¨çļĦ
æĪĸæĥ ©ç½ļ
igmo id
è½¨è¿ ¹
ï¼ĪåĮĹç¾İ èĭ±åĽ½
é«ĺè´¨éĩı çļĦ
é«ĺåĢ¾æĸ ľæĹ¶
å®ĮåĸĦ çļĦ
èĩªåĽŀå½Ĵ çĶŁæĪĲæĹ¶
Ġdebu gging
Ġepis ode
ç®ĹåŃĲ èŀįåĲĪ
æĽ´å¿«çļĦ åŃĺåĤ¨
Ġwind ow
è¿Ļæ±ĤèģĮ èĢħ
åĪ°æľª æĲľç´¢
åĪ°è¾¾ æĹ¶éĹ´
éĹ®é¢ĺå¤§éĥ¨åĪĨ æĺ¯
åıĤæķ°åĴĮè¿ĶåĽŀ åĢ¼
éªĮè¯ģè¸ ıå®ŀè®¤çľŁ
å·¥ä½ľæ²¡æľī åĮºåĪ«
æŃ£åĪĻ åĮĸ
Pythonè§£éĩĬåĻ¨ åĴĮä¾ĿèµĸåĮħ
å½ĵåīįæĿĥå¨ģ ç´¢å¼ķ
ï¼Įä¸įä¼ļå½±åĵį æŃ£å¸¸å·¥ä½ľ
åĽ¢éĺŁè¿Ľè¡Į åı£è¯Ńæ²ŁéĢļèĢħ
ä¸Ģä¸ªä¸Ģä¸ª çļĦç»Ļä½ł
ä¸Ģä¸ªåºıåĪĹ ä½ľä¸º
ä»İç´¯è®¡ æ¦Ĥçİĩè¾¾åĪ°
çĽ´æİ¥ä¿®æĶ¹ åİŁå¯¹è±¡
ĠMAT LAB
æĸĩæľ¬è½¬æį¢ä¸º æ¨¡åŀĭ
ambd a
è¾ĥå¿«çļĦ æŁ¥æī¾
Chann el
éĻįä½İè¾ĵåħ¥ åĪĨè¾¨çİĩ
ä¼ĺåĮĸçīĪ ç®ĢåİĨåĲ§
åıĸåĨ³ äºİ
è®¿éĹ®åĲİç«¯æķ°æį® æºĲ
éĶ®å¿«éĢŁ æŁ¥æī¾å¯¹åºĶçļĦåĢ¼
æĬĬå²Ĺä½įæııè¿° ä¸Ģä¸ªä¸Ģä¸ªçļĦç»Ļä½ł
Ġgrap h
Ġguide lines
Ġhard coded
Ġsecre t
ä½įç½®æł¹æį®åħ¶ä»ĸä½įç½® çļĦä¿¡æģ¯è®¡ç®Ĺ
çĭ¬ç«ĭå®ĮæĪĲæİ¥åı£æµĭè¯ķä¸İåŁºç¡Ģ èĩªåĬ¨åĮĸèĦļæľ¬å¼Ģåıĳ
ĠçļĦåĬŁèĥ½ æµĭè¯ķ
é¡µå·¦ åı³å°±åı¯ä»¥
Ġrandom ization
ï¼Įåı¯ä»¥åľ¨ä¸į çĽ´æİ¥ä¿®æĶ¹åİŁå¯¹è±¡
è´Łè½½ åĿĩè¡¡
ĠRoute Planner
åŃĲæłĳ éĶ®åĢ¼
åĩ½æķ°æĪĸç±» çļĦæľºåĪ¶
åĪĻä»İè¾ĵåĩºå±Ĥ åĲĳ
å»ºç«ĭçļĦè¾ħåĬ© æķ°æį®ç»ĵæŀĦ
ç¼ĵåŃĺåĩ» ç©¿
ç¼ĵåŃĺç©¿ éĢı
ç¼ĵåŃĺéĽªå ´©
åģļè¿ĩè¿ĻäºĽ é¡¹çĽ®
RESTæĺ¯ä¸Ģç§įéĿ¢åĲĳ èµĦæºĲ
æĸ¹æ³ķè¡¨è¾¾ èµĦæºĲæĵįä½ľ
çĨŁæģ¶ å¸¸è§ģæµĭè¯ķæĸ¹æ³ķ
ïĤ·Prep ared
ïĤ·Produc ed
Tokenæĺ¯è¯Ńè¨Ģæ¨¡åŀĭ å¤ĦçĲĨæĸĩæľ¬æĹ¶ä½¿çĶ¨çļĦ
ç»ĵåĲĪè¿ĻäºĽ ä¿¡æģ¯
è¯´ä½ł åģļè¿ĩè¿ĻäºĽé¡¹çĽ®
ïĤ·Collabor ated
è®©åºıåĪĹä¸ŃçļĦæ¯ıä¸ª ä½įç½®æł¹æį®åħ¶ä»ĸä½įç½®çļĦä¿¡æģ¯è®¡ç®Ĺ
è¿Ľç¨ĭåĨħå¤ļä¸ª çº¿ç¨ĭåĲĮæĹ¶æī§è¡ĮPythonåŃĹèĬĤçłģ
åħ·å¤ĩçķĻ åŃ¦ç»ıåİĨ
ĠHIST ORICA
ï¼Įè¿Ļå²Ĺä½įè¦ģçļĦ ä»Ģä¹Īæł·ç»ıåİĨçļĦäºº
ï¼Įè¿ĻäºĽé¡¹çĽ®ä¸Ń æĭ¿åĩºæĿ¥
Ġinterfac es
èĭ±æĸĩéĺħè¯» èĥ½åĬĽå¼º
ä¸Ģæ¬¡èĥ½å¤Łå¤ĦçĲĨçļĦ æľĢå¤§
ĠStructure s
ĠStrength s
æ¦ĤçİĩæľĢé«ĺçļĦ kä¸ªåĢĻéĢī
PROM ISING
ï¼ĮçĶŁæĪĲä¸Ģä¸ªè·Ł è¿Ļå²Ĺä½įåĮ¹éħįåº¦æľĢé«ĺçļĦATS
Ġcommun ication
åĪĹè¡¨æİ¨å¯¼ å¼ı
éĻĲåĪ¶åĲĮä¸Ģ è¿Ľç¨ĭåĨħå¤ļä¸ªçº¿ç¨ĭåĲĮæĹ¶æī§è¡ĮPythonåŃĹèĬĤçłģ
å»¶è¿ŁåĬłè½½ éĿŀå½ĵåīįåľ°åĽ¾
éļıè¾ĵåħ¥è§Ħæ¨¡å¢ŀéķ¿ çļĦåıĺåĮĸè¶ĭåĬ¿
è·¯çº¿èĢĹ å°½
-péĩĩæł· ä»İç´¯è®¡æ¦Ĥçİĩè¾¾åĪ°
åĳ½åĲįå®ŀä½ĵ è¯ĨåĪ«
ï¼Įä½¿æ¨¡åŀĭéĢĤåºĶçī¹å®ļä»»åĬ¡ æĪĸ
_FRAME WORK
ï¼Įä¸įè¦ģå¤ª éķ¿
æ³¨æĦıåĬĽæľºåĪ¶æľ¬èº« ä¸įå¤©çĦ¶åĮħåĲ«
ï¼Įä½łå°±ç»ĻæĪĳ æİ¨èįĲè¦ģä¸įè¦ģ
Ġorgan ization
ï¼Įä¸İæŃ£å¸¸åħ¨èģĮ å·¥ä½ľæ²¡æľīåĮºåĪ«
ï¼Įèĥ½åĲĪå¹¶åĪ°ä¸Ģè¡ĮçļĦå°± å°½éĩıåĲĪå¹¶åĪ°
ï¼Įèĥ½ä¸İæµ·å¤ĸ åĽ¢éĺŁè¿Ľè¡Įåı£è¯Ńæ²ŁéĢļèĢħ
ï¼Įèĥ½æµģçķ ħéĺħè¯»èĭ±æĸĩPR
ï¼Įæľīè´£ä»»å¿ĥ åĴĮæ²ŁéĢļæİ¨åĬ¨èĥ½åĬĽ
ï¼ĮæĹ¶éĹ´åĴĮåħ¨èģĮ äººåĳĺæ²¡æľīå·®åĪ«
ä½¿çĶ¨çļĦè®Ńç»ĥæł·æľ¬ æķ°éĩı
_TAS K
_THREAD S
_TRIG GER
ãĢģæĢ§èĥ½æµĭè¯ķçŃīä¼ļ ä½¿çĶ¨
ãĢĤå¦ĤæŀľçŃĶæ¡Ī éĩĮ
æľ¬ç§ĳåıĬä»¥ä¸Ĭ åŃ¦åİĨ
Ġbehav ior
åıįåĲĳä¼łæĴŃåĪ©çĶ¨éĵ¾å¼ıæ³ķ åĪĻä»İè¾ĵåĩºå±ĤåĲĳ
çĦ¶åĲİçĽ®åīįä½ł çļĦç®ĢåİĨçīĪæľ¬å¦Ĥä¸ĭ
è¿ĺæľīèĥ½åĲĪå¹¶ çļĦå°½éĩıåĲĪå¹¶
ç¥ŀç»ıåħĥä¹ĭéĹ´çļĦè¿ĩåº¦ ä¾Ŀèµĸ
Ġunsaf e
ï¼ĮåĽłä¸ºçº¯ æ³¨æĦıåĬĽæľºåĪ¶æľ¬èº«ä¸įå¤©çĦ¶åĮħåĲ«
åıĤæķ°æĽ´æĸ°çļĦæŃ¥ éķ¿
DevTool sçŃīæµĭè¯ķå·¥åħ·
ĠOverla p
ãĢģèĭ±æĸĩä»£çłģæ³¨ éĩĬ
ï¼Įå°±ç»ĻæĪĳçĶŁæĪĲåĮ¹éħįåº¦æľĢé«ĺçļĦATS ä¼ĺåĮĸçīĪç®ĢåİĨåĲ§
ï¼Įæİ¨åĬ¨éľĢæ±ĤèĲ½åľ° ä¸İç¼ºéĻ·ä¿®å¤į
åĲİéĿ¢æĪĳä¼ļ æĬĬå²Ĺä½įæııè¿°ä¸Ģä¸ªä¸Ģä¸ªçļĦç»Ļä½ł
ĠSizeè¡¨ç¤ºä¸Ģæ¬¡ åıĤæķ°æĽ´æĸ°
åŃ¦ä¹łçİĩæİ§åĪ¶æ¯ıæ¬¡ åıĤæķ°æĽ´æĸ°çļĦæŃ¥éķ¿
æİĴçīĪè®©æĪĳå¤įåĪ¶ å°±åı¯ä»¥
Temperatureæİ§åĪ¶çĶŁæĪĲæ¦ĤçİĩåĪĨå¸ĥ çļĦéļıæľºç¨ĭåº¦
åľ¨ç½ĳé¡µä¸Ĭå®Įæķ´ æİĴçīĪè®©æĪĳå¤įåĪ¶å°±åı¯ä»¥
è£ħé¥°åĻ¨æĺ¯ä¸Ģç§įçĶ¨äºİåĮħè£ħ åĩ½æķ°æĪĸç±»çļĦæľºåĪ¶
Ġåı¯èĥ½æ¶īåıĬ åĵªäºĽ
ãĢģBrowser DevToolsçŃīæµĭè¯ķå·¥åħ·
Ġconfident ial
ĠTechnolog y
è¡¡éĩıäºĮåĪĨç±»æ¨¡åŀĭå¯¹æŃ£è´Ł æł·æľ¬è¿Ľè¡ĮæİĴåºı
ROCæĽ²çº¿ ä¸ĭéĿ¢ç§¯
åģĩè®¾ä½łæĺ¯è¿Ļå²Ĺä½į è¿Ļæ±ĤèģĮèĢħ
ï¼Įç¡®ä¿Ŀçº¿ä¸Ĭç¨³å®ļæĢ§ä¸İè´¨éĩı æłĩåĩĨ
/æ¬§æ´ ²ä»»ä¸ĢåĿĩ
/Andro id
/JaVaå®ĮæĪĲç®Ģåįķ èĩªåĬ¨åĮĸèĦļæľ¬ä¼ĺåħĪ
_prefix es
_COMPETIT IVE
Ġèĥ½çĭ¬ç«ĭè¿Ľè¡Įæķ°æį® éªĮè¯ģè¸ıå®ŀè®¤çľŁ
ãĢģæµ·å¤ĸå®¢æľįåĽ¢éĺŁ é«ĺæķĪåįıä½ľ
ï¼Įåįĥä¸ĩåĪ« å¿ĺ
ãĢĤæł¹æį®éľĢæ±Ĥç¼ĸåĨĻ èĭ±æĸĩæµĭè¯ķçĶ¨ä¾ĭ
æĹģå¢ŀåĬłä½İç§©åı¯è®Ńç»ĥ çŁ©éĺµæĿ¥
è¿ĩåº¦åŃ¦ä¹łè®Ńç»ĥæķ°æį®ä¸ŃçļĦç»ĨèĬĤçĶļèĩ³ åĻªå£°
å¯¹çº¿ä¸Ĭèĭ±æĸĩçĶ¨æĪ·åıįé¦Ī çļĦéĹ®é¢ĺè¿Ľè¡Įå¤įçİ°
ï¼Įåı¯ä»¥åľ¨ä¸įçĽ´æİ¥ä¿®æĶ¹åİŁå¯¹è±¡ ä»£çłģçļĦæĥħåĨµä¸ĭ
ĠHISTORICA L
ï¼Įè¿ĻäºĽé¡¹çĽ®ä¸Ńæĭ¿åĩºæĿ¥ è¯´ä½łåģļè¿ĩè¿ĻäºĽé¡¹çĽ®
ï¼ĮçĶŁæĪĲä¸Ģä¸ªè·Łè¿Ļå²Ĺä½įåĮ¹éħįåº¦æľĢé«ĺçļĦATS ç®ĢåİĨ
-péĩĩæł·ä»İç´¯è®¡æ¦Ĥçİĩè¾¾åĪ° æĮĩå®ļéĺĪåĢ¼
ï¼Įä½łå°±ç»ĻæĪĳæİ¨èįĲè¦ģä¸įè¦ģ æĬķç®ĢåİĨ
ï¼Įèĥ½ä¸İæµ·å¤ĸåĽ¢éĺŁè¿Ľè¡Įåı£è¯Ńæ²ŁéĢļèĢħ ä¼ĺåħĪ
ï¼Įèĥ½æµģçķħéĺħè¯»èĭ±æĸĩPR D
ï¼Įæİ¨åĬ¨éľĢæ±ĤèĲ½åľ°ä¸İç¼ºéĻ·ä¿®å¤į ä»»èģĮè¦ģæ±Ĥ
/æ¬§æ´²ä»»ä¸ĢåĿĩ åı¯
