{"!":0,"\"":1,"#":2,"$":3,"%":4,"&":5,"'":6,"(":7,")":8,"*":9,"+":10,",":11,"-":12,".":13,"/":14,"0":15,"1":16,"2":17,"3":18,"4":19,"5":20,"6":21,"7":22,"8":23,"9":24,":":25,";":26,"<":27,"=":28,">":29,"?":30,"@":31,"A":32,"B":33,"C":34,"D":35,"E":36,"F":37,"G":38,"H":39,"I":40,"J":41,"K":42,"L":43,"M":44,"N":45,"O":46,"P":47,"Q":48,"R":49,"S":50,"T":51,"U":52,"V":53,"W":54,"X":55,"Y":56,"Z":57,"[":58,"\\":59,"]":60,"^":61,"_":62,"`":63,"a":64,"b":65,"c":66,"d":67,"e":68,"f":69,"g":70,"h":71,"i":72,"j":73,"k":74,"l":75,"m":76,"n":77,"o":78,"p":79,"q":80,"r":81,"s":82,"t":83,"u":84,"v":85,"w":86,"x":87,"y":88,"z":89,"{":90,"|":91,"}":92,"~":93,"¡":94,"¢":95,"£":96,"¤":97,"¥":98,"¦":99,"§":100,"¨":101,"©":102,"ª":103,"«":104,"¬":105,"®":106,"¯":107,"°":108,"±":109,"²":110,"³":111,"´":112,"µ":113,"¶":114,"·":115,"¸":116,"¹":117,"º":118,"»":119,"¼":120,"½":121,"¾":122,"¿":123,"À":124,"Á":125,"Â":126,"Ã":127,"Ä":128,"Å":129,"Æ":130,"Ç":131,"È":132,"É":133,"Ê":134,"Ë":135,"Ì":136,"Í":137,"Î":138,"Ï":139,"Ð":140,"Ñ":141,"Ò":142,"Ó":143,"Ô":144,"Õ":145,"Ö":146,"×":147,"Ø":148,"Ù":149,"Ú":150,"Û":151,"Ü":152,"Ý":153,"Þ":154,"ß":155,"à":156,"á":157,"â":158,"ã":159,"ä":160,"å":161,"æ":162,"ç":163,"è":164,"é":165,"ê":166,"ë":167,"ì":168,"í":169,"î":170,"ï":171,"ð":172,"ñ":173,"ò":174,"ó":175,"ô":176,"õ":177,"ö":178,"÷":179,"ø":180,"ù":181,"ú":182,"û":183,"ü":184,"ý":185,"þ":186,"ÿ":187,"Ā":188,"ā":189,"Ă":190,"ă":191,"Ą":192,"ą":193,"Ć":194,"ć":195,"Ĉ":196,"ĉ":197,"Ċ":198,"ċ":199,"Č":200,"č":201,"Ď":202,"ď":203,"Đ":204,"đ":205,"Ē":206,"ē":207,"Ĕ":208,"ĕ":209,"Ė":210,"ė":211,"Ę":212,"ę":213,"Ě":214,"ě":215,"Ĝ":216,"ĝ":217,"Ğ":218,"ğ":219,"Ġ":220,"ġ":221,"Ģ":222,"ģ":223,"Ĥ":224,"ĥ":225,"Ħ":226,"ħ":227,"Ĩ":228,"ĩ":229,"Ī":230,"ī":231,"Ĭ":232,"ĭ":233,"Į":234,"į":235,"İ":236,"ı":237,"Ĳ":238,"ĳ":239,"Ĵ":240,"ĵ":241,"Ķ":242,"ķ":243,"ĸ":244,"Ĺ":245,"ĺ":246,"Ļ":247,"ļ":248,"Ľ":249,"ľ":250,"Ŀ":251,"ŀ":252,"Ł":253,"ł":254,"Ń":255,"čĊ":256,"ãĢ":257,"ï¼":258,"ĠĠ":259,"ä¸":260,"ãĢģ":261,"åı":262,"ä»":263,"ï¼Į":264,"ãĢĤ":265,"æľ":266,"in":267,"åħ":268,"ç»":269,"åĪ":270,"çļ":271,"çļĦ":272,"å®":273,"er":274,"çĶ":275,"è¯":276,"åĬ":277,"on":278,"æĸ":279,"äº":280,"åĲ":281,"æķ":282,"ä½":283,"è¿":284,"å¤":285,"è®":286,"ïĤ":287,"ïĤ·":288,"åº":289,"en":290,"at":291,"ĠĠĠĠ":292,"ï¼Ľ":293,"ä¹":294,"æĺ":295,"çĽ":296,"re":297,"æĪ":298,"çĶ¨":299,"ãĢĤčĊ":300,"ï¼ĽčĊ":301,"\",":302,"an":303,"åĮ":304,"æķ°":305,"æŀ":306,"or":307,"æĺ¯":308,"æį":309,"ĠĠĠ":310,"éĢ":311,"å·":312,"å¼":313,"st":314,"ing":315,"éĩ":316,"ä¸İ":317,"ĥ½":318,"æµ":319,"æİ":320,"æį®":321,"èĥ½":322,"ion":323,"ï¼ļ":324,"al":325,"ç¨":326,"ed":327,"æł":328,"\")":329,"(\"":330,",čĊ":331,"åŃ":332,"ä»¥":333,"ç¨ĭ":334,"it":335,"çĲ":336,"çĲĨ":337,"Ġ(\"":338,"ãĢĤ\")":339,"ãĢĤ\"),čĊ":340,"æ¨":341,"åĪĨ":342,"æ¨¡":343,"æĹ":344,"æĢ":345,"åı¯":346,"æķ°æį®":347,"éĹ":348,"åıĬ":349,"å·¥":350,"åĽ":351,"åŀ":352,"è¡":353,"æĸĩ":354,"Ġ\"":355,"çł":356,"åĨ":357,"åŀĭ":358,"çİ":359,"ĠA":360,"ä¸į":361,"åľ":362,"äºİ":363,"è§":364,"æĪĲ":365,"åĬ¡":366,"ct":367,"ç®":368,"åĮĸ":369,"å¹":370,"å®ŀ":371,"éĻ":372,"æĹ¶":373,"ï¼Ł":374,"ä¹Ī":375,"ar":376,"Ģä¹Ī":377,"ä»Ģä¹Ī":378,"ĠĠĠĠĠĠĠ":379,"åıĳ":380,"å¸":381,"é¢":382,"ent":383,"ck":384,"ç«":385,"ï¼Ł\",":386,"ro":387,"ä¸Ģ":388,"æµĭ":389,"åį":390,"æı":391,"æĬ":392,"æ¨¡åŀĭ":393,"de":394,"å°":395,"é¡":396,"éĢļ":397,"åĴ":398,"Ġs":399,"ation":400,"åĴĮ":401,"le":402,"åŁ":403,"and":404,"è¦":405,"åħ¨":406,"ï¼Ł\",\"":407,"å¯":408,"è¾":409,"éĩı":410,"is":411,"Ġc":412,"çĽ®":413,"ä¼":414,"ic":415,"ä»Ģä¹Īæĺ¯":416,"==":417,"mp":418,"æĮ":419,"å¼Ģ":420,"æĢ§":421,"çİ°":422,"ä¿":423,"åĩ":424,"çŃ":425,"ä¸Ń":426,"ä»¶":427,"eb":428,"åĲİ":429,"ä½¿":430,"lo":431,"çĶŁ":432,"ç½":433,"as":434,"ch":435,"³»":436,"ç³»":437,"åĪ¶":438,"è®¡":439,"åŃ¦":440,"æĸ¹":441,"è¿ĩ":442,"åŁº":443,"ï¼ļčĊ":444,"ä»¥åıĬ":445,"es":446,"å½":447,"Web":448,"éĹ´":449,"çłģ":450,"çº":451,"Ġre":452,"æİ¥":453,"ä¸ª":454,"è¯ģ":455,"è¦ģ":456,"åĮħ":457,"æıĲ":458,"th":459,"åºĶ":460,"Ġand":461,"åĲĪ":462,"ç«¯":463,"åī":464,"è´":465,"èĩ":466,"æľ¬":467,"æľī":468,"æĶ":469,"æľį":470,"åħ³":471,"åľ¨":472,"åº¦":473,"AI":474,"æ³":475,"æī":476,"æŀĦ":477,"£Ģ":478,"æĭ":479,"æ£Ģ":480,"et":481,"å»":482,"éĺ":483,"æĿ":484,"ĠS":485,"ĠC":486,"åĬĽ":487,"åºĵ":488,"te":489,"å¾":490,"éª":491,"åıĤ":492,"åīį":493,"æŀĲ":494,"æľįåĬ¡":495,"PI":496,"æŃ":497,"Ġp":498,"è¡Į":499,"ä½¿çĶ¨":500,"ç§":501,"ä»£":502,"åĪĨæŀĲ":503,"éªĮ":504,"Ġf":505,"ä½ľ":506,"é¡¹":507,"ç»Ł":508,"å¸¸":509,"å¼Ģåıĳ":510,"å»º":511,"å±":512,"ç©":513,"ç»ĵ":514,"éĿ":515,"ĠP":516,"å¹¶":517,"åİ":518,"æľº":519,"å¤į":520,"é¢Ħ":521,"ç®¡":522,"é¡¹çĽ®":523,"ock":524,"éĽ":525,"Ł¥":526,"ä¾":527,"å®ī":528,"ä¸º":529,"å¯¹":530,"éĽĨ":531,"å¿":532,"æµģ":533,"wa":534,"å®ļ":535,"å®īåħ¨":536,"QL":537,"è°":538,"è¡¨":539,"ä¸ļ":540,"èĥ½åĬĽ":541,"Ġin":542,"éĹ®":543,"æĮģ":544,"éĥ":545,"æĸ°":546,"åĲĳ":547,"éĥ¨":548,"ç´":549,"ä¸Ĭ":550,"æ¡":551,"ä¹ł":552,"åĬ¨":553,"åŃ¦ä¹ł":554,"ä»£çłģ":555,"em":556,"ĠE":557,"çłĶ":558,"ç®¡çĲĨ":559,"æĻ":560,"èģ":561,"è®Ń":562,"åŃĺ":563,"åħ¥":564,"ç»ı":565,"è°ĥ":566,"SQL":567,"ä½į":568,"åĵ":569,"Ġm":570,"ç»ĥ":571,"éĩį":572,"æģ":573,"éľ":574,"æİ§":575,"å·¥ç¨ĭ":576,"åŁºäºİ":577,".čĊ":578,"Re":579,"å¤ļ":580,"å¼ı":581,"æłĩ":582,"ĠAI":583,"ode":584,"ç¡":585,"è®Ńç»ĥ":586,"£İ":587,"é£İ":588,"è¿Ľ":589,"çĶ¨äºİ":590,"æŀľ":591,"ç³»ç»Ł":592,"ri":593,"¤º":594,"åĻ":595,"ç¤º":596,"Ġd":597,"ä¸ĭ":598,"çĽ¸":599,"å®ŀçİ°":600,"act":601,"il":602,"çĽĳ":603,"éľĢ":604,"ĦçĲĨ":605,"å¤ĦçĲĨ":606,"è§£":607,"åĻ¨":608,"åºı":609,"éĻ©":610,"éĿ¢":611,"ç´¢":612,"é£İéĻ©":613,"éħ":614,"Ġb":615,"æĸĩä»¶":616,"ç©¶":617,"çłĶç©¶":618,"éħį":619,"js":620,"se":621,"ut":622,"è¯ķ":623,"è¯Ń":624,"çĶŁæĪĲ":625,"ment":626,"æĪ·":627,"åĳ":628,"è®¾":629,"æĪĸ":630,"orm":631,"====":632,"åĢ":633,"ï¼ī":634,"ad":635,"ig":636,"ul":637,"ver":638,"±»":639,"ç±»":640,"åıĺ":641,"ost":642,"å¢":643,"æĽ":644,"èµ":645,"è½":646,"ï¼Ī":647,"ine":648,"Red":649,"æ±":650,"æģ¯":651,"Redis":652,"pr":653,"ub":654,"åı¯ä»¥":655,"åĲİç«¯":656,"ç½®":657,"gre":658,"èĢ":659,"æľŁ":660,"è®¤":661,"æĭ¬":662,"«ĺ":663,"ç¼":664,"çī":665,"é«ĺ":666,"ĠčĊ":667,"art":668,"åĩº":669,"ve":670,"æ²":671,"ĠAPI":672,"çº¿":673,"åĮħæĭ¬":674,"åİĨ":675,".js":676,"ure":677,"Ġa":678,"ä»»":679,"å®Į":680,"ity":681,"åĽŀ":682,"æĶ¯":683,"èĩª":684,"åĿ":685,"äº¤":686,"æ±Ĥ":687,"ag":688,"un":689,"æŁ¥":690,"çķ":691,"Ġde":692,"è¾ĵ":693,"ka":694,"¦Ĥ":695,"Ĥ¨":696,"åĬł":697,"æĢģ":698,"ostgre":699,"ce":700,"yth":701,"æłĪ":702,"æľºåĪ¶":703,"ython":704,"ID":705,"form":706,"pp":707,"Ġ/":708,"åĨħ":709,"æĹ¶éĹ´":710,"ostgreSQL":711,"ser":712,"val":713,"åģ":714,"è·":715,"Ġt":716,"ä¼ĺ":717,"ä¿¡":718,"çĽ¸åħ³":719,"gine":720,"ran":721,"æ¶":722,"pring":723,"gineer":724,"åĲĮ":725,"çŃī":726,"ä»»åĬ¡":727,"ok":728,"ot":729,"æµĭè¯ķ":730,"éĢļè¿ĩ":731,"æ·":732,"çľ":733,"çŁ":734,"ĠB":735,"æľĢ":736,"ä½ĵ":737,"å¤§":738,"ain":739,"Ġe":740,"ĠWeb":741,"æķ´":742,"æĸĩæ¡":743,"æĬĢ":744,"æĸĩæ¡£":745,"if":746,"ãĢģP":747,"äº§":748,"æķ°æį®åºĵ":749,"åįĩ":750,"ocker":751,"æº":752,"çĤ":753,"éļ":754,"å®¹":755,"æĶ¯æĮģ":756,"Docker":757,"pe":758,"ue":759,"ç®Ĺ":760,"é¢ĺ":761,"åºĶçĶ¨":762,"æŀĦå»º":763,"éľĢè¦ģ":764,"æĽ´":765,"âĢ":766,"å¥":767,"æĦ":768,"Ġw":769,"ĵåºĵ":770,"ä»ĵåºĵ":771,"åľ°":772,"åįķ":773,"æ³¨":774,"éĺŁ":775,"åıĤä¸İ":776,"ç¡®":777,"Go":778,"éĶ":779,"è¿Ļ":780,"æĪĳ":781,"å¹³":782,"æıĲåįĩ":783,"å±ķ":784,"æĻº":785,"è®¾è®¡":786,"æĬĢæľ":787,"ack":788,"äºĨ":789,"ä½İ":790,"ate":791,"ess":792,"æµģç¨ĭ":793,"æİ§åĪ¶":794,"æĬĢæľ¯":795,"Sock":796,"è¶":797,"åı£":798,"åĪ°":799,"å·®":800,"ä¿Ŀ":801,"éĹ®é¢ĺ":802,"Socket":803,"av":804,"omp":805,"ï¼ĮåĮħæĭ¬":806,"è¯Ĩ":807,"è¿ŀ":808,"åıĤæķ°":809,"æºĲ":810,"ĠF":811,"Ġst":812,"éĢļå¸¸":813,"æ³ķ":814,"åĢ¼":815,"API":816,"åħ¶":817,"ç»´":818,"æŃ¥":819,"ud":820,"ç»Ħ":821,"ä¹ī":822,"çĶ¨æĪ·":823,"å·¥ä¸ļ":824,"ç«ĭ":825,"å½ĵ":826,"æ£Ģç´¢":827,"éªĮè¯ģ":828,"om":829,"ĠN":830,"ï¼Įå¹¶":831,"åħĪ":832,"çĽĸ":833,"éĽĨæĪĲ":834,"former":835,"æ¶Ī":836,"Jav":837,"ol":838,"å¦Ĥ":839,"åħ·":840,"æķĪ":841,"æİ¨":842,"åĽ¢":843,"ç®Ģ":844,"way":845,"JW":846,"ee":847,"æ¯":848,"ä¸»":849,"åĪĹ":850,"å¤©":851,"å·¥ä½ľ":852,"JWT":853,"UID":854,"æĥ":855,"ata":856,"éĻį":857,"çº§":858,"æŃ£":859,"ä¾Ŀ":860,"Java":861,"Python":862,"ib":863,"of":864,"pt":865,"åħĥ":866,"ïĤ·åıĤä¸İ":867,"åĽ¾":868,"çİ¯":869,"ction":870,"éĻĲ":871,"é¢Ħæµĭ":872,"æĻºèĥ½":873,"è¿ŀæİ¥":874,"å½ĵåīį":875,"Spring":876,"çŁ¥":877,"ï¼Įä¸į":878,"end":879,"éĢī":880,"æıı":881,"æĬ¥":882,"å¾®":883,"åĵį":884,"ull":885,"å¢ĥ":886,"è®¤è¯ģ":887,"valu":888,"åĽ¢éĺŁ":889,"LL":890,"ĠT":891,"åı°":892,"å¤±":893,"æŀ¶":894,"å°Ĩ":895,"çİ¯å¢ĥ":896,"Sc":897,"po":898,"ual":899,"è¯Ħ":900,"ont":901,"ïĤ·ä½¿çĶ¨":902,"æĺİ":903,"åŃĺå":904,"è¿Ľè¡Į":905,"JS":906,"å¼Ĥ":907,"åı¯è§":908,"çŃĶ":909,"WebSocket":910,"React":911,"åĿĹ":912,"è¾ĵåĩº":913,"LLM":914,"åŃĺåĤ¨":915,"SE":916,"du":917,"id":918,"ist":919,"ter":920,"vic":921,"äºº":922,"ä¹ĭ":923,"è°ĥçĶ¨":924,"ript":925,"gineering":926,"oken":927,"RA":928,"éĴ":929,"Ġen":930,"ĨçĽĸ":931,"è¿Ĳ":932,"è¦ĨçĽĸ":933,"Ġfor":934,"ware":935,"ĠEn":936,"RE":937,"Â·":938,"èŃ":939,"è¯į":940,"æł·":941,"è§Ħ":942,"ä¸Ģä¸ª":943,"ä¿®":944,"èĩ´":945,"Ġpro":946,"é¢ĦèŃ":947,"rans":948,"æĦı":949,"Script":950,"é¢ĦèŃ¦":951,"Git":952,"ä»İ":953,"åĪ«":954,"ication":955,"low":956,"ç½²":957,"åĲĳéĩı":958,"éĥ¨ç½²":959,"éħįç½®":960,"age":961,"æ·±":962,"oft":963,"æŀ¶æŀĦ":964,"imp":965,"pen":966,"us":967,"´æİ¥":968,"çĽ´æİ¥":969,"ort":970,"å°ı":971,"çĽ®æłĩ":972,"è¡¨ç¤º":973,"åĳĬ":974,"ç¼ĸ":975,"ä¿¡æģ¯":976,"æ¶Īæģ¯":977,"æĬ¥åĳĬ":978,"ransformer":979,"ir":980,"la":981,"éģ":982,"ĠM":983,"ľç¨ĭ":984,"è®°":985,"æĸĩæľ¬":986,"ä¼°":987,"æĮĩ":988,"å½ķ":989,"æıĲä¾":990,"æ£ĢæŁ¥":991,"å¿ĥ":992,"èģĮ":993,"èµĦ":994,"æıĲä¾Ľ":995,"ST":996,"iz":997,"ose":998,"¨Ģ":999,"ç¦":1000,"è¨Ģ":1001,"éķ":1002,"ĠÂ·":1003,"åıª":1004,"è¯·":1005,"è¯»":1006,"è¿ľç¨ĭ":1007,"å¤Ł":1008,"è®¡ç®Ĺ":1009,"æİ¥åı£":1010,"æ¡Ī":1011,"è¯Ńè¨Ģ":1012,"========":1013,"èµĸ":1014,"è·¯":1015,"å±ķç¤º":1016,"ä¾Ŀèµĸ":1017,"valuation":1018,"éķ¿":1019,"Open":1020,"af":1021,"ail":1022,"²Ĺ":1023,"å²Ĺ":1024,"Ġimp":1025,"ä»ĸ":1026,"åħ¬":1027,"ç»Ń":1028,"æķħ":1029,"çĲĨè§£":1030,"çİĩ":1031,"å®ŀæĹ¶":1032,"å°±":1033,"åħ¨æłĪ":1034,"æ£Ģæµĭ":1035,"åīįç«¯":1036,"çľŁ":1037,"çĤ¹":1038,"å¹³åı°":1039,"ompose":1040,"oftware":1041,"å²Ĺä½į":1042,"ding":1043,"ew":1044,"ile":1045,"ur":1046,"Âł":1047,"æ¬":1048,"çĭ":1049,"Ġan":1050,"ence":1051,"å·²":1052,"è¾ĥ":1053,"ä¸ŃçļĦ":1054,"ç½ĳ":1055,"ç»ıéªĮ":1056,"çĽĳæİ§":1057,"èĢĮ":1058,"åĨħå®¹":1059,"åħ¶ä»ĸ":1060,"çĭ¬":1061,"Ch":1062,"Transformer":1063,"am":1064,"ex":1065,"est":1066,"ss":1067,"¶æĢģ":1068,"çĬ":1069,"onf":1070,"æĸŃ":1071,"äºĴ":1072,"ated":1073,"åĮº":1074,"éĢĤ":1075,"èĥ½å¤Ł":1076,"ith":1077,"æĹł":1078,"åľº":1079,"æĬ¤":1080,"å°ĳ":1081,"æĶ¹":1082,"éĺ²":1083,"ç§į":1084,"ç»ĵæŀĦ":1085,"æĻ¯":1086,"è¯Ńä¹ī":1087,"ign":1088,"åıĺéĩı":1089,"å®ĮæĪĲ":1090,"ĠBo":1091,"éļľ":1092,"éĻįä½İ":1093,"è¯Ħä¼°":1094,"çĬ¶æĢģ":1095,"oun":1096,"ãĢģDocker":1097,"æį¢":1098,"ç§»":1099,"ç»ĵæŀľ":1100,"ä¼ĺåĮĸ":1101,"çŁ³":1102,"ĠBoot":1103,"ly":1104,"ype":1105,"æ´":1106,"Ġ-":1107,"Ġ|":1108,"ï¼Įä½":1109,"ï¼Įä½¿":1110,"å¼ķ":1111,"æł¹":1112,"åĽł":1113,"ask":1114,"ç§ĳ":1115,"ç©º":1116,"å¢ŀ":1117,"çī¹":1118,"äº¤äºĴ":1119,"uality":1120,"vice":1121,"åľºæĻ¯":1122,"-ser":1123,"um":1124,"¯ä»¶":1125,"¿éĹ®":1126,"åıĸ":1127,"ç»Ļ":1128,"è®¿éĹ®":1129,"æİĴ":1130,"æł¼":1131,"å¯¼":1132,"çŃĸ":1133,"çĶŁäº§":1134,"æī«":1135,"ĠCompose":1136,"ä¸ļåĬ¡":1137,"è½¯ä»¶":1138,"arts":1139,"å®Įæķ´":1140,"éĶ®":1141,"æĥħ":1142,"RAG":1143,"æł¹æį®":1144,"ON":1145,"el":1146,"»è¾":1147,"æ»":1148,"Ġn":1149,"Ġq":1150,"åĲ«":1151,"éĢ»è¾":1152,"æĬĬ":1153,"ä¼ļ":1154,"loud":1155,"æĸ¹åĲĳ":1156,"è¿ĩç¨ĭ":1157,"å½Ĵ":1158,"æĿĥ":1159,"å±Ĥ":1160,"çķĮ":1161,"ç¦»":1162,"éĢ»è¾ĳ":1163,"TT":1164,"±åĮħ":1165,"æ®":1166,"Ġg":1167,"Ġh":1168,"åı²":1169,"çĶ±":1170,"äºĭ":1171,"ä¹ħ":1172,"æĺ¯ä¸Ģ":1173,"åįı":1174,"Ġse":1175,"å¯Ĩ":1176,"è¾¹":1177,"æĢ§èĥ½":1178,"åĩĨ":1179,"ass":1180,"åĮħåĲ«":1181,"åħ³ç³»":1182,"æĿ¥":1183,"å¿ħ":1184,"æĮģä¹ħ":1185,"ä½įç½®":1186,"çĽĳæµĭ":1187,"é£İéĻ©é¢ĦèŃ¦":1188,"ç±»åŀĭ":1189,"åİĨåı²":1190,"eep":1191,"éĴ±åĮħ":1192,"çĭ¬ç«ĭ":1193,"ypeScript":1194,"bed":1195,"ect":1196,"ob":1197,"out":1198,"¸å¿ĥ":1199,"æ°":1200,"ç¬":1201,"ĠQ":1202,"ĠçļĦ":1203,"è¯¯":1204,"åĬŁ":1205,"æł¸å¿ĥ":1206,"æ¨¡åĿĹ":1207,"åĩı":1208,"odel":1209,"æĬĢæľ¯æłĪ":1210,"å¦Ĥæŀľ":1211,"æķħéļľ":1212,"æ¬¡":1213,"onfig":1214,"bedding":1215,"\":":1216,"Hub":1217,"flow":1218,"over":1219,"tain":1220,"user":1221,"ãĢģT":1222,"åıį":1223,"éĩĬ":1224,"ical":1225,"æĸ¹æ¡Ī":1226,"èĩ³":1227,"æī§":1228,"èģĬ":1229,"å¥½":1230,"ä¹ĭéĹ´":1231,"GitHub":1232,"æī«æıı":1233,"åĬŁèĥ½":1234,"-t":1235,"Kaf":1236,"PostgreSQL":1237,"im":1238,"io":1239,"å£":1240,"æĲ":1241,"çģ":1242,"ĠD":1243,"Ġte":1244,"ãĢģE":1245,"ãĢģN":1246,"ãĢģS":1247,"ory":1248,"å¹¿":1249,"é¡µ":1250,"mple":1251,"è´¥":1252,"æľºåĻ¨":1253,"éĩįå¤į":1254,"åºıåĪĹ":1255,"å¤±è´¥":1256,"åĩıå°ĳ":1257,"Kafka":1258,"ab":1259,"æĤ¨":1260,"èī":1261,"int":1262,"å®ĺ":1263,"å¤ĸ":1264,"è®º":1265,"åı¯èĥ½":1266,"ä¼ł":1267,"åº¦åŃ¦ä¹ł":1268,"ä¾ĭ":1269,"æµģå¼ı":1270,"ï¼īčĊ":1271,"æ²Ł":1272,"ãĢģPostgreSQL":1273,"å¾®æľįåĬ¡":1274,"æł·æľ¬":1275,":čĊ":1276,"GP":1277,"gg":1278,"±åĵį":1279,"æ¸":1280,"Ġ=":1281,"ģç§»":1282,"ĨåĮĸ":1283,"łåĨ":1284,"ï¼ĮæĶ¯æĮģ":1285,"æľª":1286,"äºĮ":1287,"è¿ģç§»":1288,"åĨłåĨ":1289,"å®ŀéªĮ":1290,"å¸ĥ":1291,"ä¸Ģèĩ´":1292,"é¡»":1293,"å½±åĵį":1294,"è´£":1295,"æĭŁ":1296,"æĿĤ":1297,"å¾Ĺ":1298,"åĢĻ":1299,"çķ¥":1300,"çľĭ":1301,"ateway":1302,"æ¯Ķ":1303,"çŁ¥è¯Ĩ":1304,"åı¯è§ĨåĮĸ":1305,"estJS":1306,"ï¼Įä½Ĩ":1307,"å¿ħé¡»":1308,"æĮģä¹ħåĮĸ":1309,"æľºåĻ¨åŃ¦ä¹ł":1310,"æ²ŁéĢļ":1311,"åĨłåĨĽ":1312,"-st":1313,"App":1314,"GO":1315,"In":1316,"PE":1317,"fit":1318,"ive":1319,"ving":1320,"çĨ":1321,"Ġr":1322,"ãĢģF":1323,"ä»ĺ":1324,"ï¼Įä»¥":1325,"ï¼Įåı¯ä»¥":1326,"äºĽ":1327,"åĲ¦":1328,"ant":1329,"å¸Ī":1330,"Ġsc":1331,"åŁºç¡":1332,"è´¨":1333,"è´Ł":1334,"æīĢ":1335,"åİŁ":1336,"å¤įæĿĤ":1337,"å¤ļä¸ª":1338,"velo":1339,"è¾ĵåħ¥":1340,"ä¼ĺåħĪ":1341,"æ³¨æĦı":1342,"ä¸»è¦ģ":1343,"æ·±åº¦åŃ¦ä¹ł":1344,"è¯·æ±Ĥ":1345,"çŃĸçķ¥":1346,"æī§è¡Į":1347,"å®ĺæĸ¹":1348,"åŁºç¡Ģ":1349,"HTT":1350,"tt":1351,"ust":1352,"ute":1353,"xp":1354,"³å®ļ":1355,"çĵ":1356,"é©":1357,"Ġlo":1358,"ĠUID":1359,"ãĢģC":1360,"ï¼ĮçĶ¨äºİ":1361,"æĸ¯":1362,"ang":1363,"æĺ¯åĲ¦":1364,"åĨµ":1365,"ctor":1366,"Ġsoftware":1367,"Ġrep":1368,"ĠCloud":1369,"ç»Łè®¡":1370,"åĵģ":1371,"å·¥ç¨ĭå¸Ī":1372,"Ġdata":1373,"éľĢæ±Ĥ":1374,"mentation":1375,"è½¬":1376,"ç¼ĵ":1377,"ureka":1378,"åĿĩ":1379,"åĲĮæĹ¶":1380,"æ¯ı":1381,"Ġengineering":1382,"èģĬå¤©":1383,"åĢĻéĢī":1384,"è´¨éĩı":1385,"HTTP":1386,")čĊ":1387,"GA":1388,"gr":1389,"ru":1390,"uth":1391,"vi":1392,"¥åº":1393,"¦æĸ¯":1394,"½æķ°":1395,"æĴ":1396,"çĦ":1397,"çħ":1398,"éĵ":1399,"ĠR":1400,"ľç´¢":1401,"ãĢģRedis":1402,"ãĢģJWT":1403,"ï¼Įè¦ĨçĽĸ":1404,"ç»Ī":1405,"è¯Ŀ":1406,"ïĤ·å®ŀçİ°":1407,"ïĤ·çłĶç©¶":1408,"ïĤ·æŀĦå»º":1409,"çĽĺ":1410,"ork":1411,"åŃĲ":1412,"æĢ¥":1413,"ard":1414,"å¸Į":1415,"ä¸Ģä¸ĭ":1416,"éĢļä¿¡":1417,"åŁŁ":1418,"åĩ½æķ°":1419,"åºĶæĢ¥":1420,"ç»ıåİĨ":1421,"éĩįæĸ°":1422,"è§£éĩĬ":1423,"vector":1424,"åģ¥åº":1425,"uest":1426,"Ġwith":1427,"æİ¨çĲĨ":1428,"iber":1429,"å¼ĤæŃ¥":1430,"è¿Ĳè¡Į":1431,"ĠEngineer":1432,"æ®µ":1433,"æ°Ķ":1434,"æķħéļľæ£Ģæµĭ":1435,"æĲľç´¢":1436,"velop":1437,"çĵ¦æĸ¯":1438,"éĵ¾":1439,"åģ¥åº·":1440,"SC":1441,"com":1442,"ier":1443,"mar":1444,"oc":1445,"ook":1446,"py":1447,"ron":1448,"»ç»ĵ":1449,"çĪ":1450,"Ġä¸ª":1451,"ĨåŁŁ":1452,"ãĢģæķ°æį®":1453,"ãĢģå®īåħ¨":1454,"ä»ħ":1455,"ï¼ĮèĢĮ":1456,"åħį":1457,"åĪĻ":1458,"å®¢":1459,"ers":1460,"å¤ĩ":1461,"all":1462,"aly":1463,"åĨĮ":1464,"åĨĻ":1465,"ä¸įåĲĮ":1466,"é¢ĨåŁŁ":1467,"Ġcon":1468,"æĮī":1469,"ase":1470,"å»ºç«ĭ":1471,"ä¸Ĭä¸ĭ":1472,"åĽŀçŃĶ":1473,"æ³¨åĨĮ":1474,"åĵįåºĶ":1475,"éģ¿":1476,"æĺ¯ä¸Ģç§į":1477,"ç¼ĵåŃĺ":1478,"view":1479,"çĦ¶":1480,"ä¸Ĭä¸ĭæĸĩ":1481,"ac":1482,"ap":1483,"file":1484,"pat":1485,"sp":1486,"èĭ":1487,"ĠL":1488,"Ġro":1489,"ĨĴ":1490,"ĨçĤ":1491,"ãĢģM":1492,"åĬŀ":1493,"ïĤ·D":1494,"ator":1495,"å¼º":1496,"ç¨³å®ļ":1497,"åĽ½":1498,"åĨ³":1499,"åıĳçİ°":1500,"æıĲé«ĺ":1501,"æĿ¡":1502,"æŃ¢":1503,"ĠPython":1504,"wagg":1505,"åĬ¨æĢģ":1506,"åĳĺ":1507,"èĩªåĬ¨":1508,"åģļ":1509,"æľĢç»Ī":1510,"REST":1511,"ä¿®æĶ¹":1512,"Ġimpro":1513,"-service":1514,"çĪĨçĤ":1515,"éģ¿åħį":1516,"wagger":1517,"çĪĨçĤ¸":1518,"/S":1519,"Gateway":1520,"IM":1521,"See":1522,"WGA":1523,"gvector":1524,"ip":1525,"quest":1526,"xse":1527,"æ¦Ĥ":1528,"Ġ[":1529,"Ġl":1530,"ĠRe":1531,"eri":1532,"è¿ĺ":1533,"atch":1534,"refit":1535,"åĽ´":1536,"åĨ»ç»ĵ":1537,"arch":1538,"Ġcode":1539,"æĸ¹æ³ķ":1540,"æľ¬åľ°":1541,"ĠSpring":1542,"å¾Ħ":1543,"éĽĨåĲĪ":1544,"éĥ¨åĪĨ":1545,"ility":1546,"Ġto":1547,"ä½ĵç³»":1548,"å¥ĸ":1549,"è®°å½ķ":1550,"è¯Ńè¨Ģæ¨¡åŀĭ":1551,"çľŁå®ŀ":1552,"Ġanaly":1553,"æĥħåĨµ":1554,"eepSee":1555,"-to":1556,"ime":1557,"å£«":1558,"çĨŁ":1559,"æ³¨æĦıåĬĽ":1560,"æĴŃ":1561,"å®¢æĪ·":1562,"WGAN":1563,"xsec":1564,"eepSeek":1565,"-GP":1566,"RM":1567,"SS":1568,"Zust":1569,"ample":1570,"fin":1571,"iver":1572,"sit":1573,"§ĭ":1574,"ªè¡¨":1575,"±åĬ¨":1576,"å§ĭ":1577,"ç¥":1578,"èĬ":1579,"Ġ+":1580,"ãĢģKafka":1581,"ä»·":1582,"ä»ªè¡¨":1583,"ï¼Įå¸¸":1584,"ï¼Įå®ŀçİ°":1585,"ï¼ĮæıĲåįĩ":1586,"è¿°":1587,"ïĤ·P":1588,"ïĤ·åŁºäºİ":1589,"ïĤ·è®¾è®¡":1590,"ench":1591,"éĢŁ":1592,"éĩĩ":1593,"éĩĳ":1594,"åı¯å¤į":1595,"åĨį":1596,"ä¸įèĥ½":1597,"éĢļçŁ¥":1598,"Ġser":1599,"mpt":1600,"åŁºçº¿":1601,"å¾ģ":1602,"ä½ľä¸º":1603,"ä»£çłģä»ĵåºĵ":1604,"ilt":1605,"çīĪ":1606,"æ²¡":1607,"æ²¹":1608,"çº¿ç¨ĭ":1609,"Ġevaluation":1610,"è¶ħ":1611,"è¯ĨåĪ«":1612,"ç®ĢåİĨ":1613,"æııè¿°":1614,"å¾®è°ĥ":1615,"JSON":1616,"ĠEngineering":1617,"èµĦæºĲ":1618,"è·¯å¾Ħ":1619,"Charts":1620,"ountain":1621,"çŁ³æ²¹":1622,"çī¹å¾ģ":1623,"æ¸ħ":1624,"é©±åĬ¨":1625,"åºĶæĢ¥ç®¡çĲĨ":1626,"mark":1627,"çĪĨçĤ¸é£İéĻ©é¢ĦèŃ¦":1628,"Zustand":1629,"amples":1630,"èĬĤ":1631,"ä»ªè¡¨çĽĺ":1632,"enchmark":1633,"/xsec":1634,"Token":1635,"Vue":1636,"ast":1637,"ika":1638,"job":1639,"mit":1640,"tri":1641,"¢¯":1642,"º«":1643,"âĨĴ":1644,"æ¢¯":1645,"çĻ":1646,"çĿ":1647,"èº«":1648,"ĠReact":1649,"Ġus":1650,"Ĥæµĭ":1651,"ãĢģæķ°æį®åºĵ":1652,"erver":1653,"åĬ©":1654,"åĲ¯":1655,"ïĤ·å¼Ģåıĳ":1656,"ĠĠĠĠĠĠĠĠĠĠĠ":1657,"read":1658,"éĢĴ":1659,"åŃĹ":1660,"åĪĨç±»":1661,"å®ŀéĻ":1662,"arn":1663,"ention":1664,"æĬķ":1665,"chn":1666,"æĸ¹å·®":1667,"è¯ģæį®":1668,"æ³Ľ":1669,"å»ºæ¨¡":1670,"ç»ĵåĲĪ":1671,"ement":1672,"ĠEvaluation":1673,"èģĶ":1674,"ĠdApp":1675,"Ġac":1676,"âĢĵ":1677,"ç®Ģåįķ":1678,"posit":1679,"æĺİç¡®":1680,"éĢĤåĲĪ":1681,"é¡µéĿ¢":1682,"Ġimproving":1683,"æ²¡æľī":1684,"ikaflow":1685,"æ¢¯åº¦":1686,"å®ŀéĻħ":1687,"CU":1688,"DF":1689,"_ran":1690,"sc":1691,"sh":1692,"sis":1693,"çĥ":1694,"è¸":1695,"Ġon":1696,"Ġä¸İ":1697,"Ġth":1698,"ĠåºĶçĶ¨":1699,"ä¸¤":1700,"ç»ľ":1701,"è¯¢":1702,"è¯´":1703,"enc":1704,"è¡¡":1705,"ï¼Ł\",čĊ":1706,"åįļ":1707,"ics":1708,"çº¦":1709,"è¦ģæ±Ĥ":1710,"è´¹":1711,"temp":1712,"å±ŀ":1713,"éĹ®çŃĶ":1714,"ution":1715,"åıĺåĮĸ":1716,"èĢħ":1717,"äº¤ä»ĺ":1718,"æŁ¥è¯¢":1719,"pport":1720,"ç¡®è®¤":1721,"point":1722,"å¼Ĥå¸¸":1723,"ä¿®å¤į":1724,"ization":1725,"å·²ç»ı":1726,"ç½ĳç»ľ":1727,"ç§ĳçłĶ":1728,"è¾¹çķĮ":1729,"ä¹ĭéĹ´çļĦ":1730,"åĬŀåħ¬":1731,"çĻ»":1732,"_rank":1733,"-S":1734,"/m":1735,"AT":1736,"DeepSeek":1737,"Gem":1738,"LA":1739,"MQ":1740,"PU":1741,"cl":1742,"cur":1743,"go":1744,"lat":1745,"lication":1746,"ma":1747,"pgvector":1748,"upport":1749,"yst":1750,"¥å¿":1751,"¹éħį":1752,"çª":1753,"èĦ":1754,"èĮ":1755,"èĻ":1756,"ļæľ¬":1757,"ï¼ĮåĮħåĲ«":1758,"ind":1759,"ini":1760,"iness":1761,"ç»ª":1762,"åĪĴ":1763,"æĸĻ":1764,"è¿½":1765,"ïĤ·C":1766,"ener":1767,"åĮ¹éħį":1768,"oral":1769,"orage":1770,"æĹ¥å¿":1771,"åĽº":1772,"çŃ¾":1773,"éĿ¢è¯ķ":1774,"ç®Ĺæ³ķ":1775,"âĢĿ":1776,"æĦŁ":1777,"åľ°åĽ¾":1778,"è¶³":1779,"ç»´æĬ¤":1780,"æķĪæŀľ":1781,"ullMQ":1782,"äººå·¥":1783,"æĮĩæłĩ":1784,"å¯¼èĩ´":1785,"å¤ĸéĥ¨":1786,"è®ºæĸĩ":1787,"velopment":1788,"èĭ±":1789,"Ġanalysis":1790,"chnical":1791,"pository":1792,"çĥŃ":1793,"åįļå£«":1794,"Gemini":1795,"ystem":1796,"èĦļæľ¬":1797,"èĮĥ":1798,"æĹ¥å¿Ĺ":1799,"-Transformer":1800,"XSE":1801,"cont":1802,"gent":1803,"op":1804,"plo":1805,"ront":1806,"±¡":1807,"¶æ®µ":1808,"âī":1809,"æ¼":1810,"çĸ":1811,"è±¡":1812,"Ġass":1813,"Īå¸Į":1814,"ãĢģAI":1815,"ãĢģé£İéĻ©":1816,"ãĢģçĶ¨æĪ·":1817,"ãĢģSpring":1818,"ãĢģæµģå¼ı":1819,"ï¼Įä¸º":1820,"ï¼ĮéĢļå¸¸":1821,"çļĦæķ°æį®":1822,"å®¡":1823,"è®©":1824,"ïĤ·A":1825,"ïĤ·B":1826,"ä¸İéĥ¨ç½²":1827,"åĪĨéħį":1828,"åı¯éħįç½®":1829,"ä¸įæĺ¯":1830,"è§ģ":1831,"ision":1832,"Ġch":1833,"çĽ®åīį":1834,"icro":1835,"è®¡è´¹":1836,"åŃ¦éĩĳ":1837,"æĸ¹å¼ı":1838,"thers":1839,"éĺ¶æ®µ":1840,"ĠCSS":1841,"tegr":1842,"ĠPostgreSQL":1843,"ä»£çłģåĪĨæŀĲ":1844,"embedding":1845,"åĵĪå¸Į":1846,"æłĩåĩĨ":1847,"è¿Ľç¨ĭ":1848,"Ġback":1849,"çłĶç©¶æĸ¹åĲĳ":1850,"åĽŀå½Ĵ":1851,"pplication":1852,"å¤§åŃ¦":1853,"ifier":1854,"äº§åĵģ":1855,"âĢľ":1856,"æİ§åĪ¶åĽ¾":1857,"åħ·å¤ĩ":1858,"å¤©æ´":1859,"éĻĲæµģ":1860,"åı¯è§Ĥæµĭ":1861,"duction":1862,"è¿Ĳç»´":1863,"åĲĳéĩıæ£Ģç´¢":1864,"è¯»åıĸ":1865,"================":1866,"å°±ç»ª":1867,"çŁ³åĮĸ":1868,"æİĴåºı":1869,"Ġquality":1870,"å¯Ĩçłģ":1871,"éĴ±åĮħè¿ŀæİ¥":1872,"ç¬¦":1873,"ĠQuality":1874,"iotemp":1875,"çģ«":1876,"ä¸Ģèĩ´æĢ§":1877,"è´Łè´£":1878,"çĵ¦æĸ¯çĪĨçĤ¸é£İéĻ©é¢ĦèŃ¦":1879,"ocu":1880,"patiotemp":1881,"/Sub":1882,"å¥ĸåŃ¦éĩĳ":1883,"æĥħåĨµä¸ĭ":1884,"åı¯å¤įçİ°":1885,"è¸ª":1886,"çĻ»å½ķ":1887,"è¿½è¸ª":1888,"XSEC":1889,"å¤©æ´¥":1890,"åı¯è§ĤæµĭæĢ§":1891,"patiotemporal":1892,"BK":1893,"CA":1894,"Fe":1895,"HA":1896,"IT":1897,"LS":1898,"Te":1899,"UT":1900,"ach":1901,"back":1902,"ject":1903,"lan":1904,"mbedding":1905,"ore":1906,"uilt":1907,"wind":1908,"¢«":1909,"æĵ":1910,"æļ":1911,"ç²":1912,"è¢«":1913,"ĠH":1914,"ĠU":1915,"Ġä¸į":1916,"ĠRedis":1917,"ĬæĸŃ":1918,"ãĢģåĲİç«¯":1919,"ãĢģæµĭè¯ķ":1920,"ï¼ĮéĢļè¿ĩ":1921,"ï¼Įè¿Ļ":1922,"åĪĩ":1923,"çļĦè¯Ŀ":1924,"è¯¥":1925,"è¯ĬæĸŃ":1926,"åĲĦ":1927,"æĺł":1928,"ä»¥ä¸Ĭ":1929,"å·¥åħ·":1930,"rompt":1931,"é¡º":1932,"Ġcl":1933,"ä¼¼":1934,"Ġrepository":1935,"æī©":1936,"æī¾":1937,"æĭ©":1938,"æĿ¿":1939,"ĠServer":1940,"ĠCode":1941,"Ġfront":1942,"ĠPub":1943,"å®ļä¹ī":1944,"Ġinter":1945,"èģļ":1946,"èĢĥ":1947,"Ġauth":1948,"çŁŃ":1949,"æĽ´æĸ°":1950,"Ġwork":1951,"éĢīæĭ©":1952,"term":1953,"OpenFe":1954,"ailwind":1955,"lyway":1956,"æł¼å¼ı":1957,"åįıä½ľ":1958,"ç¬¬":1959,"GORM":1960,"æīĢæľī":1961,"xperi":1962,"è½¬æį¢":1963,"Ġroute":1964,"Ġ[čĊ":1965,"ç¥ŀ":1966,"äººå·¥æĻºèĥ½":1967,"èĮĥåĽ´":1968,"ocumentation":1969,"BKDF":1970,"OpenFeign":1971,"/Open":1972,"AR":1973,"DB":1974,"bu":1975,"base":1976,"ling":1977,"uator":1978,"¢å¤į":1979,"ªäºĽ":1980,"Â²":1981,"è£":1982,"ĠLLM":1983,"ĠIn":1984,"įä½ľ":1985,"ãĢģæĸĩä»¶":1986,"ä»½":1987,"ï¼ĮæĪĳ":1988,"åĪ©":1989,"ä½ł":1990,"çĶ¨çļĦ":1991,"orch":1992,"ç¨ĭåº¦":1993,"è§Ĵ":1994,"ctuator":1995,"åıĳå¸ĥ":1996,"æ¨¡åŀĭçļĦ":1997,"å°½":1998,"ä¸ŃéĹ´":1999,"charts":2000,"æľīæķĪ":2001,"æĶ¶":2002,"éĿŀ":2003,"å¯¹è±¡":2004,"åĬ¨ä½ľ":2005,"åĵªäºĽ":2006,"æģ¢å¤į":2007,"Ġdocumentation":2008,"çĽĳçĿ":2009,"è§£åĨ³":2010,"ages":2011,"çķĻ":2012,"Ġdevelopment":2013,"åĨħåŃĺ":2014,"valid":2015,"è¶Ĭ":2016,"ä¿Ŀè¯ģ":2017,"åħ·æľī":2018,"æŃ£å¼ı":2019,"åĿĹéĵ¾":2020,"è§Ħæ¨¡":2021,"ç¼ĸçłģ":2022,"ç¼ĸåĨĻ":2023,"éķ¿æľŁ":2024,"exifier":2025,"åĮºåĿĹéĵ¾":2026,"å¼ķåħ¥":2027,"æĿĥéĩį":2028,"æĭŁåĲĪ":2029,"ttention":2030,"final":2031,"åĲ¯åĬ¨":2032,"èĭ±æĸĩ":2033,"æĵįä½ľ":2034,"ç²¾":2035,"é¡ºåºı":2036,"ç¥ŀç»ı":2037,"çĽĳçĿ£":2038,".py":2039,"/F":2040,"/v":2041,"Batch":2042,"ET":2043,"IN":2044,"NestJS":2045,"bo":2046,"ies":2047,"mo":2048,"pad":2049,"yment":2050,"»åĬł":2051,"éĥ½":2052,"ĠDocker":2053,"Ġåıį":2054,"ĠWGAN":2055,"łæĢ§":2056,"ä¸ī":2057,"ãĢģWeb":2058,"ãĢģå¼ĤæŃ¥":2059,"ä»į":2060,"ï¼Įæĺ¯":2061,"åĪĿ":2062,"oning":2063,"åĲį":2064,"æĪ¿":2065,"ord":2066,"éĢĲ":2067,"itect":2068,"åĪĨæķ°":2069,"åĪĨå¸ĥ":2070,"æĢĿ":2071,"åı¯éĿ":2072,"æĪĲæľ¬":2073,"cture":2074,"ents":2075,"ç«ŀ":2076,"ä¸Ģæ¬¡":2077,"åį³":2078,"Ġsupport":2079,"leet":2080,"Ġcomp":2081,"ä¸Ńæĸĩ":2082,"ased":2083,"asoning":2084,"æıĲç¤º":2085,"åľ¨ä¸į":2086,"å»¶":2087,"ĠSt":2088,"å±Ģ":2089,"ĠPCA":2090,"å¹¶åıĳ":2091,"å¿«":2092,"Ġincl":2093,"ä»£çłģæĻºèĥ½":2094,"Ġman":2095,"Ġmodel":2096,"ç´¢å¼ķ":2097,"Ġbenchmark":2098,"ult":2099,"æ·»åĬł":2100,"ĠWebSocket":2101,"æķ´çĲĨ":2102,"uding":2103,"orts":2104,"èµĦæĸĻ":2105,"ailed":2106,"ext":2107,"ç©ºéĹ´":2108,"å¢ŀåĬł":2109,"äºĭä»¶":2110,"ability":2111,"Ġlog":2112,"ructure":2113,"rone":2114,"æ¦Ĥçİĩ":2115,"å®¢æĪ·ç«¯":2116,"ï¼Įå¸¸çĶ¨äºİ":2117,"èº«ä»½":2118,"Ġusing":2119,"åĽºå®ļ":2120,"ïĤ·Built":2121,"Ġauthent":2122,"åĪ©çĶ¨":2123,"itecture":2124,"åı¯éĿłæĢ§":2125,"Ġincluding":2126,"BullMQ":2127,"CI":2128,"Mart":2129,"PR":2130,"ak":2131,"cal":2132,"ead":2133,"fer":2134,"ful":2135,"ge":2136,"lision":2137,"od":2138,"ow":2139,"ris":2140,"up":2141,"¤çŁ":2142,"æħ":2143,"é»":2144,"ĠJ":2145,"ĠçĽ¸åħ³":2146,"ĠGateway":2147,"Ķç¦»":2148,"ãĢģä½¿çĶ¨":2149,"ãĢģä»ĵåºĵ":2150,"ãĢģéĥ¨ç½²":2151,"ãĢģZustand":2152,"ãĢģä»ªè¡¨çĽĺ":2153,"ãĢģVue":2154,"ï¼ĮåŁºäºİ":2155,"ï¼ĮçĶŁæĪĲ":2156,"ï¼Įæ¶":2157,"ï¼ĮéĻįä½İ":2158,"åħ¼":2159,"ç»ĩ":2160,"çļĦWebSocket":2161,"çļĦæĥħåĨµä¸ĭ":2162,"ä½ķ":2163,"è¿Ł":2164,"ïĤ·E":2165,"ïĤ·S":2166,"ïĤ·æ·»åĬł":2167,"ä¹¦":2168,"ä¹Ł":2169,"æĺ¾":2170,"\",čĊ":2171,"éĢģ":2172,"\")čĊ":2173,"ç¨ĭåºı":2174,"éĹŃ":2175,"å·¥èī":2176,"ä¸įä»ħ":2177,"æĹ¶åºı":2178,"æĹ¶ç©º":2179,"åıĳè¡¨":2180,"cket":2181,"å°Ħ":2182,"è¾¾":2183,"Ġcom":2184,"å¼Ģå±ķ":2185,"ä¸ŃåĽ½":2186,"åĲİç»Ń":2187,"ash":2188,"chem":2189,"ä»¥åıĬåŁºäºİ":2190,"ä»¥åıĬè¿Ĳç»´":2191,"Ġrequest":2192,"åºĶåĻ¨":2193,"åħ³éĶ®":2194,"åħ³éĹŃ":2195,"AIåĵįåºĶ":2196,"tel":2197,"æľįåĬ¡åıĳçİ°":2198,"Ġpad":2199,"ä¸ºä»Ģä¹Ī":2200,"å¿Ĩ":2201,"æĸ°çĸ":2202,"ĠEthers":2203,"å·¥ç¨ĭèĥ½åĬĽ":2204,"Recharts":2205,"å¤ļåħĥ":2206,"æłĩçŃ¾":2207,"rib":2208,"çĽ¸ä¼¼":2209,"çĽĳç®¡":2210,"éĿ¢åĲĳ":2211,"æĸĩä»¶åŃĺåĤ¨":2212,"json":2213,"åĳ¨":2214,"artif":2215,"ĠAPIs":2216,"Ġapplication":2217,"åĽŀæ»":2218,"æĹ¶éĹ´åºıåĪĹ":2219,"è·¨":2220,"Ġtoken":2221,"æľĢé«ĺ":2222,"ä½ĵçİ°":2223,"Ġex":2224,"ification":2225,"ãĢģPR":2226,"éļĶç¦»":2227,"è¿Ļè¾¹":2228,"æºĲçłģ":2229,"ç»Ħç»ĩ":2230,"å·¥ä¸ļå®īåħ¨":2231,"å·¥ä¸ļäººå·¥æĻºèĥ½":2232,"ĠNode":2233,"ollision":2234,"waypoint":2235,"åĪĹè¡¨":2236,"å·¥ä½ľæµģ":2237,"æĥ³":2238,"æŃ£å¸¸":2239,"ä¾Ŀæį®":2240,"éĻĲåĪ¶":2241,"åĽ¢éĺŁç®¡çĲĨ":2242,"ĠTypeScript":2243,"duc":2244,"æĬ¥åĳĬçĶŁæĪĲ":2245,"lay":2246,"è®°å¿Ĩ":2247,"åīįç«¯é¡µéĿ¢":2248,"ç»ĵæŀĦåĮĸ":2249,"è¯Ńä¹īçº§":2250,"æ´»":2251,"asks":2252,"Ġseed":2253,"ãĢģTypeScript":2254,"ãĢģTailwind":2255,"ãĢģEureka":2256,"ãĢģSwagger":2257,"å¹¿æĴŃ":2258,"ãĢģFiber":2259,"å¤įæĿĤåº¦":2260,"ãĢģConfig":2261,"åĿĩåĢ¼":2262,"èģĬå¤©åĲİç«¯":2263,"çħ§":2264,"çħ¤çŁ":2265,"ãĢģJWTè®¤è¯ģ":2266,"ïĤ·çłĶç©¶çĶŁ":2267,"æķħéļľæ£Ģæµĭä¸İ":2268,"åģ¥åº·æ£ĢæŁ¥":2269,"commit":2270,"æĿ¡ä»¶":2271,"èĩªåĬ¨åĮĸ":2272,"RESTful":2273,"tripe":2274,"ency":2275,"ãĢģæµģå¼ıAIåĵįåºĶ":2276,"icroMart":2277,"Ġbackend":2278,"å°±ç»ªæ£ĢæŁ¥":2279,"æĺłå°Ħ":2280,"çŁŃæľŁ":2281,"xperience":2282,"ĠåıįåºĶåĻ¨":2283,"æĪ¿éĹ´":2284,"å»¶è¿Ł":2285,"ä»£çłģæĻºèĥ½å¹³åı°":2286,"Ġauthentication":2287,"risma":2288,"å·¥èīº":2289,"ä¸ŃåĽ½çŁ³æ²¹":2290,"æĸ°çĸĨ":2291,"artifact":2292,"åĽŀæ»ļ":2293,"çħ¤çŁ¿":2294,"-user":2295,"MicroMart":2296,"OUT":2297,"UM":2298,"cess":2299,"htt":2300,"hook":2301,"not":2302,"ph":2303,"samples":2304,"ySQL":2305,"{\"":2306,"¤æĸŃ":2307,"æĤ":2308,"çĮ":2309,"èİ":2310,"éĤ":2311,"Ġ]":2312,"Ġæ¨¡åŀĭ":2313,"Ġas":2314,"ĠJWT":2315,"ãĢģJava":2316,"ï¼Įä»İ":2317,"åħ±":2318,"ç»§":2319,"åĪ¤æĸŃ":2320,"å®¶":2321,"ongo":2322,"è¿ĳ":2323,"è®¸":2324,"ïĤ·éĽĨæĪĲ":2325,"ath":2326,"æĺĵ":2327,"itbu":2328,"æ¨¡å¼ı":2329,"è§Ī":2330,"å¹´":2331,"éĻ¤":2332,"Ġsystem":2333,"åħ¨èģĮ":2334,"Ġcover":2335,"esign":2336,"åĲĪå¹¶":2337,"éĺħ":2338,"ĠCPU":2339,"é¢Ħå¤ĦçĲĨ":2340,"å¯¹åºĶ":2341,"Ġintegr":2342,"action":2343,"ï¼īï¼Į":2344,"æĽ¿":2345,"è½½":2346,"çī©":2347,"çīĩ":2348,"agement":2349,"Ġdeplo":2350,"éļı":2351,"æĶ¯æĮģè¿ľç¨ĭ":2352,"éĶģ":2353,"éĶĻ":2354,"æĻºæħ":2355,"ä¿ĿæĮģ":2356,"ä¿ĿæĬ¤":2357,"ä¿ĿçķĻ":2358,"Ġstructure":2359,"ç»ĦåĲĪ":2360,"ï¼Įå¹¶æĶ¯æĮģ":2361,"vices":2362,"è§ĦåĪĻ":2363,"Ġproduction":2364,"ç¼ĸç¨ĭ":2365,"è·¯çº¿":2366,"åħ¬å¼Ģ":2367,"ound":2368,"è¯¯å·®":2369,"ãĢģNode":2370,"able":2371,"èī²":2372,"æ¯Ķè¾ĥ":2373,"-storage":2374,"ï¼ĮèĢĮæĺ¯":2375,"æĮīçħ§":2376,"acle":2377,"Ġservice":2378,"æ¸ħçĲĨ":2379,"è¡¡éĩı":2380,"LAM":2381,"Ġworkflow":2382,"è§Ĵèī²":2383,"Ġmanagement":2384,"åĳ¨æľŁ":2385,"layGO":2386,"http":2387,"èİ·":2388,"ongoDB":2389,"itbucket":2390,"æĻºæħ§":2391,"Ġstructured":2392,"-p":2393,"/B":2394,"AU":2395,"Dexifier":2396,"EOUT":2397,"Hikaflow":2398,"Lo":2399,"Mask":2400,"OR":2401,"_refit":2402,"liver":2403,"model":2404,"ration":2405,"rics":2406,"token":2407,"yn":2408,"{}":2409,"´æĹ¶":2410,"èĪ":2411,"ĠçŃī":2412,"ĠGo":2413,"Ġuser":2414,"ĠGitHub":2415,"Ġarch":2416,"ĺè®¤":2417,"Ľå»º":2418,"Ńä»£":2419,"ä¸´æĹ¶":2420,"ãĢģæ¨¡åŀĭ":2421,"åıī":2422,"ä»ĭ":2423,"ï¼Įåĩıå°ĳ":2424,"åĪĽå»º":2425,"æķ£":2426,"è¿Ńä»£":2427,"ïĤ·I":2428,"red":2429,"æķ°éĩı":2430,"æįŁ":2431,"ite":2432,"æķ°æį®çľĭ":2433,"è§ī":2434,"rol":2435,"ross":2436,"ä¸ĢæŃ¥":2437,"let":2438,"learn":2439,"åħ¨éĥ¨":2440,"éĩıåĮĸ":2441,"isk":2442,"Ġcont":2443,"åĲİåı°":2444,"Ġreview":2445,"Ġreasoning":2446,"åľ¨è¯»":2447,"ĠSe":2448,"æľįåĬ¡åĻ¨":2449,"åĪĨæŀĲä¸İ":2450,"Ġfile":2451,"å¤įåĪ¶":2452,"å®ļä½į":2453,"ç´¯":2454,"Ġmain":2455,"Ġmult":2456,"éĩįçĤ¹":2457,"RelayGO":2458,"è®Ńç»ĥéĽĨ":2459,"mented":2460,"åĳ½":2461,"ç±»åĪ«":2462,"åĲİç«¯å¼Ģåıĳ":2463,"ç¼º":2464,"æ²»":2465,"Ġdeliver":2466,"åģı":2467,"åģľ":2468,"æ··":2469,"å®¹åĻ¨":2470,"åºĶçĶ¨å¼Ģåıĳ":2471,"éĺŁåĪĹ":2472,"æĬĢæľ¯æĸĩæ¡£":2473,"ç»Ħä»¶":2474,"old":2475,"å¦Ĥä½ķ":2476,"ible":2477,"è§ĦåĪĴ":2478,"iral":2479,"STR":2480,"amm":2481,"ï¼Įä½¿æ¨¡åŀĭ":2482,"åĽłä¸º":2483,"-server":2484,"Ġnot":2485,"å½Ĵå±ŀ":2486,"åįıè°ĥ":2487,"ĠData":2488,"Ġtechnical":2489,"ä¾ĭå¦Ĥ":2490,"Ġrisk":2491,"Ġreports":2492,"æ¯ıä¸ª":2493,"IMEOUT":2494,"éĩĩçĶ¨":2495,"çīĪæľ¬":2496,"èĬĤçĤ¹":2497,"æ³ĽåĮĸ":2498,"Ġacross":2499,"curity":2500,"latform":2501,"çªģ":2502,"Ġfrontend":2503,"èģļåĲĪ":2504,"/OpenAPI":2505,"çĽĳçĿ£åŃ¦ä¹ł":2506,"èº«ä»½è®¤è¯ģ":2507,"é»ĺè®¤":2508,"åħ¼å®¹":2509,"çĮ®":2510,"Ġ],čĊ":2511,"ï¼Įä»İèĢĮ":2512,"ç»§ç»Ń":2513,"Ġintegration":2514,"Ġdeployment":2515,"éĶĻè¯¯":2516,"Ġarchitecture":2517,"æķ°æį®çľĭæĿ¿":2518,"-b":2519,"-d":2520,"-g":2521,".com":2522,"//":2523,"/E":2524,"/T":2525,"/t":2526,"/NestJS":2527,"://":2528,"CH":2529,"CCU":2530,"DPE":2531,"IL":2532,"OM":2533,"SUM":2534,"_F":2535,"ace":2536,"auth":2537,"cast":2538,"eck":2539,"failed":2540,"ik":2541,"ne":2542,"ning":2543,"par":2544,"ract":2545,"sw":2546,"sist":2547,"sign":2548,"time":2549,"ux":2550,"uard":2551,"upy":2552,"¡è¶³":2553,"¡çĮ®":2554,"¿çľŁ":2555,"ç¿":2556,"èĲ":2557,"Ġv":2558,"ĠåıĬ":2559,"Ġis":2560,"Ġä¸Ń":2561,"ĠJava":2562,"Ġob":2563,"ĠâĢĵ":2564,"Ġvalid":2565,"Ġwaypoint":2566,"ģè®¸":2567,"ä¸ĵ":2568,"ãĢģL":2569,"ä»¤":2570,"ä»¿çľŁ":2571,"ï¼Įå°Ĩ":2572,"ï¼Įèĥ½å¤Ł":2573,"ï¼ĮæıĲé«ĺ":2574,"ï¼Įè¿ĺ":2575,"æľĽ":2576,"inux":2577,"åħģè®¸":2578,"åĪł":2579,"çļĦçĲĨè§£":2580,"enar":2581,"ance":2582,"æĺ¯åľ¨":2583,"stri":2584,"stru":2585,"æłĳ":2586,"åĪĨç¦»":2587,"éĹ¨":2588,"ĠAttention":2589,"å®ŀä¾ĭ":2590,"é¢Ŀ":2591,"role":2592,"Ġsamples":2593,"Ġschem":2594,"isc":2595,"æĸ¹éĿ¢":2596,"è¿ĩæĭŁåĲĪ":2597,"åŁºåĩĨ":2598,"å½¢":2599,"Ġresp":2600,"è¯ģæĺİ":2601,"è´¡çĮ®":2602,"æĶ¾":2603,"æīį":2604,"æĿŁ":2605,"tection":2606,"Ġpull":2607,"å¼Ģåıĳç»ıéªĮ":2608,"ĠPLS":2609,"éĽĨä¸Ń":2610,"æĸ°å¢ŀ":2611,"ä¸Ĭçº¿":2612,"è°ĥåıĤ":2613,"Ġmess":2614,"Ġmountain":2615,"éĩįè¦ģ":2616,"ç¡¬":2617,"è¿Ľä¸ĢæŃ¥":2618,"uture":2619,"èĩªçĦ¶":2620,"Ġdesign":2621,"åĨħéĥ¨":2622,"å¤§éĩı":2623,"Ġexperience":2624,"åįķåħĥ":2625,"è¿ĻäºĽ":2626,"ä¿ĿåŃĺ":2627,"åħ·ä½ĵ":2628,"åħĥæķ°æį®":2629,"ï¼Įä¸įèĥ½":2630,"ï¼Įä¸įè¦ģ":2631,"dustri":2632,"Ġproject":2633,"èģĮè´£":2634,"æıĲä¾ĽåŁºç¡Ģ":2635,"ize":2636,"éĢĤçĶ¨äºİ":2637,"æĹłæķĪ":2638,"éĺ²æĬ¤":2639,"åĽłæŀľ":2640,"çī¹å®ļ":2641,"çĶŁäº§çº§":2642,"ä¸ļåĬ¡éĢ»è¾ĳ":2643,"è½¯ä»¶å¼Ģåıĳ":2644,"æ»¡è¶³":2645,"æĿ¥æºĲ":2646,"mplemented":2647,"æĤ¨å¥½":2648,"ä¼łæĴŃ":2649,"Ġconsist":2650,"çĨŁæĤ":2651,"æ³¨æĦıåĬĽæľºåĪ¶":2652,"ä»·åĢ¼":2653,"éĢŁåº¦":2654,"Ġservices":2655,"æĬķéĢĴ":2656,"è¯´æĺİ":2657,"enerated":2658,"åįļå£«åľ¨è¯»":2659,"âī¥":2660,"æī©å±ķ":2661,"ĠInformer":2662,"ï¼ĮæĪĳè¿Ļè¾¹":2663,"å°½éĩı":2664,"board":2665,"ĠJupy":2666,"phan":2667,"https":2668,"ïĤ·Implemented":2669,"æįŁå¤±":2670,"Ġmaintain":2671,"é»ĺè®¤åħ³éĹŃ":2672,"-generated":2673,"/ECharts":2674,"ikit":2675,"enario":2676,"Ġrespon":2677,"dustrial":2678,"çĨŁæĤī":2679,"ĠJupyter":2680,"##":2681,"(samples":2682,"/C":2683,"/čĊ":2684,"/AI":2685,"/å¯¼":2686,"/æ³¨åĨĮ":2687,"/å°±ç»ªæ£ĢæŁ¥":2688,"AD":2689,"Actuator":2690,"LO":2691,"NT":2692,"Py":2693,"Top":2694,"Torch":2695,"Val":2696,"]čĊ":2697,"_d":2698,"aMask":2699,"ey":2700,"earn":2701,"pth":2702,"qu":2703,"ry":2704,"rum":2705,"uer":2706,"xt":2707,"¥ä¸İ":2708,"¦æĪ·":2709,"´éľ":2710,"µçĽĸ":2711,"·æĸ°":2712,"¿Ģ":2713,"æ¿Ģ":2714,"èį":2715,"ĠI":2716,"ĠåĴĮ":2717,"Ġå¼Ģåıĳ":2718,"Ġif":2719,"Ġof":2720,"Ġæİ¥åı£":2721,"Ġåħ¨æłĪ":2722,"Ġå·²":2723,"Ġèĩ³":2724,"Ġç»Łè®¡":2725,"Ġæİ§åĪ¶åĽ¾":2726,"ĠRESTful":2727,"ĭå·®":2728,"Įæı":2729,"ĵåº¦":2730,"ãĢĬ":2731,"ãĢĭ":2732,"ãĢģä»£çłģ":2733,"ãĢģåŁºäºİ":2734,"ãĢģå¤ļ":2735,"ãĢģçİ¯å¢ĥ":2736,"ãĢģæ¶Īæģ¯":2737,"ãĢģæī«æıı":2738,"ãĢģå½±åĵį":2739,"ãĢģæľºåĻ¨åŃ¦ä¹ł":2740,"ãĢģåģ¥åº·":2741,"ãĢģéĢļçŁ¥":2742,"ãĢģåºĶæĢ¥ç®¡çĲĨ":2743,"ãĢģjob":2744,"ãĢģpgvector":2745,"ãĢģè®¡è´¹":2746,"ãĢģembedding":2747,"ãĢģåĲĳéĩıæ£Ģç´¢":2748,"ãĢģçŁ³åĮĸ":2749,"ãĢģåı¯è§ĤæµĭæĢ§":2750,"ãĢģOpenFeign":2751,"ãĢģBullMQ":2752,"ãĢģæľįåĬ¡åıĳçİ°":2753,"ãĢģRecharts":2754,"ãĢģæĹ¶éĹ´åºıåĪĹ":2755,"ãĢģcommit":2756,"ãĢģåĲİåı°":2757,"åı¸":2758,"ä»Ĭ":2759,"ï¼Įå¯¹":2760,"ï¼ĮçłĶç©¶":2761,"ï¼Įä¸Ģä¸ª":2762,"ï¼Įå±ķç¤º":2763,"ï¼ĮæĬĢæľ¯æłĪ":2764,"ï¼Įä¹Ł":2765,"ï¼Įä½ĵçİ°":2766,"ï¼ĮæĽ¿":2767,"ï¼Įä¾ĭå¦Ĥ":2768,"ï¼ĮéĩĩçĶ¨":2769,"ãĢĤè¯¥":2770,"ç»Ĩ":2771,"ç»ķ":2772,"åĪĬ":2773,"åĪ·æĸ°":2774,"çļĦä¿¡æģ¯":2775,"çļĦå®Įæķ´":2776,"çļĦå¼ĤæŃ¥":2777,"è¯¦":2778,"ä½Ĩ":2779,"è®®":2780,"ïĤ·åľ¨":2781,"ïĤ·åĬł":2782,"ïĤ·å»ºç«ĭ":2783,"ïĤ·ç¼ĸåĨĻ":2784,"ïĤ·å¼ķåħ¥":2785,"ïĤ·åıĳè¡¨":2786,"ates":2787,"ature":2788,"res":2789,"ream":2790,"æĺ¯ä»Ģä¹Ī":2791,"æĺ¯å°Ĩ":2792,"ä¸İåı¯å¤įçİ°":2793,"ä¸İä»¿çľŁ":2794,"æµ·":2795,"æµĵåº¦":2796,"æİĮæı":2797,"ï¼ļå¯¹":2798,"ï¼ļå®īåħ¨":2799,"ï¼ļéĿ¢è¯ķ":2800,"ï¼ļãĢĬ":2801,"çĲĨå·¥":2802,"åĪĨåıĳ":2803,"æ¨¡æĭŁ":2804,"åı¯å±ķç¤º":2805,"åı¯ç»´æĬ¤":2806,"æķ°æį®çļĦ":2807,"æķ°æį®æİ¥":2808,"æķ°æį®åĪĨæŀĲ":2809,"åıĬçĶŁäº§":2810,"åŀ¢":2811,"åĨ²":2812,"ĠApp":2813,"ĠAir":2814,"ĠAgent":2815,"ä¸įå®īåħ¨":2816,"æĪĲåĪĨ":2817,"æĪĲæŀľ":2818,"åĮĸå·¥":2819,"roach":2820,"anding":2821,"å¼Ģå§ĭ":2822,"çĶŁåĳ½":2823,"åŃ¦ä¸ļ":2824,"ä»¥åıĬWebSocket":2825,"Webhook":2826,"Ġreal":2827,"ä¸ªäºº":2828,"ä¸ªå²Ĺä½į":2829,"è¯ģä¹¦":2830,"è´¦æĪ·":2831,"AIçĶŁæĪĲ":2832,"ety":2833,"etaMask":2834,"ĠSoftware":2835,"ĠSpatiotemporal":2836,"ĠSLAM":2837,"ĠConfig":2838,"å¾ħ":2839,"åıĤèĢĥ":2840,"æľįåĬ¡ä»¥åıĬ":2841,"æľįåĬ¡è¾¹çķĮ":2842,"ç§ģ":2843,"ä»£ä¸įå®īåħ¨":2844,"åĪĨæŀĲä»¥åıĬ":2845,"Ġfull":2846,"ä½ľçĶ¨":2847,"ç»ĵåŀ¢":2848,"å¹¶æıĲåįĩ":2849,"åİ»":2850,"åİĤ":2851,"é¢Ħéĺ²":2852,"å®īåħ¨æĢ§":2853,"å®īåħ¨çĽĳç®¡":2854,"æĮģç»Ń":2855,"æĸ°åĨłåĨĽ":2856,"ç´ł":2857,"ĠEmbedding":2858,"ç»ıè¿ĩ":2859,"SQLè¿ģç§»":2860,"è®Ńç»ĥæķ°æį®":2861,"è®Ńç»ĥæ¨¡åŀĭ":2862,"é£İæł¼":2863,"è¿Ľåº¦":2864,"Ġdrone":2865,"ä¸ĭçļĦ":2866,"ä¸ĭéĻį":2867,"ill":2868,"é£İéĻ©è¯Ħä¼°":2869,"æĸĩä»¶åħĥæķ°æį®":2870,"éħįå¯¹":2871,"ï¼īåĪĨæŀĲ":2872,"åıĺæĽ´":2873,"ï¼ĪS":2874,"print":2875,"åĲİç«¯æľįåĬ¡":2876,"åĲİç«¯æŀ¶æŀĦ":2877,"æľŁåĪĬ":2878,"é«ĺæķĪ":2879,".json":2880,"æĶ¯ä»ĺ":2881,"èĩªçĽ¸åħ³":2882,"èĩªæ²»":2883,"äº¤æĺĵ":2884,"unk":2885,"çĽ¸åħ³æĢ§":2886,"ä»»åĬ¡å¤ĦçĲĨ":2887,"ĠBased":2888,"å¤§è¯Ńè¨Ģæ¨¡åŀĭ":2889,"ãĢģPBKDF":2890,"ãĢģPrisma":2891,"äº§çĶŁ":2892,"äº§å±ķç¤º":2893,"åįķåıĺéĩı":2894,"äºĨä¸Ģä¸ª":2895,"è¿ŀç»Ń":2896,"æºĲä»£çłģ":2897,"ĠFiber":2898,"ĠFore":2899,"Ġstate":2900,"éĢļå¸¸çĶ¨äºİ":2901,"ç»ĦæĪĲ":2902,"ĠNew":2903,"éĽĨæĪĲæµĭè¯ķ":2904,"ä¸»æĪĲåĪĨ":2905,"æŃ£ç¡®":2906,"ïĤ·åıĤä¸İåºĶæĢ¥ç®¡çĲĨ":2907,"é¢ĦæµĭçłĶç©¶":2908,"è¿ŀæİ¥çĶŁåĳ½":2909,"è¿Ľè¡Įæķ°æį®":2910,"WebSocketèģĬå¤©åĲİç«¯":2911,"istrib":2912,"éĴ¥ä¸İ":2913,"æĦıè¯Ĩ":2914,"éħįç½®ä»¥åıĬ":2915,"ĠModel":2916,"èµĦäº§å±ķç¤º":2917,"========čĊ":2918,"è·¯çĶ±":2919,"å±ķç¤ºäºĨ":2920,"afety":2921,"æķħé¢Ħéĺ²":2922,"å®ŀæĹ¶éĢļä¿¡":2923,"å®ŀæĹ¶WebSocketèģĬå¤©åĲİç«¯":2924,"åħ¨æłĪAI":2925,"åīįç«¯çķĮ":2926,"ç½ĳåħ³":2927,"çĽĳæİ§æĸ¹æ¡Ī":2928,"æĶ¹åıĺ":2929,"éĺ²çģ«":2930,"ï¼Įä½ł":2931,"ç©ºæ°Ķ":2932,"äº¤äºĴæµģç¨ĭ":2933,"åľºæĻ¯ä¸ĭçļĦ":2934,"ç»ĻæĪĳ":2935,"è®¿éĹ®æİ§åĪ¶":2936,"æİĴè¡Į":2937,"ĠComposeä»¥åıĬ":2938,"ä¸ļåĬ¡æľįåĬ¡":2939,"Ġnq":2940,"ç¦»æķ£":2941,"æ®ĭå·®":2942,"Ġgener":2943,"äºĭæķħé¢Ħéĺ²":2944,"å¯ĨéĴ¥ä¸İ":2945,"ĠçļĦçħ¤çŁ¿":2946,"è¯¯æĬ¥":2947,"æł¸å¿ĥæľŁåĪĬ":2948,"èĩ³PostgreSQL":2949,"å£°":2950,"çģ¾":2951,"Ġtest":2952,"Ġteam":2953,"ãĢģNestJS":2954,"ãĢģNext":2955,"ä¼łéĢĴ":2956,"æµģå¼ıAPI":2957,"å¾®æľįåĬ¡å¹³åı°":2958,"å¾ĹåĪ°":2959,"antis":2960,"Ġscenario":2961,"éľĢæ±ĤçĲĨè§£":2962,"èģĬå¤©åİĨåı²":2963,"ïĤ·æŀĦå»ºäºĨä¸Ģä¸ª":2964,"å¸ĮæľĽ":2965,"çĵ¦æĸ¯æµĵåº¦":2966,"Ġä¸ªä¸»æĪĲåĪĨ":2967,"ãĢģå®īåħ¨çĽĳæµĭ":2968,"é¢ĨåŁŁçŁ¥è¯Ĩ":2969,"ãĢģMySQL":2970,"ãĢģMongoDB":2971,"ïĤ·Design":2972,"ç¨³å®ļæĢ§":2973,"åĽ½å®¶":2974,"ĠRequest":2975,"ïĤ·è®¾è®¡äºĨ":2976,"éĩĩæł·":2977,"è·¯å¾ĦçļĦæĥħåĨµä¸ĭ":2978,"é©±åĬ¨çļĦ":2979,"astAPI":2980,"ãĢģæķ°æį®åºĵè®¾è®¡":2981,"ĠåºĶçĶ¨å¼Ģåıĳ":2982,"ä¸¤ä¸ª":2983,"ç§ĳçłĶé¡¹çĽ®":2984,"æķĪæŀľè¯Ħä¼°":2985,"content":2986,"æ¼ı":2987,"ãĢģAIä»£çłģåĪĨæŀĲ":2988,"ãĢģé£İéĻ©é¢Ħæµĭ":2989,"éĻĲæµģæľºåĪ¶":2990,"========================čĊ":2991,"å¯ĨçłģåĵĪå¸Į":2992,"ç¬¦åĲĪ":2993,"çģ«çģ¾":2994,"çĵ¦æĸ¯çĪĨçĤ¸é£İéĻ©é¢ĦèŃ¦çłĶç©¶":2995,"å¤©æ´¥çĲĨå·¥":2996,"æļ´éľ":2997,"GORMæĮģä¹ħåĮĸ":2998,"è½¬æį¢ä¸º":2999,"è£ħ":3000,"ä¸ŃéĹ´ä»¶":3001,"åĮºåĿĹéĵ¾äº¤äºĴ":3002,"ç¥ŀç»ıç½ĳç»ľ":3003,"éĢĲæŃ¥":3004,"æĢĿç»´":3005,"ç«ŀæĢģ":3006,"ä¸Ńæĸĩæł¸å¿ĥæľŁåĪĬ":3007,"æıĲç¤ºè¯į":3008,"å¿«éĢŁ":3009,"ãĢģä½¿çĶ¨éĩı":3010,"ï¼Įæ¶µçĽĸ":3011,"çļĦWebSocketæ¶Īæģ¯":3012,"çĽ¸ä¼¼åº¦":3013,"æĸĩä»¶åŃĺåĤ¨æľįåĬ¡":3014,"Ġapplications":3015,"è¯Ńä¹īçº§ä»£çłģ":3016,"æķħéļľæ£Ģæµĭä¸İè¯ĬæĸŃ":3017,"æĪ¿éĹ´ç®¡çĲĨ":3018,"æĸ°çĸĨå¤§åŃ¦":3019,"Ġsystems":3020,"çī©è¿ĩç¨ĭ":3021,"éļıæľº":3022,"åĳ¨æľŁç®¡çĲĨ":3023,"itbucketä»£çłģä»ĵåºĵ":3024,"AUC":3025,"èģļåĲĪçī©è¿ĩç¨ĭ":3026,"casting":3027,"paration":3028,"åĪłéĻ¤":3029,"éĽĨä¸Ńéħįç½®":3030,"ç¡¬ç¼ĸçłģ":3031,"æĹłæķĪJSON":3032,"uery":3033,"Ġèĩ³ä»Ĭ":3034,"ï¼Įä¸Ģä¸ªåŁºäºİ":3035,"ï¼ĮæĽ¿ä»£ä¸įå®īåħ¨":3036,"ãĢĤè¯¥é¡¹çĽ®":3037,"ïĤ·åĬłæ·±":3038,"æİĮæı¡":3039,"ï¼ļå®īåħ¨å·¥ç¨ĭ":3040,"ï¼ļéĿ¢è¯ķåı¯å±ķç¤º":3041,"åı¯ç»´æĬ¤æĢ§":3042,"æķ°æį®æİ¥åħ¥":3043,"ĠApproach":3044,"åŃ¦ä¸ļå¥ĸåŃ¦éĩĳ":3045,"è´¦æĪ·ç®¡çĲĨ":3046,"èĩªæ²»åĮº":3047,"ĠForecasting":3048,"è¿ŀæİ¥çĶŁåĳ½åĳ¨æľŁç®¡çĲĨ":3049,"èµĦäº§å±ķç¤ºåıĬ":3050,"åīįç«¯çķĮéĿ¢":3051,"éĺ²çģ«æľį":3052,"ç©ºæ°Ķè´¨éĩı":3053,"ĠçļĦçħ¤çŁ¿çĵ¦æĸ¯çĪĨçĤ¸é£İéĻ©é¢ĦèŃ¦":3054,"å¤©æ´¥çĲĨå·¥å¤§åŃ¦":3055,"æļ´éľ²":3056,"ï¼ĮæĽ¿ä»£ä¸įå®īåħ¨çļĦ":3057,"-on":3058,"Embedding":3059,"LP":3060,"Query":3061,"_V":3062,"ay":3063,"ci":3064,"gith":3065,"ie":3066,"ian":3067,"lig":3068,"lib":3069,"man":3070,"ool":3071,"pend":3072,"piral":3073,"su":3074,"sor":3075,"sure":3076,"tack":3077,"ude":3078,"uran":3079,"vents":3080,"xed":3081,"{term":3082,"´å¹³":3083,"»è§ī":3084,"½Ĳ":3085,"½åľ°":3086,"ç¢":3087,"é¦":3088,"é½Ĳ":3089,"Ġor":3090,"Ġit":3091,"ĠåĲİ":3092,"ĠID":3093,"ĠGit":3094,"Ġout":3095,"ģæŃ¢":3096,"īåıĬ":3097,"ıæĦŁ":3098,"ıè§Ī":3099,"ĳå®ļ":3100,"ĶåĽŀ":3101,"ä¸Ķ":3102,"ãĢģg":3103,"ãĢģè¡Į":3104,"ãĢģReact":3105,"åı¥":3106,"ï¼Įä¸İ":3107,"ï¼Įèĥ½":3108,"ï¼Įæľī":3109,"ï¼ĮæĹ¶éĹ´":3110,"ï¼ĮåĲĮæĹ¶":3111,"ï¼Įéģ¿åħį":3112,"ï¼ĮåĨį":3113,"ï¼ĮéĢĤåĲĪ":3114,"ç»ĳå®ļ":3115,"çļĦéĹ®é¢ĺ":3116,"åĬ¿":3117,"äºī":3118,"åĲĹ":3119,"æķıæĦŁ":3120,"ä½Ļ":3121,"è¿ĶåĽŀ":3122,"å¤´":3123,"ïĤ·L":3124,"ating":3125,"rep":3126,"rect":3127,"orer":3128,"ä¸İå·¥ç¨ĭ":3129,"ä¸İçľŁå®ŀ":3130,"æµıè§Ī":3131,"allet":3132,"åĪĨä¸º":3133,"æķ°æį®å¤ĦçĲĨ":3134,"åıĬç»ĵæŀľ":3135,"å·¥åľ°":3136,"ä¸įè¦ģ":3137,"æĪĲåĳĺ":3138,"å¹»è§ī":3139,"å®ŀè·":3140,"arm":3141,"å¸¦":3142,"rom":3143,"route":3144,"roduc":3145,"åįģ":3146,"Ġcla":3147,"Ġcap":3148,"icip":3149,"çİ°æľī":3150,"çŃĽ":3151,"åĲİæīį":3152,"local":3153,"Ġremo":3154,"æİ¥è¿ĳ":3155,"æıĲåıĸ":3156,"åĲĪä½ľ":3157,"æľīåºı":3158,"ĠSQL":3159,"å¾Ī":3160,"æľįåĬ¡è°ĥçĶ¨":3161,"è¡Įä¸ļ":3162,"ä½¿çĶ¨çļĦ":3163,"Ġfe":3164,"é¡¹çĽ®ç±»åŀĭ":3165,"è°¢":3166,"è¡¨è¾¾":3167,"Ġinstru":3168,"Ġindustrial":3169,"ä¸Ĭä¼ł":3170,"emory":3171,"emant":3172,"ĠECharts":3173,"åħ¥åı£":3174,"Ġdash":3175,"Ġbu":3176,"è½»":3177,"articip":3178,"èĩªçĶ±":3179,"æŁ¥æī¾":3180,"åĬłåħ¥":3181,"åĬłè½½":3182,"Ġtr":3183,"åĲĮä¸Ģ":3184,"æľĢå°ı":3185,"ä½ĵéªĮ":3186,"Ġwh":3187,"Ġwallet":3188,"åįķä½į":3189,"å¹³åĿĩ":3190,"ateg":3191,"ï¼ĮåĮħæĭ¬æ¨¡åŀĭ":3192,"ĠFull":3193,"Ġstream":3194,"çĶ¨æĪ·ä½ĵéªĮ":3195,"omain":3196,"ĠNum":3197,"æİ¨å¹¿":3198,"ï¼Įä¸įéľĢè¦ģ":3199,"ĠTIMEOUT":3200,"Ġenv":3201,"å°ıæĹ¶":3202,"laude":3203,"æĮĩä»¤":3204,"èģĮä¸ļ":3205,"ç¦ģæŃ¢":3206,"åıªèĥ½":3207,"è®¡ç®Ĺæľº":3208,"OpenAI":3209,"åħ¬åı¸":3210,"åīįç«¯å¼Ģåıĳ":3211,"çľŁæŃ£":3212,"å¼ķçĶ¨":3213,"ç§ĳåŃ¦":3214,"å¢ŀå¼º":3215,"uman":3216,"TTL":3217,"Ġguard":3218,"æ°´å¹³":3219,"æ¨¡åĿĹåĮĸ":3220,"-stack":3221,"Ġscan":3222,"ä¼ĺåħĪçº§":3223,"angu":3224,"Ġdatabase":3225,"ãĢģæķ°æį®å¤ĦçĲĨ":3226,"Ġconne":3227,"space":3228,"è¶ħè¿ĩ":3229,"åĬ©äºİ":3230,"readiness":3231,"scent":3232,"å±ŀäºİ":3233,"ç¡®è®¤ä¸Ģä¸ĭ":3234,"-Stack":3235,"çªĹ":3236,"èĻĳ":3237,"èĻļ":3238,"Ġassess":3239,"å®¡è®¡":3240,"ĠUI":3241,"Ġinteraction":3242,"èĢĥèĻĳ":3243,"ç¬¬ä¸ī":3244,"Ġsupporting":3245,"å±Ģéĥ¨":3246,"ference":3247,"Ġcommit":3248,"æľĢé«ĺçļĦ":3249,"ãĢģJavaScript":3250,"å¹´ä»¥ä¸Ĭ":3251,"Ġcovering":3252,"æĶ¯æĮģè¿ľç¨ĭåĬŀåħ¬":3253,"Ġworkflows":3254,"èİ·å¾Ĺ":3255,"æĻºæħ§å·¥åľ°":3256,"è¿Ńä»£äº¤ä»ĺ":3257,"Ġdelivery":3258,"oldout":3259,"èĲ½åľ°":3260,"Ġschema":3261,"Ġconsistency":3262,"åĨ²çªģ":3263,"Ġscenarios":3264,"ïĤ·Designed":3265,"github":3266,"urance":3267,"æµıè§ĪåĻ¨":3268,"åıĬç»ĵæŀľåı¯è§ĨåĮĸ":3269,"å®ŀè·µ":3270,"emantic":3271,"Ġdashboard":3272,"èĩªçĶ±èģĮä¸ļ":3273,"ĠNumPy":3274,"Ġconnection":3275,")ï¼ĽčĊ":3276,"--":3277,"-c":3278,"-re":3279,"-file":3280,"-readiness":3281,".m":3282,".)čĊ":3283,"/O":3284,"/c":3285,"/p":3286,"/API":3287,"Agent":3288,"Disc":3289,"GIL":3290,"HS":3291,"Key":3292,"MA":3293,"MAT":3294,"NLP":3295,"Pro":3296,"Prompt":3297,"_P":3298,"_T":3299,"_c":3300,"_or":3301,"_pat":3302,"_local":3303,"ape":3304,"collision":3305,"crum":3306,"dd":3307,"ear":3308,"for":3309,"fill":3310,"gist":3311,"ior":3312,"np":3313,"ner":3314,"nor":3315,"ness":3316,"rc":3317,"vid":3318,"¢éĺħ":3319,"®åĬ©":3320,"¹è®Ń":3321,"åĶ":3322,"æŁ":3323,"Ġ&":3324,"Ġk":3325,"Ġä»¥åıĬ":3326,"Ġä½¿çĶ¨":3327,"Ġé¡¹çĽ®":3328,"ĠVue":3329,"Ġartifact":3330,"Ĥç§»":3331,"ħåĬ©":3332,"ĭåĬ¿":3333,"ï¼ģ":3334,"ãĢģä»»åĬ¡":3335,"ãĢģè¯Ħ":3336,"ãĢģæĢ§èĥ½":3337,"ãĢģå¤±è´¥":3338,"ãĢģçī¹å¾ģ":3339,"ãĢģåĽŀå½Ĵ":3340,"ãĢģç»Ħç»ĩ":3341,"ãĢģåĪĨæŀĲä¸İ":3342,"ï¼Įåı¯":3343,"ï¼Įåľ¨":3344,"ï¼Įå¤ļ":3345,"ãĢĤå¦Ĥæŀľ":3346,"åħħ":3347,"åħŃ":3348,"ç»į":3349,"çļĦæ¨¡åŀĭ":3350,"çļĦç³»ç»Ł":3351,"çļĦåħ³ç³»":3352,"çļĦè¯·æ±Ĥ":3353,"çļĦåħ¨èģĮ":3354,"ering":3355,"onment":3356,"å¤ª":3357,"è®¢éĺħ":3358,"ïĤ·In":3359,"ĠĠĠĠĠĠĠĠĠĠĠĠĠĠĠ":3360,"ress":3361,"æĪª":3362,"\",\"":3363,"æķ°åĢ¼":3364,"æĺ¯ä¸Ģä¸ª":3365,"éĩĮ":3366,"alization":3367,"edge":3368,"ited":3369,"æķ°æį®è¿Ľè¡Į":3370,"åĽĽ":3371,"è¡¥":3372,"Ġ\"{}":3373,"ĠActuator":3374,"äºİç®Ģåįķ":3375,"åıĳéĢģ":3376,"å¸®åĬ©":3377,"roun":3378,"ä¸Ģå®ļ":3379,"ä¸Ģç»Ħ":3380,"ä¸ĢéĶ®":3381,"åįĬ":3382,"åįł":3383,"æ¨¡åŀĭåıĤæķ°":3384,"Ġsol":3385,"Ġsafety":3386,"Ġsemantic":3387,"ations":3388,"lem":3389,"les":3390,"lementation":3391,"åŁ¹è®Ń":3392,"andid":3393,"è¾ħåĬ©":3394,"Ġconfig":3395,"ä¸ŃæľŁ":3396,"ä¸Ńå¿ĥ":3397,"åĲİçļĦ":3398,"lock":3399,"è®¡æķ°":3400,"è¿ĩæľŁ":3401,"Ġrefin":3402,"åºĶè¯¥":3403,"æľ¬ç§ĳ":3404,"æľīä»Ģä¹Ī":3405,"æĶ¿":3406,"æī¹":3407,"æĭĨ":3408,"etrics":3409,"éĺ»":3410,"ĠSwagger":3411,"teamm":3412,"text":3413,"æŃ¤":3414,"Ġper":3415,"Ġplatform":3416,"ç§¯":3417,"Ġfleet":3418,"å¸¸è§ģ":3419,"åĲĳä¼łæĴŃ":3420,"æĻ°":3421,"SQLite":3422,"æģ¶":3423,"è®Ńç»ĥæł·æľ¬":3424,"è¿Ľåħ¥":3425,"Ġbe":3426,"Ġbus":3427,"seed":3428,"ormalization":3429,"è½®":3430,"ï¼ĪSC":3431,"æ±ł":3432,"åĲİç«¯æķ°æį®":3433,"èĢ¦":3434,"æľŁéĹ´":3435,"åĩºçİ°":3436,"äº¤åıī":3437,"untime":3438,"Ġdet":3439,"åģĩ":3440,"è·Ł":3441,"Ġtasks":3442,"ä½ĵå·¥ä½ľ":3443,"æķ´ä½ĵ":3444,"ifest":3445,"å¥Ĺ":3446,"åįķçĭ¬":3447,"éĶĢ":3448,"è¿Ļä¸ª":3449,"ä½İé£İéĻ©":3450,"æĬĢæľ¯æĸ¹æ¡Ī":3451,"è¶ĭåĬ¿":3452,"Ġstorage":3453,"éªĮè¯ģéĽĨ":3454,"ĠNestJS":3455,"æİ¨åĬ¨":3456,"ä¸»ä½ĵå·¥ä½ľ":3457,"å¤©çĦ¶":3458,"éĻįç»´":3459,"åħĥç´ł":3460,"å½ĵåīįåĨłåĨĽ":3461,"çŃĶæ¡Ī":3462,"è¯įè¡¨":3463,"å°ıè§Ħæ¨¡":3464,"è¡¨ç¤ºæ¨¡åŀĭ":3465,"ironment":3466,"éģĵ":3467,"Ġimport":3468,"Ġimplementation":3469,"å°±åı¯ä»¥":3470,"åħ¨æłĪå·¥ç¨ĭå¸Ī":3471,"Chunk":3472,"ï¼Įä½¿åħ¶":3473,"ç»ĻæĤ¨":3474,"è½¯ä»¶ç³»ç»Ł":3475,"å®Įæķ´çļĦ":3476,"éĶ®åĢ¼":3477,"ONN":3478,"äºĭåĬ¡":3479,"Ġseen":3480,"æĿ¥èĩª":3481,"çĭ¬ç«ĭçļĦ":3482,"\":\"":3483,"overnor":3484,"åıįåĲĳä¼łæĴŃ":3485,"-time":3486,"å¾®æľįåĬ¡æŀ¶æŀĦ":3487,"æľªæĿ¥":3488,"ï¼Įä»¥éĻįä½İ":3489,"åİŁåĪĻ":3490,"åİŁå§ĭ":3491,"xpress":3492,"Ġlock":3493,"æ¯ıå¤©":3494,"veloped":3495,"ï¼ĮèĢĮä¸įæĺ¯":3496,"allback":3497,"åĨ³çŃĸ":3498,"éģ¿åħįéĩįå¤į":3499,"Ġlen":3500,"è¿ĺæľī":3501,"åĽ´ç»ķ":3502,"ïĤ·Particip":3503,"æ¸ħæĻ°":3504,"æĬķåħ¥":3505,"èģĶç³»":3506,"çº¦æĿŁ":3507,"éĹ®çŃĶç³»ç»Ł":3508,"å·²ç»ıå®ĮæĪĲ":3509,"ç§ĳçłĶä¸»ä½ĵå·¥ä½ľ":3510,"/mantis":3511,"LAB":3512,"åĮ¹éħįåº¦":3513,"æ¼Ĥç§»":3514,"ï¼Įä¸ºåĲİç»Ń":3515,"ïĤ·Add":3516,"Ġcheck":3517,"Technical":3518,"æļĤ":3519,"ï¼Įè¿Ļä¸ªå²Ĺä½į":3520,"åĪĩåĪĨ":3521,"ä»¥ä¸ĬçļĦåħ¨èģĮ":3522,"åĵªäºĽæĸĩä»¶":3523,"ç¥ŀç»ıåħĥ":3524,"åĪĿå§ĭ":3525,"å®¢æĪ·ç«¯ä¸İ":3526,"eader":3527,"ïĤ·Evalu":3528,"tellig":3529,"ä¸ºä»Ģä¹ĪéľĢè¦ģ":3530,"notation":3531,"ä»ĭç»į":3532,"learned":3533,"Ġcontrol":3534,"Ġreviewer":3535,"ç´¯è®¡":3536,"/tasks":3537,"Ġvis":3538,"å½¢æĪĲ":3539,"è¿Ľä¸ĢæŃ¥æ²ŁéĢļ":3540,"Ġrespons":3541,"æ¿Ģæ´»":3542,"resent":3543,"istribution":3544,"-only":3545,"çŃĽéĢī":3546,"è½»éĩı":3547,"Ġwhile":3548,"Ġstreaming":3549,"Ġenvironment":3550,"å°ıæĹ¶ä»¥ä¸ĬçļĦåħ¨èģĮ":3551,"anguage":3552,"çªĹåı£":3553,".md":3554,"Discord":3555,"_oracle":3556,"_path":3557,"crumb":3558,"Ġconfigur":3559,"è¿ĩæľŁæĹ¶éĹ´":3560,"Ġrefinement":3561,"teammate":3562,"Ġbusiness":3563,"ïĤ·Participated":3564,"ç§ĳçłĶä¸»ä½ĵå·¥ä½ľå·²ç»ıå®ĮæĪĲ":3565,"ïĤ·Added":3566,"telligence":3567,"å°ıæĹ¶ä»¥ä¸ĬçļĦåħ¨èģĮæĬķåħ¥":3568,"\"čĊ":3569,"(f":3570,"++":3571,"-a":3572,"-cont":3573,".a":3574,"/h":3575,"/Redis":3576,"/Spring":3577,"/WebSocket":3578,"/ang":3579,"/pgvector":3580,"/åĽŀæ»ļ":3581,"AL":3582,"CPU":3583,"DE":3584,"HP":3585,"IV":3586,"Learn":3587,"ME":3588,"My":3589,"Node":3590,"OD":3591,"OLO":3592,"RO":3593,"RRE":3594,"RIM":3595,"SHA":3596,"UI":3597,"Va":3598,"Work":3599,"YOLO":3600,"Zook":3601,"_a":3602,"_b":3603,"_v":3604,"_RE":3605,"_CU":3606,"config":3607,"call":3608,"diver":3609,"distribution":3610,"eval":3611,"eureka":3612,"eveloped":3613,"fleet":3614,"iv":3615,"ient":3616,"ilo":3617,"ky":3618,"min":3619,"mess":3620,"nal":3621,"ous":3622,"otel":3623,"smodel":3624,"sky":3625,"tlib":3626,"yTorch":3627,"¡ŀ":3628,"¡éªĮ":3629,"¤ä¸İ":3630,"¦ľ":3631,"¨ģ":3632,"©åº¦":3633,"©éĺ":3634,"¬ä¸Ĭ":3635,"®ä»¶":3636,"¯ä¸Ģ":3637,"¯å¥½":3638,"°å¯":3639,"±ç³»":3640,"µæ´»":3641,"¼åĲĪ":3642,"åĸ":3643,"å¡ŀ":3644,"å¨ģ":3645,"æĳ":3646,"æ¦ľ":3647,"éŁ":3648,"Ġ(":3649,"Ġ>":3650,"Ġ{":3651,"Ġå":3652,"Ġat":3653,"Ġæķ°æį®":3654,"ĠåĲĪ":3655,"Ġåīį":3656,"Ġç³»ç»Ł":3657,"Ġun":3658,"ĠéªĮè¯ģ":3659,"Ġåıª":3660,"Ġå¦Ĥæŀľ":3661,"ĠKafka":3662,"Ġjob":3663,"ĠGemini":3664,"Ġjson":3665,"ĠçĨŁæĤī":3666,"ĺè¦ģ":3667,"ĻæĢģ":3668,"ļæľª":3669,"ä¸ľ":3670,"ä¸°å¯":3671,"ãĢģd":3672,"ãĢģåĪĨ":3673,"ãĢģé¡¹çĽ®":3674,"ãĢģä¾Ŀèµĸ":3675,"ãĢģéĩįå¤į":3676,"ãĢģå®ŀéªĮ":3677,"ãĢģæĪĲæľ¬":3678,"ãĢģè·¨":3679,"ãĢģèº«ä»½è®¤è¯ģ":3680,"ãĢģåİ»":3681,"ãĢģæĪĲåĳĺ":3682,"ãĢģæĬĢæľ¯æĸ¹æ¡Ī":3683,"åı·":3684,"ï¼Įä½¿çĶ¨":3685,"ï¼ĮJava":3686,"ï¼ĮRAG":3687,"ï¼Įç»ĵåĲĪ":3688,"ï¼Įæĺİç¡®":3689,"ï¼Įå¯¼èĩ´":3690,"ï¼ĮåĽłä¸º":3691,"ãĢĤä¸į":3692,"ãĢĤä½¿çĶ¨":3693,"æľĪ":3694,"åħ«":3695,"åħ¸":3696,"ç»Ŀ":3697,"ç»¼åĲĪ":3698,"çļĦåĪĨæŀĲ":3699,"çļĦé¡¹çĽ®":3700,"çļĦè§£":3701,"çļĦæķ°æį®åºĵ":3702,"çļĦåĢ¼":3703,"çļĦæŀ¶æŀĦ":3704,"çļĦåĨħå®¹":3705,"çļĦæł¸å¿ĥ":3706,"åĬ±":3707,"æĸ½":3708,"äºĶ":3709,"æķĻ":3710,"ïĤ·AI":3711,"ïĤ·Re":3712,"ïĤ·Python":3713,"ïĤ·Git":3714,"ative":3715,"atplo":3716,"atsmodel":3717,"reak":3718,"æĺ¯æ¨¡åŀĭ":3719,"æĺ¯çĶ¨äºİ":3720,"å·¦":3721,"stacle":3722,"ä¸İå®īåħ¨":3723,"ä¸İéªĮè¯ģ":3724,"æµ®":3725,"edian":3726,"æł¡éªĮ":3727,"æ¨¡æĿ¿":3728,"æĢ»":3729,"åı¯çĶ¨":3730,"æķ°æį®ç»ĵæŀĦ":3731,"åıĬé¡¹çĽ®":3732,"åıĬä¹ĭ":3733,"ĠARIM":3734,"è§Ĩ":3735,"æĪĲçĨŁ":3736,"ï¼Łå¦Ĥæŀľ":3737,"åıĳçĶŁ":3738,"åıĳç»ĻæĤ¨":3739,"é¢ĳ":3740,"ently":3741,"roduction":3742,"æ¨¡åŀĭè°ĥçĶ¨":3743,"depend":3744,"descent":3745,"å°ļæľª":3746,"andas":3747,"isited":3748,"Ġcor":3749,"ä»Ģä¹Īæĺ¯S":3750,"ä»Ģä¹Īæĺ¯Python":3751,"ä»Ģä¹Īæĺ¯æĸĩæľ¬":3752,"asel":3753,"chain":3754,"chron":3755,"è¿ĩæ»":3756,"åŁºæľ¬":3757,"Ġread":3758,"Ġreference":3759,"Ġredistribution":3760,"æĶ»":3761,"AIåħ¨æłĪå·¥ç¨ĭå¸Ī":3762,"æ³¢":3763,"ĠCSTR":3764,"å¾ĭ":3765,"æľįåĬ¡çļĦæŀ¶æŀĦ":3766,"Ġpath":3767,"Ġform":3768,"Ġflow":3769,"ç»Łä¸Ģ":3770,"å¸¸çĶ¨çļĦ":3771,"å¼Ģåıĳå·¥ç¨ĭå¸Ī":3772,"å»ºè®¾":3773,"éĿĻæĢģ":3774,"ĠPresent":3775,"ĠPandas":3776,"éĽĨåŀĭ":3777,"è°±ç³»":3778,"è¡¨çİ°":3779,"èĥ½åĬĽä¸İ":3780,"ä¸ĬçļĦ":3781,"ä¸ĬéĿ¢":3782,"ĠEvents":3783,"åŃĺåľ¨":3784,"è°ĥæķ´":3785,"Ġmemory":3786,"å¤ļç§į":3787,"rik":3788,"åĻª":3789,"çĽ¸åĲĮ":3790,"å¤ĦçĲĨçļĦ":3791,"Ġbo":3792,"Ġbreak":3793,"uted":3794,"utom":3795,"è®¾å®ļ":3796,"è®¾ç½®":3797,"è®¾å¤ĩ":3798,"igh":3799,"uby":3800,"åı¯ä»¥åľ¨ä¸į":3801,"gress":3802,"èĢĹ":3803,"æľŁå¾ħ":3804,"çº¿ä¸Ĭ":3805,"Ġautom":3806,"åĽŀæº":3807,"agn":3808,"unction":3809,"Ġdetection":3810,"ppend":3811,"Ġtask":3812,"Ġtime":3813,"çŃīåĬŁèĥ½":3814,"æµĭè¯ķéĽĨ":3815,"çŁ©éĺ":3816,"ĠBullMQ":3817,"å¤§å°ı":3818,"æķ´ä¸ª":3819,"æĬĢèĥ½":3820,"éľĢè¦ģæĽ´":3821,"éľĢè¦ģæİĮæı¡":3822,"æĽ´åĬł":3823,"æĽ´éĢĤåĲĪ":3824,"åľ°çĤ¹":3825,"åįķçº¿ç¨ĭ":3826,"æ³¨åħ¥":3827,"ç¡®å®ļ":3828,"æĪĳçĽ®åīį":3829,"åıĤæķ°æĽ´æĸ°":3830,"ĠFCCU":3831,"Ġstrik":3832,"éĢļå¸¸æĮĩ":3833,"udit":3834,"ï¼Įå¹¶ä½¿çĶ¨":3835,"ï¼Įå¹¶éĢļè¿ĩ":3836,"ollow":3837,"æİ¨è¿Ľ":3838,"æİ¨éĢģ":3839,"ibility":3840,"æĻºèĥ½ç³»ç»Ł":3841,"å½ĵåīįä½įç½®":3842,"ĠTransformer":3843,"ualization":3844,"istant":3845,"äººæľº":3846,"éĴĪ":3847,"Ġensure":3848,"READ":3849,"Ġprompt":3850,"Ġprocess":3851,"åĲĳéĩıè¡¨ç¤º":3852,"æ¶Īæģ¯ä¼łéĢĴ":3853,"ĠMountain":3854,"ĠMatplo":3855,"izer":3856,"éķ¿æĹ¶éĹ´":3857,"å²Ĺä½įæııè¿°":3858,"ÂłPython":3859,"Ġansw":3860,"å·²æľī":3861,"åħ¶ä»ĸä»»åĬ¡":3862,"Chain":3863,"æĹłäººæľº":3864,"è¯Ńä¹īæ£Ģç´¢":3865,"è¯Ńä¹īæĲľç´¢":3866,"çĬ¶æĢģç®¡çĲĨ":3867,"åĽłæŃ¤":3868,"åľºæĻ¯çļĦ":3869,"è½¯ä»¶äº¤ä»ĺ":3870,"elsky":3871,"æĬĬç®ĢåİĨ":3872,"ä¼ļè¯Ŀ":3873,"æĿĥå¨ģ":3874,"Ġsecurity":3875,"å¯ĨéĽĨåŀĭ":3876,"åĩĨç¡®":3877,"ä½įç½®ç¼ĸçłģ":3878,"eeper":3879,"outer":3880,"åıįé¦":3881,"çģµæ´»":3882,"å¹¿æ³Ľ":3883,"å¤±è´¥éĺ¶æ®µ":3884,"èī¯å¥½":3885,"gging":3886,"æ¸©åº¦":3887,"äºĮåĪĨç±»":3888,"æĮģä¹ħåĮĸåŃĺåĤ¨":3889,"æ²ŁéĢļèĥ½åĬĽ":3890,"è¾ĵåħ¥ä¸İ":3891,"åŁºç¡Ģèĥ½åĬĽ":3892,"é©¬ä¸Ĭ":3893,"angChain":3894,"æĺ¯åĲ¦æĶ¯æĮģè¿ľç¨ĭåĬŀåħ¬":3895,"Ġreproduc":3896,"æ¯ıæ¬¡":3897,"ĠRouter":3898,"è¿Ĳè¡ĮæĹ¶":3899,"ï¼ĮèĢĮä¸į":3900,"èĭ¥":3901,"ïĤ·Data":3902,"ïĤ·Developed":3903,"ç¨³å®ļçļĦ":3904,"iple":3905,"ĠReview":3906,"å¥ĸåĬ±":3907,"ä»·æł¼":3908,"ï¼Įå¸¸è§ģ":3909,"Tokenizer":3910,"çĿĢ":3911,"åŃĹèĬĤ":3912,"æ¢¯åº¦ä¸ĭéĻį":3913,"shape":3914,"Ġthe":3915,"utions":3916,"å¼Ĥå¸¸æ£Ģæµĭ":3917,"-Sent":3918,"-SHA":3919,"/metrics":3920,"max":3921,"å¯¼èĩ´çļĦ":3922,"è®©æĪĳ":3923,"Ġchat":3924,"tegrated":3925,"Tech":3926,"lane":3927,"ĠHotel":3928,"Ġclue":3929,"Ġfrontier":3930,"è£Ĥ":3931,"ç²¾ç®Ģ":3932,"ãĢģå¼ĤæŃ¥å¤ĦçĲĨ":3933,"ç«ŀäºī":3934,"Ġcomple":3935,"ĠStack":3936,"æ¦ĤçİĩåĪĨå¸ĥ":3937,"own":3938,"Ġseeds":3939,"notification":3940,"éĤ£":3941,"éĤ®ä»¶":3942,"åĲĪå¹¶åĪ°":3943,"éĺħè¯»":3944,"ç¼ĸç¨ĭè¯Ńè¨Ģ":3945,"LoRA":3946,"Loss":3947,"ynchron":3948,"redi":3949,"ĠSecurity":3950,"Ġmultiple":3951,"åģıå·®":3952,"åģľæŃ¢":3953,"æ··åĲĪ":3954,"Ġnotification":3955,"æ³ĽåĮĸèĥ½åĬĽ":3956,"-based":3957,"-drone":3958,"ç¿»":3959,"Ġvalidation":3960,"Ġmessage":3961,"èĩªçĦ¶è¯Ńè¨Ģ":3962,"Ġprojects":3963,"çī¹å®ļä»»åĬ¡":3964,"Ġmaintainability":3965,"Value":3966,"_data":3967,"qui":3968,"æİĴè¡Įæ¦ľ":3969,"Ġtests":3970,"Ġremote":3971,"Ġtrack":3972,"èĻļæĭŁ":3973,"Ġassessment":3974,"ç¬¬ä¸īæĸ¹":3975,"å®ŀè·µç»ıéªĮ":3976,"earer":3977,"vidence":3978,"åĶ¯ä¸Ģ":3979,"æŁĲ":3980,"çļĦç³»ç»ŁæĢ§":3981,"ïĤ·Integrated":3982,"Ġsolutions":3983,"andidates":3984,"éĺ»å¡ŀ":3985,"åģĩè®¾":3986,"ONNX":3987,"åĮ¹éħįåº¦æľĢé«ĺçļĦ":3988,"æļĤæĹ¶":3989,"ï¼Įè¿Ļä¸ªå²Ĺä½įæĺ¯åĲ¦æĶ¯æĮģè¿ľç¨ĭåĬŀåħ¬":3990,"ïĤ·Evaluated":3991,".append":3992,"/angelsky":3993,"IVE":3994,"RRENT":3995,"Zookeeper":3996,"_CURRENT":3997,"ilot":3998,"messages":3999,"åĸĦ":4000,"æĳĺè¦ģ":4001,"éŁ³":4002,"ä¸°å¯Į":4003,"ïĤ·Review":4004,"atsmodels":4005,"ĠARIMA":4006,"aseline":4007,"åĽŀæº¯":4008,"çŁ©éĺµ":4009,"ĠMatplotlib":4010,"æĬĬç®ĢåİĨåıĳç»ĻæĤ¨":4011,"åıįé¦Ī":4012,"ĠHotelling":4013,"/angelskydiver":4014,"#ï¼Į":4015,"%čĊ":4016,"%ãĢģ":4017,"%ï¼Į":4018,"%ï¼Ľ":4019,"%ï¼ī":4020,"&A":4021,"(S":4022,"()ï¼ĽčĊ":4023,"-k":4024,"-s":4025,"-or":4026,"-learn":4027,"-space":4028,"-seed":4029,"-Learn":4030,"..":4031,".du":4032,"/M":4033,"/P":4034,"/b":4035,"/æ¨¡åŀĭ":4036,"/ç±»":4037,"/ä»ĵåºĵ":4038,"/åĽ¢éĺŁ":4039,"/ex":4040,"/é£İéĻ©é¢ĦèŃ¦":4041,"/éĩįå¤į":4042,"/æľºåĻ¨åŃ¦ä¹ł":4043,"/In":4044,"/é¢ĨåŁŁ":4045,"/WGAN":4046,"/Gemini":4047,"/è®¡è´¹":4048,"/final":4049,"/æĹ¶åºı":4050,"/åĽ¢éĺŁç®¡çĲĨ":4051,"/ç§ģ":4052,"/GORMæĮģä¹ħåĮĸ":4053,"/è´¦æĪ·ç®¡çĲĨ":4054,"/èµĦäº§å±ķç¤ºåıĬ":4055,"/YOLO":4056,"=F":4057,"AC":4058,"ASS":4059,"Attention":4060,"BO":4061,"Bitbucketä»£çłģä»ĵåºĵ":4062,"Bearer":4063,"COM":4064,"Claude":4065,"DD":4066,"DR":4067,"De":4068,"Dro":4069,"ED":4070,"ER":4071,"Eureka":4072,"FT":4073,"FIT":4074,"Flyway":4075,"Future":4076,"IF":4077,"IS":4078,"LDPE":4079,"Lay":4080,"Norm":4081,"PM":4082,"Pad":4083,"Pull":4084,"PBKDF":4085,"Ruby":4086,"Swagger":4087,"Server":4088,"Spatiotemporal":4089,"Stripe":4090,"Th":4091,"TypeScript":4092,"Tool":4093,"UL":4094,"USUM":4095,"WS":4096,"WMA":4097,"__":4098,"_m":4099,"_as":4100,"_final":4101,"ai":4102,"bor":4103,"co":4104,"cy":4105,"coun":4106,"cision":4107,"eering":4108,"get":4109,"groun":4110,"hart":4111,"hew":4112,"ius":4113,"ients":4114,"li":4115,"lask":4116,"landing":4117,"ms":4118,"mon":4119,"nq":4120,"niver":4121,"our":4122,"put":4123,"prompt":4124,"production":4125,"rit":4126,"rateg":4127,"sQL":4128,"sity":4129,"ww":4130,"yle":4131,"})čĊ":4132,"¢äºĮ":4133,"£è":4134,"£ģ":4135,"¤å·¥ä½ľ":4136,"¥°":4137,"¥çĶ¨":4138,"¥æľī":4139,"¥æł¼":4140,"§Ľ":4141,"¨é½Ĳ":4142,"©ä½Ļ":4143,"ªī":4144,"ªé©±åĬ¨":4145,"«æĥħ":4146,"¬åĮĸ":4147,"¬åĽŀ":4148,"®éĢļ":4149,"±åĮĸ":4150,"²ģ":4151,"²ç»ıåİĨ":4152,"´åĿ":4153,"µĮ":4154,"¶å°":4155,"¸è¡Įä¸ļ":4156,"¹èĪ":4157,"¼æİ¨è¿Ľ":4158,"½ľ":4159,"¾å°":4160,"¾æŀĦå»º":4161,"¾æ°Ķ":4162,"åµĮ":4163,"æ§Ľ":4164,"æ½ľ":4165,"çĩ":4166,"ç£ģ":4167,"èĤ":4168,"é¥°":4169,"é²ģ":4170,"ĉæľĢé«ĺ":4171,"ĠO":4172,"Ġal":4173,"ĠåĪĨ":4174,"Ġå®ŀçİ°":4175,"ĠæĪĸ":4176,"ĠæŀĦå»º":4177,"ĠâĢ":4178,"Ġç»´":4179,"ĠçĶ¨æĪ·":4180,"Ġend":4181,"Ġè°ĥçĶ¨":4182,"Ġæŀ¶æŀĦ":4183,"Ġå¹³åı°":4184,"ĠçĽĳæİ§":4185,"Ġæį¢":4186,"Ġäº¤äºĴ":4187,"ĠRAG":4188,"Ġè¿ĩç¨ĭ":4189,"Ġæĸ¹æ¡Ī":4190,"ĠåĬŁèĥ½":4191,"ĠæĲ":4192,"Ġæ·±åº¦åŃ¦ä¹ł":4193,"Ġæĺ¯åĲ¦":4194,"Ġæķħéļľæ£Ģæµĭ":4195,"Ġè¶ħ":4196,"ĠJSON":4197,"ĠZustand":4198,"Ġçº¦":4199,"Ġç¡®è®¤":4200,"Ġembedding":4201,"Ġäº§åĵģ":4202,"ĠéĴ±åĮħè¿ŀæİ¥":4203,"ĠXSEC":4204,"Ġåįıä½ľ":4205,"Ġç¬¬":4206,"Ġç©ºéĹ´":4207,"ĠæĹ¶åºı":4208,"Ġå¤ļåħĥ":4209,"Ġå¹´":4210,"ĠåİĤ":4211,"Ġè¿Ľè¡Įæķ°æį®":4212,"Ġå®ŀæĹ¶WebSocketèģĬå¤©åĲİç«¯":4213,"Ġå¾®æľįåĬ¡å¹³åı°":4214,"Ġæķħéļľæ£Ģæµĭä¸İè¯ĬæĸŃ":4215,"Ġå¥Ĺ":4216,"Ġå°ıæĹ¶ä»¥ä¸ĬçļĦåħ¨èģĮæĬķåħ¥":4217,"Ġæ¸©åº¦":4218,"Ģåħ±":4219,"ģæĢ§":4220,"Ĥ¬åĮĸ":4221,"ĥåľ":4222,"ĥæ°Ķ":4223,"Ĩæŀ¶":4224,"ĪåĢ¼":4225,"īçŃī":4226,"Įé²ģ":4227,"İå¸":4228,"ıçİ°æľī":4229,"ĲæĸĻ":4230,"ĳçº¦":4231,"ĳç¿":4232,"ĴåĽ¢":4233,"Ķèĩªæ²»åĮº":4234,"ķå£«":4235,"ķè§ģ":4236,"ĸéĿ¢":4237,"ĺé¡¹çĽ®":4238,"ĺä¹¦":4239,"Ŀæ°Ķ":4240,"łæĭŁåĲĪ":4241,"Ńå»º":4242,"ä¸¥æł¼":4243,"ãĢģc":4244,"ãĢģåıĳ":4245,"ãĢģåį":4246,"ãĢģåľ¨":4247,"ãĢģåīį":4248,"ãĢģä»£":4249,"ãĢģå®ļ":4250,"ãĢģé«ĺ":4251,"ãĢģåĬł":4252,"ãĢģåıĤä¸İ":4253,"ãĢģGo":4254,"ãĢģAPI":4255,"ãĢģå·¥ä¸ļ":4256,"ãĢģUID":4257,"ãĢģè¿ŀæİ¥":4258,"ãĢģå½ĵåīį":4259,"ãĢģè®¤è¯ģ":4260,"ãĢģåĽ¢éĺŁ":4261,"ãĢģWebSocket":4262,"ãĢģæĬ¥åĳĬ":4263,"ãĢģæĸĩæľ¬":4264,"ãĢģè¿ľç¨ĭ":4265,"ãĢģæİ¥åı£":4266,"ãĢģå®ŀæĹ¶":4267,"ãĢģæĸŃ":4268,"ãĢģåıĺéĩı":4269,"ãĢģçĬ¶æĢģ":4270,"ãĢģçĶŁäº§":4271,"ãĢģé£İéĻ©é¢ĦèŃ¦":4272,"ãĢģéĴ±åĮħ":4273,"ãĢģuser":4274,"ãĢģå¾®æľįåĬ¡":4275,"ãĢģçŁ¥è¯Ĩ":4276,"ãĢģæ·±åº¦åŃ¦ä¹ł":4277,"ãĢģè¯·æ±Ĥ":4278,"ãĢģéĵ¾":4279,"ãĢģé¢ĨåŁŁ":4280,"ãĢģæĮī":4281,"ãĢģåĵįåºĶ":4282,"ãĢģfile":4283,"ãĢģREST":4284,"ãĢģGateway":4285,"ãĢģä»£çłģä»ĵåºĵ":4286,"ãĢģDeepSeek":4287,"ãĢģæĮĩæłĩ":4288,"ãĢģGemini":4289,"ãĢģéĴ±åĮħè¿ŀæİ¥":4290,"ãĢģGORM":4291,"ãĢģåıĳå¸ĥ":4292,"ãĢģåĲ¯åĬ¨":4293,"ãĢģèĭ±æĸĩ":4294,"ãĢģå¹¶åıĳ":4295,"ãĢģåı¯éĿłæĢ§":4296,"ãĢģå·¥ä¸ļå®īåħ¨":4297,"ãĢģå·¥ä½ľæµģ":4298,"ãĢģåĽ¢éĺŁç®¡çĲĨ":4299,"ãĢģåīįç«¯é¡µéĿ¢":4300,"ãĢģç»ĵæŀĦåĮĸ":4301,"ãĢģå¹¿æĴŃ":4302,"ãĢģå¤įæĿĤåº¦":4303,"ãĢģRESTful":4304,"ãĢģå°±ç»ªæ£ĢæŁ¥":4305,"ãĢģè§Ĵèī²":4306,"ãĢģæĬĢæľ¯æĸĩæ¡£":4307,"ãĢģauth":4308,"ãĢģActuator":4309,"ãĢģç§ģ":4310,"ãĢģåıĺæĽ´":4311,"ãĢģæĶ¯ä»ĺ":4312,"ãĢģäº¤æĺĵ":4313,"ãĢģç½ĳåħ³":4314,"ãĢģäºĭæķħé¢Ħéĺ²":4315,"ãĢģéľĢæ±ĤçĲĨè§£":4316,"ãĢģçĵ¦æĸ¯æµĵåº¦":4317,"ãĢģç§ĳçłĶé¡¹çĽ®":4318,"ãĢģéĻĲæµģæľºåĪ¶":4319,"ãĢģåĮºåĿĹéĵ¾äº¤äºĴ":4320,"ãĢģç«ŀæĢģ":4321,"ãĢģæıĲç¤ºè¯į":4322,"ãĢģè¯Ńä¹īçº§ä»£çłģ":4323,"ãĢģæĪ¿éĹ´ç®¡çĲĨ":4324,"ãĢģèģļåĲĪçī©è¿ĩç¨ĭ":4325,"ãĢģéĽĨä¸Ńéħįç½®":4326,"ãĢģæĹłæķĪJSON":4327,"ãĢģè´¦æĪ·ç®¡çĲĨ":4328,"ãĢģåīįç«¯çķĮéĿ¢":4329,"ãĢģè¿Ńä»£äº¤ä»ĺ":4330,"ãĢģnp":4331,"ãĢģSQLite":4332,"ãĢģeureka":4333,"ãĢģè®¾å¤ĩ":4334,"ãĢģè¯Ńä¹īæĲľç´¢":4335,"ãĢģæ²ŁéĢļèĥ½åĬĽ":4336,"ãĢģä»·æł¼":4337,"ãĢģå¼Ĥå¸¸æ£Ģæµĭ":4338,"ãĢģnotification":4339,"ãĢģç¬¬ä¸īæĸ¹":4340,"ãĢģZookeeper":4341,"ãĢģçĩ":4342,"åı¦":4343,"åı³":4344,"åıĹ":4345,"åı¬åĽŀ":4346,"ä»¬":4347,"ï¼ĮC":4348,"ï¼ĮAI":4349,"ï¼ĮåĪĨæŀĲ":4350,"ï¼Įæĸĩæ¡£":4351,"ï¼ĮåıĤä¸İ":4352,"ï¼ĮGo":4353,"ï¼ĮSpring":4354,"ï¼ĮSc":4355,"ï¼Įå®ĮæĪĲ":4356,"ï¼Įæī«æıı":4357,"ï¼Įå½±åĵį":4358,"ï¼Įä¸»è¦ģ":4359,"ï¼Įè¯ĨåĪ«":4360,"ï¼ĮCU":4361,"ï¼ĮDeepSeek":4362,"ï¼ĮçłĶç©¶æĸ¹åĲĳ":4363,"ï¼Įåħ·å¤ĩ":4364,"ï¼Įè¿½è¸ª":4365,"ï¼Įå·¥åħ·":4366,"ï¼Įåľ¨ä¸į":4367,"ï¼Įè®Ńç»ĥéĽĨ":4368,"ï¼ĮçĨŁæĤī":4369,"ï¼ĮæıĲåıĸ":4370,"ï¼ĮOpenAI":4371,"ï¼Įå¢ŀå¼º":4372,"ï¼ĮMAT":4373,"ï¼ĮPrompt":4374,"ï¼Įæİ¨åĬ¨":4375,"ï¼Įå½¢æĪĲ":4376,"ï¼ĮæľŁå¾ħ":4377,"ï¼ĮåĽłæŃ¤":4378,"ï¼ĮRuby":4379,"ãĢĤãĢĤ":4380,"ãĢĤç³»ç»Ł":4381,"ãĢĤæĽ":4382,"ãĢĤçĲĨè§£":4383,"ãĢĤèĥ½å¤Ł":4384,"ãĢĤåĲĮæĹ¶":4385,"ãĢĤçĽ®åīį":4386,"æľ¨é½Ĳ":4387,"ines":4388,"çļĦde":4389,"çļĦAI":4390,"çļĦSpring":4391,"çļĦæĸ¹æ³ķ":4392,"çļĦæľ¬åľ°":4393,"çļĦç®ĢåİĨ":4394,"çļĦæ¢¯åº¦":4395,"çļĦå·¥ä¸ļå®īåħ¨":4396,"çļĦèº«ä»½è®¤è¯ģ":4397,"çļĦéĩįè¦ģ":4398,"çļĦå®ŀæĹ¶WebSocketèģĬå¤©åĲİç«¯":4399,"çļĦæµģå¼ıAPI":4400,"çļĦå¾®æľįåĬ¡å¹³åı°":4401,"çļĦéĻĲæµģæľºåĪ¶":4402,"çļĦçĵ¦æĸ¯çĪĨçĤ¸é£İéĻ©é¢ĦèŃ¦çłĶç©¶":4403,"çļĦæĹłæķĪJSON":4404,"çļĦçĶ¨æĪ·ä½ĵéªĮ":4405,"çļĦç»¼åĲĪ":4406,"çļĦè¯Ńä¹īæ£Ģç´¢":4407,"å®ĥ":4408,"å®¤å·¥ä½ľ":4409,"erature":4410,"äº«":4411,"åĲ¾å°":4412,"ïĤ·Web":4413,"ïĤ·å¯¹":4414,"ïĤ·å®īåħ¨":4415,"ïĤ·å¤ĦçĲĨ":4416,"ïĤ·éĢļè¿ĩ":4417,"ïĤ·æıĲåįĩ":4418,"ïĤ·å·¥ä¸ļ":4419,"ïĤ·React":4420,"ïĤ·è¾ĵåĩº":4421,"ïĤ·Transformer":4422,"ïĤ·å®ĮæĪĲ":4423,"ïĤ·æł¹æį®":4424,"ïĤ·é£İéĻ©é¢ĦèŃ¦":4425,"ïĤ·PostgreSQL":4426,"ïĤ·è´Łè´£":4427,"ïĤ·æĹ¶ç©º":4428,"ïĤ·å¼Ģå±ķ":4429,"ïĤ·å·¥ä¸ļäººå·¥æĻºèĥ½":4430,"ïĤ·ä¸ŃåĽ½çŁ³æ²¹":4431,"ïĤ·èĩªæ²»åĮº":4432,"ïĤ·NLP":4433,"ïĤ·ç§¯":4434,"ïĤ·Technical":4435,"ïĤ·Work":4436,"eng":4437,"ensor":4438,"atic":4439,"ï¼ĽéĩıåĮĸ":4440,"ä¹Įé²ģ":4441,"çĽĬ":4442,"reel":4443,"resh":4444,"æĪĺé¡¹çĽ®":4445,"æķ°æĹ¶éĹ´":4446,"æŀģ":4447,"oring":4448,"oriz":4449,"éĢł":4450,"ä¸İå¸¸":4451,"ä¸İé¡¹çĽ®":4452,"ä¸İRedis":4453,"ä¸İéĹ®é¢ĺ":4454,"ä¸İJWT":4455,"ä¸İPostgreSQL":4456,"ä¸İæķħéļľæ£Ģæµĭ":4457,"ä¸İåĽŀçŃĶ":4458,"ä¸İç¼ĵåŃĺ":4459,"ä¸İéĢļçŁ¥":4460,"ä¸İçĪĨçĤ¸é£İéĻ©é¢ĦèŃ¦":4461,"ä¸İçĥŃ":4462,"ä¸İGemini":4463,"ä¸İåı¯éħįç½®":4464,"ä¸İè¿Ĳç»´":4465,"ä¸İçĻ»å½ķ":4466,"ä¸İåıĳå¸ĥ":4467,"ä¸İåĽ¢éĺŁç®¡çĲĨ":4468,"ä¸İå·¥èīº":4469,"ä¸İä¸Ĭçº¿":4470,"ä¸İæ³¨æĦıåĬĽæľºåĪ¶":4471,"ä¸İè¯ģä¹¦":4472,"ä¸İæĶ¯ä»ĺ":4473,"ä¸İå®ŀæĹ¶éĢļä¿¡":4474,"ä¸İä¸ļåĬ¡æľįåĬ¡":4475,"ä¸İGORMæĮģä¹ħåĮĸ":4476,"ä¸İè®¢éĺħ":4477,"ä¸İå¤©çĦ¶":4478,"ä¸İèģĶç³»":4479,"ä¸İBitbucketä»£çłģä»ĵåºĵ":4480,"ä¸İFlyway":4481,"æµªé©±åĬ¨":4482,"èĥ½æºĲ":4483,"ional":4484,"ï¼ļåŁºäºİ":4485,"ï¼ļå®ŀçİ°":4486,"ï¼ļä»ĵåºĵ":4487,"ï¼ļGo":4488,"ï¼ļJava":4489,"ï¼ļReact":4490,"ï¼ļæ·±åº¦åŃ¦ä¹ł":4491,"ï¼ļä»ħ":4492,"ï¼ļçŁ³æ²¹":4493,"ï¼ļä¸įä»ħ":4494,"ï¼ļå·¥èīº":4495,"ï¼ļconfig":4496,"ï¼ļLDPE":4497,"alse":4498,"ä»¥ä¸ĭ":4499,"åĪĨçīĩ":4500,"æĹ§":4501,"åı¯è®Ńç»ĥ":4502,"åı¯åıĺ":4503,"åı¯è¿ŀæİ¥":4504,"åı¯çĭ¬ç«ĭ":4505,"åı¯çĶ¨çļĦ":4506,"åı¯æŃ£å¸¸":4507,"åı¯å®¡è®¡":4508,"æķ°æį®åĴĮ":4509,"æķ°æį®éĽĨ":4510,"æķ°æį®ç®¡çĲĨ":4511,"æķ°æį®éĽĨæĪĲ":4512,"æķ°æį®å»ºç«ĭ":4513,"æķ°æį®æķ´çĲĨ":4514,"æķ°æį®å½Ĵå±ŀ":4515,"æķ°æį®æĻºèĥ½ç³»ç»Ł":4516,"åıĬåŁºäºİ":4517,"åıĬé£İéĻ©":4518,"åıĬçĽ¸åħ³":4519,"åıĬåıĺéĩı":4520,"åıĬåĲĦ":4521,"åıĬæĸĩä»¶åŃĺåĤ¨":4522,"åıĬè·¨":4523,"åıĬæĬĢæľ¯æĸĩæ¡£":4524,"åıĬä¸ļåĬ¡éĢ»è¾ĳ":4525,"åıĬçĽĳæİ§æĸ¹æ¡Ī":4526,"åıĬäºĭæķħé¢Ħéĺ²":4527,"åıĬåĮºåĿĹéĵ¾äº¤äºĴ":4528,"åıĬèĥ½æºĲ":4529,"åıĬæķ°æį®æĻºèĥ½ç³»ç»Ł":4530,"å·¥è´":4531,"å·¥åĨµ":4532,"åŀĥåľ":4533,"æĸĩåĳĺ":4534,"æĸĩå¯Ĩçłģ":4535,"çł´åĿ":4536,"åŀĭåŃĺåĤ¨":4537,"åŀĭåľºæĻ¯":4538,"ĠAss":4539,"ĠApplication":4540,"ä¸įéľĢè¦ģ":4541,"ä¸įè¶³":4542,"ä¸įå¤ª":4543,"äºİè¿ŀæİ¥":4544,"æĪĲä¸º":4545,"åĮĸä¸º":4546,"åĮĸåŃ¦ä¹ł":4547,"åĮĸäº¤äºĴ":4548,"åĮĸä¸İåı¯å¤įçİ°":4549,"å®ŀæĸ½":4550,"å®ŀæĪĺé¡¹çĽ®":4551,"éĻĨ":4552,"éĻ¢äºĮ":4553,"æĹ¶ä»»åĬ¡":4554,"arge":4555,"arget":4556,"ä»Ģä¹ĪéĹ®é¢ĺ":4557,"ä»Ģä¹Īéĥ½":4558,"å¸ģ":4559,"ä¸Ģè¡Į":4560,"ä¸Ģç§į":4561,"æ¨¡åŀĭå¯¹":4562,"æ¨¡åŀĭéĽĨæĪĲ":4563,"Ġsh":4564,"Ġset":4565,"Ġspiral":4566,"Ġsrc":4567,"lease":4568,"åŁİå¸":4569,"åħ¨éĩı":4570,"åħ¨æµģç¨ĭ":4571,"éĩıè®¾å®ļ":4572,"ise":4573,"Ġcat":4574,"Ġcollision":4575,"çĽ®å½ķ":4576,"ä»Ģä¹Īæĺ¯R":4577,"mperature":4578,"å¼Ģæ¸ħçĲĨ":4579,"æĢ§åĴĮ":4580,"æĢ§ä¸İéĥ¨ç½²":4581,"åĩ»":4582,"ä¸Ńä½į":4583,"ä¸ŃçŃī":4584,"ä¸Ńè¿Ľè¡Į":4585,"ä¸Ńè¢«":4586,"ä¸Ńå¼ķåħ¥":4587,"ebook":4588,"åĲİéĿ¢":4589,"åĲİæľŁ":4590,"log":4591,"çĶŁå¥ĸåŃ¦éĩĳ":4592,"çĶŁåŃ¦ä¸ļå¥ĸåŃ¦éĩĳ":4593,"ç½ķè§ģ":4594,"ases":4595,"ç³»æķ°":4596,"åĪ¶åŃĺåĤ¨":4597,"åĪ¶åħ¨æłĪ":4598,"åŃ¦ä½į":4599,"è¿ĩå¤§":4600,"åŁºéĩĳ":4601,"ä»¥åıĬå·¥ç¨ĭ":4602,"ä»¥åıĬDocker":4603,"ä»¥åıĬGo":4604,"ä»¥åıĬåĽ¢éĺŁ":4605,"ä»¥åıĬæ¶Īæģ¯":4606,"ä»¥åıĬåīįç«¯":4607,"ä»¥åıĬå¤±è´¥":4608,"ä»¥åıĬæľ¬åľ°":4609,"ä»¥åıĬjob":4610,"ä»¥åıĬåĮºåĿĹéĵ¾":4611,"ä»¥åıĬå·¥ä¸ļäººå·¥æĻºèĥ½":4612,"ä»¥åıĬæĪ¿éĹ´":4613,"ä»¥åıĬWebhook":4614,"ä»¥åıĬAIçĶŁæĪĲ":4615,"ä»¥åıĬå¤§è¯Ńè¨Ģæ¨¡åŀĭ":4616,"ä»¥åıĬè®¿éĹ®æİ§åĪ¶":4617,"ä»¥åıĬæĿ¥èĩª":4618,"ä»¥åıĬç¨³å®ļçļĦ":4619,"ä»¥åıĬåĲİæľŁ":4620,"éĹ´éĢļä¿¡":4621,"Ġres":4622,"Ġretri":4623,"Ġreduc":4624,"æİ¥åĲİç«¯":4625,"ä¸ªæľįåĬ¡çļĦæŀ¶æŀĦ":4626,"æıĲäº¤":4627,"åĲĪçĲĨ":4628,"ç«¯åĪ°":4629,"ç«¯Java":4630,"ç«¯çĤ¹":4631,"åī©ä½Ļ":4632,"åīĸéĿ¢":4633,"æľ¬èº«":4634,"æľīè·¯çĶ±":4635,"åħ³èģĶ":4636,"åľ¨ä½İ":4637,"åľ¨LLM":4638,"åľ¨ç½ĳ":4639,"åľ¨åĲİç«¯æŀ¶æŀĦ":4640,"åľ¨æĸ°çĸĨå¤§åŃ¦":4641,"åľ¨äºİè¿ŀæİ¥":4642,"AIç³»ç»Ł":4643,"AIå¤ĦçĲĨ":4644,"AIæĸĩæ¡£":4645,"AIåĽŀçŃĶ":4646,"AIä»£çłģåĪĨæŀĲ":4647,"AIæĥ³":4648,"AIåºĶçĶ¨å¼Ģåıĳ":4649,"AIåħ¼å®¹":4650,"AIçļĦå®Įæķ´":4651,"AIé©±åĬ¨çļĦ":4652,"AIä¸İå·¥ç¨ĭ":4653,"æīĳç¿":4654,"æĭĽ":4655,"æĭ¥æľī":4656,"æ£Ģåĩº":4657,"æ£Ģçİĩ":4658,"etro":4659,"etry":4660,"éĺĪåĢ¼":4661,"æĿĲæĸĻ":4662,"ĠSCI":4663,"ĠStripe":4664,"ĠSize":4665,"ĠShew":4666,"ĠCI":4667,"ĠComp":4668,"ĠCET":4669,"åºĵå¼Ģåıĳ":4670,"åºĵéĹ®çŃĶ":4671,"æľįåĬ¡è¿Ľè¡Į":4672,"æľįåĬ¡çĽ´æİ¥":4673,"æľįåĬ¡åĲ¯åĬ¨":4674,"æľįåĬ¡çĭ¬ç«ĭçļĦ":4675,"æľįåĬ¡éĹ´éĢļä¿¡":4676,"Ġpgvector":4677,"Ġplan":4678,"Ġpages":4679,"Ġpract":4680,"Ġpredi":4681,"ä½¿çĶ¨æİ§åĪ¶":4682,"ç§°":4683,"ç§Ģåħ±":4684,"ç§ĺä¹¦":4685,"åĪĨæŀĲçłĶç©¶":4686,"åĪĨæŀĲåı¯è§ĨåĮĸ":4687,"åĪĨæŀĲæĪĲæŀľ":4688,"åĪĨæŀĲæºĲä»£çłģ":4689,"åĪĨæŀĲçļĦçĶ¨æĪ·ä½ĵéªĮ":4690,"Ġfail":4691,"Ġfollow":4692,"ä½ľåĵģ":4693,"é¡¹æ³¢":4694,"å¼Ģåıĳæµģç¨ĭ":4695,"å¼Ģåıĳæ¨¡å¼ı":4696,"å»ºè¡¨":4697,"ç©¿":4698,"éĿĴåĽ¢":4699,"ĠPro":4700,"ĠPrisma":4701,"ĠPath":4702,"å¹¶åŃĺåĤ¨":4703,"å¹¶ä¿ĿæĬ¤":4704,"åİħ":4705,"é¢ĦæľŁ":4706,"ç®¡æĬ¥åĳĬçĶŁæĪĲ":4707,"é¡¹çĽ®ä¸Ń":4708,"é¡¹çĽ®æĹ¶éĹ´":4709,"é¡¹çĽ®éľĢæ±Ĥ":4710,"é¡¹çĽ®ç»ıåİĨ":4711,"é¡¹çĽ®æııè¿°":4712,"é¡¹çĽ®è§Ĵèī²":4713,"å¯¹æ¯Ķ":4714,"å¯¹æīĢæľī":4715,"å¯¹å®īåħ¨çĽĳç®¡":4716,"å¯¹æİ¥åĲİç«¯":4717,"å®ļä»·":4718,"å®īåħ¨è®¾è®¡":4719,"å®īåħ¨å·¥ä½ľ":4720,"å®īåħ¨åľºæĻ¯":4721,"å®īåħ¨çĽĳæµĭ":4722,"å®īåħ¨åŁºçº¿":4723,"å®īåħ¨æķıæĦŁ":4724,"èĥ½åĬĽæıĲåįĩ":4725,"èĥ½åĬĽè½¬":4726,"èĥ½åĬĽç»ĦåĲĪ":4727,"Ġindepend":4728,"æĸ°çĶŁå¥ĸåŃ¦éĩĳ":4729,"åĲĳåŀĭåľºæĻ¯":4730,"éĥ¨å¤©æ´¥":4731,"éĥ¨éĹ¨":4732,"ä¸Ĭäº¤äºĴ":4733,"ä¸ĬèĪ":4734,"æ¡Ĩæŀ¶":4735,"åĬ¨æīĳç¿":4736,"åŃ¦ä¹łçİĩ":4737,"åŃ¦ä¹łåĨħå®¹":4738,"ä»£çłģå®ŀçİ°":4739,"ä»£çłģå½±åĵį":4740,"ä»£çłģä¸Ĭä¸ĭæĸĩ":4741,"ä»£çłģæ¦Ĥ":4742,"ä»£çłģæł¼å¼ı":4743,"ä»£çłģå¼ķçĶ¨":4744,"ĠEureka":4745,"ç®¡çĲĨæĸĩæ¡£":4746,"æĻ®éĢļ":4747,"èģĺ":4748,"åħ¥ä¸İæ³¨æĦıåĬĽæľºåĪ¶":4749,"ç»ıå¸¸":4750,"è°ĥåº¦":4751,"è°ĥè¯ķ":4752,"ä½įæİ§åĪ¶":4753,"ä½įæııè¿°":4754,"Ġme":4755,"Ġmod":4756,"éĩįæī«":4757,"æİ§ä½ĵç³»":4758,"å·¥ç¨ĭæĬ¥åĳĬ":4759,"å·¥ç¨ĭè´¨éĩı":4760,"å·¥ç¨ĭå·¥åħ·":4761,"å·¥ç¨ĭæĬ¥åĳĬçĶŁæĪĲ":4762,"å·¥ç¨ĭæĸ¹éĿ¢":4763,"å·¥ç¨ĭæĢĿç»´":4764,"å·¥ç¨ĭåľºæĻ¯çļĦ":4765,"åŁºäºİRedis":4766,"åŁºäºİJWT":4767,"åŁºäºİKafka":4768,"åŁºäºİWGAN":4769,"åŁºäºİBullMQ":4770,"åŁºäºİServer":4771,"Recall":4772,"å¤ļæľº":4773,"å¤ļéĺ¶æ®µ":4774,"å¤ļæĹ¶éĹ´åºıåĪĹ":4775,"å¤ļå®ŀä¾ĭ":4776,"å¼ıUI":4777,"æłĩé¡¹çĽ®":4778,"æłĩæ³¨":4779,"æłĩè¯Ĩ":4780,"ĠAIé©±åĬ¨":4781,"ç¡ķå£«":4782,"è®Ńç»ĥçĽ®æłĩ":4783,"è®Ńç»ĥLoss":4784,"è¿ĽåĪ¶åŃĺåĤ¨":4785,"çĶ¨äºİèģĬå¤©åİĨåı²":4786,"ç³»ç»Łè¿Ĳè¡Į":4787,"ç³»ç»ŁæĦıè¯Ĩ":4788,"ç³»ç»Łå»ºè®¾":4789,"ç³»ç»Łå®īåħ¨åŁºçº¿":4790,"riv":4791,"Ġdi":4792,"å®ŀçİ°è®¤è¯ģ":4793,"å®ŀçİ°æĮĩæłĩ":4794,"å®ŀçİ°æľįåĬ¡åıĳçİ°":4795,"å®ŀçİ°éĽĨä¸Ńéħįç½®":4796,"å®ŀçİ°æľįåĬ¡éĹ´éĢļä¿¡":4797,"actual":4798,"éľĢæĸĩä»¶":4799,"å¤ĦçĲĨæĸ¹å¼ı":4800,"å¤ĦçĲĨä»¥åıĬåŁºäºİ":4801,"åĻ¨ç»ĵåŀ¢":4802,"éĿ¢çļĦç³»ç»ŁæĢ§":4803,"é£İéĻ©æİ§åĪ¶":4804,"é£İéĻ©å¹¶ä¿ĿæĬ¤":4805,"Ġbase":4806,"Ġbound":4807,"Ġbaseline":4808,"æĸĩä»¶æĸĩæ¡£":4809,"æĸĩä»¶åĨħå®¹":4810,"æĸĩä»¶ç±»åŀĭ":4811,"æĸĩä»¶æķ´çĲĨ":4812,"æĸĩä»¶éĩįæī«":4813,"çłĶç©¶é¡¹çĽ®":4814,"çłĶç©¶æīĢ":4815,"çłĶç©¶çĶŁåŃ¦ä¸ļå¥ĸåŃ¦éĩĳ":4816,"éħįé¢Ŀ":4817,"separation":4818,"è¯Ńæ³ķ":4819,"çĶŁæĪĲåĻ¨":4820,"çĶŁæĪĲåĽ¢éĺŁ":4821,"çĶŁæĪĲembedding":4822,"ments":4823,"æĪ·åı¯ä»¥":4824,"æĪĸå¯¹æİ¥åĲİç«¯":4825,"ï¼īæĸĩæ¡£":4826,"ï¼īåºĶçĶ¨":4827,"ï¼īä½ĵç³»":4828,"ï¼īçļĦæµģå¼ıAPI":4829,"ï¼īä»¥åıĬæĿ¥èĩª":4830,"add":4831,"ader":4832,"adius":4833,"ular":4834,"åıĺæį¢":4835,"æĽĿæ°Ķ":4836,"ï¼Īçİ¯å¢ĥ":4837,"ï¼ĪLLM":4838,"ï¼ĪHTTP":4839,"ï¼ĪDexifier":4840,"ï¼Īä¸ªäºº":4841,"ï¼Īä¸Ńæĸĩæł¸å¿ĥæľŁåĪĬ":4842,"ï¼Īæķħéļľæ£Ģæµĭä¸İè¯ĬæĸŃ":4843,"ï¼Īç´¯è®¡":4844,"ï¼Īproduction":4845,"ï¼ĪæĽĿæ°Ķ":4846,"RedisçĬ¶æĢģ":4847,"Redisåħ¼å®¹":4848,"ubrics":4849,"åĲİç«¯éĢ»è¾ĳ":4850,"åĲİç«¯è¿Ľç¨ĭ":4851,"åĲİç«¯å·¥ç¨ĭèĥ½åĬĽ":4852,"é«ĺäºİ":4853,"é«ĺçº§":4854,"arty":4855,"åĩºä¿¡æģ¯":4856,"ĠAPIçļĦde":4857,"çº¿æĢ§":4858,"çº¿æ²ŁéĢļ":4859,"åĮħæĭ¬React":4860,"åĮħæĭ¬å·¥ä¸ļäººå·¥æĻºèĥ½":4861,"åĽŀæĶ¶":4862,"äº¤æį¢":4863,"æ±ĤèģĮ":4864,"æŁ¥èĥ½åĬĽ":4865,"Ġdepth":4866,"åĬłæĿĥ":4867,"åĬłåĽº":4868,"IDä¸ŃéĹ´ä»¶":4869,"åĨħå®¡":4870,"è·Ŀ":4871,"Ġter":4872,"ä¼ĺç§Ģåħ±":4873,"çĽ¸åħ³çļĦ":4874,"çĽ¸åħ³æµģç¨ĭ":4875,"çĽ¸åħ³é¢ĨåŁŁçŁ¥è¯Ĩ":4876,"çĽ¸åħ³ä»£çłģä¸Ĭä¸ĭæĸĩ":4877,"çĽ¸åħ³åĲİç«¯éĢ»è¾ĳ":4878,"åĲĮåĪ¶åħ¨æłĪ":4879,"çŃīæµģç¨ĭ":4880,"otion":4881,"otebook":4882,"æµĭè¯ķç»ıéªĮ":4883,"ĠBO":4884,"ĠBenchmark":4885,"æľĢæĸ°":4886,"æľĢå¤§":4887,"å¤§è§Ħæ¨¡":4888,"Ġexp":4889,"Ġevidence":4890,"æĸĩæ¡£èĥ½åĬĽ":4891,"æĸĩæ¡£çĶŁæĪĲ":4892,"æĸĩæ¡£æµıè§ĪåĻ¨":4893,"ãĢģPull":4894,"ãĢģPHP":4895,"æķ°æį®åºĵè¿ģç§»":4896,"æķ°æį®åºĵä¸İç¼ĵåŃĺ":4897,"çĤīçŃī":4898,"æĶ¯æĮģä»¥åıĬåĲİæľŁ":4899,"Dockerfile":4900,"åºĶçĶ¨æľįåĬ¡":4901,"åºĶçĶ¨åĬŁèĥ½":4902,"åºĶçĶ¨å·¥ç¨ĭæĸ¹éĿ¢":4903,"æŀĦå»ºDocker":4904,"æŀĦå»ºè°ĥçĶ¨":4905,"æŀĦå»ºå®ŀæĹ¶":4906,"æŀĦå»ºä¸İéĥ¨ç½²":4907,"æŀĦå»ºHikaflow":4908,"æŀĦå»ºRelayGO":4909,"å¥ĳçº¦":4910,"Ġweb":4911,"ä»ĵåºĵæĸĩæ¡£":4912,"ä»ĵåºĵæī«æıı":4913,"ä»ĵåºĵæ³¨åĨĮ":4914,"ä»ĵåºĵåĪĨæŀĲçļĦçĶ¨æĪ·ä½ĵéªĮ":4915,"åįķæ¨¡åĿĹ":4916,"GoåĲİç«¯å¼Ģåıĳ":4917,"GoçļĦå®ŀæĹ¶WebSocketèģĬå¤©åĲİç«¯":4918,"è¿Ļå²Ĺä½į":4919,"æıĲåįĩè®¤è¯ģ":4920,"æıĲåįĩå¤įæĿĤ":4921,"æıĲåįĩåı¯éĿłæĢ§":4922,"æıĲåįĩç³»ç»Łè¿Ĳè¡Į":4923,"è®¾è®¡å®Įæķ´":4924,"äºĨå¯¹":4925,"äºĨè§£":4926,"äºĨæľįåĬ¡è¾¹çķĮ":4927,"äºĨåĽ´ç»ķ":4928,"äºĨå®īåħ¨çĽĳæµĭ":4929,"æµģç¨ĭä¸İJWT":4930,"æİ§åĪ¶éĶģ":4931,"æİ§åĪ¶ä¸İåıĳå¸ĥ":4932,"æĬĢæľ¯æĬĢèĥ½":4933,"åĪ°ä¸įåĲĮ":4934,"åĪ°å¤ļåħĥ":4935,"å·®å¼Ĥ":4936,"éĹ®é¢ĺåıĬ":4937,"ï¼ĮåĮħæĭ¬åĽ¢éĺŁ":4938,"ï¼ĮåĮħæĭ¬WebSocket":4939,"ï¼ĮåĮħæĭ¬éĴ±åĮħ":4940,"ï¼ĮåĮħæĭ¬DeepSeek":4941,"ï¼ĮåĮħæĭ¬éĴ±åĮħè¿ŀæİ¥":4942,"ï¼ĮåĮħæĭ¬çĻ»å½ķ":4943,"ï¼ĮåĮħæĭ¬å®¢æĪ·ç«¯":4944,"ï¼ĮåĮħæĭ¬auth":4945,"ï¼ĮåĮħæĭ¬éľĢæ±ĤçĲĨè§£":4946,"ï¼ĮåĮħæĭ¬ä¼ļè¯Ŀ":4947,"ï¼ĮåĮħæĭ¬ä»£çłģæ¦Ĥ":4948,"ï¼ĮåĮħæĭ¬ä»ĵåºĵæ³¨åĨĮ":4949,"åıĤæķ°é«ĺæķĪ":4950,"ĠFAR":4951,"ĠFuture":4952,"ĠFastAPI":4953,"ĠFDD":4954,"ĠFlask":4955,"Ġstatsmodels":4956,"Ġsteering":4957,"æ³ķä»İ":4958,"æ³ķèĥ½åĬĽæıĲåįĩ":4959,"APIéĽĨæĪĲ":4960,"APIè°ĥçĶ¨":4961,"APIç½ĳåħ³":4962,"APIè®¿éĹ®æİ§åĪ¶":4963,"ç»´åĲ¾å°":4964,"æŃ¥éª":4965,"æŃ¥æİ¨çĲĨ":4966,"çĶ¨æĪ·æķ°æį®":4967,"çĶ¨æĪ·æ³¨åĨĮ":4968,"çĶ¨æĪ·çļĦWebSocketæ¶Īæģ¯":4969,"å·¥ä¸ļåľºæĻ¯":4970,"å·¥ä¸ļè¿ĩç¨ĭ":4971,"å·¥ä¸ļè¿Ĳè¡Į":4972,"å·¥ä¸ļæķ°æį®éĽĨ":4973,"æ£Ģç´¢ç»ĵæŀľ":4974,"æ£Ģç´¢è´¨éĩı":4975,"éªĮè¯ģèĥ½åĬĽ":4976,"ĠNormalization":4977,"ĠNotebook":4978,"ï¼Įå¹¶æıĲä¾Ľ":4979,"ï¼Įå¹¶ä¿®å¤į":4980,"ï¼Įå¹¶ä¿Ŀè¯ģ":4981,"ï¼Įå¹¶çĶŁæĪĲåĽ¢éĺŁ":4982,"ï¼Įå¹¶æŀĦå»ºDocker":4983,"åħĪç¡®è®¤ä¸Ģä¸ĭ":4984,"éĽĨæĪĲèĥ½åĬĽ":4985,"éĽĨæĪĲåı¯ç»´æĬ¤æĢ§":4986,"æ¶Īéĺ²":4987,"olla":4988,"ç®Ģä»ĭ":4989,"ä¸»è¯·æ±Ĥ":4990,"ä¸»åĬ¨æīĳç¿":4991,"å·¥ä½ľç»ıåİĨ":4992,"JWTæľºåĪ¶":4993,"JWTå¯ĨéĴ¥ä¸İ":4994,"çº§æķħéļľ":4995,"çº§å·¥ç¨ĭæĬ¥åĳĬ":4996,"åħĥç»Ħ":4997,"ïĤ·åıĤä¸İå¹¿":4998,"ïĤ·åıĤä¸İçŁ³æ²¹":4999,"ïĤ·åıĤä¸İå¤©æ´¥":5000,"ïĤ·åıĤä¸İå·¥èīº":5001,"ïĤ·åıĤä¸İåĽ½å®¶":5002,"ïĤ·åıĤä¸İè½¯ä»¶äº¤ä»ĺ":5003,"ïĤ·åıĤä¸İå·¥è´":5004,"ïĤ·åıĤä¸İè°ĥè¯ķ":5005,"åĽ¾è¯ĬæĸŃ":5006,"éĻĲé¢ĦèŃ¦":5007,"éĻĲäºİç®Ģåįķ":5008,"é¢Ħæµĭå¹³åı°":5009,"é¢ĦæµĭæĢ§èĥ½":5010,"æĻºèĥ½åĮĸ":5011,"æĻºèĥ½åĨ³çŃĸ":5012,"è¿ŀæİ¥åĪ°ä¸įåĲĮ":5013,"å½ĵåīįçĬ¶æĢģ":5014,"ï¼Įä¸įå±Ģ":5015,"è®¤è¯ģçļĦWebSocket":5016,"è®¤è¯ģä¸İå®ŀæĹ¶éĢļä¿¡":5017,"è®¤è¯ģç³»ç»Łå®īåħ¨åŁºçº¿":5018,"åĽ¢éĺŁåįıä½ľ":5019,"åĽ¢éĺŁå¼Ģå±ķ":5020,"å°ĨæĮģä¹ħåĮĸ":5021,"å°ĨAIæĥ³":5022,"çİ¯å¢ĥåıĺéĩı":5023,"çİ¯å¢ĥä¹ĭéĹ´çļĦ":5024,"çİ¯å¢ĥåı¯å¤įçİ°":5025,"çİ¯å¢ĥæķ°æį®çļĦ":5026,"pout":5027,"è¯Ħå®¡":5028,"ïĤ·ä½¿çĶ¨Go":5029,"ïĤ·ä½¿çĶ¨Spring":5030,"ïĤ·ä½¿çĶ¨PostgreSQL":5031,"ïĤ·ä½¿çĶ¨Zustand":5032,"ïĤ·ä½¿çĶ¨OpenFeign":5033,"ïĤ·ä½¿çĶ¨Eureka":5034,"ïĤ·ä½¿çĶ¨å¤ļéĺ¶æ®µ":5035,"æĺİæĸĩå¯Ĩçłģ":5036,"è¿Ľè¡Įåīįç«¯":5037,"åı¯è§ģæĢ§":5038,"WebSocketå®¢æĪ·ç«¯ä¸İ":5039,"Reactåīįç«¯é¡µéĿ¢":5040,"LLMéĽĨæĪĲèĥ½åĬĽ":5041,"åŃĺåĤ¨èģĮè´£":5042,"SEæİ¥åı£":5043,"SEæµģå¼ıAPI":5044,"äººç±»":5045,"äººåĪĹè¡¨":5046,"è°ĥçĶ¨æµģç¨ĭ":5047,"è¦ĨçĽĸNode":5048,"è¯įåħĥ":5049,"è§Ħå¾ĭ":5050,"é¢ĦèŃ¦åıĬèĥ½æºĲ":5051,"ä»İä¸´æĹ¶":5052,"ä»İåįķåıĺéĩı":5053,"åĲĳéĩıæķ°æį®åºĵ":5054,"éĥ¨ç½²å®īåħ¨æĢ§":5055,"éĥ¨ç½²ä¸İè¿Ĳç»´":5056,"éĥ¨ç½²éªĮè¯ģèĥ½åĬĽ":5057,"æ·±åħ¥":5058,"oftmax":5059,"å°ıåŀĭ":5060,"çĽ®æłĩè¾ĵåĩº":5061,"çĽ®æłĩåľ°åĽ¾":5062,"ä¿¡æģ¯ç¡¬ç¼ĸçłģ":5063,"æ¶Īæģ¯å½Ĵå±ŀ":5064,"æ¶Īæģ¯ä»¥åıĬæĪ¿éĹ´":5065,"æĬ¥åĳĬé¡¹çĽ®":5066,"ird":5067,"lace":5068,"ĠMetaMask":5069,"ĠMDR":5070,"æĮĩå®ļ":5071,"æĮĩéĴĪ":5072,"èģĮä½įæııè¿°":5073,"æıĲä¾Ľç»Ļ":5074,"ized":5075,"è¯»åįļå£«":5076,"è¿ľç¨ĭè½¯ä»¶å¼Ģåıĳ":5077,"è¿ľç¨ĭåĲĪä½ľ":5078,"æİ¥åı£çļĦéĻĲæµģæľºåĪ¶":5079,"æ¡Īä¾ĭ":5080,"ä¾Ŀèµĸprompt":5081,"ä¾Ŀèµĸæ£Ģç´¢è´¨éĩı":5082,"éķ¿ç§ĺä¹¦":5083,"Ġimpact":5084,"çĲĨè§£è½¯ä»¶ç³»ç»Ł":5085,"å®ŀæĹ¶æ¶Īæģ¯ä¼łéĢĴ":5086,"å®ŀæĹ¶AIå¤ĦçĲĨ":5087,"å®ŀæĹ¶åĲİç«¯å·¥ç¨ĭèĥ½åĬĽ":5088,"å°±ç»ĻæĪĳ":5089,"åħ¨æłĪé¡¹çĽ®":5090,"åħ¨æłĪä¸ļåĬ¡":5091,"åħ¨æłĪäº¤ä»ĺ":5092,"omposeéªĮè¯ģ":5093,"ÂłReact":5094,"Âłæķ°æį®åĪĨæŀĲ":5095,"æ¬łæĭŁåĲĪ":5096,"Ġannotation":5097,"è¾ĥé«ĺ":5098,"è¾ĥä½İ":5099,"è¾ĥå¼º":5100,"ä¸ŃçļĦç«ŀæĢģ":5101,"ä¸ŃçļĦGoåĲİç«¯å¼Ģåıĳ":5102,"ç»ıéªĮä¸°å¯Į":5103,"çĽĳæİ§æ¨¡åŀĭ":5104,"çĽĳæİ§æĢ§èĥ½":5105,"çĽĳæİ§ä¸İæķħéļľæ£Ģæµĭ":5106,"åħ¶ä»ĸç§ĳçłĶé¡¹çĽ®":5107,"ssue":5108,"åĮºåĪĨ":5109,"åĮºè®ºæĸĩ":5110,"èĥ½å¤ŁçĲĨè§£è½¯ä»¶ç³»ç»Ł":5111,"æĹłçĽĳçĿ£åŃ¦ä¹ł":5112,"å°ĳéĩı":5113,"éĺ²æİ§ä½ĵç³»":5114,"ç»ĵæŀĦè®¾è®¡":5115,"å®ĮæĪĲæķħéļľæ£Ģæµĭ":5116,"å®ĮæĪĲæķ°æį®æİ¥åħ¥":5117,"éļľç¢":5118,"çĬ¶æĢģè¿½è¸ª":5119,"ãĢģDockeræŀĦå»º":5120,"ãĢģDockerfile":5121,"ãĢģDockerä»¥åıĬWebSocket":5122,"ĠBootå¾®æľįåĬ¡":5123,"ĠBootçļĦå¾®æľįåĬ¡å¹³åı°":5124,"ï¼Įä½¿æľįåĬ¡è¾¹çķĮ":5125,"ï¼Įä½¿ä¸ļåĬ¡æľįåĬ¡":5126,"åĽłåŃĲ":5127,"ç§ĳéĻ¢äºĮ":5128,"äº¤äºĴéĹ®é¢ĺ":5129,"ç»Ļåĩº":5130,"è®¿éĹ®æĹ¥å¿Ĺ":5131,"æİĴçīĪ":5132,"æİĴæŁ¥èĥ½åĬĽ":5133,"å¯¼åĲĳåŀĭåľºæĻ¯":5134,"çĶŁäº§å°±ç»ª":5135,"çĶŁäº§çļĦSpring":5136,"çĶŁäº§ä¸İå·¥èīº":5137,"ĠComposeçİ¯å¢ĥ":5138,"ĠComposeåģ¥åº·æ£ĢæŁ¥":5139,"ĠComposeéħįç½®ä»¥åıĬ":5140,"è½¯ä»¶æŀ¶æŀĦ":5141,"è½¯ä»¶äº§åĵģ":5142,"elie":5143,"æ»¥çĶ¨":5144,"Ġna":5145,"Ġno":5146,"ä¼ļè®®":5147,"æĸ¹åĲĳéĢĤçĶ¨äºİ":5148,"è¿ĩç¨ĭçĽĳæİ§":5149,"è¿ĩç¨ĭå¼Ĥå¸¸":5150,"å±Ĥçº§":5151,"å±Ĥç½ĳç»ľ":5152,"å±ĤéĿ¢çļĦç³»ç»ŁæĢ§":5153,"éĢ»è¾ĳä¸İéĢļçŁ¥":5154,"Ġgovernor":5155,"Ġhuman":5156,"Ġhigh":5157,"äºĭå®ŀ":5158,"æĺ¯ä¸Ģæ¬¡":5159,"åįıè®®":5160,"Ġseparation":5161,"æĢ§èĥ½è¯Ħä¼°":5162,"æĢ§èĥ½çłĶç©¶é¡¹çĽ®":5163,"assistant":5164,"åĮħåĲ«åĵªäºĽæĸĩä»¶":5165,"åĮħåĲ«åħ«":5166,"çĽĳæµĭçĽĳç®¡":5167,"çĽĳæµĭæķ°æį®åĪĨæŀĲ":5168,"ç±»åŀĭæıĲç¤º":5169,"éĴ±åĮħçļĦèº«ä»½è®¤è¯ģ":5170,"éĴ±åĮħäº¤äºĴéĹ®é¢ĺ":5171,"ĠçļĦé£İéĻ©è¯Ħä¼°":5172,"ĠçļĦå¼Ģåıĳæ¨¡å¼ı":5173,"æł¸å¿ĥä»·åĢ¼":5174,"æł¸å¿ĥä½ľçĶ¨":5175,"æ¨¡åĿĹåı¯çĭ¬ç«ĭ":5176,"overage":5177,"ãĢģToken":5178,"éĩĬæĶ¾":5179,"èĩ³åı¯å®¡è®¡":5180,"æī§æ³ķèĥ½åĬĽæıĲåįĩ":5181,"GitHubä¸İBitbucketä»£çłģä»ĵåºĵ":5182,"ĠDeepSeek":5183,"ĠDexifier":5184,"ãĢģECharts":5185,"ãĢģEthers":5186,"ãĢģExpress":5187,"ãĢģEWMA":5188,"ãĢģSPE":5189,"ãĢģStripe":5190,"ãĢģSSEæµģå¼ıAPI":5191,"æµģå¼ıAIåĽŀçŃĶ":5192,"å¾®æľįåĬ¡éĽĨæĪĲåı¯ç»´æĬ¤æĢ§":5193,"GPT":5194,"ï¼ĮæĶ¯æĮģåı¯éħįç½®":5195,"ï¼ĮæĶ¯æĮģéĺ²æĬ¤":5196,"ï¼ĮæĶ¯æĮģæĸĩä»¶åħĥæķ°æį®":5197,"ï¼ĮæĶ¯æĮģè¯Ńä¹īçº§ä»£çłģ":5198,"ï¼ĮæĶ¯æĮģå¤ļç§į":5199,"ï¼ĮæĶ¯æĮģåħ¨éĩı":5200,"äºĮåıī":5201,"äºĮè¿ĽåĪ¶åŃĺåĤ¨":5202,"è¿ģç§»æī§è¡Į":5203,"è¿ģç§»èĩ³PostgreSQL":5204,"è¿ģç§»èĩ³åı¯å®¡è®¡":5205,"å®ŀéªĮä¸İä»¿çľŁ":5206,"å½±åĵįåĪĨæŀĲä»¥åıĬ":5207,"çľĭåĪ°":5208,"æ¯Ķä¸įåĲĮ":5209,"åı¯è§ĨåĮĸä»ªè¡¨çĽĺ":5210,"åı¯è§ĨåĮĸåºĵå¼Ģåıĳ":5211,"åı¯è§ĨåĮĸåĪĨæŀĲæĪĲæŀľ":5212,"æĮģä¹ħåĮĸä¸İåı¯éħįç½®":5213,"æ²ŁéĢļåıĬçĶŁäº§":5214,"-style":5215,"Ġradius":5216,"ãĢģFlyway":5217,"ãĢģFCCU":5218,"ãĢģFastAPI":5219,"ï¼Įä»¥æıĲé«ĺ":5220,"ï¼Įä»¥æıĲåįĩå¤įæĿĤ":5221,"Ġscikit":5222,"å¤ļä¸ªè¿ľç¨ĭè½¯ä»¶å¼Ģåıĳ":5223,"ä¸»è¦ģå·¥ä½ľ":5224,"ä¸»è¦ģåŃ¦ä¹łåĨħå®¹":5225,"Ġlocal":5226,"ãĢģCSTR":5227,"ãĢģCUSUM":5228,"ãĢģComposeéªĮè¯ģ":5229,"ï¼ĮçĶ¨äºİä»£çłģä»ĵåºĵ":5230,"ï¼ĮçĶ¨äºİçĶ¨æĪ·æķ°æį®":5231,"ï¼ĮçĶ¨äºİå®ŀæĹ¶AIå¤ĦçĲĨ":5232,"Ġreplan":5233,"ĠCloudä»¥åıĬGo":5234,"ç»Łè®¡çĽĳæİ§ä¸İæķħéļľæ£Ģæµĭ":5235,"ç»Łè®¡è¿ĩç¨ĭçĽĳæİ§":5236,"åĵģç®¡çĲĨ":5237,"èģĬå¤©æķ°æį®":5238,"HTTPS":5239,"gramm":5240,"ãĢģRedisä¸İPostgreSQL":5241,"ï¼Įè¦ĨçĽĸçĶ¨æĪ·":5242,"ï¼Įè¦ĨçĽĸå®īåħ¨æĢ§":5243,"ï¼Įè¦ĨçĽĸåĲİç«¯æľįåĬ¡":5244,"ï¼Įè¦ĨçĽĸä»£çłģæł¼å¼ı":5245,"ï¼Įè¦ĨçĽĸAPIç½ĳåħ³":5246,"ï¼Įè¦ĨçĽĸä»İåįķåıĺéĩı":5247,"ïĤ·å®ŀçİ°çĻ»å½ķ":5248,"ïĤ·å®ŀçİ°ç»Ħç»ĩ":5249,"ïĤ·å®ŀçİ°è¯Ńä¹īçº§":5250,"ïĤ·å®ŀçİ°ç»ıè¿ĩ":5251,"ïĤ·å®ŀçİ°çĶ¨æĪ·æ³¨åĨĮ":5252,"ïĤ·å®ŀçİ°GitHubä¸İBitbucketä»£çłģä»ĵåºĵ":5253,"ïĤ·çłĶç©¶æĪĲæŀľ":5254,"ïĤ·çłĶç©¶å¤ļæĹ¶éĹ´åºıåĪĹ":5255,"ïĤ·çłĶç©¶æĸ¹åĲĳéĢĤçĶ¨äºİ":5256,"ïĤ·æŀĦå»ºPR":5257,"ïĤ·æŀĦå»ºåįķåıĺéĩı":5258,"ïĤ·æŀĦå»ºæĸĩä»¶åŃĺåĤ¨æľįåĬ¡":5259,"ïĤ·æŀĦå»ºåŁºäºİBullMQ":5260,"åŃĲè¯į":5261,"åºĶæĢ¥ä¸ĵ":5262,"æ°Ķå·¥ç¨ĭ":5263,"Ġä¸ªåı¯å¤įçİ°":5264,"Ġä¸ªæ½ľ":5265,"ãĢģæķ°æį®åĪĨæŀĲ":5266,"ãĢģæķ°æį®ä¿ĿæĬ¤":5267,"ãĢģæķ°æį®åĪĨæŀĲä»¥åıĬ":5268,"ãĢģæķ°æį®åı¯è§ĨåĮĸä»ªè¡¨çĽĺ":5269,"ãĢģå®īåħ¨æ£ĢæŁ¥":5270,"ãĢģå®īåħ¨é£İéĻ©æİ§åĪ¶":5271,"ãĢģå®īåħ¨åĬłåĽº":5272,"ä»ħæŀĦå»ºè°ĥçĶ¨":5273,"åĨĻåħ¥":5274,"ä¸įåĲĮçģ«çģ¾":5275,"é¢ĨåŁŁéĢ»è¾ĳä¸İéĢļçŁ¥":5276,"å»ºç«ĭæķ°æį®å½Ĵå±ŀ":5277,"çĦ¶åĲİ":5278,"ä¸Ĭä¸ĭæĸĩçªĹåı£":5279,"acy":5280,"apfill":5281,"ĠLanguage":5282,"ãĢģMetaMask":5283,"åĬŀæĸĩåĳĺ":5284,"å¼ºåĮĸåŃ¦ä¹ł":5285,"åĬ¨æĢģåħ³ç³»":5286,"åĳĺè¯ģä¹¦":5287,"èĩªåĬ¨å»ºè¡¨":5288,"/SSEæİ¥åı£":5289,"æľ¬åľ°ä¸İéĥ¨ç½²":5290,"æľ¬åľ°åĲ¯åĬ¨":5291,"è®°å½ķåıĬä¸ļåĬ¡éĢ»è¾ĳ":5292,"çľŁå®ŀå·¥ä¸ļæķ°æį®éĽĨ":5293,"å®¢æĪ·åıĬé¡¹çĽ®":5294,"ç¥¨":5295,"ï¼Įå®ŀçİ°åĲĳéĩıæ£Ģç´¢":5296,"ï¼Įå®ŀçİ°çīĪæľ¬":5297,"ï¼Įå®ŀçİ°ç»ĵåŀ¢":5298,"ï¼Įå®ŀçİ°ä¸ĢéĶ®":5299,"ï¼Įå®ŀçİ°è¿ĩç¨ĭå¼Ĥå¸¸":5300,"ï¼ĮæıĲåįĩéķ¿æĹ¶éĹ´":5301,"ï¼ĮæıĲåįĩæľįåĬ¡åĲ¯åĬ¨":5302,"ï¼ĮæıĲåįĩçİ¯å¢ĥåı¯å¤įçİ°":5303,"ï¼ĮæıĲåįĩéĥ¨ç½²å®īåħ¨æĢ§":5304,"ï¼ĮæıĲåįĩæľ¬åľ°ä¸İéĥ¨ç½²":5305,"ïĤ·PyTorch":5306,"ïĤ·åŁºäºİSpring":5307,"ïĤ·åŁºäºİç®Ĺæ³ķ":5308,"ïĤ·åŁºäºİæĹ¶ç©º":5309,"ïĤ·è®¾è®¡åĲĦ":5310,"ïĤ·è®¾è®¡AIä»£çłģåĪĨæŀĲ":5311,"ïĤ·è®¾è®¡åŁºäºİRedis":5312,"åı¯å¤įçĶ¨çļĦ":5313,"ä¸įèĥ½çĽ´æİ¥":5314,"éĢļçŁ¥æµģç¨ĭ":5315,"éĢļçŁ¥åĬŁèĥ½":5316,"ä½ľä¸ºåħ¨æłĪAI":5317,"ä½ľä¸ºç»Łä¸Ģ":5318,"ä»£çłģä»ĵåºĵéĹ®çŃĶç³»ç»Ł":5319,"è¶ħåıĤæķ°":5320,"è¶ħè¶Ĭ":5321,"è¯ĨåĪ«åıĬæĬĢæľ¯æĸĩæ¡£":5322,"è·¯å¾ĦçĶ¨äºİèģĬå¤©åİĨåı²":5323,"é©±åĬ¨éħįç½®ä»¥åıĬ":5324,"åºĶæĢ¥ç®¡çĲĨåİħ":5325,"Ġusage":5326,"ãĢģæķ°æį®åºĵç»ĵæŀĦè®¾è®¡":5327,"ïĤ·å¼ĢåıĳåŁºäºİServer":5328,"ïĤ·å¼ĢåıĳæĪĸå¯¹æİ¥åĲİç«¯":5329,"ïĤ·å¼ĢåıĳReactåīįç«¯é¡µéĿ¢":5330,"readcrumb":5331,"åŃĹåħ¸":5332,"æĸ¹å·®è§£éĩĬ":5333,"å»ºæ¨¡ä¸İä»¿çľŁ":5334,"å»ºæ¨¡ä»¥åıĬå¤§è¯Ńè¨Ģæ¨¡åŀĭ":5335,"èģĶåĲĪ":5336,"èģĶç½ĳ":5337,"ĠdAppå¼Ģåıĳç»ıéªĮ":5338,"Ġaccess":5339,"Ġthird":5340,"ä¸¤åı¥":5341,"éĹ®çŃĶä»¥åıĬåĽ¢éĺŁ":5342,"åıĺåĮĸä¸İçĪĨçĤ¸é£İéĻ©é¢ĦèŃ¦":5343,"ä¿®å¤įä»¥åıĬAIçĶŁæĪĲ":5344,"ç§ĳçłĶç»ıåİĨ":5345,"åĬŀåħ¬å²Ĺä½į":5346,"åĬŀåħ¬å®¤å·¥ä½ľ":5347,"ATS":5348,"DeepSeekä¸İGemini":5349,"curacy":5350,"lative":5351,"pgvectorçļĦè¯Ńä¹īæ£Ģç´¢":5352,"ï¼ĮåĮħåĲ«Redis":5353,"ï¼ĮåĮħåĲ«PostgreSQL":5354,"ï¼ĮåĮħåĲ«Gateway":5355,"ï¼ĮåĮħåĲ«å®ļä»·":5356,"ïĤ·Cont":5357,"ïĤ·CET":5358,"çŃ¾åıĳ":5359,"âĢĿãĢĤčĊ":5360,"æĮĩæłĩæİ¥åı£":5361,"å¤ĸéĥ¨çŁ¥è¯Ĩ":5362,"å¤ĸéĥ¨åħ¥åı£":5363,"è®ºæĸĩåıĳè¡¨":5364,"çĥŃæļ´éľ²":5365,"çĥŃåĻ¨ç»ĵåŀ¢":5366,"çĥŃçĤīçŃī":5367,"åįļå£«çłĶç©¶çĶŁåŃ¦ä¸ļå¥ĸåŃ¦éĩĳ":5368,"æĹ¥å¿Ĺè®°å½ķ":5369,"-TransformerçļĦçĵ¦æĸ¯çĪĨçĤ¸é£İéĻ©é¢ĦèŃ¦çłĶç©¶":5370,"âīĪ":5371,"çĸ«æĥħ":5372,"ãĢģAIéĹ®çŃĶ":5373,"ãĢģé£İéĻ©åĪĨå¸ĥ":5374,"ãĢģé£İéĻ©è¯ĨåĪ«åıĬæĬĢæľ¯æĸĩæ¡£":5375,"ãĢģçĶ¨æĪ·ç®¡çĲĨ":5376,"ãĢģçĶ¨æĪ·ä»ªè¡¨çĽĺ":5377,"ãĢģçĶ¨æĪ·èµĦäº§å±ķç¤ºåıĬ":5378,"ãĢģæµģå¼ıåĵįåºĶ":5379,"ï¼Įä¸ºçĶ¨æĪ·":5380,"ï¼Įä¸ºå¤ļå®ŀä¾ĭ":5381,"ä¸İéĥ¨ç½²åı¯éħįç½®":5382,"åı¯éħįç½®è¿ĩæľŁæĹ¶éĹ´":5383,"icroser":5384,"è®¡è´¹ä¸İè®¢éĺħ":5385,"æłĩåĩĨå·®":5386,"Ġbackgroun":5387,"åĽŀå½ĴçĽĳæİ§æ¨¡åŀĭ":5388,"äº§åĵģå·¥ç¨ĭèĥ½åĬĽ":5389,"æİ§åĪ¶åĽ¾çĽĳæİ§":5390,"æİ§åĪ¶åĽ¾åĪ°å¤ļåħĥ":5391,"åħ·å¤ĩå®Įæķ´çļĦ":5392,"åħ·å¤ĩè¾ĥå¼º":5393,"è¯»åıĸè·¯å¾ĦçļĦæĥħåĨµä¸ĭ":5394,"çŁ³åĮĸå®īåħ¨":5395,"çŁ³åĮĸåħ¬åı¸":5396,"å¯Ĩçłģæł¡éªĮ":5397,"ä¸Ģèĩ´æĢ§éĹ®é¢ĺåıĬ":5398,"ä¸Ģèĩ´æĢ§ä¸İéĥ¨ç½²åı¯éħįç½®":5399,"/Subå¹¿æĴŃ":5400,"/SubçļĦWebSocketæ¶Īæģ¯":5401,"è¿½è¸ªä»¥åıĬåŁºäºİ":5402,"åı¯è§ĤæµĭæĢ§ä¸İéĹ®é¢ĺ":5403,"Temperature":5404,"ĠHikaflow":5405,"ĠUniver":5406,"ãĢģåĲİç«¯æŀ¶æŀĦ":5407,"ãĢģåĲİç«¯æľįåĬ¡ä»¥åıĬ":5408,"ï¼ĮéĢļè¿ĩçĶŁæĪĲembedding":5409,"ï¼Įè¿Ļæĺ¯ä¸Ģä¸ª":5410,"åĪĩæį¢":5411,"åĲĦæ¨¡åĿĹåı¯çĭ¬ç«ĭ":5412,"Ġclients":5413,"èģļç±»":5414,"/OpenAIåħ¼å®¹":5415,"ARL":5416,"ARCH":5417,"ãĢģæĸĩä»¶æķ´çĲĨ":5418,"ãĢģæĸĩä»¶ä¸Ĭä¼ł":5419,"ãĢģæĸĩä»¶æĸĩæ¡£æµıè§ĪåĻ¨":5420,"åıĳå¸ĥäºĭä»¶":5421,"æĶ¶çĽĬ":5422,"ç²¾ç¡®":5423,"é¡ºåºıæİ§åĪ¶":5424,"/Fiber":5425,"/Flyway":5426,"ING":5427,"INAL":5428,"NestJSåĲİç«¯æŀ¶æŀĦ":5429,"ãĢģå¼ĤæŃ¥äºĭä»¶":5430,"ãĢģå¼ĤæŃ¥ä»»åĬ¡å¤ĦçĲĨ":5431,"ä»įæľī":5432,"ä»įåı¯æŃ£å¸¸":5433,"å¹¶åıĳæİ§åĪ¶éĶģ":5434,"å¿«çļĦ":5435,"äºĭä»¶å¤ĦçĲĨä»¥åıĬåŁºäºİ":5436,"Ġlogin":5437,"Ġlogic":5438,"CIå·¥ä½ľæµģ":5439,"ake":5440,"ĠçĽ¸åħ³å¼Ģåıĳ":5441,"ĠçĽ¸åħ³ä¸ļåĬ¡éĢ»è¾ĳ":5442,"ĠçĽ¸åħ³åºĶçĶ¨åĬŁèĥ½":5443,"ĠGatewayä½ľä¸ºç»Łä¸Ģ":5444,"ãĢģä½¿çĶ¨æĹ¥å¿Ĺ":5445,"ãĢģä»ĵåºĵç®¡çĲĨ":5446,"ãĢģä»ĵåºĵæī«æıı":5447,"ãĢģä»ĵåºĵç»ĳå®ļ":5448,"ãĢģéĥ¨ç½²æĸĩæ¡£":5449,"ãĢģéĥ¨ç½²ä»¥åıĬè¿Ĳç»´":5450,"ãĢģéĥ¨ç½²æĶ¯æĮģä»¥åıĬåĲİæľŁ":5451,"ãĢģä»ªè¡¨çĽĺå¼Ģåıĳ":5452,"ãĢģä»ªè¡¨çĽĺå±ķç¤º":5453,"ï¼ĮåŁºäºİæ®ĭå·®":5454,"ï¼ĮåŁºäºİDeepSeekä¸İGemini":5455,"ï¼ĮçĶŁæĪĲç»ĵæŀĦåĮĸ":5456,"ï¼ĮçĶŁæĪĲAIæĸĩæ¡£":5457,"ï¼Įæ¶īåıĬ":5458,"ï¼ĮéĻįä½İèĩªçĽ¸åħ³":5459,"ï¼ĮéĻįä½İå®ŀæĹ¶æ¶Īæģ¯ä¼łéĢĴ":5460,"ï¼ĮéĻįä½İæ»¥çĶ¨":5461,"ïĤ·EHS":5462,"ïĤ·Spatiotemporal":5463,"ïĤ·æ·»åĬłSpring":5464,"ïĤ·æ·»åĬłåģ¥åº·æ£ĢæŁ¥":5465,"ïĤ·æ·»åĬłRedisåħ¼å®¹":5466,"æĺ¾åŃĺ":5467,"ç¨ĭåºıä¼ĺåĮĸ":5468,"ä¸įä»ħå±ķç¤ºäºĨ":5469,"ä¸įä»ħä¾Ŀèµĸprompt":5470,"æĹ¶åºıèĩªçĽ¸åħ³":5471,"æĹ¶ç©ºé¢ĦæµĭçłĶç©¶":5472,"å¼Ģå±ķç©ºæ°Ķè´¨éĩı":5473,"ä»¥åıĬåŁºäºİçĶ¨æĪ·çļĦWebSocketæ¶Īæģ¯":5474,"ä»¥åıĬè¿Ĳç»´åĨħå®¹":5475,"ä»¥åıĬè¿Ĳç»´åı¯è§ĤæµĭæĢ§":5476,"Ġrequests":5477,"åħ³éĶ®è¯į":5478,"åħ³éĶ®èģĬå¤©åİĨåı²":5479,"å·¥ç¨ĭèĥ½åĬĽçļĦæł¸å¿ĥ":5480,"æłĩçŃ¾çļĦæķ°æį®":5481,"éĿ¢åĲĳåĮĸå·¥":5482,"éĿ¢åĲĳçĶŁäº§çļĦSpring":5483,"Ġtokenä¸ŃéĹ´ä»¶":5484,"ĠtokençŃ¾åıĳ":5485,"ä½ĵçİ°äºĨåĽ´ç»ķ":5486,"ãĢģPRåĪĨæŀĲ":5487,"ãĢģPRæĬ¥åĳĬ":5488,"ãĢģPRæķ°æį®å¤ĦçĲĨ":5489,"å·¥ä¸ļå®īåħ¨çĽĳæµĭ":5490,"æĥ³åħĪç¡®è®¤ä¸Ģä¸ĭ":5491,"æĬ¥åĳĬçĶŁæĪĲæµģç¨ĭ":5492,"å¹¿æĴŃåŁºç¡Ģèĥ½åĬĽ":5493,"åĿĩåĢ¼æ¼Ĥç§»":5494,"ïĤ·çłĶç©¶çĶŁåĽ½å®¶":5495,"ïĤ·çłĶç©¶çĶŁåŃ¦ä¸ļå¥ĸåŃ¦éĩĳ":5496,"ïĤ·çłĶç©¶çĶŁæĸ°çĶŁå¥ĸåŃ¦éĩĳ":5497,"æķħéļľæ£Ģæµĭä¸İè´¡çĮ®":5498,"èĩªåĬ¨åĮĸèĦļæľ¬":5499,"ãĢģæµģå¼ıAIåĵįåºĶçĶŁæĪĲ":5500,"ãĢģæµģå¼ıAIåĵįåºĶè¾ĵåĩº":5501,"ĠåıįåºĶåĻ¨ä¿ĿçķĻ":5502,"ä¸ŃåĽ½çŁ³æ²¹çļĦå·¥ä¸ļå®īåħ¨":5503,"ä¸ŃåĽ½çŁ³æ²¹ä¹Įé²ģ":5504,"æĸ°çĸĨç»´åĲ¾å°":5505,"çħ¤çŁ¿çĵ¦æĸ¯æµĵåº¦":5506,"-userä»¥åıĬjob":5507,"Ġæ¨¡åŀĭè°ĥçĶ¨":5508,"Ġasynchron":5509,"åħ±äº«":5510,"ïĤ·éĽĨæĪĲStripe":5511,"ïĤ·éĽĨæĪĲåŁºäºİKafka":5512,"è§ĪçĶŁæĪĲ":5513,"Ġcoverage":5514,"çīĩæ®µ":5515,"ï¼Įå¹¶æĶ¯æĮģéĥ¨ç½²ä¸İè¿Ĳç»´":5516,"ï¼Įå¹¶æĶ¯æĮģæµģå¼ıAIåĽŀçŃĶ":5517,"æ¯Ķè¾ĥçģµæ´»":5518,"-storageè°ĥçĶ¨æµģç¨ĭ":5519,"ï¼ĮèĢĮæĺ¯è®¾è®¡å®Įæķ´":5520,"æĻºæħ§åŁİå¸":5521,"-party":5522,"/Bitbucketä»£çłģä»ĵåºĵ":5523,"tokenå¯ĨéĴ¥ä¸İ":5524,"ĠçŃīæķ°æį®åºĵ":5525,"ĠçŃīåı¯è§ĨåĮĸåºĵå¼Ģåıĳ":5526,"ä¸´æĹ¶åĬŀåħ¬å²Ĺä½į":5527,"ãĢģæ¨¡åŀĭè®Ńç»ĥ":5528,"ãĢģæ¨¡åŀĭè°ĥåº¦":5529,"ï¼Įåĩıå°ĳåĨħéĥ¨":5530,"ï¼Įåĩıå°ĳç¡¬ç¼ĸçłģ":5531,"ĠSearch":5532,"æľįåĬ¡åĻ¨ä¹ĭéĹ´":5533,"åĪĨæŀĲä¸İæĬ¥åĳĬçĶŁæĪĲæµģç¨ĭ":5534,"å®ļä½įåıĬçĽĳæİ§æĸ¹æ¡Ī":5535,"ç´¯äºĨå®īåħ¨çĽĳæµĭ":5536,"Ġmulti":5537,"åģıå¥½":5538,"å®¹åĻ¨åĮĸ":5539,"ç»Ħä»¶å®ŀçİ°æĮĩæłĩ":5540,"å¦Ĥä½ķçĲĨè§£":5541,"ï¼Įä½¿æ¨¡åŀĭèĥ½å¤Ł":5542,"åįıè°ĥèĥ½åĬĽ":5543,"åįıè°ĥåıĬçĽ¸åħ³":5544,"/OpenAPIæĸĩæ¡£":5545,"/TypeScript":5546,"swarm":5547,"Ġissu":5548,"Ġä¸Ńç§ĳéĻ¢äºĮ":5549,"Ġobstacle":5550,"ä¸ĵä¸ļ":5551,"ãĢģLDPE":5552,"ãĢģLinux":5553,"ï¼Įå°Ĩæĸĩä»¶åħĥæķ°æį®":5554,"ï¼Įå°Ĩåħ³éĶ®èģĬå¤©åİĨåı²":5555,"ï¼Įèĥ½å¤Łå®ĮæĪĲæķ°æį®æİ¥åħ¥":5556,"ï¼ĮæıĲé«ĺå·¥ç¨ĭè´¨éĩı":5557,"ï¼ĮæıĲé«ĺè®¤è¯ģç³»ç»Łå®īåħ¨åŁºçº¿":5558,"ï¼Įè¿ĺä¾Ŀèµĸæ£Ģç´¢è´¨éĩı":5559,"ï¼Įè¿ĺä½ĵçİ°äºĨåĽ´ç»ķ":5560,"éĹ¨æ§Ľ":5561,"å®ŀä¾ĭå¹¿æĴŃåŁºç¡Ģèĥ½åĬĽ":5562,"é¢Ŀå¤ĸ":5563,"æĸ¹éĿ¢åħ·å¤ĩè¾ĥå¼º":5564,"è´¡çĮ®å®ļä½įåıĬçĽĳæİ§æĸ¹æ¡Ī":5565,"Ġmessages":5566,"èĩªçĦ¶ç§ĳåŃ¦":5567,"éĢĤçĶ¨äºİæĻºæħ§åŁİå¸":5568,"éĺ²æĬ¤åĪĨæŀĲçłĶç©¶":5569,"çĶŁäº§çº§AIç³»ç»Ł":5570,"çĶŁäº§çº§ç³»ç»ŁæĦıè¯Ĩ":5571,"è½¯ä»¶å¼Ģåıĳç»ıåİĨ":5572,"æĬķéĢĴè®°å½ķ":5573,"æĬķéĢĴçļĦè§£":5574,"æī©å±ķæıĲä¾ĽåŁºç¡Ģ":5575,"æįŁå¤±åĩ½æķ°":5576,"/EChartsé£İæł¼":5577,"/CD":5578,"/AIæ¨¡åŀĭè°ĥçĶ¨":5579,"/å¯¼åħ¥":5580,"/å¯¼åĩºä¿¡æģ¯":5581,"/æ³¨åĨĮæİ¥åı£çļĦéĻĲæµģæľºåĪ¶":5582,"/å°±ç»ªæ£ĢæŁ¥ç«¯çĤ¹":5583,"Actuatoråģ¥åº·æ£ĢæŁ¥":5584,"èį£è":5585,"ĠIssue":5586,"Ġå¼ĢåıĳåĲİç«¯æľįåĬ¡":5587,"Ġåħ¨æłĪåºĶçĶ¨":5588,"Ġç»Łè®¡å»ºæ¨¡":5589,"Ġç»Łè®¡éĩıè®¾å®ļ":5590,"ãĢĭï¼Į":5591,"ãĢģä»£çłģè¯¦":5592,"ãĢģä»£çłģæĸĩæ¡£çĶŁæĪĲ":5593,"ãĢģåŁºäºİéĴ±åĮħçļĦèº«ä»½è®¤è¯ģ":5594,"ãĢģåŁºäºİpgvectorçļĦè¯Ńä¹īæ£Ģç´¢":5595,"ãĢģå¤ļåľ°çĤ¹":5596,"ãĢģå¤ļå®ŀä¾ĭå¹¿æĴŃåŁºç¡Ģèĥ½åĬĽ":5597,"ãĢģçİ¯å¢ĥçĽĳæµĭ":5598,"ãĢģçİ¯å¢ĥé©±åĬ¨éħįç½®ä»¥åıĬ":5599,"ãĢģæ¶Īæģ¯æĮģä¹ħåĮĸåŃĺåĤ¨":5600,"ãĢģæ¶Īæģ¯ä»¥åıĬæ¶Īæģ¯":5601,"ãĢģæī«æııè¿Ľåº¦":5602,"ãĢģæī«æııçĬ¶æĢģè¿½è¸ª":5603,"ãĢģå½±åĵįåĪĨæŀĲ":5604,"ãĢģå½±åĵįè¶ĭåĬ¿":5605,"ãĢģåģ¥åº·ä¸İå®īåħ¨":5606,"ãĢģéĢļçŁ¥æľįåĬ¡ä»¥åıĬ":5607,"ãĢģéĢļçŁ¥åıĬæĸĩä»¶åŃĺåĤ¨":5608,"ãĢģåºĶæĢ¥ç®¡çĲĨåıĬé£İéĻ©":5609,"ãĢģè®¡è´¹ç³»ç»Ł":5610,"ãĢģè®¡è´¹ä»¥åıĬWebhook":5611,"ãĢģembeddings":5612,"ãĢģembeddingçĶŁæĪĲ":5613,"ãĢģçŁ³åĮĸå®īåħ¨":5614,"ãĢģçŁ³åĮĸçŃīæµģç¨ĭ":5615,"ãĢģåı¯è§ĤæµĭæĢ§ä»¥åıĬç¨³å®ļçļĦ":5616,"ãĢģæĹ¶éĹ´åºıåĪĹé¢Ħæµĭå¹³åı°":5617,"ãĢģæĹ¶éĹ´åºıåĪĹå»ºæ¨¡ä»¥åıĬå¤§è¯Ńè¨Ģæ¨¡åŀĭ":5618,"ãĢģcommitåħ³èģĶ":5619,"ãĢģcommitè¿½è¸ªä»¥åıĬåŁºäºİ":5620,"ãĢģåĲİåı°éĺŁåĪĹ":5621,"ãĢģåĲİåı°ä»»åĬ¡å¤ĦçĲĨ":5622,"ï¼Įå¯¹æ¯Ķä¸įåĲĮ":5623,"ï¼ĮçłĶç©¶ä¸įåĲĮçģ«çģ¾":5624,"ï¼ĮçłĶç©¶çħ¤çŁ¿çĵ¦æĸ¯æµĵåº¦":5625,"ï¼Įå±ķç¤ºç«¯åĪ°":5626,"ï¼Įå±ķç¤ºåľ¨ä½İ":5627,"ï¼ĮæĬĢæľ¯æłĪåĮħæĭ¬React":5628,"ï¼ĮæĬĢæľ¯æłĪè¦ĨçĽĸNode":5629,"ï¼Įä½ĵçİ°äºĨæľįåĬ¡è¾¹çķĮ":5630,"ï¼Įä½ĵçİ°è¶ħè¶Ĭ":5631,"ï¼ĮéĩĩçĶ¨JWTæľºåĪ¶":5632,"ï¼ĮéĩĩçĶ¨çİ¯å¢ĥåıĺéĩı":5633,"çļĦå®Įæķ´æµģç¨ĭ":5634,"çļĦå¼ĤæŃ¥ä»ĵåºĵæī«æıı":5635,"çļĦå¼ĤæŃ¥éĢļçŁ¥æµģç¨ĭ":5636,"è¯¦ç»Ĩ":5637,"ïĤ·åľ¨WebSocketå®¢æĪ·ç«¯ä¸İ":5638,"ïĤ·åľ¨çĸ«æĥħ":5639,"ïĤ·å»ºç«ĭçŁ³åĮĸå®īåħ¨":5640,"ïĤ·ç¼ĸåĨĻçĶŁäº§å°±ç»ª":5641,"ïĤ·ç¼ĸåĨĻCIå·¥ä½ľæµģ":5642,"ïĤ·å¼ķåħ¥SQLè¿ģç§»":5643,"ïĤ·å¼ķåħ¥PBKDF":5644,"ïĤ·åıĳè¡¨ä¸Ńæĸĩæł¸å¿ĥæľŁåĪĬ":5645,"atures":5646,"ä¸İåı¯å¤įçİ°éĽĨæĪĲæµĭè¯ķ":5647,"æµ·å¤ĸ":5648,"æµ·ä¸ĬèĪ":5649,"åĪĨåıĳæľºåĪ¶":5650,"åĪĨåıĳæµĭè¯ķ":5651,"æ¨¡æĭŁçłĶç©¶":5652,"æ¨¡æĭŁä¸İçĥŃ":5653,"åıĬçĶŁäº§æķ°æį®ç®¡çĲĨ":5654,"ĠAgentå·¥ä½ľæµģ":5655,"ĠAgentåºĶçĶ¨å¼Ģåıĳ":5656,"åĮĸå·¥çĶŁäº§ä¸İå·¥èīº":5657,"ä»¥åıĬWebSocketåĪĨåıĳæµĭè¯ķ":5658,"WebhookçļĦåĪĨæŀĲ":5659,"ä¸ªäººç®Ģä»ĭ":5660,"AIçĶŁæĪĲçļĦæĹłæķĪJSON":5661,"ĠConfigå®ŀçİ°éĽĨä¸Ńéħįç½®":5662,"åıĤèĢĥå¹³åı°":5663,"å¹¶æıĲåįĩAPIè®¿éĹ®æİ§åĪ¶":5664,"å¹¶æıĲåįĩå¾®æľįåĬ¡éĽĨæĪĲåı¯ç»´æĬ¤æĢ§":5665,"åİĤåĬŀæĸĩåĳĺ":5666,"å®īåħ¨çĽĳç®¡æī§æ³ķèĥ½åĬĽæıĲåįĩ":5667,"è¿Ľåº¦æİ¨éĢģ":5668,"é£İéĻ©è¯Ħä¼°èĥ½åĬĽ":5669,"ï¼īåĪĨæŀĲä½ĵç³»":5670,"ï¼īåĪĨæŀĲæ¨¡æĿ¿":5671,"åıĺæĽ´ç®¡çĲĨ":5672,"ï¼ĪSSE":5673,"ï¼ĪSPM":5674,"äº¤æĺĵçĽ¸åħ³æµģç¨ĭ":5675,"éĽĨæĪĲæµĭè¯ķä»¥åıĬWebSocketåĪĨåıĳæµĭè¯ķ":5676,"ïĤ·åıĤä¸İåºĶæĢ¥ç®¡çĲĨéĥ¨å¤©æ´¥":5677,"ïĤ·åıĤä¸İåºĶæĢ¥ç®¡çĲĨæĸĩä»¶æķ´çĲĨ":5678,"å±ķç¤ºäºĨå®ŀæĹ¶åĲİç«¯å·¥ç¨ĭèĥ½åĬĽ":5679,"å®ŀæĹ¶éĢļä¿¡æ¨¡å¼ı":5680,"åħ¨æłĪAIä»£çłģæĻºèĥ½å¹³åı°":5681,"äº¤äºĴæµģç¨ĭéĹ®é¢ĺ":5682,"åľºæĻ¯ä¸ĭçļĦæ£Ģåĩº":5683,"åľºæĻ¯ä¸ĭçļĦçĥŃæļ´éľ²":5684,"ĠComposeä»¥åıĬSQLè¿ģç§»":5685,"ĠComposeä»¥åıĬActuatoråģ¥åº·æ£ĢæŁ¥":5686,"æ®ĭå·®è¿ŀæİ¥":5687,"Ġgeneration":5688,"è¯¯æĬ¥é£İéĻ©":5689,"è¯¯æĬ¥çİĩ":5690,"ïĤ·æŀĦå»ºäºĨä¸Ģä¸ªéĿ¢åĲĳçĶŁäº§çļĦSpring":5691,"ïĤ·æŀĦå»ºäºĨä¸Ģä¸ªåħ¨æłĪAIä»£çłģæĻºèĥ½å¹³åı°":5692,"Ġä¸ªä¸»æĪĲåĪĨè§£éĩĬ":5693,"ãĢģå®īåħ¨çĽĳæµĭåıĬäºĭæķħé¢Ħéĺ²":5694,"ĠRequestè¯Ħå®¡":5695,"ïĤ·è®¾è®¡äºĨæ¨¡åĿĹåĮĸ":5696,"ïĤ·è®¾è®¡äºĨåĮħåĲ«åħ«":5697,"è·¯å¾ĦçļĦæĥħåĨµä¸ĭåıĳå¸ĥäºĭä»¶":5698,"é©±åĬ¨çļĦJWTå¯ĨéĴ¥ä¸İ":5699,"ĠåºĶçĶ¨å¼ĢåıĳæıĲä¾ĽåŁºç¡Ģ":5700,"æķĪæŀľè¯Ħä¼°æĬ¥åĳĬé¡¹çĽ®":5701,"æ¼ıæ£Ģçİĩ":5702,"ãĢģAIä»£çłģåĪĨæŀĲæıĲç¤ºè¯į":5703,"å¯ĨçłģåĵĪå¸Įä¸İå¸¸":5704,"çģ«çģ¾æ¨¡æĭŁçłĶç©¶":5705,"è£ħé¥°":5706,"éĢĲæŃ¥è¿ģç§»èĩ³PostgreSQL":5707,"ãĢģä½¿çĶ¨éĩıæĹ¥å¿Ĺ":5708,"ãĢģä½¿çĶ¨éĩıè¿½è¸ª":5709,"ï¼Įæ¶µçĽĸAIåºĶçĶ¨å¼Ģåıĳ":5710,"æĪ¿éĹ´ç®¡çĲĨä¸Ńå¼ķåħ¥":5711,"èģļåĲĪçī©è¿ĩç¨ĭéĻįç»´":5712,"ï¼Įä¸Ģä¸ªåŁºäºİSpring":5713,"ï¼Įä¸Ģä¸ªåŁºäºİGoçļĦå®ŀæĹ¶WebSocketèģĬå¤©åĲİç«¯":5714,"ãĢĤè¯¥é¡¹çĽ®ä¸įä»ħå±ķç¤ºäºĨ":5715,"ãĢĤè¯¥é¡¹çĽ®å±ķç¤ºäºĨå®ŀæĹ¶åĲİç«¯å·¥ç¨ĭèĥ½åĬĽ":5716,"ïĤ·åĬłæ·±å¯¹å®īåħ¨çĽĳç®¡":5717,"ïĤ·åĬłæ·±äºĨå¯¹":5718,"éĺ²çģ«æľįæ¨¡æĭŁä¸İçĥŃ":5719,"éĺ²çģ«æľįçģ«çģ¾æ¨¡æĭŁçłĶç©¶":5720,"ç©ºæ°Ķè´¨éĩıæĹ¶ç©ºé¢ĦæµĭçłĶç©¶":5721,"æļ´éľ²å¹¶æıĲåįĩAPIè®¿éĹ®æİ§åĪ¶":5722,"ï¼ĮæĽ¿ä»£ä¸įå®īåħ¨çļĦæĺİæĸĩå¯Ĩçłģ":5723,"ï¼ĮæĽ¿ä»£ä¸įå®īåħ¨çļĦèĩªåĬ¨å»ºè¡¨":5724,"cii":5725,"manifest":5726,"Ġitem":5727,"Ġoutput":5728,"ãĢģgateway":5729,"ãĢģè¡ĮæĶ¿":5730,"ï¼Įä¸İå®¢æĪ·åıĬé¡¹çĽ®":5731,"ï¼ĮæľīåĬ©äºİ":5732,"ï¼ĮæĹ¶éĹ´æ¯Ķè¾ĥçģµæ´»":5733,"ï¼ĮåĲĮæĹ¶å°ĨæĮģä¹ħåĮĸ":5734,"ï¼Įéģ¿åħįå®īåħ¨æķıæĦŁ":5735,"ïĤ·LangChain":5736,"replace":5737,"rectness":5738,"ä¸İçľŁå®ŀå·¥ç¨ĭåľºæĻ¯çļĦ":5739,"Ġclamp":5740,"æľįåĬ¡è°ĥçĶ¨å¹¶æıĲåįĩå¾®æľįåĬ¡éĽĨæĪĲåı¯ç»´æĬ¤æĢ§":5741,"Ġfeatures":5742,"Ġinstrumentation":5743,"Ġbug":5744,"ï¼ĮåĮħæĭ¬æ¨¡åŀĭæİ¨çĲĨ":5745,"æ°´å¹³æī©å±ķæıĲä¾ĽåŁºç¡Ģ":5746,"ãĢģæķ°æį®å¤ĦçĲĨéĢ»è¾ĳ":5747,"Ġcommitment":5748,"å¹´ä»¥ä¸Ĭå¼Ģåıĳç»ıéªĮ":5749,"Ġschemaä¸İFlyway":5750,"-relative":5751,"/APIèĥ½åĬĽè½¬":5752,"Ġkeep":5753,"Ġé¡¹çĽ®åĪ¶":5754,"ãĢģè¯Ħè®º":5755,"ãĢģå¤±è´¥å¤ĦçĲĨ":5756,"ãĢģçī¹å¾ģåĪĨæŀĲ":5757,"ãĢģåĽŀå½Ĵå½±åĵįåĪĨæŀĲä»¥åıĬ":5758,"ãĢģåĪĨæŀĲä¸İåı¯è§ĨåĮĸ":5759,"ï¼Įåı¯çĶ¨äºİ":5760,"ï¼Įå¤ļæŃ¥æİ¨çĲĨ":5761,"çļĦåħ³ç³»åŀĭåŃĺåĤ¨":5762,"çļĦè¯·æ±Ĥè¿ĩæ»":5763,"æķ°æį®è¿Ľè¡Įå¤ĦçĲĨ":5764,"ĠActuatoråģ¥åº·":5765,"åıĳéĢģéĻĲæµģ":5766,"åįĬä¸»åĬ¨æīĳç¿":5767,"åįłçĶ¨":5768,"lemetry":5769,"åŁ¹è®Ńé¡¹çĽ®":5770,"ä¸Ńå¿ĥåĮĸäº¤äºĴ":5771,"Ġperform":5772,"æģ¶åĮĸ":5773,"ï¼ĪSCI":5774,"åĲİç«¯æķ°æį®ä¸Ģèĩ´æĢ§éĹ®é¢ĺåıĬ":5775,"èĢ¦èĥ½åĬĽ":5776,"æľŁéĹ´åıĬä¹ĭ":5777,"äº¤åıīéªĮè¯ģ":5778,"Ġdetailed":5779,"ï¼Įä½¿åħ¶èĥ½å¤ŁçĲĨè§£è½¯ä»¶ç³»ç»Ł":5780,"å¾®æľįåĬ¡æŀ¶æŀĦèĥ½åĬĽ":5781,"ï¼Įä¸ºåĲİç»Ńå·¥ä¸ļ":5782,"åĪĿå§ĭåĮĸ":5783,"Ġvisualization":5784,"++/":5785,"/RediséĽĨæĪĲæµĭè¯ķä»¥åıĬWebSocketåĪĨåıĳæµĭè¯ķ":5786,"/WebSocketè®¡æķ°":5787,"/åĽŀæ»ļä»¥åıĬè¿Ĳç»´åĨħå®¹":5788,"CPUå¯ĨéĽĨåŀĭ":5789,"_batch":5790,"_REFIT":5791,"iented":5792,"¤ä¸İåħ¬å¼Ģ":5793,"Ġ>=":5794,"ĠåĤ¬åĮĸ":5795,"ĠåĲĪåĲĮåĪ¶åħ¨æłĪ":5796,"ä¸ľåºĶæĢ¥ä¸ĵ":5797,"ãĢģdApp":5798,"ãĢģåĪĨæĶ¯":5799,"ãĢģé¡¹çĽ®éħįç½®":5800,"ãĢģä¾Ŀèµĸåı¯è§ģæĢ§":5801,"ãĢģéĩįå¤įä»£çłģå¼ķçĶ¨":5802,"ãĢģå®ŀéªĮå¯¹æ¯Ķ":5803,"ãĢģæĪĲæľ¬æİ§åĪ¶":5804,"ãĢģè·¨éĥ¨éĹ¨":5805,"ãĢģåİ»ä¸Ńå¿ĥåĮĸäº¤äºĴ":5806,"ãĢģæĪĲåĳĺåĪĨéħį":5807,"ãĢģæĬĢæľ¯æĸ¹æ¡Īè®¾è®¡":5808,"ï¼Įä½¿çĶ¨æĪ·åı¯ä»¥":5809,"ï¼Įç»ĵåĲĪåŁºäºİJWT":5810,"ï¼Įæĺİç¡®åŃĺåĤ¨èģĮè´£":5811,"ãĢĤä¸įè¿ĩ":5812,"ç»Ŀå¯¹":5813,"çļĦæķ°æį®åºĵåıĺæĽ´ç®¡çĲĨ":5814,"æķĻèĤ":5815,"ä¸İéªĮè¯ģèĦļæľ¬":5816,"æµ®æłĩé¡¹çĽ®":5817,"Ġcorrectness":5818,"Ġreadiness":5819,"æĶ»è¯»åįļå£«":5820,"èĥ½åĬĽä¸İåįıè°ĥèĥ½åĬĽ":5821,"ä¸ĬéĿ¢æĺ¯":5822,"åĻªå£°":5823,"åı¯ä»¥åľ¨ä¸įéĺ»å¡ŀ":5824,"agnation":5825,"çŃīåĬŁèĥ½æ¨¡åĿĹ":5826,"æĽ´åĬłæ¸ħæĻ°":5827,"Ġstrike":5828,"ï¼Įå¹¶ä½¿çĶ¨Recharts":5829,"ï¼Įå¹¶éĢļè¿ĩBearer":5830,"è¾ĵåħ¥ä¸İçĽ®æłĩè¾ĵåĩº":5831,"Ġreproducible":5832,"ï¼ĮèĢĮä¸įæĺ¯ä¸Ģæ¬¡":5833,"å¥ĸåĬ±æ¨¡åŀĭ":5834,"çĿĢéĻĨ":5835,"/metricsæĮĩæłĩæİ¥åı£":5836,"å¯¼èĩ´çļĦè¯¯æĬ¥é£İéĻ©":5837,"è®©æĪĳå¤įåĪ¶":5838,"è£ĤåĮĸ":5839,"ç²¾ç®ĢçīĪ":5840,"Ġcomplex":5841,"éĤ®ä»¶éĢļçŁ¥åĬŁèĥ½":5842,"ĠSecurityå®ŀçİ°è®¤è¯ģ":5843,"æ··åĲĪæ£Ģç´¢":5844,"Ġtracking":5845,"èĻļæĭŁçİ¯å¢ĥ":5846,"åĮ¹éħįåº¦æľĢé«ĺçļĦATS":5847,"ïĤ·Reviewed":5848,"%ï¼īï¼Ľ":5849,"-oriented":5850,".dump":5851,"/PLS":5852,"/æ¨¡åŀĭè¯Ħä¼°":5853,"/ä»ĵåºĵè®¿éĹ®":5854,"/é£İéĻ©é¢ĦèŃ¦å»ºæ¨¡":5855,"/éĩįå¤įä»£çłģåĪĨæŀĲ":5856,"/Informer":5857,"/è®¡è´¹ç®¡çĲĨ":5858,"/æĹ¶åºıé¢Ħæµĭ":5859,"/ç§ģæľīè·¯çĶ±":5860,"/èµĦäº§å±ķç¤ºåıĬäº¤äºĴæµģç¨ĭ":5861,"=False":5862,"Dropout":5863,"Layer":5864,"_ascii":5865,"count":5866,"ource":5867,"ªīä¸İè¯ģä¹¦":5868,"±åĮĸåĵģç®¡çĲĨ":5869,"¶å°¾æ°Ķ":5870,"¸è¡Įä¸ļå®īåħ¨çĽĳç®¡æī§æ³ķèĥ½åĬĽæıĲåįĩ":5871,"¹èĪ¶å°¾æ°Ķ":5872,"¼æİ¨è¿ĽæĢ§èĥ½çłĶç©¶é¡¹çĽ®":5873,"¾æŀĦå»ºMicroMart":5874,"åµĮåħ¥ä¸İæ³¨æĦıåĬĽæľºåĪ¶":5875,"ç£ģçĽĺ":5876,"ĠåĪĨä½įæİ§åĪ¶":5877,"ĠæŀĦå»ºåīįç«¯é¡µéĿ¢":5878,"ĠâĢĶ":5879,"Ġç»´èģļåĲĪçī©è¿ĩç¨ĭéĻįç»´":5880,"ĠçĶ¨æĪ·äº¤äºĴæµģç¨ĭéĹ®é¢ĺ":5881,"ĠçĽĳæİ§åıĬåıĺéĩı":5882,"Ġæį¢çĥŃåĻ¨ç»ĵåŀ¢":5883,"Ġè¿ĩç¨ĭæĸ¹å·®":5884,"Ġæĸ¹æ¡Īè¯¯æĬ¥çİĩ":5885,"ĠæĲŃå»º":5886,"Ġæ·±åº¦åŃ¦ä¹łæĸ¹æ³ķ":5887,"Ġè¶ħéĻĲé¢ĦèŃ¦":5888,"Ġäº§åĵģå¼Ģåıĳæµģç¨ĭ":5889,"ĠéĴ±åĮħè¿ŀæİ¥åıĬåĮºåĿĹéĵ¾äº¤äºĴ":5890,"Ġç©ºéĹ´æĸ¹å·®è§£éĩĬ":5891,"ĠæĹ¶åºıåĪĨæŀĲ":5892,"Ġå¤ļåħĥåĽŀå½ĴçĽĳæİ§æ¨¡åŀĭ":5893,"ĠåİĤéķ¿ç§ĺä¹¦":5894,"Ġè¿Ľè¡Įæķ°æį®é¢Ħå¤ĦçĲĨ":5895,"Ġæķħéļľæ£Ģæµĭä¸İè¯ĬæĸŃçļĦå®Įæķ´æµģç¨ĭ":5896,"Ġå¥ĹçľŁå®ŀå·¥ä¸ļæķ°æį®éĽĨ":5897,"Ġæ¸©åº¦æķ°æį®å»ºç«ĭ":5898,"ĥæ°Ķé¢ĦèŃ¦":5899,"ıçİ°æľīè¯»åıĸè·¯å¾ĦçļĦæĥħåĨµä¸ĭ":5900,"Ķèĩªæ²»åĮºåºĶæĢ¥ç®¡çĲĨåİħ":5901,"ãĢģåıĳç¥¨":5902,"ãĢģåį±åĮĸåĵģç®¡çĲĨ":5903,"ãĢģåľ¨çº¿æ²ŁéĢļ":5904,"ãĢģåīįåĲİç«¯æķ°æį®ä¸Ģèĩ´æĢ§éĹ®é¢ĺåıĬ":5905,"ãĢģä»£å¸ģ":5906,"ãĢģå®ļæĹ¶ä»»åĬ¡":5907,"ãĢģé«ĺç®¡æĬ¥åĳĬçĶŁæĪĲ":5908,"ãĢģåĬłçĥŃçĤīçŃī":5909,"ãĢģåıĤä¸İèĢħ":5910,"ãĢģAPIæµĭè¯ķ":5911,"ãĢģå·¥ä¸ļçĽĳæµĭæķ°æį®åĪĨæŀĲ":5912,"ãĢģè¿ŀæİ¥å¯¼åĲĳåŀĭåľºæĻ¯":5913,"ãĢģåĽ¢éĺŁè®¾ç½®":5914,"ãĢģè¿ľç¨ĭåįıä½ľ":5915,"ãĢģå®ŀæĹ¶ç³»ç»Ł":5916,"ãĢģæĸŃå¼Ģæ¸ħçĲĨ":5917,"ãĢģåıĺéĩıè´¡çĮ®å®ļä½įåıĬçĽĳæİ§æĸ¹æ¡Ī":5918,"ãĢģçĬ¶æĢģæĮģä¹ħåĮĸ":5919,"ãĢģçĶŁäº§æķ°æį®æķ´çĲĨ":5920,"ãĢģéĴ±åĮħéĽĨæĪĲ":5921,"ãĢģçŁ¥è¯Ĩæ£Ģç´¢":5922,"ãĢģè¯·æ±ĤIDä¸ŃéĹ´ä»¶":5923,"ãĢģéĵ¾ä¸Ĭäº¤äºĴ":5924,"ãĢģé¢ĨåŁŁæľįåĬ¡":5925,"ãĢģæĮīéľĢæĸĩä»¶":5926,"ãĢģåĵįåºĶå¼ıUI":5927,"ãĢģGatewayåıĬåĲĦ":5928,"ãĢģä»£çłģä»ĵåºĵè¿ŀæİ¥":5929,"ãĢģæĮĩæłĩçĽĳæİ§":5930,"ãĢģåĲ¯åĬ¨è¿ģç§»æī§è¡Į":5931,"ãĢģå¹¶åıĳå®īåħ¨è®¾è®¡":5932,"ãĢģå·¥ä¸ļå®īåħ¨æĻºèĥ½åĮĸ":5933,"ãĢģå·¥ä½ľæµģèĩªåĬ¨åĮĸ":5934,"ãĢģåĽ¢éĺŁç®¡çĲĨä»¥åıĬåīįç«¯":5935,"ãĢģåīįç«¯é¡µéĿ¢å¼Ģåıĳ":5936,"ãĢģç»ĵæŀĦåĮĸè®¿éĹ®æĹ¥å¿Ĺ":5937,"ãĢģå¹¿æĴŃæ¶Īæģ¯ä»¥åıĬæĪ¿éĹ´":5938,"ãĢģè§Ĵèī²å±Ĥçº§":5939,"ãĢģæĬĢæľ¯æĸĩæ¡£åıĬè·¨":5940,"ãĢģç§ģèģĬ":5941,"ãĢģåıĺæĽ´æĸĩä»¶éĩįæī«":5942,"ãĢģæĶ¯ä»ĺäºĭä»¶å¤ĦçĲĨä»¥åıĬåŁºäºİ":5943,"ãĢģäº¤æĺĵè®°å½ķåıĬä¸ļåĬ¡éĢ»è¾ĳ":5944,"ãĢģç½ĳåħ³è·¯çĶ±":5945,"ãĢģéľĢæ±ĤçĲĨè§£èĥ½åĬĽä¸İåįıè°ĥèĥ½åĬĽ":5946,"ãĢģçĵ¦æĸ¯æµĵåº¦é¢Ħæµĭ":5947,"ãĢģåĮºåĿĹéĵ¾äº¤äºĴä»¥åıĬ":5948,"ãĢģç«ŀæĢģæ£Ģæµĭ":5949,"ãĢģæıĲç¤ºè¯įå·¥ç¨ĭ":5950,"ãĢģè¯Ńä¹īçº§ä»£çłģéĹ®çŃĶä»¥åıĬåĽ¢éĺŁ":5951,"ãĢģæĹłæķĪJSONä¿®å¤įä»¥åıĬAIçĶŁæĪĲ":5952,"ãĢģè¿Ńä»£äº¤ä»ĺåıĬåŁºäºİ":5953,"ãĢģnpm":5954,"ãĢģè®¾å¤ĩé¢ĦèŃ¦åıĬèĥ½æºĲ":5955,"ãĢģä»·æł¼ä¸İæĶ¯ä»ĺ":5956,"ãĢģç¬¬ä¸īæĸ¹APIéĽĨæĪĲ":5957,"ãĢģçĩĥæ°Ķé¢ĦèŃ¦":5958,"åı¬åĽŀçİĩ":5959,"ï¼ĮåĪĨæŀĲPull":5960,"ï¼Įæĸĩæ¡£æĻºèĥ½":5961,"ï¼ĮåıĤä¸İå¤ļä¸ªè¿ľç¨ĭè½¯ä»¶å¼Ģåıĳ":5962,"ï¼ĮScikit":5963,"ï¼Įå®ĮæĪĲæķħéļľæ£Ģæµĭä¸İè´¡çĮ®":5964,"ï¼Įæī«æııæºĲä»£çłģ":5965,"ï¼Įå½±åĵįåĽłåŃĲ":5966,"ï¼Įè¯ĨåĪ«æĸĩä»¶ç±»åŀĭ":5967,"ï¼ĮCUSUM":5968,"ï¼ĮçłĶç©¶æĸ¹åĲĳåĮħæĭ¬å·¥ä¸ļäººå·¥æĻºèĥ½":5969,"ï¼Įåħ·å¤ĩç½ķè§ģ":5970,"ï¼Įè¿½è¸ªä»£çłģå½±åĵį":5971,"ï¼Įå·¥åħ·è°ĥçĶ¨":5972,"ï¼Įåľ¨ä¸įçł´åĿ":5973,"ï¼ĮçĨŁæĤīå·¥ä¸ļè¿Ĳè¡Į":5974,"ï¼ĮæıĲåıĸåĩ½æķ°":5975,"ï¼Įå¢ŀå¼ºé¢ĨåŁŁéĢ»è¾ĳä¸İéĢļçŁ¥":5976,"ï¼ĮMATLAB":5977,"ï¼ĮPromptå·¥ç¨ĭ":5978,"ï¼Įå½¢æĪĲåı¯å¤įçĶ¨çļĦ":5979,"ï¼ĮæľŁå¾ħè¿Ľä¸ĢæŃ¥æ²ŁéĢļ":5980,"ãĢĤç³»ç»Łåı¯è¿ŀæİ¥":5981,"ãĢĤæĽ¾æŀĦå»ºMicroMart":5982,"ãĢĤçĲĨè§£çĶŁäº§çº§AIç³»ç»Ł":5983,"ãĢĤèĥ½å¤Łå°ĨAIæĥ³":5984,"ãĢĤåĲĮæĹ¶æĭ¥æľī":5985,"ãĢĤçĽ®åīįåľ¨æĸ°çĸĨå¤§åŃ¦":5986,"æľ¨é½ĲçŁ³åĮĸåħ¬åı¸":5987,"çļĦAIä½¿çĶ¨æİ§åĪ¶":5988,"çļĦæľ¬åľ°äºĮè¿ĽåĪ¶åŃĺåĤ¨":5989,"çļĦç»¼åĲĪèĥ½åĬĽç»ĦåĲĪ":5990,"ïĤ·å¯¹å®ŀéªĮä¸İä»¿çľŁ":5991,"ïĤ·å®īåħ¨æĻºèĥ½":5992,"ïĤ·å¤ĦçĲĨæĹ¶åºıèĩªçĽ¸åħ³":5993,"ïĤ·æıĲåįĩæĸĩæ¡£èĥ½åĬĽ":5994,"ïĤ·å·¥ä¸ļAI":5995,"ïĤ·è¾ĵåĩºåı¯è§ĨåĮĸåĪĨæŀĲæĪĲæŀľ":5996,"ïĤ·æł¹æį®é¡¹çĽ®éľĢæ±Ĥ":5997,"ïĤ·è´Łè´£ä¼ļè®®":5998,"ïĤ·æĹ¶ç©ºé¢Ħæµĭ":5999,"ïĤ·å¼Ģå±ķå¤ļåħĥ":6000,"ïĤ·ä¸ŃåĽ½çŁ³æ²¹ä¼ĺç§Ģåħ±":6001,"ïĤ·èĩªæ²»åĮºåįļå£«çłĶç©¶çĶŁåŃ¦ä¸ļå¥ĸåŃ¦éĩĳ":6002,"ïĤ·ç§¯ç´¯äºĨå®īåħ¨çĽĳæµĭ":6003,"ïĤ·Worked":6004,"ï¼ĽéĩıåĮĸçĽĳæİ§æĢ§èĥ½":6005,"reelance":6006,"æķ°æĹ¶éĹ´å¯Ĩçłģæł¡éªĮ":6007,"ä¸İé¡¹çĽ®æĸĩæ¡£":6008,"ä¸İRedisçļĦå¼ĤæŃ¥ä»ĵåºĵæī«æıı":6009,"ä¸İåĽŀçŃĶåĪĨçīĩ":6010,"ä¸İçĻ»å½ķè®¤è¯ģ":6011,"ä¸İåĽ¢éĺŁç®¡çĲĨåĬŁèĥ½":6012,"ä¸İä¸Ĭçº¿é£İéĻ©è¯Ħä¼°èĥ½åĬĽ":6013,"ä¸İä¸ļåĬ¡æľįåĬ¡åĪĨç¦»":6014,"ä¸İGORMæĮģä¹ħåĮĸèģĬå¤©æķ°æį®":6015,"ä¸İå¤©çĦ¶æ°Ķå·¥ç¨ĭ":6016,"ä¸İèģĶç³»äººåĪĹè¡¨":6017,"æµªé©±åĬ¨åīĸéĿ¢":6018,"ï¼ļä»ĵåºĵæķ°æį®æİ¥åħ¥":6019,"ï¼ļä»ħçĶ¨":6020,"ï¼ļçŁ³æ²¹ä¸İå¤©çĦ¶æ°Ķå·¥ç¨ĭ":6021,"ï¼ļä¸įä»ħä»ħæŀĦå»ºè°ĥçĶ¨":6022,"ï¼ļå·¥èīºå·¥ç¨ĭå¸Ī":6023,"åı¯çĶ¨çļĦè½¯ä»¶äº§åĵģ":6024,"å·¥åĨµä¸ĭ":6025,"åŀĥåľ¾":6026,"ĠAssurance":6027,"åĮĸä¸ºåı¯çĶ¨çļĦè½¯ä»¶äº§åĵģ":6028,"åĮĸä¸İåı¯å¤įçİ°çļĦæķ°æį®åºĵåıĺæĽ´ç®¡çĲĨ":6029,"å®ŀæĸ½æİ§åĪ¶åĽ¾çĽĳæİ§":6030,"æĢ§ä¸İéĥ¨ç½²åı¯ç»´æĬ¤æĢ§":6031,"ä¸Ńä½įæķ°":6032,"åŁºéĩĳåįĬä¸»åĬ¨æīĳç¿":6033,"ä»¥åıĬå·¥ç¨ĭåĪĨæŀĲåı¯è§ĨåĮĸ":6034,"ä»¥åıĬå¤±è´¥æĹ¥å¿Ĺè®°å½ķ":6035,"ä»¥åıĬæľ¬åľ°éĥ¨ç½²éªĮè¯ģèĥ½åĬĽ":6036,"ä»¥åıĬåĮºåĿĹéĵ¾æķ°æį®éĽĨæĪĲ":6037,"ä»¥åıĬå·¥ä¸ļäººå·¥æĻºèĥ½çłĶç©¶":6038,"ä»¥åıĬè®¿éĹ®æİ§åĪ¶çĽ¸åħ³åĲİç«¯éĢ»è¾ĳ":6039,"Ġreducing":6040,"ç«¯Javaå¾®æľįåĬ¡æŀ¶æŀĦèĥ½åĬĽ":6041,"åľ¨LLMåºĶçĶ¨å·¥ç¨ĭæĸ¹éĿ¢":6042,"åľ¨ç½ĳé¡µ":6043,"åľ¨åĲİç«¯æŀ¶æŀĦæĸ¹éĿ¢åħ·å¤ĩè¾ĥå¼º":6044,"åľ¨äºİè¿ŀæİ¥AIä¸İå·¥ç¨ĭ":6045,"AIçļĦå®Įæķ´äº§åĵģå·¥ç¨ĭèĥ½åĬĽ":6046,"AIé©±åĬ¨çļĦä»£çłģæĻºèĥ½å¹³åı°":6047,"ĠShewhart":6048,"æľįåĬ¡è¿Ľè¡Įå®¹åĻ¨åĮĸ":6049,"æľįåĬ¡çĽ´æİ¥æļ´éľ²å¹¶æıĲåįĩAPIè®¿éĹ®æİ§åĪ¶":6050,"æľįåĬ¡çĭ¬ç«ĭçļĦPostgreSQL":6051,"Ġprediction":6052,"åĪĨæŀĲæºĲä»£çłģæĸĩä»¶":6053,"Ġfailure":6054,"ä½ľåĵģéĽĨ":6055,"é¡¹æ³¢æµªé©±åĬ¨åīĸéĿ¢":6056,"éĿĴåĽ¢åĳĺ":6057,"å¹¶åŃĺåĤ¨èĩ³PostgreSQL":6058,"å¯¹æīĢæľīæľįåĬ¡è¿Ľè¡Įå®¹åĻ¨åĮĸ":6059,"ä»£çłģå®ŀçİ°å±ĤéĿ¢çļĦç³»ç»ŁæĢ§":6060,"ç®¡çĲĨæĸĩæ¡£å·¥ä½ľ":6061,"å·¥ç¨ĭæĢĿç»´ä¸İä¸Ĭçº¿é£İéĻ©è¯Ħä¼°èĥ½åĬĽ":6062,"ĠAIé©±åĬ¨ä»£çłģæĻºèĥ½å¹³åı°":6063,"ç³»ç»Łå»ºè®¾æķĪæŀľè¯Ħä¼°æĬ¥åĳĬé¡¹çĽ®":6064,"é£İéĻ©å¹¶ä¿ĿæĬ¤è®¤è¯ģä¸İå®ŀæĹ¶éĢļä¿¡":6065,"çłĶç©¶æīĢéĺ²çģ«æľįçģ«çģ¾æ¨¡æĭŁçłĶç©¶":6066,"éħįé¢ĿçļĦAIä½¿çĶ¨æİ§åĪ¶":6067,"ï¼īä½ĵç³»åĨħå®¡":6068,"ï¼īä»¥åıĬæĿ¥èĩªä¸ŃåĽ½çŁ³æ²¹çļĦå·¥ä¸ļå®īåħ¨":6069,"ï¼Īä¸ªäººå®ŀæĪĺé¡¹çĽ®":6070,"ï¼Īç´¯è®¡æĸ¹å·®":6071,"ï¼ĪæĽĿæ°Ķæ±ł":6072,"RedisçĬ¶æĢģè¿ģç§»èĩ³åı¯å®¡è®¡":6073,"åĲİç«¯è¿Ľç¨ĭä»įåı¯æŃ£å¸¸":6074,"ĠAPIçļĦdemo":6075,"æķ°æį®åºĵè¿ģç§»èĦļæľ¬":6076,"Dockerfileå¯¹æīĢæľīæľįåĬ¡è¿Ľè¡Įå®¹åĻ¨åĮĸ":6077,"æŀĦå»ºå®ŀæĹ¶èģĬå¤©åĲİç«¯":6078,"æŀĦå»ºHikaflowä½ľä¸ºåħ¨æłĪAI":6079,"æıĲåįĩè®¤è¯ģä¸Ģèĩ´æĢ§ä¸İéĥ¨ç½²åı¯éħįç½®":6080,"æıĲåįĩç³»ç»Łè¿Ĳè¡Įåı¯è§ĤæµĭæĢ§ä¸İéĹ®é¢ĺ":6081,"æİ§åĪ¶ä¸İåıĳå¸ĥåı¯éĿłæĢ§":6082,"ï¼ĮåĮħæĭ¬åĽ¢éĺŁåĪĽå»º":6083,"ï¼ĮåĮħæĭ¬WebSocketè¿ŀæİ¥çĶŁåĳ½åĳ¨æľŁç®¡çĲĨ":6084,"ï¼ĮåĮħæĭ¬éĴ±åĮħçĻ»å½ķ":6085,"ï¼ĮåĮħæĭ¬å®¢æĪ·ç«¯æ³¨åĨĮ":6086,"ï¼ĮåĮħæĭ¬ä»£çłģæ¦Ĥè§ĪçĶŁæĪĲ":6087,"åıĤæķ°é«ĺæķĪå¾®è°ĥ":6088,"æ³ķä»İæ¨¡åŀĭ":6089,"å·¥ä¸ļè¿ĩç¨ĭç»Łè®¡çĽĳæİ§ä¸İæķħéļľæ£Ģæµĭ":6090,"ï¼Įå¹¶ä¿®å¤įAIçĶŁæĪĲçļĦæĹłæķĪJSON":6091,"ï¼Įå¹¶ä¿Ŀè¯ģåĲĦæ¨¡åĿĹåı¯çĭ¬ç«ĭ":6092,"ï¼Įå¹¶çĶŁæĪĲåĽ¢éĺŁçº§å·¥ç¨ĭæĬ¥åĳĬ":6093,"æ¶Īéĺ²çłĶç©¶æīĢéĺ²çģ«æľįçģ«çģ¾æ¨¡æĭŁçłĶç©¶":6094,"ollabor":6095,"ä¸»è¯·æ±Ĥè·¯å¾ĦçļĦæĥħåĨµä¸ĭåıĳå¸ĥäºĭä»¶":6096,"çº§æķħéļľéļĶç¦»":6097,"ïĤ·åıĤä¸İå¹¿ä¸ľåºĶæĢ¥ä¸ĵ":6098,"ïĤ·åıĤä¸İçŁ³æ²¹åĮĸå·¥çĶŁäº§ä¸İå·¥èīº":6099,"ïĤ·åıĤä¸İå¤©æ´¥æµ·ä¸ĬèĪ":6100,"ïĤ·åıĤä¸İå·¥èīºçĽĳæµĭ":6101,"ïĤ·åıĤä¸İåĽ½å®¶èĩªçĦ¶ç§ĳåŃ¦":6102,"ïĤ·åıĤä¸İè½¯ä»¶äº¤ä»ĺåħ¨æµģç¨ĭ":6103,"ïĤ·åıĤä¸İå·¥è´¸è¡Įä¸ļå®īåħ¨çĽĳç®¡æī§æ³ķèĥ½åĬĽæıĲåįĩ":6104,"ïĤ·åıĤä¸İè°ĥè¯ķéĴ±åĮħäº¤äºĴéĹ®é¢ĺ":6105,"éĻĲäºİç®ĢåįķAPIè°ĥçĶ¨":6106,"æĻºèĥ½åĨ³çŃĸæĶ¯æĮģ":6107,"è¿ŀæİ¥åĪ°ä¸įåĲĮåĲİç«¯è¿Ľç¨ĭä»įåı¯æŃ£å¸¸":6108,"ï¼Įä¸įå±ĢéĻĲäºİç®ĢåįķAPIè°ĥçĶ¨":6109,"è®¤è¯ģçļĦWebSocketè¿ŀæİ¥çĶŁåĳ½åĳ¨æľŁç®¡çĲĨ":6110,"åĽ¢éĺŁåįıä½ľç»ıéªĮ":6111,"åĽ¢éĺŁå¼Ģå±ķè¿ľç¨ĭåĲĪä½ľ":6112,"çİ¯å¢ĥä¹ĭéĹ´çļĦä¸Ģèĩ´æĢ§":6113,"çİ¯å¢ĥæķ°æį®çļĦåĬ¨æĢģåħ³ç³»":6114,"ïĤ·ä½¿çĶ¨PostgreSQLä¸İGORMæĮģä¹ħåĮĸèģĬå¤©æķ°æį®":6115,"ïĤ·ä½¿çĶ¨Zustandè¿Ľè¡Įåīįç«¯":6116,"ïĤ·ä½¿çĶ¨OpenFeignå®ŀçİ°æľįåĬ¡éĹ´éĢļä¿¡":6117,"ïĤ·ä½¿çĶ¨Eurekaå®ŀçİ°æľįåĬ¡åıĳçİ°":6118,"ïĤ·ä½¿çĶ¨å¤ļéĺ¶æ®µDockerfileå¯¹æīĢæľīæľįåĬ¡è¿Ľè¡Įå®¹åĻ¨åĮĸ":6119,"ä»İä¸´æĹ¶RedisçĬ¶æĢģè¿ģç§»èĩ³åı¯å®¡è®¡":6120,"æ¶Īæģ¯å½Ĵå±ŀéĢĲæŃ¥è¿ģç§»èĩ³PostgreSQL":6121,"åħ¨æłĪä¸ļåĬ¡åºĶçĶ¨":6122,"åħ¨æłĪäº¤ä»ĺèĥ½åĬĽ":6123,"ä¸ŃçļĦç«ŀæĢģé£İéĻ©":6124,"ä¸ŃçļĦGoåĲİç«¯å¼Ģåıĳèĥ½åĬĽ":6125,"éĺ²æİ§ä½ĵç³»çļĦçĲĨè§£":6126,"éļľç¢į":6127,"ĠBootå¾®æľįåĬ¡åıĤèĢĥå¹³åı°":6128,"ï¼Įä½¿æľįåĬ¡è¾¹çķĮæĽ´åĬłæ¸ħæĻ°":6129,"ï¼Įä½¿ä¸ļåĬ¡æľįåĬ¡åı¯ä»¥åľ¨ä¸įéĺ»å¡ŀ":6130,"ĠComposeåģ¥åº·æ£ĢæŁ¥æľºåĪ¶":6131,"ĠComposeéħįç½®ä»¥åıĬSwagger":6132,"elief":6133,"çĽĳæµĭçĽĳç®¡ç³»ç»Łå»ºè®¾æķĪæŀľè¯Ħä¼°æĬ¥åĳĬé¡¹çĽ®":6134,"æł¸å¿ĥä»·åĢ¼åľ¨äºİè¿ŀæİ¥AIä¸İå·¥ç¨ĭ":6135,"ï¼ĮæĶ¯æĮģåı¯éħįç½®tokenå¯ĨéĴ¥ä¸İ":6136,"ï¼ĮæĶ¯æĮģéĺ²æĬ¤æĢ§èĥ½è¯Ħä¼°":6137,"ï¼ĮæĶ¯æĮģæĸĩä»¶åħĥæķ°æį®æĮģä¹ħåĮĸä¸İåı¯éħįç½®":6138,"ï¼ĮæĶ¯æĮģè¯Ńä¹īçº§ä»£çłģåºĵéĹ®çŃĶ":6139,"ï¼ĮæĶ¯æĮģå¤ļç§įå®ŀæĹ¶éĢļä¿¡æ¨¡å¼ı":6140,"ï¼ĮæĶ¯æĮģåħ¨éĩıæī«æıı":6141,"æ²ŁéĢļåıĬçĶŁäº§ç®¡çĲĨæĸĩæ¡£å·¥ä½ľ":6142,"ï¼Įä»¥æıĲåįĩå¤įæĿĤé¢ĦæµĭæĢ§èĥ½":6143,"ï¼ĮçĶ¨äºİä»£çłģä»ĵåºĵåĪĨæŀĲ":6144,"ï¼ĮçĶ¨äºİå®ŀæĹ¶AIå¤ĦçĲĨè¿Ľåº¦æİ¨éĢģ":6145,"gramming":6146,"ãĢģRedisä¸İPostgreSQLæŀĦå»ºå®ŀæĹ¶èģĬå¤©åĲİç«¯":6147,"ï¼Įè¦ĨçĽĸä»£çłģæł¼å¼ıæ£ĢæŁ¥":6148,"ï¼Įè¦ĨçĽĸä»İåįķåıĺéĩıæİ§åĪ¶åĽ¾åĪ°å¤ļåħĥ":6149,"ïĤ·å®ŀçİ°ç»Ħç»ĩä¸İåĽ¢éĺŁç®¡çĲĨåĬŁèĥ½":6150,"ïĤ·å®ŀçİ°è¯Ńä¹īçº§ä»£çłģä»ĵåºĵéĹ®çŃĶç³»ç»Ł":6151,"ïĤ·å®ŀçİ°ç»ıè¿ĩè®¤è¯ģçļĦWebSocketè¿ŀæİ¥çĶŁåĳ½åĳ¨æľŁç®¡çĲĨ":6152,"ïĤ·å®ŀçİ°çĶ¨æĪ·æ³¨åĨĮä¸İçĻ»å½ķè®¤è¯ģ":6153,"ïĤ·å®ŀçİ°GitHubä¸İBitbucketä»£çłģä»ĵåºĵéĽĨæĪĲ":6154,"ïĤ·çłĶç©¶æĪĲæŀľéĢĤçĶ¨äºİæĻºæħ§åŁİå¸":6155,"ïĤ·çłĶç©¶æĸ¹åĲĳéĢĤçĶ¨äºİå·¥ä¸ļå®īåħ¨çĽĳæµĭ":6156,"ïĤ·æŀĦå»ºPRåĪĨæŀĲä¸İæĬ¥åĳĬçĶŁæĪĲæµģç¨ĭ":6157,"ïĤ·æŀĦå»ºåįķåıĺéĩıçĽĳæİ§æĸ¹æ¡Ī":6158,"ïĤ·æŀĦå»ºåŁºäºİBullMQä¸İRedisçļĦå¼ĤæŃ¥ä»ĵåºĵæī«æıı":6159,"Ġä¸ªåı¯å¤įçİ°åĪĨæŀĲ":6160,"Ġä¸ªæ½ľåıĺéĩı":6161,"ãĢģæķ°æį®åĪĨæŀĲä»¥åıĬæĻºèĥ½åĨ³çŃĸæĶ¯æĮģ":6162,"ãĢģå®īåħ¨é£İéĻ©æİ§åĪ¶åıĬçĶŁäº§æķ°æį®ç®¡çĲĨ":6163,"ãĢģå®īåħ¨åĬłåĽºä»¥åıĬè¿Ĳç»´åı¯è§ĤæµĭæĢ§":6164,"æľ¬åľ°åĲ¯åĬ¨ä¸İåı¯å¤įçİ°éĽĨæĪĲæµĭè¯ķ":6165,"ï¼Įå®ŀçİ°åĲĳéĩıæ£Ģç´¢çĽ¸åħ³ä»£çłģä¸Ĭä¸ĭæĸĩ":6166,"ï¼Įå®ŀçİ°çīĪæľ¬åĮĸä¸İåı¯å¤įçİ°çļĦæķ°æį®åºĵåıĺæĽ´ç®¡çĲĨ":6167,"ï¼Įå®ŀçİ°ç»ĵåŀ¢å·¥åĨµä¸ĭ":6168,"ï¼Įå®ŀçİ°ä¸ĢéĶ®æľ¬åľ°åĲ¯åĬ¨ä¸İåı¯å¤įçİ°éĽĨæĪĲæµĭè¯ķ":6169,"ï¼Įå®ŀçİ°è¿ĩç¨ĭå¼Ĥå¸¸è¯ĨåĪ«":6170,"ï¼ĮæıĲåįĩéķ¿æĹ¶éĹ´ä»ĵåºĵåĪĨæŀĲçļĦçĶ¨æĪ·ä½ĵéªĮ":6171,"ï¼ĮæıĲåįĩæľįåĬ¡åĲ¯åĬ¨é¡ºåºıæİ§åĪ¶":6172,"ï¼ĮæıĲåįĩçİ¯å¢ĥåı¯å¤įçİ°æĢ§ä¸İéĥ¨ç½²åı¯ç»´æĬ¤æĢ§":6173,"ï¼ĮæıĲåįĩæľ¬åľ°ä¸İéĥ¨ç½²çİ¯å¢ĥä¹ĭéĹ´çļĦä¸Ģèĩ´æĢ§":6174,"ïĤ·åŁºäºİç®Ĺæ³ķå»ºæ¨¡ä¸İä»¿çľŁ":6175,"ïĤ·åŁºäºİæĹ¶ç©ºåµĮåħ¥ä¸İæ³¨æĦıåĬĽæľºåĪ¶":6176,"ïĤ·è®¾è®¡åĲĦæľįåĬ¡çĭ¬ç«ĭçļĦPostgreSQL":6177,"ïĤ·è®¾è®¡AIä»£çłģåĪĨæŀĲæµģç¨ĭ":6178,"è·¯å¾ĦçĶ¨äºİèģĬå¤©åİĨåı²ä¸İèģĶç³»äººåĪĹè¡¨":6179,"åıĺåĮĸä¸İçĪĨçĤ¸é£İéĻ©é¢ĦèŃ¦éĹ®é¢ĺ":6180,"ï¼ĮåĮħåĲ«å®ļä»·æĸ¹æ¡Ī":6181,"ãĢģé£İéĻ©è¯ĨåĪ«åıĬæĬĢæľ¯æĸĩæ¡£ç¼ĸåĨĻ":6182,"ãĢģçĶ¨æĪ·èµĦäº§å±ķç¤ºåıĬäº¤æĺĵçĽ¸åħ³æµģç¨ĭ":6183,"ï¼Įä¸ºå¤ļå®ŀä¾ĭæ°´å¹³æī©å±ķæıĲä¾ĽåŁºç¡Ģ":6184,"è®¡è´¹ä¸İè®¢éĺħç³»ç»Ł":6185,"Ġbackground":6186,"åħ·å¤ĩå®Įæķ´çļĦåħ¨æłĪäº¤ä»ĺèĥ½åĬĽ":6187,"/SubçļĦWebSocketæ¶Īæģ¯åĪĨåıĳæľºåĪ¶":6188,"ĠUniversity":6189,"ãĢģåĲİç«¯æľįåĬ¡ä»¥åıĬåħ¨æłĪä¸ļåĬ¡åºĶçĶ¨":6190,"ï¼ĮéĢļè¿ĩçĶŁæĪĲembeddingå¹¶åŃĺåĤ¨èĩ³PostgreSQL":6191,"ï¼Įè¿Ļæĺ¯ä¸Ģä¸ªAIé©±åĬ¨çļĦä»£çłģæĻºèĥ½å¹³åı°":6192,"/OpenAIåħ¼å®¹æ¨¡åŀĭéĽĨæĪĲ":6193,"ãĢģæĸĩä»¶ä¸Ĭä¼łä»¥åıĬ":6194,"ãĢģå¼ĤæŃ¥äºĭä»¶éĢļä¿¡":6195,"å¹¶åıĳæİ§åĪ¶éĶģæľºåĪ¶":6196,"ĠçĽ¸åħ³ä¸ļåĬ¡éĢ»è¾ĳä»¥åıĬåĮºåĿĹéĵ¾æķ°æį®éĽĨæĪĲ":6197,"ĠGatewayä½ľä¸ºç»Łä¸Ģå¤ĸéĥ¨åħ¥åı£":6198,"ãĢģä»ĵåºĵç»ĳå®ļä»¥åıĬè®¿éĹ®æİ§åĪ¶çĽ¸åħ³åĲİç«¯éĢ»è¾ĳ":6199,"ãĢģéĥ¨ç½²ä»¥åıĬè¿Ĳç»´æĢĿç»´":6200,"ãĢģéĥ¨ç½²æĶ¯æĮģä»¥åıĬåĲİæľŁç»´æĬ¤":6201,"ï¼ĮåŁºäºİæ®ĭå·®å®ŀæĸ½æİ§åĪ¶åĽ¾çĽĳæİ§":6202,"ï¼ĮåŁºäºİDeepSeekä¸İGeminiåĪĨæŀĲæºĲä»£çłģæĸĩä»¶":6203,"ï¼ĮçĶŁæĪĲç»ĵæŀĦåĮĸæĸĩä»¶æĸĩæ¡£":6204,"ï¼Įæ¶īåıĬéĴ±åĮħè¿ŀæİ¥":6205,"ï¼ĮéĻįä½İèĩªçĽ¸åħ³å¯¼èĩ´çļĦè¯¯æĬ¥é£İéĻ©":6206,"ï¼ĮéĻįä½İå®ŀæĹ¶æ¶Īæģ¯ä¼łéĢĴä¸ŃçļĦç«ŀæĢģé£İéĻ©":6207,"ï¼ĮéĻįä½İæ»¥çĶ¨é£İéĻ©å¹¶ä¿ĿæĬ¤è®¤è¯ģä¸İå®ŀæĹ¶éĢļä¿¡":6208,"ïĤ·æ·»åĬłRedisåħ¼å®¹è·¯å¾ĦçĶ¨äºİèģĬå¤©åİĨåı²ä¸İèģĶç³»äººåĪĹè¡¨":6209,"å¼Ģå±ķç©ºæ°Ķè´¨éĩıé¢ĦæµĭçłĶç©¶":6210,"ä»¥åıĬåŁºäºİçĶ¨æĪ·çļĦWebSocketæ¶Īæģ¯åıĳéĢģéĻĲæµģ":6211,"å·¥ç¨ĭèĥ½åĬĽçļĦæł¸å¿ĥè¯ģæĺİ":6212,"Ġtokenä¸ŃéĹ´ä»¶æıĲåįĩè®¤è¯ģä¸Ģèĩ´æĢ§ä¸İéĥ¨ç½²åı¯éħįç½®":6213,"åĿĩåĢ¼æ¼Ĥç§»åľºæĻ¯ä¸ĭçļĦæ£Ģåĩº":6214,"ïĤ·çłĶç©¶çĶŁåĽ½å®¶å¥ĸåŃ¦éĩĳ":6215,"ä¸ŃåĽ½çŁ³æ²¹ä¹Įé²ģæľ¨é½ĲçŁ³åĮĸåħ¬åı¸":6216,"æĸ°çĸĨç»´åĲ¾å°Ķèĩªæ²»åĮºåºĶæĢ¥ç®¡çĲĨåİħ":6217,"Ġasynchronous":6218,"ïĤ·éĽĨæĪĲStripeè®¡è´¹ä¸İè®¢éĺħç³»ç»Ł":6219,"ïĤ·éĽĨæĪĲåŁºäºİKafkaçļĦå¼ĤæŃ¥éĢļçŁ¥æµģç¨ĭ":6220,"ï¼Įå¹¶æĶ¯æĮģéĥ¨ç½²ä¸İè¿Ĳç»´èĲ½åľ°":6221,"ï¼Įå¹¶æĶ¯æĮģæµģå¼ıAIåĽŀçŃĶè¾ĵåĩº":6222,"ï¼ĮèĢĮæĺ¯è®¾è®¡å®Įæķ´ç³»ç»Ł":6223,"ĠçŃīåı¯è§ĨåĮĸåºĵå¼Ģåıĳåīįç«¯çķĮéĿ¢":6224,"ï¼Įåĩıå°ĳåĨħéĥ¨æľįåĬ¡çĽ´æİ¥æļ´éľ²å¹¶æıĲåįĩAPIè®¿éĹ®æİ§åĪ¶":6225,"ï¼Įåĩıå°ĳç¡¬ç¼ĸçłģæľįåĬ¡è°ĥçĶ¨å¹¶æıĲåįĩå¾®æľįåĬ¡éĽĨæĪĲåı¯ç»´æĬ¤æĢ§":6226,"åįıè°ĥåıĬçĽ¸åħ³åĬŀåħ¬å®¤å·¥ä½ľ":6227,"Ġä¸Ńç§ĳéĻ¢äºĮåĮºè®ºæĸĩ":6228,"ï¼Įå°Ĩæĸĩä»¶åħĥæķ°æį®ä¸İä¸ļåĬ¡æľįåĬ¡åĪĨç¦»":6229,"ï¼Įå°Ĩåħ³éĶ®èģĬå¤©åİĨåı²ä»İä¸´æĹ¶RedisçĬ¶æĢģè¿ģç§»èĩ³åı¯å®¡è®¡":6230,"ï¼ĮæıĲé«ĺå·¥ç¨ĭè´¨éĩıæİ§åĪ¶ä¸İåıĳå¸ĥåı¯éĿłæĢ§":6231,"ï¼Įè¿ĺä½ĵçİ°äºĨåĽ´ç»ķAIçļĦå®Įæķ´äº§åĵģå·¥ç¨ĭèĥ½åĬĽ":6232,"æĬķéĢĴçļĦè§£èĢ¦èĥ½åĬĽ":6233,"/EChartsé£İæł¼ç»Ħä»¶å®ŀçİ°æĮĩæłĩ":6234,"/æ³¨åĨĮæİ¥åı£çļĦéĻĲæµģæľºåĪ¶ä»¥åıĬåŁºäºİçĶ¨æĪ·çļĦWebSocketæ¶Īæģ¯åıĳéĢģéĻĲæµģ":6235,"/å°±ç»ªæ£ĢæŁ¥ç«¯çĤ¹ä»¥åıĬDocker":6236,"èį£èªīä¸İè¯ģä¹¦":6237,"ãĢģä»£çłģè¯¦æĥħ":6238,"ãĢģå¤ļåľ°çĤ¹çİ¯å¢ĥæķ°æį®çļĦåĬ¨æĢģåħ³ç³»":6239,"ãĢģçİ¯å¢ĥé©±åĬ¨éħįç½®ä»¥åıĬçĶŁäº§çº§ç³»ç»ŁæĦıè¯Ĩ":6240,"ãĢģæ¶Īæģ¯ä»¥åıĬæ¶Īæģ¯æĬķéĢĴè®°å½ķ":6241,"ãĢģæī«æııçĬ¶æĢģè¿½è¸ªä»¥åıĬå¤±è´¥æĹ¥å¿Ĺè®°å½ķ":6242,"ãĢģå½±åĵįè¶ĭåĬ¿ä»¥åıĬå·¥ç¨ĭåĪĨæŀĲåı¯è§ĨåĮĸ":6243,"ãĢģéĢļçŁ¥æľįåĬ¡ä»¥åıĬæĸĩä»¶åŃĺåĤ¨æľįåĬ¡":6244,"ãĢģéĢļçŁ¥åıĬæĸĩä»¶åŃĺåĤ¨å»ºç«ĭæķ°æį®å½Ĵå±ŀ":6245,"ãĢģåºĶæĢ¥ç®¡çĲĨåıĬé£İéĻ©éĺ²æİ§ä½ĵç³»çļĦçĲĨè§£":6246,"ãĢģè®¡è´¹ä»¥åıĬWebhookçŃīåĬŁèĥ½æ¨¡åĿĹ":6247,"ãĢģçŁ³åĮĸçŃīæµģç¨ĭå·¥ä¸ļåľºæĻ¯":6248,"ãĢģåı¯è§ĤæµĭæĢ§ä»¥åıĬç¨³å®ļçļĦè½¯ä»¶æŀ¶æŀĦ":6249,"ãĢģæĹ¶éĹ´åºıåĪĹé¢Ħæµĭå¹³åı°åıĬæķ°æį®æĻºèĥ½ç³»ç»Ł":6250,"ãĢģcommitåħ³èģĶåĪĨæŀĲ":6251,"ãĢģcommitè¿½è¸ªä»¥åıĬåŁºäºİWebhookçļĦåĪĨæŀĲ":6252,"ï¼Įå¯¹æ¯Ķä¸įåĲĮåĿĩåĢ¼æ¼Ĥç§»åľºæĻ¯ä¸ĭçļĦæ£Ģåĩº":6253,"ï¼ĮçłĶç©¶ä¸įåĲĮçģ«çģ¾åľºæĻ¯ä¸ĭçļĦçĥŃæļ´éľ²":6254,"ï¼ĮçłĶç©¶çħ¤çŁ¿çĵ¦æĸ¯æµĵåº¦åıĺåĮĸä¸İçĪĨçĤ¸é£İéĻ©é¢ĦèŃ¦éĹ®é¢ĺ":6255,"ï¼Įå±ķç¤ºç«¯åĪ°ç«¯Javaå¾®æľįåĬ¡æŀ¶æŀĦèĥ½åĬĽ":6256,"ï¼Įå±ķç¤ºåľ¨ä½İå»¶è¿Ł":6257,"ï¼Įä½ĵçİ°äºĨæľįåĬ¡è¾¹çķĮè®¾è®¡":6258,"ï¼Įä½ĵçİ°è¶ħè¶Ĭä»£çłģå®ŀçİ°å±ĤéĿ¢çļĦç³»ç»ŁæĢ§":6259,"ï¼ĮéĩĩçĶ¨çİ¯å¢ĥåıĺéĩıé©±åĬ¨çļĦJWTå¯ĨéĴ¥ä¸İ":6260,"ïĤ·åľ¨WebSocketå®¢æĪ·ç«¯ä¸İæĪ¿éĹ´ç®¡çĲĨä¸Ńå¼ķåħ¥":6261,"ïĤ·åľ¨çĸ«æĥħæľŁéĹ´åıĬä¹ĭ":6262,"ïĤ·ç¼ĸåĨĻCIå·¥ä½ľæµģä¸İéªĮè¯ģèĦļæľ¬":6263,"ïĤ·å¼ķåħ¥SQLè¿ģç§»èĦļæľ¬":6264,"ïĤ·åıĳè¡¨ä¸Ńæĸĩæł¸å¿ĥæľŁåĪĬè®ºæĸĩ":6265,"ĠConfigå®ŀçİ°éĽĨä¸Ńéħįç½®ç®¡çĲĨ":6266,"ïĤ·åıĤä¸İåºĶæĢ¥ç®¡çĲĨéĥ¨å¤©æ´¥æ¶Īéĺ²çłĶç©¶æīĢéĺ²çģ«æľįçģ«çģ¾æ¨¡æĭŁçłĶç©¶":6267,"ãĢģå®īåħ¨çĽĳæµĭåıĬäºĭæķħé¢Ħéĺ²çĽ¸åħ³é¢ĨåŁŁçŁ¥è¯Ĩ":6268,"ïĤ·è®¾è®¡äºĨæ¨¡åĿĹåĮĸNestJSåĲİç«¯æŀ¶æŀĦ":6269,"ïĤ·è®¾è®¡äºĨåĮħåĲ«åħ«ä¸ªæľįåĬ¡çļĦæŀ¶æŀĦ":6270,"ãĢģAIä»£çłģåĪĨæŀĲæıĲç¤ºè¯įè®¾è®¡":6271,"å¯ĨçłģåĵĪå¸Įä¸İå¸¸æķ°æĹ¶éĹ´å¯Ĩçłģæł¡éªĮ":6272,"è£ħé¥°åĻ¨":6273,"ï¼Įä¸Ģä¸ªåŁºäºİGoçļĦå®ŀæĹ¶WebSocketèģĬå¤©åĲİç«¯ç³»ç»Ł":6274,"ãĢĤè¯¥é¡¹çĽ®ä¸įä»ħå±ķç¤ºäºĨLLMéĽĨæĪĲèĥ½åĬĽ":6275,"éĺ²çģ«æľįæ¨¡æĭŁä¸İçĥŃéĺ²æĬ¤åĪĨæŀĲçłĶç©¶":6276,"ï¼ĮæĽ¿ä»£ä¸įå®īåħ¨çļĦæĺİæĸĩå¯Ĩçłģå¤ĦçĲĨæĸ¹å¼ı":6277,"ï¼ĮæĽ¿ä»£ä¸įå®īåħ¨çļĦèĩªåĬ¨å»ºè¡¨æĸ¹å¼ı":6278,"ãĢģè¡ĮæĶ¿åįıè°ĥåıĬçĽ¸åħ³åĬŀåħ¬å®¤å·¥ä½ľ":6279,"ï¼Įä¸İå®¢æĪ·åıĬé¡¹çĽ®åĽ¢éĺŁå¼Ģå±ķè¿ľç¨ĭåĲĪä½ľ":6280,"ï¼ĮåĲĮæĹ¶å°ĨæĮģä¹ħåĮĸæ¶Īæģ¯å½Ĵå±ŀéĢĲæŃ¥è¿ģç§»èĩ³PostgreSQL":6281,"ï¼Įéģ¿åħįå®īåħ¨æķıæĦŁä¿¡æģ¯ç¡¬ç¼ĸçłģ":6282,"ä¸İçľŁå®ŀå·¥ç¨ĭåľºæĻ¯çļĦç»ĵåĲĪ":6283,"Ġschemaä¸İFlywayæķ°æį®åºĵè¿ģç§»èĦļæľ¬":6284,"/APIèĥ½åĬĽè½¬åĮĸä¸ºåı¯çĶ¨çļĦè½¯ä»¶äº§åĵģ":6285,"ãĢģåĽŀå½Ĵå½±åĵįåĪĨæŀĲä»¥åıĬéĤ®ä»¶éĢļçŁ¥åĬŁèĥ½":6286,"çļĦè¯·æ±Ĥè¿ĩæ»¤ä¸İåħ¬å¼Ģ":6287,"ï¼Įä½¿åħ¶èĥ½å¤ŁçĲĨè§£è½¯ä»¶ç³»ç»Łä¸İçľŁå®ŀå·¥ç¨ĭåľºæĻ¯çļĦç»ĵåĲĪ":6288,"ĠåĤ¬åĮĸè£ĤåĮĸ":6289,"ĠåĲĪåĲĮåĪ¶åħ¨æłĪå¼Ģåıĳå·¥ç¨ĭå¸Ī":6290,"ãĢģä¾Ŀèµĸåı¯è§ģæĢ§ä»¥åıĬæľ¬åľ°éĥ¨ç½²éªĮè¯ģèĥ½åĬĽ":6291,"ãĢģå®ŀéªĮå¯¹æ¯ĶåıĬç»ĵæŀľåı¯è§ĨåĮĸ":6292,"ãĢģè·¨éĥ¨éĹ¨æ²ŁéĢļåıĬçĶŁäº§ç®¡çĲĨæĸĩæ¡£å·¥ä½ľ":6293,"ï¼Įä½¿çĶ¨æĪ·åı¯ä»¥è¿ŀæİ¥åĪ°ä¸įåĲĮåĲİç«¯è¿Ľç¨ĭä»įåı¯æŃ£å¸¸":6294,"ï¼Įç»ĵåĲĪåŁºäºİJWTçļĦè¯·æ±Ĥè¿ĩæ»¤ä¸İåħ¬å¼Ģ":6295,"ï¼Įæĺİç¡®åŃĺåĤ¨èģĮè´£è¾¹çķĮ":6296,"æķĻèĤ²ç»ıåİĨ":6297,"æĶ»è¯»åįļå£«åŃ¦ä½į":6298,"ĠSecurityå®ŀçİ°è®¤è¯ģæµģç¨ĭä¸İJWT":6299,"/ç§ģæľīè·¯çĶ±åĪĨç¦»":6300,"¹èĪ¶å°¾æ°ĶçĽĳæµĭçĽĳç®¡ç³»ç»Łå»ºè®¾æķĪæŀľè¯Ħä¼°æĬ¥åĳĬé¡¹çĽ®":6301,"ĠåĪĨä½įæİ§åĪ¶éĻĲ":6302,"Ġç»´èģļåĲĪçī©è¿ĩç¨ĭéĻįç»´èĩ³":6303,"ĠçĽĳæİ§åıĬåıĺéĩıçº§æķħéļľéļĶç¦»":6304,"Ġæį¢çĥŃåĻ¨ç»ĵåŀ¢æ¡Īä¾ĭ":6305,"ĠæĲŃå»ºç»Łè®¡è¿ĩç¨ĭçĽĳæİ§":6306,"Ġäº§åĵģå¼Ģåıĳæµģç¨ĭçļĦçĲĨè§£":6307,"ĠéĴ±åĮħè¿ŀæİ¥åıĬåĮºåĿĹéĵ¾äº¤äºĴéĢ»è¾ĳ":6308,"ıçİ°æľīè¯»åıĸè·¯å¾ĦçļĦæĥħåĨµä¸ĭæıĲåįĩåı¯éĿłæĢ§":6309,"ãĢģè¿ŀæİ¥å¯¼åĲĳåŀĭåľºæĻ¯ä¸ŃçļĦGoåĲİç«¯å¼Ģåıĳèĥ½åĬĽ":6310,"ãĢģåıĺéĩıè´¡çĮ®å®ļä½įåıĬçĽĳæİ§æĸ¹æ¡ĪæķĪæŀľè¯Ħä¼°":6311,"ãĢģæĮīéľĢæĸĩä»¶æī«æıı":6312,"ãĢģGatewayåıĬåĲĦåºĶçĶ¨æľįåĬ¡":6313,"ãĢģåĲ¯åĬ¨è¿ģç§»æī§è¡ĮåĻ¨":6314,"ãĢģå¹¶åıĳå®īåħ¨è®¾è®¡æĦıè¯Ĩ":6315,"ãĢģåĽ¢éĺŁç®¡çĲĨä»¥åıĬåīįç«¯æķ°æį®çľĭæĿ¿":6316,"ãĢģç»ĵæŀĦåĮĸè®¿éĹ®æĹ¥å¿Ĺä»¥åıĬ":6317,"ãĢģå¹¿æĴŃæ¶Īæģ¯ä»¥åıĬæĪ¿éĹ´æ¶Īæģ¯":6318,"ãĢģæĬĢæľ¯æĸĩæ¡£åıĬè·¨åĽ¢éĺŁåįıä½ľç»ıéªĮ":6319,"ãĢģæĶ¯ä»ĺäºĭä»¶å¤ĦçĲĨä»¥åıĬåŁºäºİéħįé¢ĿçļĦAIä½¿çĶ¨æİ§åĪ¶":6320,"ãĢģäº¤æĺĵè®°å½ķåıĬä¸ļåĬ¡éĢ»è¾ĳç®¡çĲĨ":6321,"ãĢģè¯Ńä¹īçº§ä»£çłģéĹ®çŃĶä»¥åıĬåĽ¢éĺŁå·¥ç¨ĭæĬ¥åĳĬçĶŁæĪĲ":6322,"ãĢģæĹłæķĪJSONä¿®å¤įä»¥åıĬAIçĶŁæĪĲä»ĵåºĵæĸĩæ¡£":6323,"ãĢģè®¾å¤ĩé¢ĦèŃ¦åıĬèĥ½æºĲå®īåħ¨åľºæĻ¯":6324,"ãĢģä»·æł¼ä¸İæĶ¯ä»ĺé¡µéĿ¢":6325,"ï¼ĮåıĤä¸İå¤ļä¸ªè¿ľç¨ĭè½¯ä»¶å¼Ģåıĳé¡¹çĽ®":6326,"ï¼Įå®ĮæĪĲæķħéļľæ£Ģæµĭä¸İè´¡çĮ®åĽ¾è¯ĬæĸŃ":6327,"ï¼Įåħ·å¤ĩç½ķè§ģçļĦç»¼åĲĪèĥ½åĬĽç»ĦåĲĪ":6328,"ï¼Įåľ¨ä¸įçł´åĿıçİ°æľīè¯»åıĸè·¯å¾ĦçļĦæĥħåĨµä¸ĭæıĲåįĩåı¯éĿłæĢ§":6329,"ï¼Įå¢ŀå¼ºé¢ĨåŁŁéĢ»è¾ĳä¸İéĢļçŁ¥æĬķéĢĴçļĦè§£èĢ¦èĥ½åĬĽ":6330,"ï¼Įå½¢æĪĲåı¯å¤įçĶ¨çļĦå·¥ä¸ļ":6331,"ãĢĤç³»ç»Łåı¯è¿ŀæİ¥GitHub":6332,"ãĢĤçĲĨè§£çĶŁäº§çº§AIç³»ç»Łä¸įä»ħä¾Ŀèµĸprompt":6333,"ãĢĤèĥ½å¤Łå°ĨAIæĥ³æ³ķä»İæ¨¡åŀĭ":6334,"ãĢĤåĲĮæĹ¶æĭ¥æľīWeb":6335,"ãĢĤçĽ®åīįåľ¨æĸ°çĸĨå¤§åŃ¦æĶ»è¯»åįļå£«åŃ¦ä½į":6336,"ïĤ·å¯¹å®ŀéªĮä¸İä»¿çľŁæķ°æį®è¿Ľè¡Įå¤ĦçĲĨ":6337,"ïĤ·å¤ĦçĲĨæĹ¶åºıèĩªçĽ¸åħ³éĹ®é¢ĺ":6338,"ïĤ·è¾ĵåĩºåı¯è§ĨåĮĸåĪĨæŀĲæĪĲæŀľä¸İé¡¹çĽ®æĸĩæ¡£":6339,"ïĤ·æł¹æį®é¡¹çĽ®éľĢæ±ĤéĽĨæĪĲ":6340,"ïĤ·è´Łè´£ä¼ļè®®æĿĲæĸĻ":6341,"ïĤ·ä¸ŃåĽ½çŁ³æ²¹ä¼ĺç§Ģåħ±éĿĴåĽ¢åĳĺ":6342,"ä¸İåĽŀçŃĶåĪĨçīĩè¾ĵåĩº":6343,"ï¼ļä¸įä»ħä»ħæŀĦå»ºè°ĥçĶ¨LLM":6344,"åŁºéĩĳåįĬä¸»åĬ¨æīĳç¿¼æİ¨è¿ĽæĢ§èĥ½çłĶç©¶é¡¹çĽ®":6345,"åľ¨LLMåºĶçĶ¨å·¥ç¨ĭæĸ¹éĿ¢ç»ıéªĮä¸°å¯Į":6346,"åľ¨åĲİç«¯æŀ¶æŀĦæĸ¹éĿ¢åħ·å¤ĩè¾ĥå¼ºèĥ½åĬĽ":6347,"é¡¹æ³¢æµªé©±åĬ¨åīĸéĿ¢æµ®æłĩé¡¹çĽ®":6348,"ï¼īä½ĵç³»åĨħå®¡åĳĺè¯ģä¹¦":6349,"ï¼īä»¥åıĬæĿ¥èĩªä¸ŃåĽ½çŁ³æ²¹çļĦå·¥ä¸ļå®īåħ¨å®ŀè·µç»ıéªĮ":6350,"æŀĦå»ºHikaflowä½ľä¸ºåħ¨æłĪAIå·¥ç¨ĭèĥ½åĬĽçļĦæł¸å¿ĥè¯ģæĺİ":6351,"æıĲåįĩç³»ç»Łè¿Ĳè¡Įåı¯è§ĤæµĭæĢ§ä¸İéĹ®é¢ĺæİĴæŁ¥èĥ½åĬĽ":6352,"å·¥ä¸ļè¿ĩç¨ĭç»Łè®¡çĽĳæİ§ä¸İæķħéļľæ£ĢæµĭåĪĨæŀĲ":6353,"ï¼Įå¹¶ä¿®å¤įAIçĶŁæĪĲçļĦæĹłæķĪJSONè¾ĵåĩº":6354,"ï¼Įå¹¶ä¿Ŀè¯ģåĲĦæ¨¡åĿĹåı¯çĭ¬ç«ĭæŀĦå»ºä¸İéĥ¨ç½²":6355,"ïĤ·åıĤä¸İå¹¿ä¸ľåºĶæĢ¥ä¸ĵé¡¹æ³¢æµªé©±åĬ¨åīĸéĿ¢æµ®æłĩé¡¹çĽ®":6356,"ïĤ·åıĤä¸İçŁ³æ²¹åĮĸå·¥çĶŁäº§ä¸İå·¥èīºå®īåħ¨å·¥ä½ľ":6357,"ïĤ·åıĤä¸İå¤©æ´¥æµ·ä¸ĬèĪ¹èĪ¶å°¾æ°ĶçĽĳæµĭçĽĳç®¡ç³»ç»Łå»ºè®¾æķĪæŀľè¯Ħä¼°æĬ¥åĳĬé¡¹çĽ®":6358,"ïĤ·åıĤä¸İåĽ½å®¶èĩªçĦ¶ç§ĳåŃ¦åŁºéĩĳåįĬä¸»åĬ¨æīĳç¿¼æİ¨è¿ĽæĢ§èĥ½çłĶç©¶é¡¹çĽ®":6359,"ïĤ·åıĤä¸İå·¥è´¸è¡Įä¸ļå®īåħ¨çĽĳç®¡æī§æ³ķèĥ½åĬĽæıĲåįĩåŁ¹è®Ńé¡¹çĽ®":6360,"ïĤ·ä½¿çĶ¨Zustandè¿Ľè¡Įåīįç«¯çĬ¶æĢģç®¡çĲĨ":6361,"ï¼Įä½¿ä¸ļåĬ¡æľįåĬ¡åı¯ä»¥åľ¨ä¸įéĺ»å¡ŀä¸»è¯·æ±Ĥè·¯å¾ĦçļĦæĥħåĨµä¸ĭåıĳå¸ĥäºĭä»¶":6362,"ï¼ĮæĶ¯æĮģåı¯éħįç½®tokenå¯ĨéĴ¥ä¸İTTL":6363,"ï¼ĮæĶ¯æĮģæĸĩä»¶åħĥæķ°æį®æĮģä¹ħåĮĸä¸İåı¯éħįç½®çļĦæľ¬åľ°äºĮè¿ĽåĪ¶åŃĺåĤ¨":6364,"ï¼ĮçĶ¨äºİå®ŀæĹ¶AIå¤ĦçĲĨè¿Ľåº¦æİ¨éĢģä¸İåĽŀçŃĶåĪĨçīĩè¾ĵåĩº":6365,"ïĤ·çłĶç©¶æĪĲæŀľéĢĤçĶ¨äºİæĻºæħ§åŁİå¸Ĥ":6366,"ïĤ·æŀĦå»ºåŁºäºİBullMQä¸İRedisçļĦå¼ĤæŃ¥ä»ĵåºĵæī«æııç³»ç»Ł":6367,"ïĤ·åŁºäºİç®Ĺæ³ķå»ºæ¨¡ä¸İä»¿çľŁåĪĨæŀĲ":6368,"ïĤ·åŁºäºİæĹ¶ç©ºåµĮåħ¥ä¸İæ³¨æĦıåĬĽæľºåĪ¶å¼Ģå±ķç©ºæ°Ķè´¨éĩıé¢ĦæµĭçłĶç©¶":6369,"ï¼ĮéĻįä½İæ»¥çĶ¨é£İéĻ©å¹¶ä¿ĿæĬ¤è®¤è¯ģä¸İå®ŀæĹ¶éĢļä¿¡æİ¥åı£":6370,"Ġtokenä¸ŃéĹ´ä»¶æıĲåįĩè®¤è¯ģä¸Ģèĩ´æĢ§ä¸İéĥ¨ç½²åı¯éħįç½®æĢ§":6371,"ï¼Įåĩıå°ĳåĨħéĥ¨æľįåĬ¡çĽ´æİ¥æļ´éľ²å¹¶æıĲåįĩAPIè®¿éĹ®æİ§åĪ¶èĥ½åĬĽ":6372,"ï¼Įå°Ĩåħ³éĶ®èģĬå¤©åİĨåı²ä»İä¸´æĹ¶RedisçĬ¶æĢģè¿ģç§»èĩ³åı¯å®¡è®¡çļĦåħ³ç³»åŀĭåŃĺåĤ¨":6373,"ãĢģcommitè¿½è¸ªä»¥åıĬåŁºäºİWebhookçļĦåĪĨæŀĲæµģç¨ĭ":6374,"ï¼Įå¯¹æ¯Ķä¸įåĲĮåĿĩåĢ¼æ¼Ĥç§»åľºæĻ¯ä¸ĭçļĦæ£Ģåĩºèĥ½åĬĽ":6375,"ï¼ĮçłĶç©¶ä¸įåĲĮçģ«çģ¾åľºæĻ¯ä¸ĭçļĦçĥŃæļ´éľ²æĥħåĨµ":6376,"ï¼Įä½ĵçİ°è¶ħè¶Ĭä»£çłģå®ŀçİ°å±ĤéĿ¢çļĦç³»ç»ŁæĢ§å·¥ç¨ĭæĢĿç»´ä¸İä¸Ĭçº¿é£İéĻ©è¯Ħä¼°èĥ½åĬĽ":6377,"ï¼ĮéĩĩçĶ¨çİ¯å¢ĥåıĺéĩıé©±åĬ¨çļĦJWTå¯ĨéĴ¥ä¸İåı¯éħįç½®è¿ĩæľŁæĹ¶éĹ´":6378,"ïĤ·åľ¨WebSocketå®¢æĪ·ç«¯ä¸İæĪ¿éĹ´ç®¡çĲĨä¸Ńå¼ķåħ¥å¹¶åıĳæİ§åĪ¶éĶģæľºåĪ¶":6379,"ïĤ·åľ¨çĸ«æĥħæľŁéĹ´åıĬä¹ĭåĲİ":6380,"ï¼Įä½¿çĶ¨æĪ·åı¯ä»¥è¿ŀæİ¥åĪ°ä¸įåĲĮåĲİç«¯è¿Ľç¨ĭä»įåı¯æŃ£å¸¸éĢļä¿¡":6381,"(json":6382,"({\"":6383,"))čĊ":6384,",{\"":6385,"-N":6386,"-f":6387,"-h":6388,"-čĊ":6389,"-le":6390,"-ad":6391,"-gr":6392,"-refit":6393,"-back":6394,"-chain":6395,"./":6396,".o":6397,".sh":6398,".add":6399,"/re":6400,"/te":6401,"/åİĨåı²":6402,"/XSEC":6403,"/æķ°æį®å¤ĦçĲĨ":6404,"=\"":6405,"AO":6406,"An":6407,"ARM":6408,"ACH":6409,"BF":6410,"Bat":6411,"CC":6412,"CPython":6413,"Cloud":6414,"Data":6415,"EAD":6416,"ENT":6417,"IC":6418,"IG":6419,"IST":6420,"Ja":6421,"Leader":6422,"MSE":6423,"Mountain":6424,"MIT":6425,"Net":6426,"OACH":6427,"PC":6428,"PO":6429,"Pre":6430,"Post":6431,"PPR":6432,"SA":6433,"Sen":6434,"Software":6435,"Softmax":6436,"TE":6437,"TIT":6438,"WARM":6439,"[{\"":6440,"]})čĊ":6441,"_B":6442,"_N":6443,"_n":6444,"_ST":6445,"_SC":6446,"_read":6447,"apt":6448,"aus":6449,"air":6450,"aust":6451,"ayment":6452,"ared":6453,"bution":6454,"cup":6455,"dle":6456,"domain":6457,"ec":6458,"ep":6459,"eal":6460,"fess":6461,"gor":6462,"gle":6463,"gapfill":6464,"hav":6465,"hip":6466,"hikaflow":6467,"haust":6468,"ix":6469,"iat":6470,"ide":6471,"ipe":6472,"kip":6473,"ld":6474,"lit":6475,"lic":6476,"ledge":6477,"lines":6478,"mountain":6479,"nar":6480,"nect":6481,"now":6482,"oute":6483,"olog":6484,"qa":6485,"quality":6486,"rch":6487,"rain":6488,"rap":6489,"rator":6490,"rphan":6491,"runtime":6492,"reng":6493,"sed":6494,"to":6495,"ting":6496,"type":6497,"torch":6498,"uch":6499,"with":6500,"work":6501,"word":6502,"warm":6503,"}ï¼Ł\",čĊ":6504,"}\")čĊ":6505,"},{\"":6506,"}]})čĊ":6507,"¥¿":6508,"³°":6509,"´è¶":6510,"½çĦ¶":6511,"¾İ":6512,"åł":6513,"ç¾İ":6514,"èĥ":6515,"èŀ":6516,"è¥¿":6517,"éĨĴ":6518,"ĉæľīæķĪ":6519,"ĉçŁŃæľŁ":6520,"ĉä¸ŃæľŁ":6521,"ĠG":6522,"ĠV":6523,"Ġ_":6524,"Ġj":6525,"Ġent":6526,"Ġå¹¶":6527,"Ġæĸ°":6528,"Ġæĸĩä»¶":6529,"Ġver":6530,"ĠæĽ´":6531,"Ġä»ĵåºĵ":6532,"ĠéĽĨæĪĲ":6533,"Ġè¾ĵåĩº":6534,"ĠOpen":6535,"ĠçĬ¶æĢģ":6536,"Ġä¸ļåĬ¡":6537,"Ġå®Įæķ´":6538,"Ġä½įç½®":6539,"Ġåı¯èĥ½":6540,"Ġvector":6541,"Ġæİ¨çĲĨ":6542,"ĠæĿ¡":6543,"Ġä¸¤":6544,"Ġop":6545,"ĠGORM":6546,"ĠOpenFeign":6547,"Ġæķ°æį®çľĭæĿ¿":6548,"ĠæľįåĬ¡è°ĥçĶ¨":6549,"ĠOpenAI":6550,"Ġedge":6551,"Ġèĭ¥":6552,"Ġown":6553,"Ĥå¯":6554,"ĤçŃī":6555,"ĥı":6556,"ĪæĿĥ":6557,"įåĲĪ":6558,"Ĵåħ¥":6559,"ĶæĸŃ":6560,"ļèĩ³":6561,"ä¸ĥ":6562,"ãĢģB":6563,"ãĢģre":6564,"ãĢģå¼Ģåıĳ":6565,"ãĢģæµģç¨ĭ":6566,"ãĢģè¦ĨçĽĸ":6567,"ãĢģæł·æľ¬":6568,"ãĢģèµĦæºĲ":6569,"ãĢģä¸Ģèĩ´æĢ§":6570,"ãĢģéļĶç¦»":6571,"ãĢģartifact":6572,"ãĢģåŃĲè¯į":6573,"ï¼ĮåºĶ":6574,"ï¼Įç¡®":6575,"ï¼Įåħ¶":6576,"ï¼ĮåħĪ":6577,"ï¼ĮçĽ®æłĩ":6578,"ï¼Įè¯·":6579,"ï¼Įåħ¶ä»ĸ":6580,"ï¼Įæł¹æį®":6581,"ï¼Įå¦Ĥæŀľ":6582,"ï¼Įåı¯èĥ½":6583,"ï¼Įå¿ħé¡»":6584,"ï¼ĮæīĢ":6585,"ï¼Įä¿®å¤į":6586,"ï¼ĮæĦŁ":6587,"ï¼Įæ¯ıä¸ª":6588,"ï¼Įæ»¡è¶³":6589,"ï¼Įç»ĻæĪĳ":6590,"ï¼Įè¿Ńä»£äº¤ä»ĺ":6591,"ï¼Įæ¯ıå¤©":6592,"ãĢĤæĪĳ":6593,"ãĢĤä¸įèĥ½":6594,"ink":6595,"inning":6596,"åħ´è¶":6597,"çļĦèĥ½åĬĽ":6598,"çļĦæľºåĪ¶":6599,"çļĦåıĤæķ°":6600,"çļĦå°±":6601,"çļĦæĸ¹åĲĳ":6602,"çļĦåºıåĪĹ":6603,"çļĦçŃĸçķ¥":6604,"çļĦåĢĻéĢī":6605,"çļĦåĽŀçŃĶ":6606,"çļĦçī¹å¾ģ":6607,"çļĦåŁºæľ¬":6608,"ert":6609,"ered":6610,"çĶļèĩ³":6611,"è¯ĳ":6612,"onit":6613,"ontext":6614,"ïĤ·U":6615,"ïĤ·ä¸İ":6616,"ann":6617,"ancy":6618,"æķ°ID":6619,"æķ°ç»Ħ":6620,"ories":6621,"orphan":6622,"orld":6623,"æĺ¯Python":6624,"æĺ¯åĬ¨æĢģ":6625,"æĺ¯è¯Ńè¨Ģæ¨¡åŀĭ":6626,"éĢĢ":6627,"å¼¦":6628,"static":6629,"æİĪæĿĥ":6630,"ï¼ļä¸į":6631,"ï¼ļ\",čĊ":6632,"alized":6633,"alPost":6634,"edback":6635,"ä»¥åĲİ":6636,"ä»¥åīį":6637,"item":6638,"ities":6639,"itiat":6640,"åĪĨå·®":6641,"åĪĨå±Ĥ":6642,"åĪĨé¡µ":6643,"åı¯åŃ¦ä¹ł":6644,"åı¯è¿ģç§»":6645,"æķ°æį®ä¸Ĭ":6646,"æķ°æį®ä¸ŃçļĦ":6647,"æķ°æį®åĪĴ":6648,"æķ°æį®ç»§ç»Ń":6649,"æķ°æį®ç§ĳåŃ¦":6650,"åıĬç®¡çĲĨ":6651,"æĸĩåŃĹ":6652,"Ġ\"{":6653,"Ġ\"\")":6654,"åĨ³å®ļ":6655,"ĠArch":6656,"ä¸įçĽ´æİ¥":6657,"ä¸įéĩįæĸ°":6658,"ä¸įç¨³å®ļ":6659,"ä¸įåĨį":6660,"ä¸įéĢĤåĲĪ":6661,"ä¸įåĪłéĻ¤":6662,"ä¸įåŃĺåľ¨":6663,"è§Ĥæµĭ":6664,"è§Ĥå¯":6665,"cted":6666,"å¹ĤçŃī":6667,"å®ŀæķ°":6668,"å®ŀä½ĵ":6669,"ï¼ŁčĊ":6670,"ary":6671,"ä¸ĢåĮĸ":6672,"æıĴåħ¥":6673,"æĬ¢":6674,"æĬĺ":6675,"æ¨¡åŀĭåŃ¦ä¹ł":6676,"æ¨¡åŀĭçĶŁæĪĲ":6677,"æ¨¡åŀĭéĢīæĭ©":6678,"depth":6679,"Ġsize":6680,"Ġsource":6681,"Ġskip":6682,"Ġsuch":6683,"åĴĮF":6684,"åĴĮç®¡çĲĨ":6685,"åĴĮè®Ńç»ĥ":6686,"åĴĮä»»åĬ¡":6687,"åĴĮè®¡ç®Ĺ":6688,"åĴĮä¾Ŀèµĸ":6689,"åĴĮè¯Ńä¹ī":6690,"leader":6691,"åħ¨åıĤæķ°":6692,"Ġco":6693,"Ġcre":6694,"Ġconf":6695,"Ġcloud":6696,"Ġcases":6697,"å¼Ģåħ³":6698,"å¼ĢéĶĢ":6699,"æĢ§æµĭè¯ķ":6700,"çİ°åľ¨":6701,"åĲİåĨį":6702,"check":6703,"æĸ¹ä¾":6704,"è¿ĩçļĦ":6705,"è¿ĩåº¦":6706,"éĹ´æİ¥":6707,"çº¯":6708,"Ġregist":6709,"Ġreli":6710,"è¦ģçļĦ":6711,"åĮħå¤§å°ı":6712,"æıĲåĩº":6713,"æıĲéĨĴ":6714,"åĲĪéĢĤ":6715,"åīª":6716,"æľ¬è½®":6717,"æľīéĻĲ":6718,"æľīåĬ©äºİ":6719,"åħ³æ³¨":6720,"åľ¨å®ŀéĻħ":6721,"AIL":6722,"æīĭ":6723,"æīĵ":6724,"æĭ¿":6725,"ĠSC":6726,"ĠSystem":6727,"telemetry":6728,"Ġpr":6729,"Ġpub":6730,"Ġpart":6731,"Ġpass":6732,"Ġpayment":6733,"Ġpinning":6734,"è¡Įä¸º":6735,"éªĮæĶ¶":6736,"ç»ĵè®º":6737,"ç»ĵæĿŁ":6738,"ĠPR":6739,"ĠPrompt":6740,"ĠPBKDF":6741,"å¹¶æĬ¥åĳĬ":6742,"åİĭ":6743,"å¤įçİ°":6744,"é¡¹çĽ®çļĦ":6745,"å¿µ":6746,"Ġinv":6747,"Ġintelligence":6748,"Ġinitiat":6749,"æĸ°çŃĸçķ¥":6750,"ä¸ĬéĻĲ":6751,"ä¸Ĭæī¾":6752,"è°ĥæŁ¥":6753,"Ġmig":6754,"Ġmap":6755,"Ġmicroser":6756,"Ġmonit":6757,"ç»ĥä½¿çĶ¨":6758,"éĩįè®Ńç»ĥ":6759,"å·¥ç¨ĭä¼ĺåĮĸ":6760,"å¤ļå¤´":6761,"çĶ¨äºİåľ¨":6762,"rid":6763,"Ġdur":6764,"Ġdisc":6765,"Ġdomain":6766,"ä¸ĭéĿ¢":6767,"ä¸ĭä¸Ģä¸ª":6768,"çĽ¸å¯¹":6769,"active":6770,"illing":6771,"Ġblock":6772,"Ġbilling":6773,"search":6774,"utf":6775,"uter":6776,"utop":6777,"è¯ŃéŁ³":6778,"æĪĸåħ¶ä»ĸ":6779,"æĪĸå®¢æĪ·":6780,"æĪĸèĢħ":6781,"ï¼īãĢĤčĊ":6782,"admin":6783,"èµ·":6784,"åı¯ä»¥çĽ´æİ¥":6785,"åı¯ä»¥ä¿Ŀè¯ģ":6786,"ç¼©":6787,"é«ĺä¼ĺåħĪçº§":6788,"artup":6789,"åĩºæĿ¥":6790,"vel":6791,"Ġab":6792,"ä»»èģĮ":6793,"åĽŀå¤į":6794,"agent":6795,"Ġdemon":6796,"åĬłéĢŁ":6797,"æľºåĪ¶éĢļè¿ĩ":6798,"valence":6799,"è·³":6800,"Ġtake":6801,"çĽ¸åħ³åĨħå®¹":6802,"çĽ¸åħ³ä¸ĵä¸ļ":6803,"æ¶īåıĬ":6804,"çŃīå¾ħ":6805,"ä»»åĬ¡åĨłåĨĽ":6806,"æľĢå¤ļ":6807,"æľĢä¼ĺ":6808,"å¤§äºİ":6809,"å¤§éĥ¨åĪĨ":6810,"aining":6811,"Ġel":6812,"Ġequi":6813,"æķ´æķ°ID":6814,"æĸĩæ¡£åĪĩåĪĨ":6815,"ify":6816,"åįĩçº§":6817,"æĶ¯æĮģçļĦè¯Ŀ":6818,"peci":6819,"åºĶçĶ¨åľºæĻ¯":6820,"éľĢè¦ģç»ĵåĲĪ":6821,"åįķä¸ª":6822,"æĪĳçļĦç®ĢåİĨ":6823,"å¹³æĸ¹":6824,"åı£è¯Ń":6825,"åĪ°çļĦ":6826,"éĹ®é¢ĺè§£åĨ³":6827,"åıĤæķ°åĨ»ç»ĵ":6828,"åıĤæķ°çļĦæ¢¯åº¦":6829,"ĠFlyway":6830,"Ġstartup":6831,"ĠNext":6832,"æ¶Īå¤±":6833,"olum":6834,"olving":6835,"æķĪçİĩ":6836,"æİ¨èį":6837,"ç®Ģæ´":6838,"ïĤ·åıĤä¸İå¤ļä¸ª":6839,"åĽ¾ä¼ĺåĮĸ":6840,"é¢Ħæµĭä¸ĭä¸Ģä¸ª":6841,"çŁ¥éģĵ":6842,"åĽ¢éĺŁæĪĸå®¢æĪ·":6843,"ĠTe":6844,"ĠTailwind":6845,"å¤±æķĪ":6846,"è¿Ľè¡Įå½Ĵ":6847,"è¿Ľè¡ĮåĬłæĿĥ":6848,"è¾ĵåĩºå±Ĥ":6849,"åŃĺåĤ¨ç³»ç»Ł":6850,"SEARCH":6851,"idx":6852,"ident":6853,"idation":6854,"iddle":6855,"istory":6856,"istrator":6857,"äººåĳĺ":6858,"ä¹ĭä¸Ģ":6859,"ä¹ĭåīį":6860,"ä¹ĭä¸Ĭ":6861,"Ġenab":6862,"Ġenco":6863,"è¿Ĳç®Ĺ":6864,"Ġprogress":6865,"æĦıæĢĿ":6866,"åĲĳéĩıåĮĸ":6867,"éħįç½®åĴĮ":6868,"æ·±å±Ĥç½ĳç»ľ":6869,"used":6870,"éģ®":6871,"éģĹ":6872,"ĠMySQL":6873,"ĠMongoDB":6874,"è®°ä¸Ģä¸ĭ":6875,"æĸĩæľ¬çīĩæ®µ":6876,"ä¼°è®¡":6877,"æıĲä¾Ľä½įç½®":6878,"æıĲä¾Ľä¾Ŀæį®":6879,"åıªè¦ģ":6880,"åıªæľī":6881,"åıªåľ¨":6882,"è¿ľç¨ĭåĬŀåħ¬":6883,"è¿ľç¨ĭåĽ¢éĺŁæĪĸå®¢æĪ·":6884,"éķ¿åº¦":6885,"å¹³åı°åĪĨéħį":6886,"å²Ĺä½įèģĮè´£":6887,"ç½ĳä¸Ĭæī¾":6888,"åħ¶ä»ĸåľ°åĽ¾":6889,"åĮºåĪ«":6890,"éĢĤéħį":6891,"èĥ½å¤Łåľ¨":6892,"èĥ½å¤Łå¤ĦçĲĨçļĦ":6893,"ithms":6894,"æĹłæ³ķ":6895,"æĶ¹åĸĦ":6896,"éĺ²æŃ¢":6897,"ä¼ĺåĮĸçĶ¨æĪ·ä½ĵéªĮ":6898,"å¢ŀéķ¿":6899,"çī¹çĤ¹":6900,"ummar":6901,"ç»Ļä½ł":6902,"ä¸ļåĬ¡éľĢæ±Ĥ":6903,"æĥħæĦŁ":6904,"ONE":6905,"elf":6906,"ell":6907,"Ġquest":6908,"ä¼ļå½±åĵį":6909,"ä¼ļå¢ŀåĬł":6910,"è¿ĩç¨ĭä¸ŃçļĦ":6911,"æĿĥè¡¡":6912,"Ġhead":6913,"Ġholdout":6914,"Ġheal":6915,"Ġhistory":6916,"çĶ±äºİ":6917,"çĶ±å¤ļä¸ª":6918,"åħ³ç³»æķ°æį®åºĵ":6919,"æĮģä¹ħæĢ§":6920,"ä½įç½®ä¿¡æģ¯":6921,"ĠQA":6922,"\":[{\"":6923,"overy":6924,"åıįå¤į":6925,"åıįæĺł":6926,"ĠDe":6927,"ĠDesign":6928,"ãĢģSC":6929,"æĤ¨çļĦ":6930,"ä¼łè¾ĵ":6931,"ï¼Įä½Ĩå¿ħé¡»":6932,"ï¼Įä½Ĩç§ĳçłĶä¸»ä½ĵå·¥ä½ľå·²ç»ıå®ĮæĪĲ":6933,"æ²ŁéĢļéľĢæ±Ĥ":6934,"çĨĶæĸŃ":6935,"Ġrubrics":6936,"ï¼Įåı¯ä»¥çļĦ":6937,"Ġscorer":6938,"è´Łç»ĵæŀľ":6939,"åİŁçĲĨ":6940,"åİŁåŃĲ":6941,"å®ĺæĸ¹å®¹åĻ¨":6942,"åŁºç¡Ģä¸Ĭ":6943,"anged":6944,"ç»Łè®¡éĩı":6945,"åĲĮæĹ¶åĪ©çĶ¨":6946,"ards":6947,"éĩįæĸ°è®Ńç»ĥ":6948,"è§£éĩĬåĻ¨":6949,"è§£éĩĬä¸Ģä¸ĭ":6950,"Ġwithout":6951,"SCENT":6952,"occup":6953,"rong":6954,"ership":6955,"ä¸įåĲĮä¸ļåĬ¡éľĢæ±Ĥ":6956,"acity":6957,"spiral":6958,"split":6959,"ĠLive":6960,"ĠLinux":6961,"ĠLearn":6962,"ĠLeader":6963,"Ġroom":6964,"å¼ºåº¦":6965,"æľĢç»ĪçĽ®æłĩ":6966,"æ¦Ĥå¿µ":6967,"Ġ[]čĊ":6968,"Ġlarge":6969,"ĠReasoning":6970,"erior":6971,"åĨ»ç»ĵå®ŀçİ°":6972,"çĨŁç»ĥä½¿çĶ¨":6973,"tribution":6974,"åĲ¯çĶ¨":6975,"ïĤ·å¼Ģåıĳæķ°æį®çľĭæĿ¿":6976,"åŃĹç¬¦":6977,"Ġaccount":6978,"æ²¡æľīåĲį":6979,"æ¢¯åº¦æ¶Īå¤±":6980,"scorer":6981,"Ġone":6982,"Ġä¸İåħ¨æłĪé¡¹çĽ®":6983,"Ġthat":6984,"enced":6985,"å¼Ĥå¸¸å¤ĦçĲĨ":6986,"upporting":6987,"èĻ½çĦ¶":6988,"âĢĿčĊ":6989,"âĢĿçļĦ":6990,"æĦŁåħ´è¶":6991,"è¶³å¤Ł":6992,"âī¤":6993,"Ġassurance":6994,"çļĦæķ°æį®ç»ĵæŀĦ":6995,"ïĤ·Benchmark":6996,"åĪĨéħįåĪ°":6997,"æłĩåĩĨåĮĸ":6998,"åĽŀå½Ĵä»»åĬ¡":6999,"è´Łè´£åīįç«¯å¼Ģåıĳ":7000,"HASE":7001,"ache":7002,"jective":7003,"Ġä¸įæģ¶åĮĸ":7004,"åĪĩçīĩ":7005,"Ġclass":7006,"æī©å¤§":7007,"Ġinternal":7008,"xperienced":7009,"ĠIntelligence":7010,"å°½åı¯èĥ½":7011,"éĿŀçº¿æĢ§":7012,"éĿŀçĽ®æłĩåľ°åĽ¾":7013,"è§£åĨ³æĸ¹æ¡Ī":7014,"è§£åĨ³ä»Ģä¹ĪéĹ®é¢ĺ":7015,"validation":7016,"è¶Ĭè¿ĩ":7017,"è¶ĬçķĮ":7018,"è§Ħæ¨¡å¢ŀéķ¿":7019,"éķ¿æľŁè®°å¿Ĩ":7020,"ç²¾åº¦":7021,"/Fallback":7022,"/visited":7023,"éĥ½æĺ¯":7024,"ĠDockerfile":7025,"åĪĿæŃ¥":7026,"åĲįç§°":7027,"åĪĨå¸ĥå¼ı":7028,"Ġlogical":7029,"å®¢æĪ·ç«¯åĴĮ":7030,"odd":7031,"ïĤ·Software":7032,"æĺ¾å¼ı":7033,"è¾¾åĪ°":7034,"chemical":7035,"ributed":7036,"Ġexec":7037,"Ġexhaust":7038,"èĩªåĬ¨åĮĸåıĬç»ĵæŀľåı¯è§ĨåĮĸ":7039,"æĺłå°ĦåĪ°":7040,"çī©èģĶç½ĳ":7041,"è¡¡éĩıäºĮåĪĨç±»":7042,"èİ·åıĸ":7043,"ync":7044,"ç±»åĪ«çļĦ":7045,"ç¼ºåı£":7046,"ç¼ºå¤±":7047,"ï¼Įä½¿æ¨¡åŀĭåŃ¦ä¹ł":7048,"èĬĤçĤ¹çļĦ":7049,"æ³ĽåĮĸæĢ§èĥ½":7050,"-driv":7051,"/TPE":7052,"ILT":7053,"_FAIL":7054,"Ġobjective":7055,"Ġvalidator":7056,"æĸ°å¢ŀæľºåĪ¶":7057,"ï¼ĮæĪĳè¿Ļè¾¹é©¬ä¸Ĭ":7058,"å°½éĩıåĲĪå¹¶":7059,"Ġresponse":7060,"Validation":7061,"_dir":7062,"Ġåħ¨æłĪèĩªçĶ±èģĮä¸ļ":7063,"Ġå·²æľī":7064,"ãĢĭãĢĤčĊ":7065,"ï¼Įä¹Łåı¯ä»¥":7066,"è®Ńç»ĥæķ°æį®ä¸ŃçļĦ":7067,"éħįå¯¹å®ŀéªĮ":7068,"å£°æĺİ":7069,"Ġtesting":7070,"Ġteams":7071,"ç¢°":7072,"Ġorphan":7073,"ä½Ļå¼¦":7074,"åĪĨä¸ºå¤ļä¸ª":7075,"Ġclaim":7076,"Ġcapability":7077,"Ġcapacity":7078,"åĲİæīįåģļ":7079,"Ġfeedback":7080,"è°¢æĤ¨çļĦ":7081,"Ġinstruction":7082,"Ġbuil":7083,"æĮĩä»¤å¾®è°ĥ":7084,"è®¡ç®ĹæľºçĽ¸åħ³ä¸ĵä¸ļ":7085,"Ġscans":7086,"ãĢģæķ°æį®å¤ĦçĲĨåıĬ":7087,"èİ·å¾ĹæĽ´":7088,"Ġdashboards":7089,"---čĊ":7090,"/OOD":7091,"Profess":7092,"_PASS":7093,"_colum":7094,"ï¼ģčĊ":7095,"æĪªæŃ¢":7096,"è¡¥åħħ":7097,"Ġplatforms":7098,"è¿Ļä¸ªæĸĩä»¶":7099,"Ġimplementations":7100,"æ¿Ģæ´»åĩ½æķ°":7101,"è½»éĩıçº§":7102,"Ġconfigurable":7103,"-aware":7104,"-control":7105,"DESCENT":7106,"ROC":7107,"_audit":7108,"ives":7109,"Ġattribution":7110,"ï¼Łå¦ĤæŀľæĶ¯æĮģçļĦè¯Ŀ":7111,"Ġflows":7112,"Ġboxed":7113,"unctions":7114,"æĽ´éĢĤåĲĪä½¿çĶ¨":7115,"ç¡®å®ļæĢ§":7116,"æĪĳçĽ®åīįåįļå£«åľ¨è¯»":7117,"README":7118,"Ġprocessing":7119,"Ġanswer":7120,"åŃĹèĬĤçłģ":7121,"åĲĪå¹¶åĪ°ä¸Ģè¡Į":7122,"ç¿»è¯ĳ":7123,"æŁĲä¸ª":7124,"åģĩè®¾ä½ł":7125,"(Supporting":7126,"/exp":7127,"PadNet":7128,"ULT":7129,"rategy":7130,"ï¼Įä¸»è¦ģè´Łè´£åīįç«¯å¼Ģåıĳ":7131,"reshold":7132,"orizon":7133,"æĢ§åĴĮæĮģä¹ħæĢ§":7134,"ä¸Ńè¿Ľè¡Įéĩĩæł·":7135,"Ġretrieval":7136,"åĲĪçĲĨçļĦ":7137,"åī©ä½ĻæĹ¶éĹ´":7138,"æĭĽèģĺ":7139,"etrochemical":7140,"Ġplanning":7141,"Ġpractical":7142,"Ġfollowing":7143,"Ġindependently":7144,"Ġdirect":7145,"è·Ŀç¦»":7146,"æŃ¥éª¤":7147,"ïĤ·Contributed":7148,"åħ³éĶ®è¯įæ£Ģç´¢":7149,"Ġissues":7150,"Ġoutputs":7151,"Ġperformance":7152,"CPUå¯ĨéĽĨåŀĭä»»åĬ¡":7153,"ãĢĤä¸įè¿ĩæĥ³åħĪç¡®è®¤ä¸Ģä¸ĭ":7154,"ï¼ĮèĢĮä¸įæĺ¯ä¸Ģæ¬¡æĢ§":7155,".dumps":7156,"åŀĥåľ¾åĽŀæĶ¶":7157,"-level":7158,"-adapt":7159,".open":7160,"Batis":7161,"JaVa":7162,"Precision":7163,"PPROACH":7164,"Senior":7165,"_SCO":7166,"_reader":7167,"ausal":7168,"gorithms":7169,"nowledge":7170,"rength":7171,"workspace":7172,"åłĨ":7173,"èĥĮ":7174,"èŀįåĲĪ":7175,"ĉçŁŃæľŁé«ĺä¼ĺåħĪçº§":7176,"Ġå¹¶ä¼ĺåĮĸçĶ¨æĪ·ä½ĵéªĮ":7177,"Ġoper":7178,"Ġownership":7179,"ãĢģæµģç¨ĭèĩªåĬ¨åĮĸåıĬç»ĵæŀľåı¯è§ĨåĮĸ":7180,"ãĢģéļĶç¦»æĢ§åĴĮæĮģä¹ħæĢ§":7181,"ï¼Įç¡®ä¿Ŀ":7182,"ï¼ĮæīĢä»¥":7183,"ï¼ĮæĦŁè°¢æĤ¨çļĦ":7184,"ï¼Įæ»¡è¶³ä¸įåĲĮä¸ļåĬ¡éľĢæ±Ĥ":7185,"ï¼Įè¿Ńä»£äº¤ä»ĺåĬŁèĥ½":7186,"ï¼Įæ¯ıå¤©åı¯ä»¥ä¿Ŀè¯ģ":7187,"ïĤ·ä¸İè¿ľç¨ĭåĽ¢éĺŁæĪĸå®¢æĪ·":7188,"alPosterior":7189,"åıĬç®¡çĲĨé¡µéĿ¢":7190,"ĠArchitecture":7191,"è§Ĥå¯Ł":7192,"åħ¨åıĤæķ°å¾®è°ĥ":7193,"æĸ¹ä¾¿":7194,"Ġregistration":7195,"Ġreliability":7196,"Ġpartner":7197,"Ġpassword":7198,"Ġinitiatives":7199,"Ġmigration":7200,"Ġmonitoring":7201,"å¤ļå¤´æ³¨æĦıåĬĽ":7202,"utopilot":7203,"administrator":7204,"ä»»èģĮè¦ģæ±Ĥ":7205,"Ġdemonst":7206,"Ġtakeover":7207,"Ġequivalence":7208,"æİ¨èįĲ":7209,"ç®Ģæ´ģ":7210,"ïĤ·åıĤä¸İå¤ļä¸ªå°ıåŀĭ":7211,"è¿Ľè¡Įå½Ĵä¸ĢåĮĸ":7212,"iddleware":7213,"Ġenabling":7214,"Ġencoding":7215,"ç½ĳä¸Ĭæī¾ä¸Ģä¸ĭ":7216,"Ġquestion":7217,"Ġhealth":7218,"åİŁåŃĲæĢ§":7219,"occupancy":7220,"ïĤ·å¼Ģåıĳæķ°æį®çľĭæĿ¿åıĬç®¡çĲĨé¡µéĿ¢":7221,"æ²¡æľīåĲįçļĦé¡¹çĽ®":7222,"æĦŁåħ´è¶£":7223,"-driven":7224,"ï¼ĮæĪĳè¿Ļè¾¹é©¬ä¸ĬæĬĬç®ĢåİĨåıĳç»ĻæĤ¨":7225,"Ġåħ¨æłĪèĩªçĶ±èģĮä¸ļé¡¹çĽ®":7226,"Professional":7227,"_columnar":7228,"åĲĪå¹¶åĪ°ä¸Ģè¡ĮçļĦå°±":7229,"-adaptive":7230,"ïĤ·ä¸İè¿ľç¨ĭåĽ¢éĺŁæĪĸå®¢æĪ·æ²ŁéĢļéľĢæ±Ĥ":7231,"\"å·²":7232,"\"JSON":7233,"(K":7234,"(term":7235,"(nq":7236,"(item":7237,")}":7238,")ãĢģ":7239,")ï¼Į":7240,"-act":7241,"-ID":7242,"-end":7243,"-po":7244,"-æĸ¹å·®":7245,"-go":7246,"-Attention":7247,"-quality":7248,"-agent":7249,".s":7250,".t":7251,".w":7252,".in":7253,".form":7254,".cur":7255,".np":7256,".eval":7257,".replace":7258,"/D":7259,"/L":7260,"/f":7261,"/s":7262,"/ä½İ":7263,"/Jav":7264,"/UID":7265,"/çĽ®æłĩ":7266,"/æ¬":7267,"/App":7268,"/ru":7269,"/commit":7270,"/lane":7271,"/An":7272,"/active":7273,"/JaVa":7274,"/workspace":7275,"/administrator":7276,"AS":7277,"AW":7278,"Ac":7279,"Action":7280,"AUT":7281,"AéªĮæĶ¶":7282,"APPROACH":7283,"BM":7284,"Bo":7285,"BPE":7286,"Breadcrumb":7287,"CON":7288,"Cook":7289,"COR":7290,"Context":7291,"Causal":7292,"DIT":7293,"DING":7294,"DPO":7295,"Epo":7296,"Experienced":7297,"FP":7298,"FET":7299,"Function":7300,"Freelance":7301,"GB":7302,"Gor":7303,"Groun":7304,"GER":7305,"HF":7306,"HR":7307,"Hash":7308,"HOR":7309,"Human":7310,"HREAD":7311,"HEAD":7312,"IP":7313,"ICA":7314,"JM":7315,"JV":7316,"KL":7317,"KV":7318,"LU":7319,"Landing":7320,"LHF":7321,"MR":7322,"MV":7323,"Mar":7324,"Map":7325,"Median":7326,"MIS":7327,"NK":7328,"NDING":7329,"OIN":7330,"Orphan":7331,"PT":7332,"Plan":7333,"Pilot":7334,"PHASE":7335,"QAéªĮæĶ¶":7336,"Res":7337,"RIG":7338,"RPC":7339,"Se":7340,"SSE":7341,"Såį³":7342,"Spiral":7343,"SFT":7344,"SWARM":7345,"Self":7346,"TF":7347,"TL":7348,"Tilt":7349,"TLS":7350,"TIMEOUT":7351,"Tian":7352,"UNDING":7353,"WOR":7354,"Writ":7355,"XT":7356,"Xin":7357,"[:":7358,"]ï¼ĽčĊ":7359,"_R":7360,"_g":7361,"_p":7362,"_th":7363,"_UID":7364,"_GA":7365,"_temp":7366,"_back":7367,"_model":7368,"_COM":7369,"_swarm":7370,"_manifest":7371,"_SA":7372,"_qa":7373,"_runtime":7374,"_scorer":7375,"_AUT":7376,"_CON":7377,"_MIS":7378,"aN":7379,"bd":7380,"bit":7381,"ble":7382,"blem":7383,"cre":7384,"cing":7385,"ced":7386,"cation":7387,"cod":7388,"cay":7389,"dent":7390,"dro":7391,"data":7392,"dates":7393,"efit":7394,"fail":7395,"fac":7396,"from":7397,"fix":7398,"gh":7399,"gan":7400,"gment":7401,"governor":7402,"hD":7403,"hat":7404,"ial":7405,"ied":7406,"ick":7407,"iang":7408,"jin":7409,"jiang":7410,"ker":7411,"kä¸ª":7412,"kill":7413,"len":7414,"line":7415,"lue":7416,"lack":7417,"list":7418,"lated":7419,"lgorithms":7420,"mation":7421,"mand":7422,"mun":7423,"mall":7424,"memory":7425,"median":7426,"motion":7427,"maining":7428,"new":7429,"naly":7430,"normalization":7431,"nnotation":7432,"oRA":7433,"oPE":7434,"oDB":7435,"pm":7436,"pis":7437,"pip":7438,"pics":7439,"prom":7440,"pai":7441,"qi":7442,"ql":7443,"qw":7444,"ror":7445,"run":7446,"rite":7447,"rating":7448,"ralized":7449,"sion":7450,"sçŃī":7451,"sue":7452,"saf":7453,"sible":7454,"src":7455,"sidx":7456,"sql":7457,"tical":7458,"top":7459,"tract":7460,"try":7461,"ues":7462,"use":7463,"uide":7464,"ugh":7465,"vement":7466,"visited":7467,"vTool":7468,"wser":7469,"wall":7470,"wered":7471,"}ãĢĤ":7472,"},čĊ":7473,"¥æµĭ":7474,"¦åıĳ":7475,"§æ´":7476,"¨è¿":7477,"¨çİĩ":7478,"¨è®º":7479,"©ç½":7480,"©åı¯è®Ńç»ĥ":7481,"ªå":7482,"ªçİ¯":7483,"ªå¿ĥ":7484,"°æĥ":7485,"°åĩı":7486,"²çº¿":7487,"²ä»»":7488,"´©":7489,"µæįŁå¤±":7490,"·ä¿®å¤į":7491,"¸é¦":7492,"ºåº¦":7493,"»æī¾":7494,"¾æĸ":7495,"âĪ":7496,"åĦ":7497,"åķ":7498,"å³°":7499,"åĥı":7500,"èĴ":7501,"ĉUID":7502,"ĉæĹł":7503,"ĉæľª":7504,"ĉè¯ģæį®":7505,"ĉåĪĨæķ°":7506,"ĉéļĶç¦»":7507,"ĉå¾Ī":7508,"ĉè¾ħåĬ©":7509,"ĉä½İé£İéĻ©":7510,"ĉä¸ŃçŃī":7511,"ĉçŃīå¾ħ":7512,"ĠçĶ¨":7513,"Ġèĥ½":7514,"Ġar":7515,"Ġæľī":7516,"Ġåľ¨":7517,"Ġå¾":7518,"Ġå¯¹":7519,"Ġä¸Ĭ":7520,"Ġem":7521,"Ġå¤ļ":7522,"Ġä¸ĭ":7523,"Ġé£İéĻ©":7524,"Ġï¼Ī":7525,"ĠåĲİç«¯":7526,"ĠæľĢ":7527,"Ġå°Ĩ":7528,"Ġæ¨¡åĿĹ":7529,"Ġover":7530,"ĠGP":7531,"Ġå¿ħé¡»":7532,"Ġè¾ĵåħ¥":7533,"Ġä¼ĺåħĪ":7534,"Ġå»ºç«ĭ":7535,"ĠåĨį":7536,"Ġçī¹å¾ģ":7537,"Ġæ²¡æľī":7538,"Ġä¿®å¤į":7539,"ĠæīĢæľī":7540,"Ġæģ¢å¤į":7541,"ĠåĽºå®ļ":7542,"Ġup":7543,"Ġ{\"":7544,"ĠåĪ¤æĸŃ":7545,"Ġæ¸ħçĲĨ":7546,"Ġå¤įåĪ¶":7547,"Ġæ¯ıä¸ª":7548,"Ġéħįå¯¹":7549,"Ġå¹´ä»¥ä¸Ĭ":7550,"Ġå°ļæľª":7551,"ĠONNX":7552,"ĠæĪĲä¸º":7553,"Ġactual":7554,"Ġæµĭè¯ķç»ıéªĮ":7555,"Ġleader":7556,"Ġå¼Ģåħ³":7557,"Ġodd":7558,"ĠValidation":7559,"ĠREADME":7560,"Ġoccupancy":7561,"ĠâĪ":7562,"ģåŃĺ":7563,"ģå¢ŀåĬł":7564,"ĥä¸":7565,"Ħæ¼ı":7566,"ħéĺħè¯»":7567,"Ĩä¸ļ":7568,"Ĩä¿®æĶ¹":7569,"ĨçŁ©éĺµ":7570,"ĩåĪ°":7571,"ĩåĪ«":7572,"ĭè½¬":7573,"ĮåĲĳ":7574,"įåİĨ":7575,"İä¹Ī":7576,"ıå®ŀ":7577,"ĳçĽ":7578,"ĳåº¦":7579,"Ĵæµĭè¯ķ":7580,"Ķç¤º":7581,"Ĺç¾İ":7582,"Ļs":7583,"ľæĹ¶":7584,"ĠĠčĊ":7585,"ãĢģD":7586,"ãĢģt":7587,"ãĢģæĹ¶éĹ´":7588,"ãĢģè¿Ĳ":7589,"ãĢģex":7590,"ãĢģå®ĮæĪĲ":7591,"ãĢģç§»":7592,"ãĢģç»ĵæŀľ":7593,"ãĢģæŁ¥è¯¢":7594,"ãĢģåĪĨéħį":7595,"ãĢģåĵĪå¸Į":7596,"ãĢģè¿Ľç¨ĭ":7597,"ãĢģèĮĥåĽ´":7598,"ãĢģåĨħåŃĺ":7599,"ãĢģéķ¿æľŁ":7600,"ãĢģç¨ĭåºı":7601,"ãĢģåħ¼å®¹":7602,"ãĢģé»ĺè®¤åħ³éĹŃ":7603,"ãĢģéļıæľº":7604,"ãĢģæ¨¡åĿĹåĮĸ":7605,"ãĢģéĻįç»´":7606,"ãĢģè¶ħåıĤæķ°":7607,"ãĢģæµ·å¤ĸ":7608,"ãĢģçĿĢéĻĨ":7609,"ãĢģæıĴåħ¥":7610,"ãĢģéħįç½®åĴĮ":7611,"ãĢģéĿŀçĽ®æłĩåľ°åĽ¾":7612,"ãĢģçī©èģĶç½ĳ":7613,"ãĢģJM":7614,"ï¼Įa":7615,"ï¼Įåį":7616,"ï¼ĮUID":7617,"ï¼ĮçĽ´æİ¥":7618,"ï¼Įè®¡ç®Ĺ":7619,"ï¼Įç±»åŀĭ":7620,"ï¼ĮæĤ¨":7621,"ï¼Įæľª":7622,"ï¼ĮæĮī":7623,"ï¼Įç®Ģåįķ":7624,"ï¼Įè®©":7625,"ï¼Įbase":7626,"ï¼Įæ¨¡åŀĭçļĦ":7627,"ï¼Įåħ·æľī":7628,"ï¼Įåıªèĥ½":7629,"ï¼Įå¸®åĬ©":7630,"ï¼ĮéĤ£":7631,"ï¼ĮåģľæŃ¢":7632,"ï¼Įå°±ç»ĻæĪĳ":7633,"ï¼Įè¾ĥé«ĺ":7634,"ï¼ĮçĦ¶åĲİ":7635,"ï¼Įè®©æĪĳå¤įåĪ¶":7636,"ï¼Įä¹ĭåīį":7637,"ï¼Įè®¡ç®ĹæľºçĽ¸åħ³ä¸ĵä¸ļ":7638,"ï¼ĮåĲĪçĲĨçļĦ":7639,"ãĢĤï¼Į":7640,"ãĢĤéľĢè¦ģ":7641,"ãĢĤåıĤä¸İ":7642,"ãĢĤåħĪ":7643,"ãĢĤå½ĵåīį":7644,"ãĢĤå°±":7645,"ãĢĤæł¹æį®":7646,"ãĢĤè°¢":7647,"ãĢĤ\"čĊ":7648,"inal":7649,"åĪļ":7650,"çļĦæĺ¯":7651,"çļĦä½¿çĶ¨":7652,"çļĦå¹³":7653,"çļĦæĬĢæľ¯":7654,"çļĦæŃ¥":7655,"çļĦäºº":7656,"çļĦåĲĳéĩı":7657,"çļĦçĽ®æłĩ":7658,"çļĦä¾Ŀèµĸ":7659,"çļĦå²Ĺä½į":7660,"çļĦæ¨¡åĿĹ":7661,"çļĦéĩįå¤į":7662,"çļĦæł·æľ¬":7663,"çļĦæ¯Ķ":7664,"çļĦéĢļä¿¡":7665,"çļĦåıĺåĮĸ":7666,"çļĦXSEC":7667,"çļĦåıĤèĢĥ":7668,"çļĦç¦»æķ£":7669,"çļĦç¥ŀç»ıç½ĳç»ľ":7670,"çļĦéļıæľº":7671,"çļĦè¾ħåĬ©":7672,"çļĦæ¦ĤçİĩåĪĨå¸ĥ":7673,"çļĦæłĩæ³¨":7674,"çļĦè¯įåħĥ":7675,"çļĦæķ´æķ°ID":7676,"çļĦç»Ļä½ł":7677,"çļĦå°½éĩıåĲĪå¹¶":7678,"çļĦè½»éĩıçº§":7679,"ere":7680,"eran":7681,"error":7682,"ond":7683,"åĲ§":7684,"ä½ı":7685,"è®²":7686,"è®¨è®º":7687,"ïĤ·M":7688,"ïĤ·Human":7689,"åºķ":7690,"ena":7691,"enefit":7692,"atas":7693,"atist":7694,"atible":7695,"release":7696,"rements":7697,"refix":7698,"remaining":7699,"çĶ¨è¯į":7700,"çĶ¨ä¾ĭ":7701,"anual":7702,"anout":7703,"åĮĹç¾İ":7704,"æŀĿ":7705,"ora":7706,"æĺ¯å¯¹":7707,"æĺ¯åºĶçĶ¨":7708,"æĺ¯Go":7709,"æĺ¯ä»İ":7710,"æĺ¯æĮĩ":7711,"æĺ¯åĿĩ":7712,"æĺ¯è¿Ļå²Ĺä½į":7713,"æĺ¯æıĲä¾Ľç»Ļ":7714,"éĢı":7715,"éĢĨä¿®æĶ¹":7716,"å·±":7717,"state":7718,"stagnation":7719,"strategy":7720,"ä¸İåĽ¢éĺŁ":7721,"ä¸İåŁºç¡Ģ":7722,"ä¸İè´¨éĩı":7723,"ä¸İå®ŀéĻħ":7724,"ä¸İäº§åĵģ":7725,"ä¸İç¼º":7726,"ä¸İæµ·å¤ĸ":7727,"èĥ½åĮ¹éħį":7728,"èĥ½ä¿Ŀè¯ģ":7729,"èĥ½åĲĪå¹¶":7730,"ï¼ļUID":7731,"ï¼ļé»":7732,"ï¼ļsidx":7733,"alib":7734,"alist":7735,"edul":7736,"(\"ï¼Ł\",":7737,"(\"./":7738,"ä»¥è¶³å¤Ł":7739,"ition":7740,"çĲĨçĶ±":7741,"çĲĨè®º":7742,"æ¨ª":7743,"åĪĨè¾":7744,"åĪĨè¯į":7745,"åĪĨæŁ¥æī¾":7746,"åĪĨæī¹":7747,"æĹģå¢ŀåĬł":7748,"æĹĭè½¬":7749,"æĢ»ç»ĵ":7750,"æĢİä¹Ī":7751,"åı¯éªĮè¯ģ":7752,"åı¯éĩįå¤į":7753,"åı¯æī§è¡Į":7754,"åı¯åħ¼":7755,"åı¯éĢĨä¿®æĶ¹":7756,"æķ°æį®æ³":7757,"åıĬåħ¶":7758,"åıĬä»¥ä¸Ĭ":7759,"åĽ°æĥ":7760,"è¡°åĩı":7761,"Ġ\"\\":7762,"åŀĭæķ°æį®åºĵ":7763,"ĠAWS":7764,"ä¸įæĸŃ":7765,"ä¸įå¥½":7766,"ä¸įå¾Ĺ":7767,"ä¸įä¿®æĶ¹":7768,"ä¸įç¬¦":7769,"ä¸įå¸ĮæľĽ":7770,"ä¸įä¸Ģå®ļ":7771,"ä¸įå¤©çĦ¶":7772,"ä¸įåı¯åıĺ":7773,"ä¸įåı¯éĢĨä¿®æĶ¹":7774,"è§¦åıĳ":7775,"æĪĲå¤ļä¸ª":7776,"éĻĦ":7777,"éĻ·ä¿®å¤į":7778,"æĹ¶è¾ĵåĩº":7779,"æĹ¶åĢĻ":7780,"æĹ¶éļıæľº":7781,"æĹ¶ä½¿çĶ¨çļĦ":7782,"ï¼Łç½ĳä¸Ĭæī¾ä¸Ģä¸ĭ":7783,"aries":7784,"arles":7785,"arative":7786,"ä»Ģä¹Īæł·":7787,"ä»Ģä¹ĪæĹ¶åĢĻ":7788,"å¸§":7789,"entralized":7790,"rough":7791,"rowser":7792,"ä¸ĢåĿĩ":7793,"ä¸ĢæĿ¡":7794,"ä¸Ģéĥ¨åĪĨ":7795,"ä¸ĢèĪ":7796,"ä¸Ģåı¥":7797,"æµĭéĩı":7798,"æ¨¡åŀĭæĪĸ":7799,"æ¨¡åŀĭé¢Ħæµĭ":7800,"æ¨¡åŀĭå°Ĩ":7801,"æ¨¡åŀĭè¾ĵåĩº":7802,"æ¨¡åŀĭæŀ¶æŀĦ":7803,"æ¨¡åŀĭæıĲä¾Ľ":7804,"æ¨¡åŀĭåıª":7805,"æ¨¡åŀĭæĢ§èĥ½":7806,"æ¨¡åŀĭæĿĥéĩį":7807,"æ¨¡åŀĭåĨħéĥ¨":7808,"æ¨¡åŀĭåīª":7809,"defer":7810,"detection":7811,"å°ºåº¦":7812,"å°ģåŃĺ":7813,"é¡¶":7814,"éĢļçĶ¨":7815,"Ġsch":7816,"Ġsmall":7817,"ational":7818,"åĴĮåĪĨæŀĲ":7819,"åĴĮä¸º":7820,"åĴĮå®īåħ¨":7821,"åĴĮå¤ĦçĲĨ":7822,"åĴĮåĩº":7823,"åĴĮæ£Ģç´¢":7824,"åĴĮæĸĩæľ¬":7825,"åĴĮä¼ĺåĮĸ":7826,"åĴĮæ²ŁéĢļ":7827,"åĴĮçº¿ç¨ĭ":7828,"åĴĮèµĦæºĲ":7829,"åĴĮåħ¨èģĮ":7830,"åĴĮåĪłéĻ¤":7831,"åĴĮè¿ĶåĽŀ":7832,"åĴĮValue":7833,"åĴĮåĨĻåħ¥":7834,"åĴĮçĲĨè®º":7835,"lection":7836,"andom":7837,"andards":7838,"åħ¨éĿ¢":7839,"åħ¨è·¯å¾Ħ":7840,"åħ¨å±Ģ":7841,"å¯»æī¾":7842,"isy":7843,"Ġcf":7844,"Ġcan":7845,"Ġcore":7846,"Ġcateg":7847,"Ġcrit":7848,"Ġcalib":7849,"Ġcentralized":7850,"icing":7851,"ices":7852,"ä»Ģä¹Īæĺ¯RAG":7853,"ä»Ģä¹Īæĺ¯æĸ¹å·®":7854,"ä»Ģä¹Īæĺ¯Batch":7855,"ä»Ģä¹Īæĺ¯Top":7856,"ä»Ģä¹Īæĺ¯Agent":7857,"ä»Ģä¹Īæĺ¯Chunk":7858,"ä»Ģä¹Īæĺ¯åģıå·®":7859,"ä»Ģä¹Īæĺ¯äºĮåıī":7860,"çİ°åľº":7861,"åĩŃ":7862,"ä¸ŃçĶŁæĪĲ":7863,"ä¸Ńå®ļä¹ī":7864,"ä¸Ńå¸¸çĶ¨çļĦ":7865,"location":7866,"çĶŁæĢģ":7867,"async":7868,"changed":7869,"è®¡åĪĴ":7870,"åŃ¦åİĨ":7871,"åŃ¦ç»ıåİĨ":7872,"åŃ¦èĢħ":7873,"è¿ĩåº¦åŃ¦ä¹ł":7874,"è¿ĩè¿ĻäºĽ":7875,"è¿ĩäºİç®Ģåįķ":7876,"è¿ĩç§ĳçłĶä¸»ä½ĵå·¥ä½ľå·²ç»ıå®ĮæĪĲ":7877,"ä»¥åıĬæµģç¨ĭ":7878,"WebæľįåĬ¡":7879,"çº²":7880,"çº³":7881,"Ġrec":7882,"Ġrebase":7883,"Ġregress":7884,"Ġrequi":7885,"Ġrelease":7886,"Ġresearch":7887,"è¦ģæĬķ":7888,"è¦ģä¸įè¦ģ":7889,"åĮħè£ħ":7890,"thena":7891,"åºĶä»¥":7892,"åºĶçī¹å®ļä»»åĬ¡":7893,"åĲĪè§Ħ":7894,"è´ªå¿ĥ":7895,"æľ¬ä»»åĬ¡":7896,"æľīè¾ĥ":7897,"æľīè¯ģæį®":7898,"æľīåĵªäºĽ":7899,"æľįåĽ¢éĺŁ":7900,"åħ³äºİ":7901,"åľ¨å½ĵåīį":7902,"åľ¨ç»Ļ":7903,"åľ¨éĿ¢è¯ķ":7904,"åľ¨æłĩåĩĨ":7905,"åº¦ä¼ĺåħĪ":7906,"åº¦è¿Ľè¡Įå½Ĵä¸ĢåĮĸ":7907,"æŀĦéĢł":7908,"æĭĸ":7909,"eto":7910,"eter":7911,"etad":7912,"ĠSSE":7913,"ĠSHA":7914,"ĠSafety":7915,"ĠSwarm":7916,"ĠSpeci":7917,"ĠSummar":7918,"ĠSkill":7919,"ĠCall":7920,"ĠCache":7921,"ĠChat":7922,"tep":7923,"åīįQAéªĮæĶ¶":7924,"Ġpool":7925,"Ġpipe":7926,"Ġpetrochemical":7927,"è¡ĮåĬ¨":7928,"ä½¿çĶ¨æ²¡æľī":7929,"ä½¿çĶ¨å¸¦":7930,"ç§©åı¯è®Ńç»ĥ":7931,"Ġfoc":7932,"Ġfrom":7933,"Ġfactual":7934,"Ġfinal":7935,"Ġfanout":7936,"å¸¸éĩı":7937,"å¼ĢåıĳåŁºåĩĨ":7938,"å±±":7939,"å±ı":7940,"ĠPO":7941,"ĠPostgre":7942,"ĠPlatform":7943,"å¹¶éĻįä½İ":7944,"å¹¶åĩıå°ĳ":7945,"å¤įçĶ¨":7946,"é¢Ħè®Ńç»ĥ":7947,"é¢ĦåħĪ":7948,"é¢Ħæ³¨åĨĮ":7949,"é¢Ħå®ļä¹ī":7950,"éĽªå":7951,"å®īè£ħ":7952,"ä¸ºäºĨ":7953,"ä¸ºæŃ£":7954,"ä¸ºçŁŃæľŁ":7955,"å¯¹åĲĦ":7956,"å¯¹ä¸ŃéĹ´":7957,"å¯¹çº¿ä¸Ĭ":7958,"å¯¹åĪĿæŃ¥":7959,"å¿į":7960,"å¿ĺ":7961,"æµģçķ":7962,"å®ļæľŁ":7963,"å®īåħ¨éĹ®é¢ĺ":7964,"å®īåħ¨éĹ¨æ§Ľ":7965,"QLoRA":7966,"è¡¨ä¸ŃçļĦ":7967,"èĥ½åĬĽå¼º":7968,"Ġinto":7969,"æĸ°æķ°æį®":7970,"æĸ°æľºåĪ¶":7971,"æĸ°åŁºçº¿":7972,"æĸ°åŁºåĩĨ":7973,"ç´§":7974,"ä¸Ĭå®Įæķ´":7975,"åĬ¨ç«¯":7976,"åŃ¦ä¹łåĵªäºĽæĸĩä»¶":7977,"åŃ¦ä¹łæķ°æį®ä¸ŃçļĦ":7978,"ä»£çłģæ³¨":7979,"ä»£çłģçļĦæĥħåĨµä¸ĭ":7980,"ä»£çłģè°±ç³»":7981,"ĠExperience":7982,"ĠExpress":7983,"ĠETL":7984,"åŃĺæĶ¾":7985,"åħ¥åĨħåŃĺ":7986,"SQLæ³¨åħ¥":7987,"Ġmo":7988,"Ġmost":7989,"Ġmak":7990,"Ġmiddleware":7991,"Ġmetad":7992,"éĩįæŁ¥":7993,"éĩįæİĴåºı":7994,"ReLU":7995,"å¤ļå±Ĥ":7996,"å¤ļè¿Ľç¨ĭ":7997,"å¤ļAgent":7998,"å¼ıæ³ķ":7999,"æłĩè®°":8000,"è®Ńç»ĥåĴĮ":8001,"è®Ńç»ĥæłĩçŃ¾":8002,"è®Ńç»ĥæĹ¶éļıæľº":8003,"è¿ĽåħĪ":8004,"çĶ¨äºİé¢Ħæµĭ":8005,"çĶ¨äºİåŃĺåĤ¨":8006,"çĶ¨äºİè¡¡éĩı":8007,"çĶ¨äºİåĮħè£ħ":8008,"Ġdron":8009,"Ġdistrib":8010,"Ġdtype":8011,"ä¸ĭè½½":8012,"çĽ¸è¿ĳ":8013,"å®ŀçİ°çļĦ":8014,"å®ŀçİ°æİ¥åı£":8015,"å¤ĦçĲĨæĸĩæľ¬":8016,"å¤ĦçĲĨå¤§éĩı":8017,"è§£æŀĲ":8018,"é£İéĻ©ä¼ĺåĮĸ":8019,"Ġbatch":8020,"Ġbash":8021,"Ġbelief":8022,"æĸĩä»¶å¿ħé¡»":8023,"æĸĩä»¶å®ŀéĻħ":8024,"æĸĩä»¶åĬłè½½":8025,"uting":8026,"çĶŁæĪĲæĹ¶":8027,"çĶŁæĪĲæ¨¡åŀĭ":8028,"çĶŁæĪĲæ¦ĤçİĩåĪĨå¸ĥ":8029,"çĶŁæĪĲåĮ¹éħįåº¦æľĢé«ĺçļĦATS":8030,"åĳ³":8031,"æĪĸæķ°æį®":8032,"æĪĸç±»":8033,"æĪĸæĥ":8034,"æĪĸåħ¨éĥ¨":8035,"åĢ¾æĸ":8036,"ï¼īä¼ĺåħĪ":8037,"igmo":8038,"verla":8039,"åıĺå¾Ĺ":8040,"ostman":8041,"æĽ²çº¿":8042,"è½¨è¿":8043,"ï¼ĪPython":8044,"ï¼Īè¿ľç¨ĭåĬŀåħ¬":8045,"ï¼ĪåĮĹç¾İ":8046,"Redisåı¯ä»¥":8047,"prise":8048,"åı¯ä»¥ä½¿çĶ¨":8049,"åı¯ä»¥çĶ¨äºİ":8050,"åı¯ä»¥æıĲä¾Ľ":8051,"åı¯ä»¥ç»§ç»Ń":8052,"åı¯ä»¥å¤ĦçĲĨçļĦ":8053,"gree":8054,"è®¤çľŁ":8055,"çīĮ":8056,"é«ĺèĢĮ":8057,"é«ĺè´¨éĩı":8058,"é«ĺåı¯çĶ¨":8059,"é«ĺåĢ¾æĸ":8060,"åĩºçļĦæķ°æį®ç»ĵæŀĦ":8061,"æ²¿":8062,"åĮħæĭ¬åħ¥":8063,"Ġagent":8064,"ä»»å¿ĥ":8065,"ä»»ä½ķ":8066,"å®Įåħ¨":8067,"å®ĮåĸĦ":8068,"èĩªæ£Ģ":8069,"èĩªè¡Į":8070,"èĩªä¿®":8071,"èĩªæ³¨æĦıåĬĽ":8072,"èĩªèº«":8073,"èĩªåĽŀå½Ĵ":8074,"èĩªå·±":8075,"æ±ĤåĴĮ":8076,"Ġdebu":8077,"Ġdescent":8078,"Ġdecay":8079,"åĬłå¯Ĩ":8080,"cept":8081,"æľºåĪ¶æľīæķĪ":8082,"æľºåĪ¶æĿ¥æºĲ":8083,"åĨħå¤ļä¸ª":8084,"æĹ¶éĹ´å¤įæĿĤåº¦":8085,"Ġtrans":8086,"Ġtorch":8087,"ä¿¡åı·":8088,"çĽ¸åħ³ç³»æķ°":8089,"çŃīéĹ®é¢ĺ":8090,"çŃīä¼ļ":8091,"çŃīå¤įæĿĤ":8092,"ä»»åĬ¡åĴĮ":8093,"æµĭè¯ķæĸ¹æ³ķ":8094,"æµĭè¯ķå·¥åħ·":8095,"æµĭè¯ķçĶ¨ä¾ĭ":8096,"æµĭè¯ķä¸İåŁºç¡Ģ":8097,"æµĭè¯ķçŃīä¼ļ":8098,"éĢļè¿ĩåľ¨":8099,"éĢļè¿ĩSQL":8100,"éĢļè¿ĩè®Ńç»ĥ":8101,"éĢļè¿ĩHTTP":8102,"éĢļè¿ĩåĵĪå¸Į":8103,"éĢļè¿ĩç´¢å¼ķ":8104,"æ·ĨçŁ©éĺµ":8105,"çľģ":8106,"ĠBatch":8107,"ĠBitbucket":8108,"å¤§æķ°æį®":8109,"Ġevalu":8110,"Ġevents":8111,"Ġepis":8112,"ified":8113,"ãĢģPostman":8114,"éļ¾":8115,"éļĲ":8116,"å®¹éĩı":8117,"å®¹æĺĵ":8118,"å®¹å¿į":8119,"pec":8120,"ueues":8121,"ç®ĹåŃĲ":8122,"éľĢè¦ģæ³¨æĦı":8123,"æĽ´ç¨³å®ļ":8124,"æĽ´å¿«çļĦ":8125,"âĢ¦":8126,"âĢĳ":8127,"âĢĻs":8128,"æĦ¿":8129,"Ġwind":8130,"Ġworld":8131,"GoalPosterior":8132,"è¿Ļæĺ¯":8133,"è¿Ļæł·":8134,"è¿Ļç§į":8135,"è¿Ļä¸ªå²Ĺä½į":8136,"è¿Ļæ±ĤèģĮ":8137,"æĪĳä¼ļ":8138,"æĪĳå·²ç»ı":8139,"æĪĳè¿Ļè¾¹":8140,"æĪĳä»¬":8141,"æĪĳèĩªå·±":8142,"å¹³è¡¡":8143,"è®¾è®¡ç»ıéªĮ":8144,"ackend":8145,"ä½İç§©åı¯è®Ńç»ĥ":8146,"æİ§åĪ¶æ¯ıæ¬¡":8147,"æİ§åĪ¶çĶŁæĪĲæ¦ĤçİĩåĪĨå¸ĥ":8148,"åĪ°åºıåĪĹ":8149,"åĪ°æľª":8150,"åĪ°å¯¹è±¡":8151,"åĪ°è¾¾":8152,"å·®åĪ«":8153,"éĹ®é¢ĺåĴĮ":8154,"éĹ®é¢ĺåı¯èĥ½":8155,"éĹ®é¢ĺå¤§éĥ¨åĪĨ":8156,"ava":8157,"ompatible":8158,"åıĤæķ°åĮĸ":8159,"åıĤæķ°éĩı":8160,"åıĤæķ°æĪĸ":8161,"åıĤæķ°åĴĮè¿ĶåĽŀ":8162,"ĠFunctions":8163,"Ġstagnation":8164,"Ġstandards":8165,"éĢļå¸¸å¯¹":8166,"éĢļå¸¸éľĢè¦ģ":8167,"éĢļå¸¸æĽ´":8168,"éĢļå¸¸è¡¨ç¤º":8169,"éĢļå¸¸ä¸įçĽ´æİ¥":8170,"åħ¶ä¸Ń":8171,"åħ¶å®ļä¹ī":8172,"ç»´åº¦è¿Ľè¡Įå½Ĵä¸ĢåĮĸ":8173,"udge":8174,"udgment":8175,"çĶ¨æĪ·åıįé¦Ī":8176,"çĶ¨æĪ·è§Ĥå¯Ł":8177,"éªĮè¯ģè¸":8178,"ome":8179,"åħĪè¯»åıĸ":8180,"åħĪè®°ä¸Ģä¸ĭ":8181,"æ¶Īè´¹":8182,"olang":8183,"æİ¨æµĭ":8184,"æİ¨å¯¼":8185,"ç®Ģè¦ģ":8186,"ä¸»éĶ®":8187,"å·¥ä½ľæ²¡æľī":8188,"æŃ£åĲĳ":8189,"æŃ£æł·æľ¬":8190,"æŃ£è´Ł":8191,"æŃ£åĪĻ":8192,"Pythonçº¿ç¨ĭ":8193,"Pythonè§£éĩĬåĻ¨":8194,"PythonåŃĹèĬĤçłģ":8195,"åĽ¾ç½ĳç»ľ":8196,"åĽ¾åĥı":8197,"æĻºèĥ½ä½ĵ":8198,"è¿ŀæİ¥æŁ¥è¯¢":8199,"å½ĵåīįå®ĺæĸ¹":8200,"å½ĵåīįåľ°åĽ¾":8201,"å½ĵåīįæĿĥå¨ģ":8202,"ï¼Įä¸įå¾Ĺ":8203,"ï¼Įä¸įä¼ļå½±åĵį":8204,"éĢīä¿®":8205,"å¾®ä¿¡":8206,"åĽ¢éĺŁè¿Ľè¡Į":8207,"ĠTh":8208,"ĠTensor":8209,"ĠTILT":8210,"æŀ¶æĹłäººæľº":8211,"å°Ĩæķ°æį®åĪĴ":8212,"æĺİæĺ¾":8213,"è¿Ľè¡ĮæİĴåºı":8214,"è¿Ľè¡Įå¤įçİ°":8215,"åŃĺåĤ¨ç©ºéĹ´":8216,"duct":8217,"ternal":8218,"è°ĥçĶ¨éĵ¾":8219,"RAME":8220,"RANK":8221,"è¦ĨçĽĸæĸ¹åĲĳ":8222,"è¯įè¯Ń":8223,"è¯įåĲĳéĩı":8224,"è§ĦèĮĥ":8225,"ä¸Ģä¸ªä¸Ģä¸ª":8226,"ä¸Ģä¸ªåıĺéĩı":8227,"ä¸Ģä¸ªåºıåĪĹ":8228,"ä¸Ģä¸ªè·Ł":8229,"Ġprotection":8230,"Ġpromotion":8231,"Ġproduct":8232,"æĦıä¹ī":8233,"ä»İç´¯è®¡":8234,"ä»İè¾ĵåĩºå±Ĥ":8235,"åĪ«è¯´":8236,"åĲĳéĩıç©ºéĹ´":8237,"import":8238,"çĽ´æİ¥åĬł":8239,"çĽ´æİ¥ä¿®æĶ¹":8240,"å°ıçļĦ":8241,"çĽ®æłĩä¸İ":8242,"çĽ®æłĩåıĺéĩı":8243,"çĽ®æłĩä¸įæĺ¯":8244,"çĽ®æłĩåĪĩæį¢":8245,"è¡¨ç¤ºä¸Ģæ¬¡":8246,"ä¿¡æģ¯åĴĮ":8247,"æ¶Īæģ¯éĺŁåĪĹ":8248,"irmation":8249,"lacing":8250,"éģ¥æµĭ":8251,"éģĩåĪ°":8252,"éģįåİĨ":8253,"ĠMAT":8254,"æĸĩæľ¬è½¬æį¢ä¸º":8255,"è¯»åĨĻ":8256,"è®¡ç®ĹæĪĸ":8257,"è®¡ç®Ĺåįķåħĥ":8258,"æİ¥åı£æµĭè¯ķä¸İåŁºç¡Ģ":8259,"è¯Ńè¨Ģåįķä½į":8260,"ä¾ĿèµĸæľįåĬ¡":8261,"ä¾Ŀèµĸæ³¨åħ¥":8262,"éķ¿æĸĩæ¡£åĪĩåĪĨ":8263,"ails":8264,"åħ¬åħ±":8265,"å°±çĶ¨":8266,"å°±è¡Į":8267,"åīįç«¯å·¥ç¨ĭå¸Ī":8268,"å²Ĺä½įè¦ģæ±Ĥ":8269,"å²Ĺä½įæĶ¯æĮģè¿ľç¨ĭ":8270,"å²Ĺä½įè¦ģçļĦ":8271,"urr":8272,"urora":8273,"Ġangle":8274,"è¾ĥå¤§":8275,"è¾ĥå·®":8276,"è¾ĥå¿«çļĦ":8277,"ä¸ŃçļĦæ¯ıä¸ª":8278,"åħ¶ä»ĸä½įç½®":8279,"Chann":8280,"Charles":8281,"ambd":8282,"amoDB":8283,"ests":8284,"ssess":8285,"onfirmation":8286,"åĮºéĹ´":8287,"éĢĤåºĶçī¹å®ļä»»åĬ¡":8288,"æĹłåºı":8289,"ç§įåŃĲ":8290,"è¯Ńä¹īçĽ¸ä¼¼åº¦":8291,"ignment":8292,"å®ĮæĪĲç®Ģåįķ":8293,"å®ĮæĪĲæİ¥åı£æµĭè¯ķä¸İåŁºç¡Ģ":8294,"éĻįä½İè¾ĵåħ¥":8295,"è¯Ħä¼°åĻ¨":8296,"ä¼ĺåĮĸè¯Ńè¨Ģæ¨¡åŀĭ":8297,"ä¼ĺåĮĸçīĪ":8298,"æ´Ĺ":8299,"ï¼Įä½¿è¯Ńä¹ī":8300,"åĽłç´ł":8301,"å¢ŀéĩı":8302,"çī¹åĪ«":8303,"-series":8304,"ume":8305,"åıĸæ¶Ī":8306,"åıĸå¾Ĺ":8307,"åıĸåĨ³":8308,"è®¿éĹ®çļĦæķ°æį®":8309,"è®¿éĹ®åĲİç«¯æķ°æį®":8310,"å¯¼åħ¥":8311,"çŃĸæłĩåĩĨ":8312,"éĶ®çļĦ":8313,"éĶ®å¿«éĢŁ":8314,"æł¹æį®æŁ¥è¯¢":8315,"æł¹æį®æįŁå¤±åĩ½æķ°":8316,"æł¹æį®åħ¶ä»ĸä½įç½®":8317,"æ»ĳ":8318,"Ġnpm":8319,"Ġnudge":8320,"Ġqueues":8321,"æĬĬä¸Ģç»Ħ":8322,"æĬĬå²Ĺä½įæııè¿°":8323,"è¿ĩç¨ĭä¸Ń":8324,"æĿĥéĻĲ":8325,"å±Ĥè¾ĵåĩº":8326,"å±Ĥåįıè®®":8327,"Ġgate":8328,"Ġgrap":8329,"Ġguide":8330,"Ġhand":8331,"Ġhard":8332,"æĺ¯ä¸Ģç±»":8333,"åįıç¨ĭ":8334,"Ġsearch":8335,"Ġsecre":8336,"åħ³ç³»åŀĭæķ°æį®åºĵ":8337,"å¿ħçľĭ":8338,"ä½įç½®æł¹æį®åħ¶ä»ĸä½įç½®":8339,"åİĨåı²æĬ¥åĳĬ":8340,"åİĨåı²åĨ»ç»ĵ":8341,"çĭ¬ç«ĭæĢ§":8342,"çĭ¬ç«ĭå¤ĦçĲĨ":8343,"çĭ¬ç«ĭè¿Ľè¡Įæķ°æį®":8344,"çĭ¬ç«ĭä»£çłģè°±ç³»":8345,"çĭ¬ç«ĭå®ĮæĪĲæİ¥åı£æµĭè¯ķä¸İåŁºç¡Ģ":8346,"outine":8347,"ĠçļĦæıĲåįĩ":8348,"ĠçļĦåĬŁèĥ½":8349,"å¦ĤæŀľåĨłåĨĽ":8350,"å¦Ĥæŀľå²Ĺä½įæĶ¯æĮģè¿ľç¨ĭ":8351,"èĩ³å°ĳ":8352,"å¥½çļĦ":8353,"å¥½ä½Ĩ":8354,"æī«æııåħ¶ä»ĸä»»åĬ¡":8355,"-target":8356,"ioS":8357,"é¡µå·¦":8358,"æľºåĻ¨ç¿»è¯ĳ":8359,"åºıåĪĹä½įç½®ä¿¡æģ¯":8360,"åºıåĪĹåĪ°åºıåĪĹ":8361,"åºıåĪĹä¸ŃçļĦæ¯ıä¸ª":8362,"åı¯èĥ½çļĦ":8363,"åı¯èĥ½å¯¼èĩ´":8364,"æł·æľ¬è¿Ľè¡ĮæİĴåºı":8365,"æľªè¦ĨçĽĸæĸ¹åĲĳ":8366,"äºĮåĪĨæŁ¥æī¾":8367,"ä¸Ģèĩ´æĪĸ":8368,"è´£ä»»å¿ĥ":8369,"çľĭäºĨ":8370,"ï¼Įä½Ĩä¸į":8371,"ï¼Įä½Ĩä¸įèĥ½":8372,"ï¼Įä½Ĩä¼ļå¢ŀåĬł":8373,"å¿ħé¡»åĲĮæĹ¶":8374,"å¿ħé¡»è®°å½ķ":8375,"æ²ŁéĢļèĢħ":8376,"åĨłåĨĽåĪ·æĸ°":8377,"PETIT":8378,"çĨµæįŁå¤±":8379,"Ġrun":8380,"Ġrace":8381,"Ġrandom":8382,"ï¼Įä»¥åĩıå°ĳ":8383,"ï¼Įä»¥èİ·å¾ĹæĽ´":8384,"ï¼Įåı¯ä»¥åľ¨":8385,"ï¼Įåı¯ä»¥çĶ¨äºİ":8386,"ï¼Įåı¯ä»¥éĢļè¿ĩ":8387,"ï¼Įåı¯ä»¥åĩıå°ĳ":8388,"ï¼Įåı¯ä»¥åľ¨ä¸į":8389,"äºĽé¡¹çĽ®ä¸Ń":8390,"Ġscal":8391,"è´Łè½½":8392,"åİŁåĽł":8393,"åİŁå¯¹è±¡":8394,"å¤ļä¸ªå¯¹è±¡":8395,"è¾ĵåħ¥åĴĮ":8396,"è¾ĵåħ¥è§Ħæ¨¡å¢ŀéķ¿":8397,"çŃĸçķ¥å¿ħé¡»":8398,"æī§è¡Įåįķåħĥ":8399,"æī§è¡ĮPythonåŃĹèĬĤçłģ":8400,"å®ĺæĸ¹çİ¯å¢ĥ":8401,"å®ĺæĸ¹åĪĨæķ°":8402,"å®ĺæĸ¹æºĲçłģ":8403,"å®ĺæĸ¹åįķçº¿ç¨ĭ":8404,"Ġlogging":8405,"ï¼ĮçĶ¨äºİæııè¿°":8406,"æĺ¯åĲ¦çľŁæŃ£":8407,"Ġreport":8408,"Ġrepair":8409,"Ġreplacing":8410,"éľĢæ±Ĥç¼ĸåĨĻ":8411,"éľĢæ±ĤèĲ½åľ°":8412,"ç¼ĵè§£":8413,"åĿĩè¡¡":8414,"åĲĮæĹ¶æī§è¡ĮPythonåŃĹèĬĤçłģ":8415,"åĢĻéĢīéĽĨåĲĪ":8416,"HTTPä¹ĭä¸Ĭ":8417,"æĴŀ":8418,"ĠRuntime":8419,"ĠRoute":8420,"ç»ĪæŃ¢":8421,"åŃĲæłĳ":8422,"ä¸Ģä¸ĭåħ·ä½ĵ":8423,"åĩ½æķ°æĪĸç±»":8424,"ç»ıåİĨçļĦäºº":8425,"éĩįæĸ°æĲľç´¢":8426,"éĩįæĸ°åĪĨéħį":8427,"éĩįæĸ°è§ĦåĪĴ":8428,"Ġwithin":8429,"æİ¨çĲĨä¼ĺåĮĸ":8430,"è¿Ĳè¡ĮæľŁéĹ´":8431,"æĲľç´¢æłĳ":8432,"éĵ¾è¡¨":8433,"éĵ¾å¼ıæ³ķ":8434,"Ġä¸ªçĭ¬ç«ĭä»£çłģè°±ç³»":8435,"åĪĻä»İè¾ĵåĩºå±Ĥ":8436,"å®¢æľįåĽ¢éĺŁ":8437,"ersist":8438,"Ġcontext":8439,"Ġconnect":8440,"å»ºç«ĭçļĦè¾ħåĬ©":8441,"åĽŀçŃĶçļĦ":8442,"æĺ¯ä¸Ģç§įéĿ¢åĲĳ":8443,"æĺ¯ä¸Ģç§įæľīåºı":8444,"æĺ¯ä¸Ģç§įçĶ¨äºİåĮħè£ħ":8445,"ç¼ĵåŃĺé¡¹":8446,"ç¼ĵåŃĺéĿĻæĢģ":8447,"ç¼ĵåŃĺåĩ»":8448,"ç¼ĵåŃĺç©¿":8449,"ç¼ĵåŃĺéĽªå":8450,"ä¸Ĭä¸ĭæĸĩçļĦ":8451,"ä¸Ĭä¸ĭæĸĩåħ³ç³»":8452,"å¼ºçļĦ":8453,"æıĲé«ĺæŁ¥è¯¢":8454,"åĬ¨æĢģåıĺåĮĸ":8455,"åĬ¨æĢģè§ĦåĪĴ":8456,"åģļå®ļä½į":8457,"åģļè¿ĩè¿ĻäºĽ":8458,"æľĢç»ĪçĬ¶æĢģ":8459,"RESTæĺ¯ä¸Ģç§įéĿ¢åĲĳ":8460,"ä¿®æĶ¹æ¨¡åŀĭ":8461,"Ġimprovement":8462,"Ġlanguage":8463,"ĠRecharts":8464,"eria":8465,"åĨ»ç»ĵåıĤæķ°":8466,"æĸ¹æ³ķéĽĨåĲĪ":8467,"æĸ¹æ³ķè¡¨è¾¾":8468,"éĽĨåĲĪè¿Ĳç®Ĺ":8469,"éĥ¨åĪĨç¥ŀç»ıåħĥ":8470,"Ġtopics":8471,"Ġanalyz":8472,"çĨŁæģ¶":8473,"æ³¨æĦıåĬĽè®¡ç®Ĺ":8474,"RMSE":8475,"ïĤ·Prompt":8476,"ïĤ·Prep":8477,"ïĤ·Produc":8478,"ä¸įèĥ½åıįå¤į":8479,"åŁºçº¿æ¨¡åŀĭ":8480,"åŁºçº¿ä¸Ĭ":8481,"çº¿ç¨ĭæ±ł":8482,"çº¿ç¨ĭåĲĮæĹ¶æī§è¡ĮPythonåŃĹèĬĤçłģ":8483,"ç®ĢåİĨåĲ§":8484,"æııè¿°ç®Ĺæ³ķ":8485,"èµĦæºĲéªĮè¯ģ":8486,"èµĦæºĲæĵįä½ľ":8487,"çī¹å¾ģå·¥ç¨ĭ":8488,"æ¸ħæ´Ĺ":8489,"èĬĤçĶļèĩ³":8490,"èĬĤçľģ":8491,"TokenéĽĨåĲĪ":8492,"Tokenæĺ¯è¯Ńè¨Ģæ¨¡åŀĭ":8493,"Ġused":8494,"reads":8495,"éĢĴå½Ĵ":8496,"åŃĹæ®µ":8497,"åĪĨç±»ä»»åĬ¡":8498,"æĬķç®ĢåİĨ":8499,"chnolog":8500,"æ³Ľåŀĭ":8501,"ç»ĵåĲĪè¿ĻäºĽ":8502,"ç»ĵåĲĪåħ³éĶ®è¯įæ£Ģç´¢":8503,"Ġaccuracy":8504,"æ²¡æľīå·®åĪ«":8505,"æ¢¯åº¦çĪĨçĤ¸":8506,"scal":8507,"score":8508,"shell":8509,"Ġthreshold":8510,"Ġthrough":8511,"è¯´æĪĳ":8512,"è¯´ä½ł":8513,"ences":8514,"çº¦å®ļ":8515,"åıĺåĮĸçļĦ":8516,"points":8517,"ä¹ĭéĹ´çļĦåħ³ç³»":8518,"ä¹ĭéĹ´çļĦçĽ¸ä¼¼":8519,"ä¹ĭéĹ´çļĦæĺłå°Ħ":8520,"ä¹ĭéĹ´çļĦè¿ĩåº¦":8521,"çĻ»è®°":8522,"/mass":8523,"/manual":8524,"ATE":8525,"ATIVE":8526,"lates":8527,"ïĤ·Code":8528,"ïĤ·Cloud":8529,"ïĤ·Collabor":8530,"åĮ¹éħįåĴĮè¯Ńä¹ī":8531,"ç®Ĺæ³ķå®ŀéªĮ":8532,"âĢĿï¼Į":8533,"ç»´æĬ¤æĪĲæľ¬":8534,"å¤ĸéĥ¨ä¿¡æģ¯":8535,"èĭ±åĽ½":8536,"contention":8537,"æ¼Ķç¤º":8538,"Ġasset":8539,"Ġassignment":8540,"çļĦæķ°æį®éĽĨåĲĪ":8541,"è®©åºıåĪĹä¸ŃçļĦæ¯ıä¸ª":8542,"ïĤ·AWS":8543,"åĵĪå¸Įè¡¨":8544,"æłĩåĩĨåºĵ":8545,"è¿Ľç¨ĭåĨħå¤ļä¸ª":8546,"åħ·å¤ĩçķĻ":8547,"æİĴåºıç®Ĺæ³ķ":8548,"ç¬¦åı·":8549,"è´Łè´£æĬĬ":8550,"ITATIVE":8551,"achine":8552,"è¢«ä¿®æĶ¹":8553,"ĠHIST":8554,"ĠUse":8555,"Ġä¸įåħģè®¸":8556,"ãĢģæµĭè¯ķæĬ¥åĳĬ":8557,"ãĢģæµĭè¯ķè®¡åĪĴ":8558,"ï¼Įè¿Ļå²Ĺä½įè¦ģçļĦ":8559,"ï¼Įè¿ĻäºĽé¡¹çĽ®ä¸Ń":8560,"Ġclar":8561,"æī©åħħ":8562,"Ġinterview":8563,"Ġinterfac":8564,"æł¼å¼ıåĴĮ":8565,"ï¼ĮæĪĳåı¯ä»¥":8566,"ä½łå°±çĶ¨":8567,"ç¨ĭåº¦çļĦ":8568,"è§Ĵåº¦":8569,"æľīæķĪåįķçº¿ç¨ĭ":8570,"éĿŀå¸¸":8571,"éĿŀåĨłåĨĽ":8572,"éĿŀå½ĵåīįåľ°åĽ¾":8573,"å¯¹è±¡æīĢ":8574,"å¯¹è±¡è½¬æį¢ä¸º":8575,"åĵªäºĽçŁ¥è¯Ĩ":8576,"åĨħåŃĺç®¡çĲĨ":8577,"è¶Ĭå¤§":8578,"æŃ£å¼ıéªĮè¯ģ":8579,"æŃ£å¼ıæİ¨å¹¿":8580,"æĿĥéĩįåĪĿå§ĭåĮĸ":8581,"èĭ±æĸĩPR":8582,"èĭ±æĸĩéĺħè¯»":8583,"èĭ±æĸĩæµĭè¯ķçĶ¨ä¾ĭ":8584,"èĭ±æĸĩçĶ¨æĪ·åıįé¦Ī":8585,"æĵįä½ľåĮħæĭ¬åħ¥":8586,"çĽĳçĿ£å¾®è°ĥ":8587,"/FINAL":8588,"BatchNorm":8589,"INT":8590,"box":8591,"boxed":8592,"éĥ½è¾ĥå·®":8593,"ï¼Įæĺ¯é¢Ħæµĭ":8594,"ï¼Įæĺ¯è¡¡éĩı":8595,"åĪĿåŃ¦èĢħ":8596,"åĲįåĴĮ":8597,"åĲįå®ŀä½ĵ":8598,"éĢĲä¸ª":8599,"æĪĲæľ¬é«ĺ":8600,"ä¸Ģæ¬¡èĥ½å¤Łå¤ĦçĲĨçļĦ":8601,"åį³åı¯":8602,"Ġsupports":8603,"Ġcomplet":8604,"Ġcomparative":8605,"ĠStructure":8606,"ĠStrength":8607,"å¹¶åıĳä»»åĬ¡":8608,"Ġmanifest":8609,"Ġmodels":8610,"Ġmodeling":8611,"ç´¢å¼ķæĺ¯":8612,"èµĦæĸĻåĪĨæŀĲ":8613,"ç©ºéĹ´å¤įæĿĤåº¦":8614,"Ġlogs":8615,"æ¦ĤçİĩæľĢé«ĺçļĦ":8616,"æ¦Ĥçİĩè¾¾åĪ°":8617,"åĽºå®ļæ¨¡åŀĭ":8618,"åĽºå®ļåİĨåı²":8619,"åĪ©çĶ¨å·²æľī":8620,"åĪ©çĶ¨éĵ¾å¼ıæ³ķ":8621,"PROM":8622,"ferences":8623,"ĠJOIN":8624,"ï¼ĮçĶŁæĪĲç²¾ç®ĢçīĪ":8625,"ï¼ĮçĶŁæĪĲä¸Ģä¸ªè·Ł":8626,"æĺ¾ç¤º":8627,"Ġcomb":8628,"Ġcommun":8629,"åħ³éĹŃéĥ¨åĪĨç¥ŀç»ıåħĥ":8630,"jsonl":8631,"è·¨æºĲ":8632,"åĪĹè¡¨æİ¨å¯¼":8633,"æŃ£å¸¸å·¥ä½ľ":8634,"æŃ£å¸¸åħ¨èģĮ":8635,"ä¾Ŀæį®æĪĸ":8636,"éĻĲåĪ¶åĲĮä¸Ģ":8637,"ç»ĵæŀĦåĮĸæķ°æį®":8638,"æĺłå°Ħä¸º":8639,"çŁŃæľŁçŃĸçķ¥":8640,"å»¶è¿ŁåĬłè½½":8641,"æĤĦ":8642,"éĻ¤ä»¥":8643,"å¯¹åºĶçļĦåĢ¼":8644,"æĽ¿æį¢":8645,"éļıè¾ĵåħ¥è§Ħæ¨¡å¢ŀéķ¿":8646,"éĶģå®ļ":8647,"ä¿ĿæĮģéĢŁåº¦":8648,"ä¿ĿæĮģé»ĺè®¤åħ³éĹŃ":8649,"è·¯çº¿èĢĹ":8650,"ounds":8651,"æĮīçħ§ä»¥ä¸ĭ":8652,"è¡¡éĩıæ¨¡åŀĭé¢Ħæµĭ":8653,"-péĩĩæł·":8654,"AUDIT":8655,"Masked":8656,"ORT":8657,"ORICA":8658,"ynamoDB":8659,"{}ï¼Ł\",čĊ":8660,"è¿Ńä»£åĻ¨":8661,"éĩıåĮĸæĸ¹æ³ķ":8662,"Ġcontact":8663,"Ġcontention":8664,"éĩįçĤ¹å¿ħçľĭ":8665,"åĳ½åĲįå®ŀä½ĵ":8666,"æ²»çĲĨ":8667,"åģľçĶ¨è¯į":8668,"æ··æ·ĨçŁ©éĺµ":8669,"ç»Ħä»¶ä¹ĭéĹ´":8670,"ï¼Įä½¿æ¨¡åŀĭéĢĤåºĶçī¹å®ļä»»åĬ¡":8671,"èģļåĲĪçļĦä¿¡æģ¯":8672,"çĽĳçĿ£åŃ¦ä¹łä½¿çĶ¨å¸¦":8673,"ï¼Įä»İèĢĮåĩıå°ĳ":8674,"-bound":8675,"/tmp":8676,"OMP":8677,"_FINAL":8678,"_FRAME":8679,"èĲ¥":8680,"Ġveto":8681,"Ġissue":8682,"ĠJavaScript":8683,"ä»¤çīĮ":8684,"æĺ¯åľ¨HTTPä¹ĭä¸Ĭ":8685,"struction":8686,"æłĳå½¢":8687,"Ġschemas":8688,"è¿ĩæĭŁåĲĪé£İéĻ©":8689,"ä¸Ĭçº¿äºĨ":8690,"ä¸Ĭçº¿åīįQAéªĮæĶ¶":8691,"éĩįè¦ģçļĦ":8692,"ä¿ĿåŃĺéĶ®åĢ¼":8693,"ï¼Įä¸įèĥ½çĽ´æİ¥":8694,"ï¼Įä¸įè¦ģå¤ª":8695,"åĽłæŀľè¯Ńè¨Ģæ¨¡åŀĭ":8696,"åĽłæŀľæ³¨æĦıåĬĽ":8697,"æ³¨æĦıåĬĽæľºåĪ¶ä¸Ń":8698,"æ³¨æĦıåĬĽæľºåĪ¶æľ¬èº«":8699,"å°½éĩıåĲĪå¹¶åĪ°":8700,"Ġmaintaining":8701,"###":8702,"/Confirmation":8703,"TorchScript":8704,"quir":8705,"rumqi":8706,"Ġå·²æıĲä¾Ľä½įç½®":8707,"ç»ĨèĬĤçĶļèĩ³":8708,"çļĦä¿¡æģ¯è®¡ç®Ĺ":8709,"æĺ¯ä»Ģä¹ĪæĦıæĢĿ":8710,"æĮģç»ŃåĪ·æĸ°":8711,"æĸ°åĨłåĨĽåŁºçº¿":8712,"é«ĺæķĪåįıä½ľ":8713,".jsonl":8714,"çĽ¸åħ³æĢ§æİĴåºı":8715,"äº§çĶŁæķ°æį®":8716,"ç»ĦæĪĲçļĦæłĩæ³¨":8717,"æŃ£ç¡®é¡ºåºı":8718,"ï¼Įä½łå°±ç»ĻæĪĳ":8719,"ï¼Įä½łåħĪè®°ä¸Ģä¸ĭ":8720,"æİĴè¡Įæ¨¡åŀĭ":8721,"Ġgenerating":8722,"ç¨³å®ļæĢ§ä¸İè´¨éĩı":8723,"ä¸¤ä¸ªåıĺéĩı":8724,"è½¬æį¢ä¸ºåĴĮä¸º":8725,"éĢĲæŃ¥éĻįä½İ":8726,"AUCå¤§äºİ":8727,"æİĮæı¡ä»Ģä¹Ī":8728,"Embeddingæ¨¡åŀĭ":8729,"Queryè¡¨ç¤º":8730,"Ġorgan":8731,"ä¸Ķæ²¡æľīåĲįçļĦé¡¹çĽ®":8732,"ãĢģè¡Įä¸º":8733,"ï¼Įä¸İæŃ£å¸¸åħ¨èģĮ":8734,"ï¼Įèĥ½åĲĪå¹¶åĪ°ä¸Ģè¡ĮçļĦå°±":8735,"ï¼Įèĥ½ä¸İæµ·å¤ĸ":8736,"ï¼Įèĥ½æµģçķ":8737,"ï¼Įæľīè´£ä»»å¿ĥ":8738,"ï¼ĮæĹ¶éĹ´åĴĮåħ¨èģĮ":8739,"ï¼ĮåĨįå¼Ģå§ĭ":8740,"ï¼ĮéĢĤåĲĪè¡¨ç¤º":8741,"ï¼ĮéĢĤåĲĪå¤ĦçĲĨå¤§éĩı":8742,"ç»ĳå®ļåĪ°å¯¹è±¡":8743,"çļĦéĹ®é¢ĺè¿Ľè¡Įå¤įçİ°":8744,"äºīæĬ¢":8745,"å¸¦è¿ĩæľŁæĹ¶éĹ´":8746,"å¾Īå¥½ä½Ĩ":8747,"ä½¿çĶ¨çļĦè®Ńç»ĥæł·æľ¬":8748,"æŁ¥æī¾å¯¹åºĶçļĦåĢ¼":8749,"åĬłè½½ä¸Ģæ¬¡":8750,"æľĢå°ıæĸ°åŁºçº¿":8751,"å¹³åĿĩæĥħåĨµä¸ĭ":8752,"å¹³åĿĩç»Ŀå¯¹":8753,"ï¼Įä¸įéľĢè¦ģå¤ļ":8754,"ï¼Įä¸įéľĢè¦ģè§£éĩĬ":8755,"Ġscanning":8756,"è¶ħè¿ĩå½ĵåīįåĨłåĨĽ":8757,"å±Ģéĥ¨éļľç¢į":8758,"èİ·å¾ĹçļĦ":8759,"æĻºæħ§å·¥åľ°è¡Įä¸ļ":8760,"-clock":8761,"-compatible":8762,"-related":8763,"/candidates":8764,"/coverage":8765,"KeyåĴĮValue":8766,"MAE":8767,"MATCH":8768,"Programming":8769,"_TAS":8770,"_THREAD":8771,"_TRIG":8772,"gister":8773,"Ġknowledge":8774,"Ġä»¥åıĬåĲİåı°":8775,"ãĢģè¯ĦåĪĨ":8776,"ãĢģæĢ§èĥ½æµĭè¯ķçŃīä¼ļ":8777,"ãĢģåĽŀå½Ĵæµĭè¯ķ":8778,"ãĢģåĪĨæŀĲä¸İåĽŀæº¯":8779,"ï¼Įåľ¨Transformer":8780,"ãĢĤå¦ĤæŀľçŃĶæ¡Ī":8781,"åħŃå¯¹":8782,"éĩĮéĿ¢":8783,"åįĬçĽĳçĿ£åŃ¦ä¹ł":8784,"åŁ¹è®ŃèµĦæĸĻ":8785,"è¾ħåĬ©éĢīä¿®":8786,"æľ¬ç§ĳåıĬä»¥ä¸Ĭ":8787,"æľīä»Ģä¹Īåħ³ç³»":8788,"æľīä»Ģä¹Īä½ľçĶ¨":8789,"æĶ¿çŃĸæłĩåĩĨ":8790,"æī¹å¤ĦçĲĨ":8791,"æĭĨè§£":8792,"æĭĨåĪĨä¸ºå¤ļä¸ª":8793,"å¸¸è§ģæµĭè¯ķæĸ¹æ³ķ":8794,"Ġbehav":8795,"äº¤åıīçĨµæįŁå¤±":8796,"Ġdetails":8797,"æİ¨åĬ¨èĥ½åĬĽ":8798,"åħĥç´łçļĦ":8799,"å½ĵåīįåĨłåĨĽåŁºçº¿ä¸Ĭ":8800,"è¯įè¡¨æĺ¯":8801,"å°ıè§Ħæ¨¡è®Ńç»ĥ":8802,"åıįåĲĳä¼łæĴŃåĪ©çĶ¨éĵ¾å¼ıæ³ķ":8803,"æľªæĿ¥ä¿¡æģ¯":8804,"æ¯ıå¤©èĥ½ä¿Ŀè¯ģ":8805,"è¿ĺæľīèĥ½åĲĪå¹¶":8806,"Ġchecks":8807,"ç¥ŀç»ıåħĥä¹ĭéĹ´çļĦè¿ĩåº¦":8808,"å®¢æĪ·ç«¯ä¸İæľįåĬ¡åĻ¨ä¹ĭéĹ´":8809,"Ġvisibility":8810,"Ġresponses":8811,"Ġresponsive":8812,"Ġenvironments":8813,"crumbs":8814,"Ġconfiguration":8815,"-contract":8816,"/hikaflow":8817,"/holdout":8818,"MysQL":8819,"MyBatis":8820,"_autopilot":8821,"miner":8822,"Ġunsaf":8823,"Ġunchanged":8824,"Ġjobs":8825,"ï¼Įå¯¼èĩ´è¯·æ±Ĥ":8826,"ï¼ĮåĽłä¸ºçº¯":8827,"è§Ĩä¸º":8828,"è§Ĩè§ī":8829,"åıĳçĶŁåľ¨":8830,"é¢ĳéģĵ":8831,"Ġpaths":8832,"Ġpathlib":8833,"éĿĻæĢģæ£ĢæŁ¥":8834,"è¡¨çİ°éĥ½è¾ĥå·®":8835,"ä¸ĬçļĦè¡¨çİ°éĥ½è¾ĥå·®":8836,"çĽ¸åĲĮçļĦ":8837,"Ġboth":8838,"èĢĹæĹ¶":8839,"çº¿ä¸Ĭç¨³å®ļæĢ§ä¸İè´¨éĩı":8840,"Ġautomation":8841,"Ġautomated":8842,"éľĢè¦ģæĽ´å¤ļ":8843,"åıĤæķ°æĽ´æĸ°çļĦæŃ¥":8844,"Ġprompts":8845,"ä½įç½®ç¼ĸçłģåĲĳ":8846,"å¹¿æ³Ľä½¿çĶ¨":8847,"èī¯å¥½çļĦ":8848,"ï¼Įå¸¸è§ģæĵįä½ľåĮħæĭ¬åħ¥":8849,"æ¢¯åº¦ä¸ĭéĻįæł¹æį®æįŁå¤±åĩ½æķ°":8850,"ç¿»è½¬":8851,"èĩªçĦ¶è¯Ńè¨Ģå¤ĦçĲĨ":8852,"æİĴè¡Įæ¦ľåİĨåı²":8853,"Ġremotely":8854,"åĶ¯ä¸Ģæłĩè¯Ĩ":8855,"çŁ©éĺµæĿ¥":8856,"-kéĩĩæł·":8857,"-size":8858,"/belief":8859,"ACK":8860,"ACID":8861,"COMMIT":8862,"DevTool":8863,"ISING":8864,"Thread":8865,"_mode":8866,"_mantis":8867,"www":8868,"ĠOverla":8869,"Ġallocation":8870,"Ġendpoints":8871,"Ġæĺ¯åĲ¦è¶Ĭè¿ĩ":8872,"Ġembeddings":8873,"Ġç¬¬äºĮ":8874,"ãĢģå½ĵåīįçŃĸçķ¥":8875,"ãĢģæİ¥åı£æµĭè¯ķ":8876,"ãĢģèĭ±æĸĩæĬĢæľ¯æĸĩæ¡£":8877,"ãĢģèĭ±æĸĩä»£çłģæ³¨":8878,"åı³å°±åı¯ä»¥":8879,"ï¼Įæİ¨åĬ¨éĹ®é¢ĺè§£åĨ³":8880,"ï¼Įæİ¨åĬ¨éľĢæ±ĤèĲ½åľ°":8881,"ãĢĤãĢĤãĢĤï¼Į":8882,"æŀģç«¯":8883,"åı¯è®Ńç»ĥåıĤæķ°":8884,"ä¸įè¶³æĪĸ":8885,"ä»Ģä¹Īéĥ½åĪ«è¯´":8886,"ä¸Ģç§įèĩªçĦ¶è¯Ńè¨Ģ":8887,"æ¨¡åŀĭå¯¹æŃ£è´Ł":8888,"ä¸Ńè¢«å¹¿æ³Ľä½¿çĶ¨":8889,"åĲİéĿ¢æĪĳä¼ļ":8890,"Ġresume":8891,"æıĲäº¤åīį":8892,"ĠSizeè¡¨ç¤ºä¸Ģæ¬¡":8893,"ĠComputing":8894,"é¢ĦæľŁç±»åŀĭ":8895,"åŃ¦ä¹łçİĩæİ§åĪ¶æ¯ıæ¬¡":8896,"ç»ıå¸¸è®¿éĹ®çļĦæķ°æį®":8897,"Ġmean":8898,"Ġmodular":8899,"Ġbounds":8900,"çĶŁæĪĲåĻ¨éĢļè¿ĩ":8901,"é«ĺçº§åīįç«¯å·¥ç¨ĭå¸Ī":8902,"äº¤æį¢è¯·æ±Ĥ":8903,"Ġterm":8904,"å¤§è§Ħæ¨¡è®Ńç»ĥ":8905,"Ġexpert":8906,"Ġwebhook":8907,"è¿Ļå²Ĺä½įåĮ¹éħįåº¦æľĢé«ĺçļĦATS":8908,"åĲĳéĩıæķ°æį®åºĵçĶ¨äºİåŃĺåĤ¨":8909,"æĮĩå®ļéĺĪåĢ¼":8910,"æĹłçĽĳçĿ£åŃ¦ä¹łä½¿çĶ¨æ²¡æľī":8911,"æİĴçīĪå¥½":8912,"æİĴçīĪè®©æĪĳå¤įåĪ¶":8913,"Ġnoisy":8914,"éĩĬæĶ¾åĴĮ":8915,"GPTQ":8916,"çľĭåĪ°æľªæĿ¥ä¿¡æģ¯":8917,"ï¼Įä»¥æıĲé«ĺæľĢç»Ī":8918,"HTTPSæĺ¯åľ¨HTTPä¹ĭä¸Ĭ":8919,"èģĶåĲĪç´¢å¼ķ":8920,"ä¸¤åı¥å°±åı¯ä»¥":8921,"ä¸¤åı¥çĲĨçĶ±":8922,"Temperatureæİ§åĪ¶çĶŁæĪĲæ¦ĤçİĩåĪĨå¸ĥ":8923,"ç²¾ç¡®çİĩ":8924,"æĺ¾åŃĺåįłçĶ¨":8925,"æłĩçŃ¾çļĦæķ°æį®è®Ńç»ĥæ¨¡åŀĭ":8926,"èĩªåĬ¨åĮĸèĦļæľ¬å¼Ģåıĳ":8927,"èĩªåĬ¨åĮĸèĦļæľ¬ä¼ĺåħĪ":8928,"åģıå¥½æķ°æį®":8929,"Ġitems":8930,"ä¸ĬéĿ¢æĺ¯å²Ĺä½įæııè¿°":8931,"ä¸ĬéĿ¢æĺ¯æĪĳçļĦç®ĢåİĨ":8932,"è¾ĵåħ¥ä¸İçĽ®æłĩè¾ĵåĩºç»ĦæĪĲçļĦæłĩæ³¨":8933,"Dropoutè®Ńç»ĥæĹ¶éļıæľº":8934,"LayerNorm":8935,"åľ¨ç½ĳé¡µä¸Ĭå®Įæķ´":8936,"åľ¨ç½ĳé¡µæİĴçīĪå¥½":8937,"ollaboration":8938,"è£ħé¥°åĻ¨æĺ¯ä¸Ģç§įçĶ¨äºİåĮħè£ħ":8939,"-horizon":8940,"-gram":8941,"-backend":8942,"/register":8943,"/team":8944,"AOP":8945,"TEXT":8946,"_BUT":8947,"_NUM":8948,"_num":8949,"_STATE":8950,"è¥¿å®ī":8951,"Ġjudgment":8952,"Ġåı¯èĥ½æ¶īåıĬ":8953,"Ġèĭ¥åĨ»ç»ĵ":8954,"ãĢģBrowser":8955,"ï¼ĮåħĪä»Ģä¹Īéĥ½åĪ«è¯´":8956,"ï¼ĮçĽ®æłĩæĺ¯åľ¨":8957,"ï¼Įåħ¶ä»ĸä»Ģä¹Īéĥ½":8958,"ãĢĤä¸įèĥ½è¢«":8959,"ïĤ·Used":8960,"æĺ¯åĬ¨æĢģç±»åŀĭ":8961,"ï¼ļä¸įéĻĲ":8962,"åĪĨå·®è¶ħè¿ĩå½ĵåīįåĨłåĨĽ":8963,"åĪĨå±ĤåŁºçº¿":8964,"åĪĨé¡µæŁ¥è¯¢":8965,"åı¯åŃ¦ä¹łåıĤæķ°":8966,"Ġ\"\").":8967,"ä¸įéĩįæĸ°åģļå®ļä½į":8968,"è§ĤæµĭåĢ¼":8969,"å¹ĤçŃīæĢ§":8970,"å®ŀæķ°è½¬æį¢ä¸ºåĴĮä¸º":8971,"åĴĮFallback":8972,"åĴĮç®¡çĲĨæķ°æį®çļĦ":8973,"åĴĮä¾ĿèµĸåĮħ":8974,"Ġcreation":8975,"Ġconfident":8976,"checkpoint":8977,"åħ³æ³¨åĵªäºĽ":8978,"æīĭåĬ¨":8979,"æīĵå¼Ģ":8980,"æĭ¿åĩºæĿ¥":8981,"Ġpricing":8982,"Ġpublic":8983,"åİĭåĬĽ":8984,"Ġinvolving":8985,"Ġmicroservice":8986,"ridor":8987,"Ġdurable":8988,"Ġdiscovery":8989,"ä¸ĭéĿ¢ç§¯":8990,"Ġblockchain":8991,"Ġability":8992,"æľºåĪ¶éĢļè¿ĩåĲİæīįåģļ":8993,"è·³å¸§":8994,"æľĢä¼ĺçļĦ":8995,"Ġelif":8996,"åįķä¸ªæł·æľ¬":8997,"åı£è¯Ńæ²ŁéĢļèĢħ":8998,"ĠTechnolog":8999,"è¿Ľè¡ĮåĬłæĿĥæ±ĤåĴĮ":9000,"äººåĳĺæ²¡æľīå·®åĪ«":9001,"æ·±å±Ĥç½ĳç»ľä¸ŃçļĦ":9002,"éģ®çĽĸ":9003,"éģĹæ¼ı":9004,"æĥħæĦŁåĪĨæŀĲ":9005,"ĠDegree":9006,"ĠLearning":9007,"ĠLeaderåĴĮFallback":9008,"æ¦Ĥå¿µæĺ¯ä»Ģä¹Ī":9009,"çĨŁç»ĥä½¿çĶ¨Charles":9010,"èĻ½çĦ¶æĺ¯":9011,"Ġclassifier":9012,"å°½åı¯èĥ½æ·±åħ¥":9013,"ç²¾åº¦è¡¨ç¤º":9014,"åĪĨå¸ĥå¼ıéĶģ":9015,"å®¢æĪ·ç«¯åĴĮæľįåĬ¡åĻ¨ä¹ĭéĹ´":9016,"Ġexecution":9017,"Ġexhausted":9018,"è¡¡éĩıäºĮåĪĨç±»æ¨¡åŀĭå¯¹æŃ£è´Ł":9019,"ï¼Įä½¿æ¨¡åŀĭåŃ¦ä¹łçī¹å®ļä»»åĬ¡":9020,"_FAILED":9021,"ï¼Įä¹Łåı¯ä»¥è¯´":9022,"è®Ńç»ĥæķ°æį®ä¸ŃçļĦç»ĨèĬĤçĶļèĩ³":9023,"ç¢°æĴŀ":9024,"ä½Ļå¼¦çĽ¸ä¼¼åº¦":9025,"Ġbuild":9026,"æĪªæŃ¢æĹ¶éĹ´":9027,"ROCæĽ²çº¿":9028,"åģĩè®¾ä½łæĺ¯è¿Ļå²Ĺä½į":9029,"ULTI":9030,"ï¼ĮèĢĮä¸įæĺ¯ä¸Ģæ¬¡æĢ§æĬĬ":9031,"_SCOPE":9032,"èĥĮæĻ¯":9033,"Ġoperations":9034,"ãĢģéļĶç¦»æĢ§åĴĮæĮģä¹ħæĢ§çŃī":9035,"ï¼Įç¡®ä¿Ŀçº¿ä¸Ĭç¨³å®ļæĢ§ä¸İè´¨éĩı":9036,"æĸ¹ä¾¿çļĦè¯Ŀ":9037,"Ġmigrations":9038,"Ġdemonstrating":9039,"æİ¨èįĲè¦ģä¸įè¦ģ":9040,"\"å·²çĶŁæĪĲ":9041,"(Keep":9042,"-IDF":9043,"-powered":9044,"-æĸ¹å·®æĿĥè¡¡":9045,".set":9046,".write":9047,".inference":9048,".format":9049,".cursor":9050,".npz":9051,"/sn":9052,"/ä½İåĪĨ":9053,"/JavVa":9054,"/æ¬§æ´":9055,"/rules":9056,"/Andro":9057,"/JaVaå®ĮæĪĲç®Ģåįķ":9058,"AWQ":9059,"Accuracy":9060,"Cookie":9061,"CORS":9062,"Epoch":9063,"FETY":9064,"Goroutine":9065,"Grounding":9066,"HashMap":9067,"HORITATIVE":9068,"JVM":9069,"MVCC":9070,"Planner":9071,"Tianjin":9072,"WORK":9073,"Xinjiang":9074,"_guard":9075,"_prefix":9076,"_threads":9077,"_templates":9078,"_backfill":9079,"_COMPETIT":9080,"_SAFETY":9081,"_AUTHORITATIVE":9082,"_CONTEXT":9083,"_MISMATCH":9084,"ceding":9085,"coded":9086,"kä¸ªåĢĻéĢī":9087,"lacklist":9088,"promotion":9089,"paired":9090,"qwen":9091,"sçŃīæµĭè¯ķå·¥åħ·":9092,"topics":9093,"}ãĢĤ\",čĊ":9094,"©ç½ļ":9095,"²ä»»ä¸ĢåĿĩ":9096,"¸é¦ı":9097,"åĦ¿":9098,"åķĨä¸ļ":9099,"èĴ¸é¦ı":9100,"ĉæľªæİĪæĿĥ":9101,"ĉåĪĨæķ°æŃ£åĲĳ":9102,"ĉå¾Īé«ĺ":9103,"Ġèĥ½çĭ¬ç«ĭè¿Ľè¡Įæķ°æį®":9104,"Ġå¾ªçİ¯":9105,"Ġä¸ĭçķĮ":9106,"ĠGPU":9107,"Ġupdates":9108,"Ġæ¯ıä¸ªæĸĩä»¶å¿ħé¡»":9109,"Ġå¹´ä»¥ä¸Ĭæµĭè¯ķç»ıéªĮ":9110,"ĠæĪĲä¸ºå¼ĢåıĳåŁºåĩĨ":9111,"ĠâĪĴ":9112,"ĥä¸ĩåĪ«":9113,"ħéĺħè¯»èĭ±æĸĩPR":9114,"ıå®ŀè®¤çľŁ":9115,"ĳçĽĴæµĭè¯ķ":9116,"ãĢģè¿ĲèĲ¥":9117,"ãĢģexcept":9118,"ãĢģå®ĮæĪĲæĪĸ":9119,"ãĢģç§»åĬ¨ç«¯":9120,"ãĢģåħ¼å®¹æĢ§æµĭè¯ķ":9121,"ãĢģæµ·å¤ĸå®¢æľįåĽ¢éĺŁ":9122,"ãĢģæıĴåħ¥åĴĮåĪłéĻ¤":9123,"ãĢģJMeter":9124,"ï¼Įåįĥä¸ĩåĪ«":9125,"ï¼ĮçĽ´æİ¥åľ¨ç½ĳé¡µæİĴçīĪå¥½":9126,"ï¼Įè®¡ç®Ĺé¢Ħæµĭ":9127,"ï¼Įç®Ģåįķä¸¤åı¥çĲĨçĶ±":9128,"ï¼Įbaseè¥¿å®ī":9129,"ï¼ĮéĤ£ä½łå°±çĶ¨":9130,"ï¼Įå°±ç»ĻæĪĳçĶŁæĪĲåĮ¹éħįåº¦æľĢé«ĺçļĦATS":9131,"ï¼ĮçĦ¶åĲİç»Ļ":9132,"ï¼Įè®©æĪĳå¤įåĪ¶å°±è¡Į":9133,"ï¼Įè®¡ç®ĹæľºçĽ¸åħ³ä¸ĵä¸ļä¼ĺåħĪ":9134,"ãĢĤåıĤä¸İä¸Ĭçº¿åīįQAéªĮæĶ¶":9135,"ãĢĤå°±ä¸¤åı¥å°±åı¯ä»¥":9136,"ãĢĤæł¹æį®éľĢæ±Ĥç¼ĸåĨĻ":9137,"ãĢĤè°¢è°¢":9138,"çļĦå¹³åĿĩåĢ¼":9139,"çļĦæ¯Ķä¾ĭ":9140,"çļĦéĢļä¿¡æĸ¹å¼ı":9141,"çļĦåıĺåĮĸè¶ĭåĬ¿":9142,"çļĦéļıæľºç¨ĭåº¦":9143,"eranker":9144,"ataset":9145,"atistics":9146,"æĺ¯åĿĩæĸ¹":9147,"ä¸İåĽ¢éĺŁæĪĲåĳĺ":9148,"ä¸İç¼ºéĻ·ä¿®å¤į":9149,"èĥ½åĮ¹éħįä¸Ķæ²¡æľīåĲįçļĦé¡¹çĽ®":9150,"ï¼ļé»ĳçĽĴæµĭè¯ķ":9151,"eduled":9152,"ä»¥è¶³å¤ŁåĪĨå·®è¶ħè¿ĩå½ĵåīįåĨłåĨĽ":9153,"åĪĨè¾¨çİĩ":9154,"æĹģå¢ŀåĬłä½İç§©åı¯è®Ńç»ĥ":9155,"åı¯åħ¼èģĮ":9156,"æķ°æį®æ³Ħæ¼ı":9157,"åĽ°æĥĳåº¦":9158,"ä¸įå¸ĮæľĽè¢«ä¿®æĶ¹":9159,"ä¸įä¸Ģå®ļæıĲåįĩ":9160,"ä¸įå¤©çĦ¶åĮħåĲ«":9161,"ï¼Łç½ĳä¸Ĭæī¾ä¸Ģä¸ĭèĥ½åĮ¹éħįä¸Ķæ²¡æľīåĲįçļĦé¡¹çĽ®":9162,"ä»Ģä¹Īæł·ç»ıåİĨçļĦäºº":9163,"ä»Ģä¹ĪæĹ¶åĢĻæĽ´éĢĤåĲĪä½¿çĶ¨":9164,"ä¸ĢèĪ¬":9165,"ä¸Ģåı¥è¯Ŀ":9166,"æ¨¡åŀĭè¾ĵåĩºè´¨éĩı":9167,"æ¨¡åŀĭåıªåĬłè½½ä¸Ģæ¬¡":9168,"æ¨¡åŀĭåĨħéĥ¨çŁ¥è¯Ĩ":9169,"æ¨¡åŀĭåīªæŀĿ":9170,"Ġscheduled":9171,"åĴĮæ²ŁéĢļæİ¨åĬ¨èĥ½åĬĽ":9172,"åĴĮåĨĻåħ¥ç»´æĬ¤æĪĲæľ¬":9173,"åħ¨éĿ¢éĩįæŁ¥":9174,"Ġcriteria":9175,"Ġcalibration":9176,"asyncio":9177,"è¿ĩåº¦åŃ¦ä¹łè®Ńç»ĥæķ°æį®ä¸ŃçļĦç»ĨèĬĤçĶļèĩ³":9178,"Ġregression":9179,"Ġrequirements":9180,"è¦ģæĬķçļĦè¯Ŀ":9181,"è´ªå¿ĥç®Ĺæ³ķ":9182,"åº¦ä¼ĺåħĪæĲľç´¢":9183,"ĠSpecialist":9184,"ĠSummary":9185,"ĠSkills":9186,"ĠCalling":9187,"Ġfocused":9188,"ĠPostgresQL":9189,"å¯¹åĲĦåıĤæķ°çļĦæ¢¯åº¦":9190,"å¯¹ä¸ŃéĹ´æ¿Ģæ´»":9191,"å¯¹çº¿ä¸Ĭèĭ±æĸĩçĶ¨æĪ·åıįé¦Ī":9192,"åŃ¦ä¹łæķ°æį®ä¸ŃçļĦè§Ħå¾ĭ":9193,"Ġmostly":9194,"Ġmaking":9195,"Ġmetadata":9196,"å¤ļAgentç³»ç»Ł":9197,"è¿ĽåħĪåĩºçļĦæķ°æį®ç»ĵæŀĦ":9198,"Ġdrones":9199,"Ġdistributed":9200,"å¤ĦçĲĨæĸĩæľ¬æĹ¶ä½¿çĶ¨çļĦ":9201,"æĪĸæĥ©ç½ļ":9202,"igmoid":9203,"è½¨è¿¹":9204,"ï¼ĪåĮĹç¾İèĭ±åĽ½":9205,"é«ĺè´¨éĩıçļĦ":9206,"é«ĺåĢ¾æĸľæĹ¶":9207,"å®ĮåĸĦçļĦ":9208,"èĩªåĽŀå½ĴçĶŁæĪĲæĹ¶":9209,"Ġdebugging":9210,"Ġepisode":9211,"ç®ĹåŃĲèŀįåĲĪ":9212,"æĽ´å¿«çļĦåŃĺåĤ¨":9213,"Ġwindow":9214,"è¿Ļæ±ĤèģĮèĢħ":9215,"åĪ°æľªæĲľç´¢":9216,"åĪ°è¾¾æĹ¶éĹ´":9217,"éĹ®é¢ĺå¤§éĥ¨åĪĨæĺ¯":9218,"åıĤæķ°åĴĮè¿ĶåĽŀåĢ¼":9219,"éªĮè¯ģè¸ıå®ŀè®¤çľŁ":9220,"å·¥ä½ľæ²¡æľīåĮºåĪ«":9221,"æŃ£åĪĻåĮĸ":9222,"Pythonè§£éĩĬåĻ¨åĴĮä¾ĿèµĸåĮħ":9223,"å½ĵåīįæĿĥå¨ģç´¢å¼ķ":9224,"ï¼Įä¸įä¼ļå½±åĵįæŃ£å¸¸å·¥ä½ľ":9225,"åĽ¢éĺŁè¿Ľè¡Įåı£è¯Ńæ²ŁéĢļèĢħ":9226,"ä¸Ģä¸ªä¸Ģä¸ªçļĦç»Ļä½ł":9227,"ä¸Ģä¸ªåºıåĪĹä½ľä¸º":9228,"ä»İç´¯è®¡æ¦Ĥçİĩè¾¾åĪ°":9229,"çĽ´æİ¥ä¿®æĶ¹åİŁå¯¹è±¡":9230,"ĠMATLAB":9231,"æĸĩæľ¬è½¬æį¢ä¸ºæ¨¡åŀĭ":9232,"è¾ĥå¿«çļĦæŁ¥æī¾":9233,"Channel":9234,"ambda":9235,"éĻįä½İè¾ĵåħ¥åĪĨè¾¨çİĩ":9236,"ä¼ĺåĮĸçīĪç®ĢåİĨåĲ§":9237,"åıĸåĨ³äºİ":9238,"è®¿éĹ®åĲİç«¯æķ°æį®æºĲ":9239,"éĶ®å¿«éĢŁæŁ¥æī¾å¯¹åºĶçļĦåĢ¼":9240,"æĬĬå²Ĺä½įæııè¿°ä¸Ģä¸ªä¸Ģä¸ªçļĦç»Ļä½ł":9241,"Ġgraph":9242,"Ġguidelines":9243,"Ġhardcoded":9244,"Ġsecret":9245,"ä½įç½®æł¹æį®åħ¶ä»ĸä½įç½®çļĦä¿¡æģ¯è®¡ç®Ĺ":9246,"çĭ¬ç«ĭå®ĮæĪĲæİ¥åı£æµĭè¯ķä¸İåŁºç¡ĢèĩªåĬ¨åĮĸèĦļæľ¬å¼Ģåıĳ":9247,"ĠçļĦåĬŁèĥ½æµĭè¯ķ":9248,"é¡µå·¦åı³å°±åı¯ä»¥":9249,"Ġrandomization":9250,"ï¼Įåı¯ä»¥åľ¨ä¸įçĽ´æİ¥ä¿®æĶ¹åİŁå¯¹è±¡":9251,"è´Łè½½åĿĩè¡¡":9252,"ĠRoutePlanner":9253,"åŃĲæłĳéĶ®åĢ¼":9254,"åĩ½æķ°æĪĸç±»çļĦæľºåĪ¶":9255,"åĪĻä»İè¾ĵåĩºå±ĤåĲĳ":9256,"å»ºç«ĭçļĦè¾ħåĬ©æķ°æį®ç»ĵæŀĦ":9257,"ç¼ĵåŃĺåĩ»ç©¿":9258,"ç¼ĵåŃĺç©¿éĢı":9259,"ç¼ĵåŃĺéĽªå´©":9260,"åģļè¿ĩè¿ĻäºĽé¡¹çĽ®":9261,"RESTæĺ¯ä¸Ģç§įéĿ¢åĲĳèµĦæºĲ":9262,"æĸ¹æ³ķè¡¨è¾¾èµĦæºĲæĵįä½ľ":9263,"çĨŁæģ¶å¸¸è§ģæµĭè¯ķæĸ¹æ³ķ":9264,"ïĤ·Prepared":9265,"ïĤ·Produced":9266,"Tokenæĺ¯è¯Ńè¨Ģæ¨¡åŀĭå¤ĦçĲĨæĸĩæľ¬æĹ¶ä½¿çĶ¨çļĦ":9267,"ç»ĵåĲĪè¿ĻäºĽä¿¡æģ¯":9268,"è¯´ä½łåģļè¿ĩè¿ĻäºĽé¡¹çĽ®":9269,"ïĤ·Collaborated":9270,"è®©åºıåĪĹä¸ŃçļĦæ¯ıä¸ªä½įç½®æł¹æį®åħ¶ä»ĸä½įç½®çļĦä¿¡æģ¯è®¡ç®Ĺ":9271,"è¿Ľç¨ĭåĨħå¤ļä¸ªçº¿ç¨ĭåĲĮæĹ¶æī§è¡ĮPythonåŃĹèĬĤçłģ":9272,"åħ·å¤ĩçķĻåŃ¦ç»ıåİĨ":9273,"ĠHISTORICA":9274,"ï¼Įè¿Ļå²Ĺä½įè¦ģçļĦä»Ģä¹Īæł·ç»ıåİĨçļĦäºº":9275,"ï¼Įè¿ĻäºĽé¡¹çĽ®ä¸Ńæĭ¿åĩºæĿ¥":9276,"Ġinterfaces":9277,"èĭ±æĸĩéĺħè¯»èĥ½åĬĽå¼º":9278,"ä¸Ģæ¬¡èĥ½å¤Łå¤ĦçĲĨçļĦæľĢå¤§":9279,"ĠStructures":9280,"ĠStrengths":9281,"æ¦ĤçİĩæľĢé«ĺçļĦkä¸ªåĢĻéĢī":9282,"PROMISING":9283,"ï¼ĮçĶŁæĪĲä¸Ģä¸ªè·Łè¿Ļå²Ĺä½įåĮ¹éħįåº¦æľĢé«ĺçļĦATS":9284,"Ġcommunication":9285,"åĪĹè¡¨æİ¨å¯¼å¼ı":9286,"éĻĲåĪ¶åĲĮä¸Ģè¿Ľç¨ĭåĨħå¤ļä¸ªçº¿ç¨ĭåĲĮæĹ¶æī§è¡ĮPythonåŃĹèĬĤçłģ":9287,"å»¶è¿ŁåĬłè½½éĿŀå½ĵåīįåľ°åĽ¾":9288,"éļıè¾ĵåħ¥è§Ħæ¨¡å¢ŀéķ¿çļĦåıĺåĮĸè¶ĭåĬ¿":9289,"è·¯çº¿èĢĹå°½":9290,"-péĩĩæł·ä»İç´¯è®¡æ¦Ĥçİĩè¾¾åĪ°":9291,"åĳ½åĲįå®ŀä½ĵè¯ĨåĪ«":9292,"ï¼Įä½¿æ¨¡åŀĭéĢĤåºĶçī¹å®ļä»»åĬ¡æĪĸ":9293,"_FRAMEWORK":9294,"ï¼Įä¸įè¦ģå¤ªéķ¿":9295,"æ³¨æĦıåĬĽæľºåĪ¶æľ¬èº«ä¸įå¤©çĦ¶åĮħåĲ«":9296,"ï¼Įä½łå°±ç»ĻæĪĳæİ¨èįĲè¦ģä¸įè¦ģ":9297,"Ġorganization":9298,"ï¼Įä¸İæŃ£å¸¸åħ¨èģĮå·¥ä½ľæ²¡æľīåĮºåĪ«":9299,"ï¼Įèĥ½åĲĪå¹¶åĪ°ä¸Ģè¡ĮçļĦå°±å°½éĩıåĲĪå¹¶åĪ°":9300,"ï¼Įèĥ½ä¸İæµ·å¤ĸåĽ¢éĺŁè¿Ľè¡Įåı£è¯Ńæ²ŁéĢļèĢħ":9301,"ï¼Įèĥ½æµģçķħéĺħè¯»èĭ±æĸĩPR":9302,"ï¼Įæľīè´£ä»»å¿ĥåĴĮæ²ŁéĢļæİ¨åĬ¨èĥ½åĬĽ":9303,"ï¼ĮæĹ¶éĹ´åĴĮåħ¨èģĮäººåĳĺæ²¡æľīå·®åĪ«":9304,"ä½¿çĶ¨çļĦè®Ńç»ĥæł·æľ¬æķ°éĩı":9305,"_TASK":9306,"_THREADS":9307,"_TRIGGER":9308,"ãĢģæĢ§èĥ½æµĭè¯ķçŃīä¼ļä½¿çĶ¨":9309,"ãĢĤå¦ĤæŀľçŃĶæ¡ĪéĩĮ":9310,"æľ¬ç§ĳåıĬä»¥ä¸ĬåŃ¦åİĨ":9311,"Ġbehavior":9312,"åıįåĲĳä¼łæĴŃåĪ©çĶ¨éĵ¾å¼ıæ³ķåĪĻä»İè¾ĵåĩºå±ĤåĲĳ":9313,"è¿ĺæľīèĥ½åĲĪå¹¶çļĦå°½éĩıåĲĪå¹¶":9314,"ç¥ŀç»ıåħĥä¹ĭéĹ´çļĦè¿ĩåº¦ä¾Ŀèµĸ":9315,"Ġunsafe":9316,"ï¼ĮåĽłä¸ºçº¯æ³¨æĦıåĬĽæľºåĪ¶æľ¬èº«ä¸įå¤©çĦ¶åĮħåĲ«":9317,"åıĤæķ°æĽ´æĸ°çļĦæŃ¥éķ¿":9318,"DevToolsçŃīæµĭè¯ķå·¥åħ·":9319,"ĠOverlap":9320,"ãĢģèĭ±æĸĩä»£çłģæ³¨éĩĬ":9321,"ï¼Įæİ¨åĬ¨éľĢæ±ĤèĲ½åľ°ä¸İç¼ºéĻ·ä¿®å¤į":9322,"åĲİéĿ¢æĪĳä¼ļæĬĬå²Ĺä½įæııè¿°ä¸Ģä¸ªä¸Ģä¸ªçļĦç»Ļä½ł":9323,"ĠSizeè¡¨ç¤ºä¸Ģæ¬¡åıĤæķ°æĽ´æĸ°":9324,"åŃ¦ä¹łçİĩæİ§åĪ¶æ¯ıæ¬¡åıĤæķ°æĽ´æĸ°çļĦæŃ¥éķ¿":9325,"æİĴçīĪè®©æĪĳå¤įåĪ¶å°±åı¯ä»¥":9326,"Temperatureæİ§åĪ¶çĶŁæĪĲæ¦ĤçİĩåĪĨå¸ĥçļĦéļıæľºç¨ĭåº¦":9327,"åľ¨ç½ĳé¡µä¸Ĭå®Įæķ´æİĴçīĪè®©æĪĳå¤įåĪ¶å°±åı¯ä»¥":9328,"è£ħé¥°åĻ¨æĺ¯ä¸Ģç§įçĶ¨äºİåĮħè£ħåĩ½æķ°æĪĸç±»çļĦæľºåĪ¶":9329,"Ġåı¯èĥ½æ¶īåıĬåĵªäºĽ":9330,"ãĢģBrowserDevToolsçŃīæµĭè¯ķå·¥åħ·":9331,"Ġconfidential":9332,"ĠTechnology":9333,"è¡¡éĩıäºĮåĪĨç±»æ¨¡åŀĭå¯¹æŃ£è´Łæł·æľ¬è¿Ľè¡ĮæİĴåºı":9334,"ROCæĽ²çº¿ä¸ĭéĿ¢ç§¯":9335,"åģĩè®¾ä½łæĺ¯è¿Ļå²Ĺä½įè¿Ļæ±ĤèģĮèĢħ":9336,"ï¼Įç¡®ä¿Ŀçº¿ä¸Ĭç¨³å®ļæĢ§ä¸İè´¨éĩıæłĩåĩĨ":9337,"/æ¬§æ´²ä»»ä¸ĢåĿĩ":9338,"/Android":9339,"/JaVaå®ĮæĪĲç®ĢåįķèĩªåĬ¨åĮĸèĦļæľ¬ä¼ĺåħĪ":9340,"_prefixes":9341,"_COMPETITIVE":9342,"Ġèĥ½çĭ¬ç«ĭè¿Ľè¡Įæķ°æį®éªĮè¯ģè¸ıå®ŀè®¤çľŁ":9343,"ãĢģæµ·å¤ĸå®¢æľįåĽ¢éĺŁé«ĺæķĪåįıä½ľ":9344,"ï¼Įåįĥä¸ĩåĪ«å¿ĺ":9345,"ï¼Įå°±ç»ĻæĪĳçĶŁæĪĲåĮ¹éħįåº¦æľĢé«ĺçļĦATSä¼ĺåĮĸçīĪç®ĢåİĨåĲ§":9346,"ãĢĤæł¹æį®éľĢæ±Ĥç¼ĸåĨĻèĭ±æĸĩæµĭè¯ķçĶ¨ä¾ĭ":9347,"æĹģå¢ŀåĬłä½İç§©åı¯è®Ńç»ĥçŁ©éĺµæĿ¥":9348,"è¿ĩåº¦åŃ¦ä¹łè®Ńç»ĥæķ°æį®ä¸ŃçļĦç»ĨèĬĤçĶļèĩ³åĻªå£°":9349,"å¯¹çº¿ä¸Ĭèĭ±æĸĩçĶ¨æĪ·åıįé¦ĪçļĦéĹ®é¢ĺè¿Ľè¡Įå¤įçİ°":9350,"ï¼Įåı¯ä»¥åľ¨ä¸įçĽ´æİ¥ä¿®æĶ¹åİŁå¯¹è±¡ä»£çłģçļĦæĥħåĨµä¸ĭ":9351,"ĠHISTORICAL":9352,"ï¼Įè¿ĻäºĽé¡¹çĽ®ä¸Ńæĭ¿åĩºæĿ¥è¯´ä½łåģļè¿ĩè¿ĻäºĽé¡¹çĽ®":9353,"ï¼ĮçĶŁæĪĲä¸Ģä¸ªè·Łè¿Ļå²Ĺä½įåĮ¹éħįåº¦æľĢé«ĺçļĦATSç®ĢåİĨ":9354,"-péĩĩæł·ä»İç´¯è®¡æ¦Ĥçİĩè¾¾åĪ°æĮĩå®ļéĺĪåĢ¼":9355,"ï¼Įä½łå°±ç»ĻæĪĳæİ¨èįĲè¦ģä¸įè¦ģæĬķç®ĢåİĨ":9356,"ï¼Įèĥ½ä¸İæµ·å¤ĸåĽ¢éĺŁè¿Ľè¡Įåı£è¯Ńæ²ŁéĢļèĢħä¼ĺåħĪ":9357,"ï¼Įèĥ½æµģçķħéĺħè¯»èĭ±æĸĩPRD":9358,"ï¼Įæİ¨åĬ¨éľĢæ±ĤèĲ½åľ°ä¸İç¼ºéĻ·ä¿®å¤įä»»èģĮè¦ģæ±Ĥ":9359,"/æ¬§æ´²ä»»ä¸ĢåĿĩåı¯":9360}