{"!":0,"\"":1,"#":2,"$":3,"%":4,"&":5,"'":6,"(":7,")":8,"*":9,"+":10,",":11,"-":12,".":13,"/":14,"0":15,"1":16,"2":17,"3":18,"4":19,"5":20,"6":21,"7":22,"8":23,"9":24,":":25,";":26,"<":27,"=":28,">":29,"?":30,"@":31,"A":32,"B":33,"C":34,"D":35,"E":36,"F":37,"G":38,"H":39,"I":40,"J":41,"K":42,"L":43,"M":44,"N":45,"O":46,"P":47,"Q":48,"R":49,"S":50,"T":51,"U":52,"V":53,"W":54,"X":55,"Y":56,"Z":57,"[":58,"\\":59,"]":60,"^":61,"_":62,"`":63,"a":64,"b":65,"c":66,"d":67,"e":68,"f":69,"g":70,"h":71,"i":72,"j":73,"k":74,"l":75,"m":76,"n":77,"o":78,"p":79,"q":80,"r":81,"s":82,"t":83,"u":84,"v":85,"w":86,"x":87,"y":88,"z":89,"{":90,"|":91,"}":92,"~":93,"¡":94,"¢":95,"£":96,"¤":97,"¥":98,"¦":99,"§":100,"¨":101,"©":102,"ª":103,"«":104,"¬":105,"®":106,"¯":107,"°":108,"±":109,"²":110,"³":111,"´":112,"µ":113,"¶":114,"·":115,"¸":116,"¹":117,"º":118,"»":119,"¼":120,"½":121,"¾":122,"¿":123,"À":124,"Á":125,"Â":126,"Ã":127,"Ä":128,"Å":129,"Æ":130,"Ç":131,"È":132,"É":133,"Ê":134,"Ë":135,"Ì":136,"Í":137,"Î":138,"Ï":139,"Ð":140,"Ñ":141,"Ò":142,"Ó":143,"Ô":144,"Õ":145,"Ö":146,"×":147,"Ø":148,"Ù":149,"Ú":150,"Û":151,"Ü":152,"Ý":153,"Þ":154,"ß":155,"à":156,"á":157,"â":158,"ã":159,"ä":160,"å":161,"æ":162,"ç":163,"è":164,"é":165,"ê":166,"ë":167,"ì":168,"í":169,"î":170,"ï":171,"ð":172,"ñ":173,"ò":174,"ó":175,"ô":176,"õ":177,"ö":178,"÷":179,"ø":180,"ù":181,"ú":182,"û":183,"ü":184,"ý":185,"þ":186,"ÿ":187,"Ā":188,"ā":189,"Ă":190,"ă":191,"Ą":192,"ą":193,"Ć":194,"ć":195,"Ĉ":196,"ĉ":197,"Ċ":198,"ċ":199,"Č":200,"č":201,"Ď":202,"ď":203,"Đ":204,"đ":205,"Ē":206,"ē":207,"Ĕ":208,"ĕ":209,"Ė":210,"ė":211,"Ę":212,"ę":213,"Ě":214,"ě":215,"Ĝ":216,"ĝ":217,"Ğ":218,"ğ":219,"Ġ":220,"ġ":221,"Ģ":222,"ģ":223,"Ĥ":224,"ĥ":225,"Ħ":226,"ħ":227,"Ĩ":228,"ĩ":229,"Ī":230,"ī":231,"Ĭ":232,"ĭ":233,"Į":234,"į":235,"İ":236,"ı":237,"Ĳ":238,"ĳ":239,"Ĵ":240,"ĵ":241,"Ķ":242,"ķ":243,"ĸ":244,"Ĺ":245,"ĺ":246,"Ļ":247,"ļ":248,"Ľ":249,"ľ":250,"Ŀ":251,"ŀ":252,"Ł":253,"ł":254,"Ń":255,"čĊ":256,"ãĢ":257,"ï¼":258,"ĠĠ":259,"ä¸":260,"ãĢģ":261,"åı":262,"ä»":263,"ï¼Į":264,"ãĢĤ":265,"æľ":266,"åħ":267,"in":268,"ç»":269,"åĪ":270,"çļ":271,"çļĦ":272,"å®":273,"çĶ":274,"er":275,"è¯":276,"åĬ":277,"on":278,"æĸ":279,"äº":280,"åĲ":281,"æķ":282,"ä½":283,"è¿":284,"å¤":285,"è®":286,"ïĤ":287,"ïĤ·":288,"åº":289,"en":290,"at":291,"ä¹":292,"ĠĠĠĠ":293,"çĽ":294,"æĺ":295,"ï¼Ľ":296,"re":297,"æĪ":298,"çĶ¨":299,"ãĢĤčĊ":300,"ï¼ĽčĊ":301,"\",":302,"an":303,"åĮ":304,"æķ°":305,"æŀ":306,"or":307,"æĺ¯":308,"å·":309,"æį":310,"ĠĠĠ":311,"éĢ":312,"å¼":313,"st":314,"ing":315,"éĩ":316,"ä¸İ":317,"ĥ½":318,"æµ":319,"èĥ½":320,"æİ":321,"æį®":322,"ç¨":323,"ï¼ļ":324,"ion":325,"æł":326,"al":327,"ed":328,"ç¨ĭ":329,"\")":330,"(\"":331,",čĊ":332,"åŃ":333,"ä»¥":334,"çĲ":335,"it":336,"çĲĨ":337,"Ġ(\"":338,"ãĢĤ\")":339,"ãĢĤ\"),čĊ":340,"å·¥":341,"æ¨":342,"åĪĨ":343,"æ¨¡":344,"æĹ":345,"æĢ":346,"åı¯":347,"æķ°æį®":348,"éĹ":349,"åıĬ":350,"åĽ":351,"åŀ":352,"è¡":353,"æĸĩ":354,"Ġ\"":355,"åĨ":356,"çł":357,"åŀĭ":358,"çİ":359,"ĠA":360,"ä¸į":361,"åľ":362,"äºİ":363,"å¸":364,"è§":365,"æĪĲ":366,"ç®":367,"åĬ¡":368,"ct":369,"åĮĸ":370,"å¹":371,"å®ŀ":372,"éĻ":373,"åıĳ":374,"æĹ¶":375,"ï¼Ł":376,"ä¹Ī":377,"ar":378,"Ģä¹Ī":379,"ä»Ģä¹Ī":380,"ĠĠĠĠĠĠĠ":381,"é¢":382,"ent":383,"ck":384,"ç«":385,"ï¼Ł\",":386,"ro":387,"ä¸Ģ":388,"æµĭ":389,"åį":390,"æı":391,"æĬ":392,"æ¨¡åŀĭ":393,"de":394,"å°":395,"åħ¨":396,"é¡":397,"éĢļ":398,"åĴ":399,"Ġs":400,"ation":401,"åĴĮ":402,"le":403,"åŁ":404,"and":405,"è¦":406,"ï¼Ł\",\"":407,"å¯":408,"è¾":409,"éĩı":410,"is":411,"çĽ®":412,"Ġc":413,"ä¼":414,"ic":415,"ä»Ģä¹Īæĺ¯":416,"==":417,"mp":418,"æĮ":419,"å¼Ģ":420,"çİ°":421,"eb":422,"æĢ§":423,"ä¿":424,"ä¸Ń":425,"åĩ":426,"çŃ":427,"ä»¶":428,"åĲİ":429,"lo":430,"ä½¿":431,"çĶŁ":432,"æĸ¹":433,"as":434,"ç½":435,"ch":436,"³»":437,"ç³»":438,"åĪ¶":439,"è®¡":440,"åŃ¦":441,"Web":442,"è¿ĩ":443,"åŁº":444,"ï¼ļčĊ":445,"ä»¥åıĬ":446,"es":447,"å½":448,"çłģ":449,"åºĶ":450,"éĹ´":451,"çº":452,"Ġre":453,"ä¸ª":454,"æİ¥":455,"è¯ģ":456,"è¦ģ":457,"åī":458,"åĮħ":459,"æıĲ":460,"th":461,"æľ¬":462,"åĲĪ":463,"Ġand":464,"æľī":465,"ç«¯":466,"è´":467,"èĩ":468,"åľ¨":469,"AI":470,"æĶ":471,"éĺ":472,"æľį":473,"åħ³":474,"åº¦":475,"æ³":476,"æī":477,"æĭ":478,"æŀĦ":479,"et":480,"£Ģ":481,"æ£Ģ":482,"å»":483,"åīį":484,"æĿ":485,"ĠS":486,"éª":487,"ĠC":488,"åĬĽ":489,"åºĵ":490,"te":491,"å¾":492,"åıĤ":493,"ä»£":494,"æŀĲ":495,"æľįåĬ¡":496,"PI":497,"æŃ":498,"Ġp":499,"è¡Į":500,"ä½¿çĶ¨":501,"éªĮ":502,"ç§":503,"ä½ľ":504,"åĪĨæŀĲ":505,"å¼Ģåıĳ":506,"Ġf":507,"é¡¹":508,"å±":509,"åİ":510,"ç»Ł":511,"å¸¸":512,"å»º":513,"ç©":514,"ç»ĵ":515,"éĿ":516,"ĠP":517,"å¹¶":518,"æľº":519,"å¤į":520,"é¢Ħ":521,"ç®¡":522,"é¡¹çĽ®":523,"ock":524,"éĽ":525,"Ł¥":526,"ä¾":527,"å®ī":528,"ä¸º":529,"å¯¹":530,"éĽĨ":531,"å¿":532,"æµģ":533,"å·¥ç¨ĭ":534,"wa":535,"å®ļ":536,"å®īåħ¨":537,"QL":538,"è°":539,"è¡¨":540,"ä¸ļ":541,"åĲĳ":542,"èĥ½åĬĽ":543,"ç´":544,"Ġin":545,"æĸ°":546,"éĹ®":547,"æĮģ":548,"éĥ":549,"éĥ¨":550,"ä»£çłģ":551,"ä¸Ĭ":552,"æ¡":553,"æĻ":554,"èģ":555,"ä¹ł":556,"åĬ¨":557,"åŃ¦ä¹ł":558,"em":559,"ĠE":560,"çłĶ":561,"ç®¡çĲĨ":562,"è®Ń":563,"åŃĺ":564,"ĠAI":565,"åħ¥":566,"ç»ı":567,"è°ĥ":568,"SQL":569,"ä½į":570,"åĵ":571,"Ġm":572,"ç»ĥ":573,"éĩį":574,"æģ":575,"éľ":576,"æİ§":577,"åŁºäºİ":578,".čĊ":579,"Re":580,"å¤ļ":581,"å¼ı":582,"æłĩ":583,"ode":584,"ç¡":585,"ä¸ĭ":586,"è®Ńç»ĥ":587,"£İ":588,"é£İ":589,"è¿Ľ":590,"çĶ¨äºİ":591,"æŀľ":592,"ç³»ç»Ł":593,"ri":594,"¤º":595,"åĻ":596,"ç¤º":597,"Ġd":598,"çĽ¸":599,"å®ŀçİ°":600,"act":601,"il":602,"ç´¢":603,"çĽĳ":604,"éľĢ":605,"ĦçĲĨ":606,"å¤ĦçĲĨ":607,"è§£":608,"åĻ¨":609,"è¯Ń":610,"åºı":611,"éĻ©":612,"éĿ¢":613,"é£İéĻ©":614,"ut":615,"éħ":616,"Ġb":617,"æĸĩä»¶":618,"ç©¶":619,"çłĶç©¶":620,"éħį":621,"js":622,"se":623,"è¯ķ":624,"çĶŁæĪĲ":625,"ment":626,"æĪ·":627,"åĳ":628,"è®¾":629,"æĪĸ":630,"orm":631,"====":632,"åĢ":633,"æ±":634,"ï¼ī":635,"ad":636,"ig":637,"ul":638,"ver":639,"±»":640,"ç±»":641,"åıĺ":642,"ost":643,"å¢":644,"æĽ":645,"èµ":646,"è½":647,"ï¼Ī":648,"ine":649,"Red":650,"æģ¯":651,"Redis":652,"pr":653,"ub":654,"çī":655,"åı¯ä»¥":656,"åĲİç«¯":657,"ç½®":658,"åİĨ":659,"gre":660,"èĢ":661,"æľŁ":662,"è®¤":663,"æĭ¬":664,"«ĺ":665,"ç¼":666,"é«ĺ":667,"ĠčĊ":668,"art":669,"åĩº":670,"ve":671,"æ²":672,"æłĪ":673,"ĠAPI":674,"çº¿":675,"åĮħæĭ¬":676,"æ±Ĥ":677,".js":678,"ure":679,"Ġa":680,"ä»»":681,"å®Į":682,"ity":683,"åĽŀ":684,"æĶ¯":685,"èĩª":686,"¦Ĥ":687,"åĿ":688,"äº¤":689,"ag":690,"un":691,"æŁ¥":692,"çķ":693,"Ġ/":694,"Ġde":695,"è¾ĵ":696,"ka":697,"Ĥ¨":698,"åĬł":699,"æĢģ":700,"ostgre":701,"ce":702,"ser":703,"yth":704,"æľºåĪ¶":705,"ython":706,"ID":707,"form":708,"pp":709,"åĨħ":710,"æĹ¶éĹ´":711,"ostgreSQL":712,"val":713,"åģ":714,"è·":715,"Ġt":716,"ä¼ĺ":717,"ä¿¡":718,"çĽ¸åħ³":719,"gine":720,"ran":721,"æ¶":722,"pring":723,"gineer":724,"ok":725,"ĠWeb":726,"åĲĮ":727,"çŃī":728,"åºĶçĶ¨":729,"ä»»åĬ¡":730,"ot":731,"æµĭè¯ķ":732,"éĢļè¿ĩ":733,"æ·":734,"çľ":735,"çŁ":736,"ĠB":737,"æľĢ":738,"ä½ĵ":739,"å¤§":740,"ain":741,"Ġe":742,"æķ´":743,"æĸĩæ¡":744,"æĬĢ":745,"æĸĩæ¡£":746,"if":747,"ãĢģP":748,"äº§":749,"æķ°æį®åºĵ":750,"åįĩ":751,"ocker":752,"æº":753,"çĤ":754,"éļ":755,"å®¹":756,"æĻº":757,"æĶ¯æĮģ":758,"Docker":759,"pe":760,"ue":761,"ç®Ĺ":762,"é¢ĺ":763,"æŀĦå»º":764,"éľĢè¦ģ":765,"æĽ´":766,"âĢ":767,"å¥":768,"æĦ":769,"Ġw":770,"ĵåºĵ":771,"ä»ĵåºĵ":772,"è¿Ļ":773,"åľ°":774,"åįķ":775,"éĺŁ":776,"æ³¨":777,"åıĤä¸İ":778,"ç¡®":779,"Go":780,"co":781,"éĶ":782,"æĪĳ":783,"å¹³":784,"æıĲåįĩ":785,"å±ķ":786,"è®¾è®¡":787,"æĬĢæľ":788,"ack":789,"äºĨ":790,"ä½İ":791,"ate":792,"ess":793,"æµģç¨ĭ":794,"æİ§åĪ¶":795,"æĬĢæľ¯":796,"Sock":797,"è¶":798,"åı£":799,"åĪ°":800,"å·®":801,"ä¿Ŀ":802,"éĹ®é¢ĺ":803,"Socket":804,"av":805,"ï¼ĮåĮħæĭ¬":806,"è¯Ĩ":807,"è¿ŀ":808,"ä¹ī":809,"åıĤæķ°":810,"æºĲ":811,"ĠF":812,"Ġst":813,"éĢļå¸¸":814,"æ³ķ":815,"åĢ¼":816,"API":817,"omp":818,"åħ¶":819,"ç»´":820,"ç®Ģ":821,"æŃ¥":822,"ud":823,"å¦Ĥ":824,"ĠN":825,"ç»Ħ":826,"çĶ¨æĪ·":827,"å·¥ä¸ļ":828,"ç«ĭ":829,"å½ĵ":830,"æ£Ģç´¢":831,"éªĮè¯ģ":832,"ï¼Įå¹¶":833,"åħĪ":834,"çĽĸ":835,"éĽĨæĪĲ":836,"former":837,"æ¶Ī":838,"Jav":839,"Ġ|":840,"ä¸»":841,"åħ·":842,"æķĪ":843,"æİ¨":844,"åĽ¢":845,"way":846,"æĻºèĥ½":847,"JW":848,"ee":849,"æ¯":850,"åĪĹ":851,"å¤©":852,"å·¥ä½ľ":853,"JWT":854,"LL":855,"UID":856,"æĥ":857,"ata":858,"éĻį":859,"çº§":860,"æŃ£":861,"ä¾Ŀ":862,"Java":863,"Python":864,"ib":865,"of":866,"pt":867,"åħĥ":868,"ïĤ·åıĤä¸İ":869,"åĽ¾":870,"çİ¯":871,"ction":872,"éĻĲ":873,"é¢Ħæµĭ":874,"è¿ŀæİ¥":875,"å½ĵåīį":876,"Spring":877,"çŁ¥":878,"ï¼Įä¸į":879,"end":880,"éĢī":881,"æıı":882,"æĬ¥":883,"å¾®":884,"åĵį":885,"ull":886,"å¢ĥ":887,"è®¤è¯ģ":888,"valu":889,"åĽ¢éĺŁ":890,"LLM":891,"ĠT":892,"åı°":893,"å¤±":894,"æŀ¶":895,"å°Ĩ":896,"çİ¯å¢ĥ":897,"RA":898,"Sc":899,"po":900,"ual":901,"è¯Ħ":902,"ont":903,"ïĤ·ä½¿çĶ¨":904,"æĺİ":905,"åŃĺå":906,"è¿Ľè¡Į":907,"JS":908,"äºº":909,"å¼Ĥ":910,"åı¯è§":911,"çŃĶ":912,"WebSocket":913,"React":914,"åĿĹ":915,"è¾ĵåĩº":916,"åŃĺåĤ¨":917,"SE":918,"du":919,"id":920,"ist":921,"ter":922,"vic":923,"ä¹ĭ":924,"è°ĥçĶ¨":925,"ript":926,"gineering":927,"oken":928,"ol":929,"éĴ":930,"Ġen":931,"ĨçĽĸ":932,"è¿Ĳ":933,"åħ¨æłĪ":934,"è¦ĨçĽĸ":935,"Ġfor":936,"ware":937,"ĠEn":938,"RE":939,"Â·":940,"èŃ":941,"è¯į":942,"æł·":943,"å¸Ī":944,"è§Ħ":945,"ä¸Ģä¸ª":946,"ä¿®":947,"èĩ´":948,"Ġpro":949,"é¢ĦèŃ":950,"èģĮ":951,"rans":952,"æĦı":953,"Script":954,"é¢ĦèŃ¦":955,"Git":956,"ä»İ":957,"åĪ«":958,"ication":959,"low":960,"ç½²":961,"å·¥ç¨ĭå¸Ī":962,"åĲĳéĩı":963,"éĥ¨ç½²":964,"éħįç½®":965,"age":966,"æ·±":967,"oft":968,"æŀ¶æŀĦ":969,"imp":970,"pen":971,"us":972,"´æİ¥":973,"çĽ´æİ¥":974,"ort":975,"å°ı":976,"çĽ®æłĩ":977,"è¡¨ç¤º":978,"åĳĬ":979,"ç¼ĸ":980,"ä¿¡æģ¯":981,"æ¶Īæģ¯":982,"æĬ¥åĳĬ":983,"ransformer":984,"ST":985,"ir":986,"la":987,"éģ":988,"ĠM":989,"ľç¨ĭ":990,"è®°":991,"æĸĩæľ¬":992,"ä¼°":993,"æĮĩ":994,"å½ķ":995,"æıĲä¾":996,"æ£ĢæŁ¥":997,"å¿ĥ":998,"èµĦ":999,"æıĲä¾Ľ":1000,"ail":1001,"iz":1002,"ose":1003,"¨Ģ":1004,"ç¦":1005,"è¨Ģ":1006,"éķ":1007,"ĠÂ·":1008,"åıª":1009,"åħ¬":1010,"è¯·":1011,"è¯»":1012,"è¿ľç¨ĭ":1013,"å¤Ł":1014,"å°±":1015,"è®¡ç®Ĺ":1016,"æİ¥åı£":1017,"æ¡Ī":1018,"è¯Ńä¹ī":1019,"è¯Ńè¨Ģ":1020,"========":1021,"èµĸ":1022,"è·¯":1023,"å±ķç¤º":1024,"ä¾Ŀèµĸ":1025,"valuation":1026,"éķ¿":1027,"Open":1028,"af":1029,"am":1030,"²Ĺ":1031,"Âł":1032,"å²Ĺ":1033,"Ġimp":1034,"ä»ĸ":1035,"ç»Ń":1036,"æķħ":1037,"çĲĨè§£":1038,"çİĩ":1039,"å®ŀæĹ¶":1040,"æ£Ģæµĭ":1041,"åīįç«¯":1042,"ç»ıéªĮ":1043,"çľŁ":1044,"çĤ¹":1045,"å¹³åı°":1046,"ompose":1047,"oftware":1048,"å²Ĺä½į":1049,"ding":1050,"ew":1051,"ile":1052,"ur":1053,"æ¬":1054,"çĭ":1055,"Ġan":1056,"ence":1057,"å·²":1058,"è¾ĥ":1059,"ä¸ŃçļĦ":1060,"ç½ĳ":1061,"çĽĳæİ§":1062,"èĢĮ":1063,"åĨħå®¹":1064,"åħ¶ä»ĸ":1065,"çĭ¬":1066,"Ch":1067,"Transformer":1068,"ex":1069,"est":1070,"ss":1071,"¶æĢģ":1072,"çĬ":1073,"onf":1074,"æĸŃ":1075,"äºĴ":1076,"ated":1077,"åĮº":1078,"éĢĤ":1079,"èĥ½å¤Ł":1080,"ith":1081,"æĹł":1082,"åľº":1083,"æĬ¤":1084,"å°ĳ":1085,"æĶ¹":1086,"éĺ²":1087,"ç§į":1088,"ç»ĵæŀĦ":1089,"æĻ¯":1090,"ign":1091,"åıĺéĩı":1092,"å®ĮæĪĲ":1093,"ĠBo":1094,"éļľ":1095,"éĻįä½İ":1096,"RAG":1097,"è¯Ħä¼°":1098,"çĬ¶æĢģ":1099,"ãĢģDocker":1100,"æį¢":1101,"æĸ¹åĲĳ":1102,"ç§»":1103,"ç»ĵæŀľ":1104,"ä¼ĺåĮĸ":1105,"çŁ³":1106,"ĠBoot":1107,"ly":1108,"ype":1109,"æ´":1110,"Ġ-":1111,"ï¼Įä½":1112,"ï¼Įä½¿":1113,"å¼ķ":1114,"æł¹":1115,"åĽł":1116,"ask":1117,"ç§ĳ":1118,"ç©º":1119,"å¢ŀ":1120,"çī¹":1121,"äº¤äºĴ":1122,"uality":1123,"vice":1124,"åľºæĻ¯":1125,"-ser":1126,"um":1127,"¯ä»¶":1128,"¿éĹ®":1129,"åıĸ":1130,"ç»Ļ":1131,"è®¿éĹ®":1132,"æİĴ":1133,"æł¼":1134,"å¯¼":1135,"çŃĸ":1136,"çĶŁäº§":1137,"æī«":1138,"ĠCompose":1139,"ä¸ļåĬ¡":1140,"è½¯ä»¶":1141,"arts":1142,"å®Įæķ´":1143,"éĶ®":1144,"æĥħ":1145,"æł¹æį®":1146,"ON":1147,"el":1148,"»è¾":1149,"æ»":1150,"Ġn":1151,"Ġq":1152,"åĲ«":1153,"éĢ»è¾":1154,"æĬĬ":1155,"ä¼ļ":1156,"loud":1157,"ass":1158,"è¿ĩç¨ĭ":1159,"å½Ĵ":1160,"æĿĥ":1161,"å±Ĥ":1162,"çķĮ":1163,"ç¦»":1164,"éĢ»è¾ĳ":1165,"TT":1166,"om":1167,"out":1168,"oun":1169,"±åĮħ":1170,"æ®":1171,"æĲ":1172,"Ġg":1173,"Ġh":1174,"åı²":1175,"çĶ±":1176,"äºĭ":1177,"ä¹ħ":1178,"æĺ¯ä¸Ģ":1179,"åįı":1180,"Ġse":1181,"å¯Ĩ":1182,"è¾¹":1183,"æĢ§èĥ½":1184,"åĩĨ":1185,"åĮħåĲ«":1186,"åħ³ç³»":1187,"æĿ¥":1188,"å¿ħ":1189,"æĮģä¹ħ":1190,"ä½įç½®":1191,"çĽĳæµĭ":1192,"é£İéĻ©é¢ĦèŃ¦":1193,"ç±»åŀĭ":1194,"åİĨåı²":1195,"eep":1196,"éĴ±åĮħ":1197,"çĭ¬ç«ĭ":1198,"ypeScript":1199,"bed":1200,"ect":1201,"ob":1202,"¸å¿ĥ":1203,"æ°":1204,"ç¬":1205,"ĠQ":1206,"ĠçļĦ":1207,"è¯¯":1208,"åĬŁ":1209,"æł¸å¿ĥ":1210,"æ¨¡åĿĹ":1211,"åĩı":1212,"odel":1213,"æĬĢæľ¯æłĪ":1214,"å¦Ĥæŀľ":1215,"æķħéļľ":1216,"æ¬¡":1217,"onfig":1218,"bedding":1219,"\":":1220,"Hub":1221,"flow":1222,"im":1223,"tain":1224,"user":1225,"ãĢģT":1226,"åıį":1227,"éĩĬ":1228,"ical":1229,"æĸ¹æ¡Ī":1230,"èĩ³":1231,"æī§":1232,"èģĬ":1233,"å¥½":1234,"com":1235,"ä¹ĭéĹ´":1236,"GitHub":1237,"æī«æıı":1238,"åĬŁèĥ½":1239,"-t":1240,"Kaf":1241,"PostgreSQL":1242,"io":1243,"å£":1244,"çģ":1245,"ĠD":1246,"Ġte":1247,"ãĢģE":1248,"ãĢģN":1249,"ãĢģS":1250,"ory":1251,"å¹¿":1252,"é¡µ":1253,"mple":1254,"è´¥":1255,"æľºåĻ¨":1256,"éĩįå¤į":1257,"åºıåĪĹ":1258,"å¤±è´¥":1259,"åĩıå°ĳ":1260,"Kafka":1261,":čĊ":1262,"ab":1263,"æĤ¨":1264,"èī":1265,"int":1266,"å®ĺ":1267,"å¤ĸ":1268,"è®º":1269,"åı¯èĥ½":1270,"ä¼ł":1271,"åº¦åŃ¦ä¹ł":1272,"ä¾ĭ":1273,"æµģå¼ı":1274,"ï¼īčĊ":1275,"æ²Ł":1276,"ãĢģPostgreSQL":1277,"å¾®æľįåĬ¡":1278,"æł·æľ¬":1279,"GP":1280,"gg":1281,"±åĵį":1282,"æ¸":1283,"Ġ=":1284,"ģç§»":1285,"ĨåĮĸ":1286,"ľç´¢":1287,"łåĨ":1288,"ï¼ĮæĶ¯æĮģ":1289,"æľª":1290,"äºĮ":1291,"è¿ģç§»":1292,"ang":1293,"åĨłåĨ":1294,"å¸ĥ":1295,"å®ŀéªĮ":1296,"ä¸Ģèĩ´":1297,"é¡»":1298,"å½±åĵį":1299,"è´£":1300,"æĭŁ":1301,"æĿĤ":1302,"å¾Ĺ":1303,"åĢĻ":1304,"çķ¥":1305,"çľĭ":1306,"ateway":1307,"æ¯Ķ":1308,"çŁ¥è¯Ĩ":1309,"åı¯è§ĨåĮĸ":1310,"estJS":1311,"ï¼Įä½Ĩ":1312,"æĲľç´¢":1313,"å¿ħé¡»":1314,"æĮģä¹ħåĮĸ":1315,"æľºåĻ¨åŃ¦ä¹ł":1316,"æ²ŁéĢļ":1317,"åĨłåĨĽ":1318,"-st":1319,"App":1320,"GO":1321,"In":1322,"PE":1323,"fit":1324,"ive":1325,"ving":1326,"çĦ":1327,"çĨ":1328,"Ġr":1329,"ãĢģF":1330,"ä»ĺ":1331,"ï¼Įä»¥":1332,"ï¼Įåı¯ä»¥":1333,"äºĽ":1334,"åĲ¦":1335,"ant":1336,"åŁºç¡":1337,"è´¨":1338,"è´Ł":1339,"æīĢ":1340,"åİŁ":1341,"å¤įæĿĤ":1342,"å¤ļä¸ª":1343,"velo":1344,"è¾ĵåħ¥":1345,"ä¼ĺåħĪ":1346,"æ³¨æĦı":1347,"ä¸»è¦ģ":1348,"æ·±åº¦åŃ¦ä¹ł":1349,"è¯·æ±Ĥ":1350,"çŃĸçķ¥":1351,"æī§è¡Į":1352,"å®ĺæĸ¹":1353,"åŁºç¡Ģ":1354,"HTT":1355,"tt":1356,"ust":1357,"ute":1358,"xp":1359,"³å®ļ":1360,"çĵ":1361,"é©":1362,"Ġlo":1363,"ĠUID":1364,"ãĢģC":1365,"ï¼ĮçĶ¨äºİ":1366,"æĸ¯":1367,"æĺ¯åĲ¦":1368,"åĨµ":1369,"ctor":1370,"Ġsc":1371,"Ġsoftware":1372,"Ġrep":1373,"ĠCloud":1374,"ç»Łè®¡":1375,"åĵģ":1376,"Ġdata":1377,"éľĢæ±Ĥ":1378,"mentation":1379,"è½¬":1380,"ç¼ĵ":1381,"ureka":1382,"åĿĩ":1383,"åĲĮæĹ¶":1384,"æ¯ı":1385,"Ġengineering":1386,"èģĬå¤©":1387,"åĢĻéĢī":1388,"çĦ¶":1389,"è´¨éĩı":1390,"HTTP":1391,")čĊ":1392,"GA":1393,"gr":1394,"ru":1395,"uth":1396,"vi":1397,"¥åº":1398,"¦æĸ¯":1399,"½æķ°":1400,"æĴ":1401,"çħ":1402,"éĵ":1403,"ĠR":1404,"ãĢģRedis":1405,"ãĢģJWT":1406,"ï¼Įè¦ĨçĽĸ":1407,"ç»Ī":1408,"è¯Ŀ":1409,"ïĤ·å®ŀçİ°":1410,"ïĤ·çłĶç©¶":1411,"ïĤ·æŀĦå»º":1412,"çĽĺ":1413,"ork":1414,"åŃĲ":1415,"æĢ¥":1416,"å¸Į":1417,"ard":1418,"ä¸Ģä¸ĭ":1419,"éĢļä¿¡":1420,"åŁŁ":1421,"åĩ½æķ°":1422,"åºĶæĢ¥":1423,"ç»ıåİĨ":1424,"éĩįæĸ°":1425,"è§£éĩĬ":1426,"vector":1427,"åģ¥åº":1428,"uest":1429,"Ġwith":1430,"æİ¨çĲĨ":1431,"iber":1432,"å¼ĤæŃ¥":1433,"è¿Ĳè¡Į":1434,"ĠEngineer":1435,"æ®µ":1436,"æ°Ķ":1437,"æķħéļľæ£Ģæµĭ":1438,"velop":1439,"çĵ¦æĸ¯":1440,"éĵ¾":1441,"åģ¥åº·":1442,"SC":1443,"ier":1444,"mar":1445,"oc":1446,"over":1447,"ook":1448,"py":1449,"ron":1450,"»ç»ĵ":1451,"çĪ":1452,"Ġä¸ª":1453,"ĨåŁŁ":1454,"ãĢģæķ°æį®":1455,"ãĢģå®īåħ¨":1456,"ä»ħ":1457,"ï¼ĮèĢĮ":1458,"åħį":1459,"åĪĻ":1460,"å®¢":1461,"ers":1462,"å¤ĩ":1463,"all":1464,"aly":1465,"åĽ½":1466,"åĨĮ":1467,"åĨĻ":1468,"ä¸įåĲĮ":1469,"é¢ĨåŁŁ":1470,"Ġcon":1471,"æĮī":1472,"ase":1473,"å»ºç«ĭ":1474,"ä¸Ĭä¸ĭ":1475,"åĽŀçŃĶ":1476,"æ³¨åĨĮ":1477,"ç®ĢåİĨ":1478,"åĵįåºĶ":1479,"éģ¿":1480,"æĺ¯ä¸Ģç§į":1481,"ç¼ĵåŃĺ":1482,"view":1483,"ä¸Ĭä¸ĭæĸĩ":1484,"ac":1485,"ap":1486,"file":1487,"pat":1488,"sp":1489,"èĭ":1490,"ĠL":1491,"Ġro":1492,"ĨĴ":1493,"ĨçĤ":1494,"ãĢģM":1495,"åĬŀ":1496,"ïĤ·D":1497,"ator":1498,"å¼º":1499,"ç¨³å®ļ":1500,"åĨ³":1501,"åıĳçİ°":1502,"æıĲé«ĺ":1503,"æĿ¡":1504,"æŃ¢":1505,"ĠPython":1506,"wagg":1507,"åĬ¨æĢģ":1508,"åĳĺ":1509,"çīĪ":1510,"èĩªåĬ¨":1511,"åģļ":1512,"æľĢç»Ī":1513,"REST":1514,"ä¿®æĶ¹":1515,"Ġimpro":1516,"-service":1517,"çĪĨçĤ":1518,"éģ¿åħį":1519,"wagger":1520,"çĪĨçĤ¸":1521,"/S":1522,"Gateway":1523,"IM":1524,"See":1525,"WGA":1526,"gvector":1527,"ip":1528,"quest":1529,"xse":1530,"æ¦Ĥ":1531,"Ġ[":1532,"Ġl":1533,"ĠRe":1534,"eri":1535,"è¿ĺ":1536,"atch":1537,"refit":1538,"åĽ´":1539,"åĨ»ç»ĵ":1540,"arch":1541,"Ġcode":1542,"æĸ¹æ³ķ":1543,"æľ¬åľ°":1544,"ĠSpring":1545,"å¾Ħ":1546,"éĽĨåĲĪ":1547,"éĥ¨åĪĨ":1548,"ility":1549,"Ġto":1550,"åºĶçĶ¨å¼Ģåıĳ":1551,"ä½ĵç³»":1552,"å¥ĸ":1553,"è®°å½ķ":1554,"è¯Ńè¨Ģæ¨¡åŀĭ":1555,"çľŁå®ŀ":1556,"Ġanaly":1557,"æĥħåĨµ":1558,"eepSee":1559,"ime":1560,"-to":1561,"å£«":1562,"çĨŁ":1563,"æ³¨æĦıåĬĽ":1564,"æĴŃ":1565,"å®¢æĪ·":1566,"WGAN":1567,"xsec":1568,"eepSeek":1569,"-GP":1570,"RM":1571,"SS":1572,"Zust":1573,"ample":1574,"fin":1575,"iver":1576,"sit":1577,"§ĭ":1578,"ªè¡¨":1579,"±åĬ¨":1580,"å§ĭ":1581,"ç¥":1582,"èĬ":1583,"Ġ+":1584,"ãĢģKafka":1585,"ä»·":1586,"ä»ªè¡¨":1587,"ï¼Įå¸¸":1588,"ï¼Įå®ŀçİ°":1589,"ï¼ĮæıĲåįĩ":1590,"è¿°":1591,"ïĤ·P":1592,"ïĤ·åŁºäºİ":1593,"ïĤ·è®¾è®¡":1594,"ench":1595,"éĢŁ":1596,"éĩĩ":1597,"éĩĳ":1598,"åı¯å¤į":1599,"åĨį":1600,"ä¸įèĥ½":1601,"éĢļçŁ¥":1602,"Ġser":1603,"mpt":1604,"åŁºçº¿":1605,"å¾ģ":1606,"ä½ľä¸º":1607,"ä»£çłģä»ĵåºĵ":1608,"ilt":1609,"æ²¡":1610,"æ²¹":1611,"çº¿ç¨ĭ":1612,"Ġevaluation":1613,"è¶ħ":1614,"è¯ĨåĪ«":1615,"æııè¿°":1616,"å¾®è°ĥ":1617,"JSON":1618,"ĠEngineering":1619,"èµĦæºĲ":1620,"è·¯å¾Ħ":1621,"Charts":1622,"çŁ³æ²¹":1623,"çī¹å¾ģ":1624,"ountain":1625,"æ¸ħ":1626,"é©±åĬ¨":1627,"åºĶæĢ¥ç®¡çĲĨ":1628,"mark":1629,"çĪĨçĤ¸é£İéĻ©é¢ĦèŃ¦":1630,"Zustand":1631,"amples":1632,"èĬĤ":1633,"ä»ªè¡¨çĽĺ":1634,"enchmark":1635,"/xsec":1636,"Token":1637,"Vue":1638,"ast":1639,"ika":1640,"job":1641,"ll":1642,"mit":1643,"tri":1644,"¢¯":1645,"º«":1646,"âĨĴ":1647,"æ¢¯":1648,"çĻ":1649,"çĿ":1650,"èº«":1651,"ĠReact":1652,"Ġus":1653,"Ĥæµĭ":1654,"ãĢģæķ°æį®åºĵ":1655,"erver":1656,"åĬ©":1657,"åĲ¯":1658,"ïĤ·å¼Ģåıĳ":1659,"ĠĠĠĠĠĠĠĠĠĠĠ":1660,"read":1661,"éĢĴ":1662,"åŃĹ":1663,"åĪĨç±»":1664,"å®ŀéĻ":1665,"arn":1666,"ention":1667,"æĬķ":1668,"çĽ®åīį":1669,"æĸ¹å·®":1670,"chn":1671,"è¯ģæį®":1672,"æ³Ľ":1673,"å»ºæ¨¡":1674,"ç»ĵåĲĪ":1675,"èģĶ":1676,"ement":1677,"ĠEvaluation":1678,"ĠdApp":1679,"Ġac":1680,"âĢĵ":1681,"ç®Ģåįķ":1682,"posit":1683,"æĺİç¡®":1684,"éĢĤåĲĪ":1685,"é¡µéĿ¢":1686,"Ġimproving":1687,"æ²¡æľī":1688,"ikaflow":1689,"æ¢¯åº¦":1690,"å®ŀéĻħ":1691,"CU":1692,"DF":1693,"_ran":1694,"sh":1695,"sis":1696,"çĥ":1697,"è¸":1698,"Ġon":1699,"Ġä¸İ":1700,"Ġth":1701,"ä¸¤":1702,"ç»ľ":1703,"è¯¢":1704,"è¯´":1705,"enc":1706,"è¡¡":1707,"ï¼Ł\",čĊ":1708,"åįļ":1709,"ics":1710,"çº¦":1711,"è¦ģæ±Ĥ":1712,"è´¹":1713,"temp":1714,"å±ŀ":1715,"éĹ®çŃĶ":1716,"ution":1717,"åıĺåĮĸ":1718,"èĢħ":1719,"äº¤ä»ĺ":1720,"æŁ¥è¯¢":1721,"pport":1722,"ç¡®è®¤":1723,"point":1724,"å¼Ĥå¸¸":1725,"ä¿®å¤į":1726,"ization":1727,"å·²ç»ı":1728,"ç½ĳç»ľ":1729,"ç§ĳçłĶ":1730,"è¾¹çķĮ":1731,"ä¹ĭéĹ´çļĦ":1732,"åĬŀåħ¬":1733,"çĻ»":1734,"_rank":1735,"-S":1736,"/m":1737,"AT":1738,"DeepSeek":1739,"Gem":1740,"LA":1741,"MQ":1742,"PU":1743,"cl":1744,"cur":1745,"go":1746,"lat":1747,"lication":1748,"ma":1749,"pgvector":1750,"upport":1751,"yst":1752,"¥å¿":1753,"¹éħį":1754,"çª":1755,"çĸ":1756,"èĦ":1757,"èĮ":1758,"èĻ":1759,"ĠLLM":1760,"ļæľ¬":1761,"ï¼ĮåĮħåĲ«":1762,"ind":1763,"ini":1764,"iness":1765,"ç»ª":1766,"åĪĴ":1767,"æĸĻ":1768,"ä½ł":1769,"è¿½":1770,"ïĤ·C":1771,"ener":1772,"åĮ¹éħį":1773,"oral":1774,"orage":1775,"æĹ¥å¿":1776,"åĽº":1777,"çŃ¾":1778,"éĿ¢è¯ķ":1779,"ç®Ĺæ³ķ":1780,"âĢĿ":1781,"æĦŁ":1782,"åľ°åĽ¾":1783,"è¶³":1784,"ç»´æĬ¤":1785,"æķĪæŀľ":1786,"ullMQ":1787,"äººå·¥":1788,"æĮĩæłĩ":1789,"å¯¼èĩ´":1790,"å¤ĸéĥ¨":1791,"è®ºæĸĩ":1792,"velopment":1793,"èĭ±":1794,"Ġanalysis":1795,"chnical":1796,"pository":1797,"çĥŃ":1798,"åįļå£«":1799,"Gemini":1800,"ystem":1801,"èĦļæľ¬":1802,"èĮĥ":1803,"æĹ¥å¿Ĺ":1804,"-Transformer":1805,".com":1806,"XSE":1807,"cont":1808,"gent":1809,"op":1810,"plo":1811,"ront":1812,"sc":1813,"±¡":1814,"¶æ®µ":1815,"âī":1816,"æ¼":1817,"è±¡":1818,"Ġass":1819,"Īå¸Į":1820,"ãĢģAI":1821,"ãĢģé£İéĻ©":1822,"ãĢģçĶ¨æĪ·":1823,"ãĢģSpring":1824,"ãĢģæµģå¼ı":1825,"ï¼Įä¸º":1826,"ï¼ĮéĢļå¸¸":1827,"çļĦæķ°æį®":1828,"å®¡":1829,"è®©":1830,"ïĤ·A":1831,"ïĤ·B":1832,"ä¸İéĥ¨ç½²":1833,"åĪĨéħį":1834,"åı¯éħįç½®":1835,"ä¸įæĺ¯":1836,"è§ģ":1837,"ision":1838,"Ġch":1839,"icro":1840,"æĸ¹å¼ı":1841,"è®¡è´¹":1842,"åŃ¦éĩĳ":1843,"thers":1844,"éĺ¶æ®µ":1845,"ĠCSS":1846,"tegr":1847,"ĠPostgreSQL":1848,"ä»£çłģåĪĨæŀĲ":1849,"ä»£çłģæĻºèĥ½":1850,"embedding":1851,"åĵĪå¸Į":1852,"æłĩåĩĨ":1853,"è¿Ľç¨ĭ":1854,"Ġback":1855,"çłĶç©¶æĸ¹åĲĳ":1856,"åĽŀå½Ĵ":1857,"pplication":1858,"å¤§åŃ¦":1859,"ifier":1860,"äº§åĵģ":1861,"âĢľ":1862,"æİ§åĪ¶åĽ¾":1863,"åħ·å¤ĩ":1864,"å¤©æ´":1865,"éĻĲæµģ":1866,"åı¯è§Ĥæµĭ":1867,"duction":1868,"è¿Ĳç»´":1869,"åĲĳéĩıæ£Ģç´¢":1870,"è¯»åıĸ":1871,"å°±ç»ª":1872,"================":1873,"çŁ³åĮĸ":1874,"æİĴåºı":1875,"Ġquality":1876,"å¯Ĩçłģ":1877,"éĴ±åĮħè¿ŀæİ¥":1878,"ç¬¦":1879,"ĠQuality":1880,"iotemp":1881,"çģ«":1882,"ä¸Ģèĩ´æĢ§":1883,"è´Łè´£":1884,"çĵ¦æĸ¯çĪĨçĤ¸é£İéĻ©é¢ĦèŃ¦":1885,"ocu":1886,"patiotemp":1887,"/Sub":1888,"å¥ĸåŃ¦éĩĳ":1889,"æĥħåĨµä¸ĭ":1890,"åı¯å¤įçİ°":1891,"è¸ª":1892,"çĻ»å½ķ":1893,"è¿½è¸ª":1894,"XSEC":1895,"å¤©æ´¥":1896,"åı¯è§ĤæµĭæĢ§":1897,"patiotemporal":1898,"BK":1899,"CA":1900,"Fe":1901,"HA":1902,"IT":1903,"LS":1904,"Te":1905,"UT":1906,"ach":1907,"back":1908,"ject":1909,"lan":1910,"mbedding":1911,"uilt":1912,"wind":1913,"¢«":1914,"æĵ":1915,"æļ":1916,"ç²":1917,"è¢«":1918,"ĠH":1919,"ĠU":1920,"Ġä¸į":1921,"ĠRedis":1922,"ĬæĸŃ":1923,"ãĢģåĲİç«¯":1924,"ãĢģæµĭè¯ķ":1925,"ï¼ĮéĢļè¿ĩ":1926,"ï¼Įè¿Ļ":1927,"åĪĩ":1928,"çļĦè¯Ŀ":1929,"è¯¥":1930,"è¯ĬæĸŃ":1931,"åĲĦ":1932,"æĺł":1933,"ä»¥ä¸Ĭ":1934,"å·¥åħ·":1935,"rompt":1936,"é¡º":1937,"Ġcl":1938,"ä¼¼":1939,"Ġrepository":1940,"æī©":1941,"æī¾":1942,"æĭ©":1943,"æĿ¿":1944,"ĠServer":1945,"ĠCode":1946,"Ġfront":1947,"ĠPub":1948,"å®ļä¹ī":1949,"Ġinter":1950,"èģļ":1951,"èĢĥ":1952,"Ġauth":1953,"çŁŃ":1954,"æĽ´æĸ°":1955,"Ġwork":1956,"éĢīæĭ©":1957,"term":1958,"ailwind":1959,"OpenFe":1960,"lyway":1961,"æł¼å¼ı":1962,"åįıä½ľ":1963,"ç¬¬":1964,"GORM":1965,"æīĢæľī":1966,"xperi":1967,"è½¬æį¢":1968,"Ġroute":1969,"Ġ[čĊ":1970,"ç¥ŀ":1971,"äººå·¥æĻºèĥ½":1972,"èĮĥåĽ´":1973,"ocumentation":1974,"BKDF":1975,"OpenFeign":1976,"/Open":1977,"AR":1978,"DB":1979,"bu":1980,"base":1981,"uator":1982,"¢å¤į":1983,"ªäºĽ":1984,"Â²":1985,"è£":1986,"ĠIn":1987,"įä½ľ":1988,"ãĢģæĸĩä»¶":1989,"ä»½":1990,"ï¼ĮæĪĳ":1991,"åĪ©":1992,"çĶ¨çļĦ":1993,"ord":1994,"orch":1995,"ç¨ĭåº¦":1996,"è§Ĵ":1997,"ctuator":1998,"åıĳå¸ĥ":1999,"æ¨¡åŀĭçļĦ":2000,"å°½":2001,"ä¸ŃéĹ´":2002,"charts":2003,"æľīæķĪ":2004,"æĶ¶":2005,"éĿŀ":2006,"å¯¹è±¡":2007,"åĬ¨ä½ľ":2008,"åĵªäºĽ":2009,"æģ¢å¤į":2010,"Ġdocumentation":2011,"çĽĳçĿ":2012,"è§£åĨ³":2013,"ages":2014,"çķĻ":2015,"Ġdevelopment":2016,"åĨħåŃĺ":2017,"valid":2018,"è¶Ĭ":2019,"ä¿Ŀè¯ģ":2020,"åħ·æľī":2021,"æŃ£å¼ı":2022,"åĿĹéĵ¾":2023,"è§Ħæ¨¡":2024,"ç¼ĸçłģ":2025,"ç¼ĸåĨĻ":2026,"éķ¿æľŁ":2027,"exifier":2028,"åĮºåĿĹéĵ¾":2029,"å¼ķåħ¥":2030,"æĿĥéĩį":2031,"æĭŁåĲĪ":2032,"ttention":2033,"final":2034,"åĲ¯åĬ¨":2035,"èĭ±æĸĩ":2036,"æĵįä½ľ":2037,"ç²¾":2038,"é¡ºåºı":2039,"ç¥ŀç»ı":2040,"çĽĳçĿ£":2041,".py":2042,"/F":2043,"/v":2044,"Batch":2045,"ET":2046,"IN":2047,"NestJS":2048,"bo":2049,"ies":2050,"mo":2051,"pad":2052,"yment":2053,"»åĬł":2054,"éĥ½":2055,"ĠDocker":2056,"Ġåıį":2057,"ĠWGAN":2058,"łæĢ§":2059,"ä¸ī":2060,"ãĢģWeb":2061,"ãĢģå¼ĤæŃ¥":2062,"ä»į":2063,"ï¼Įæĺ¯":2064,"åĪĿ":2065,"oning":2066,"åĲį":2067,"æĪ¿":2068,"éĢĲ":2069,"itect":2070,"åĪĨæķ°":2071,"åĪĨå¸ĥ":2072,"æĢĿ":2073,"åı¯éĿ":2074,"æĪĲæľ¬":2075,"cture":2076,"ents":2077,"ç«ŀ":2078,"ä¸Ģæ¬¡":2079,"åį³":2080,"Ġsupport":2081,"leet":2082,"Ġcomp":2083,"ä¸Ńæĸĩ":2084,"ä¸ŃåĽ½":2085,"ased":2086,"asoning":2087,"æıĲç¤º":2088,"åľ¨ä¸į":2089,"å»¶":2090,"ĠSt":2091,"å±Ģ":2092,"ĠPCA":2093,"å¹¶åıĳ":2094,"å¿«":2095,"Ġincl":2096,"æĸ°çĸ":2097,"Ġman":2098,"Ġmodel":2099,"ç´¢å¼ķ":2100,"Ġbenchmark":2101,"ult":2102,"ĠWebSocket":2103,"æ·»åĬł":2104,"æķ´çĲĨ":2105,"uding":2106,"orts":2107,"èµĦæĸĻ":2108,"ailed":2109,"ext":2110,"ç©ºéĹ´":2111,"å¢ŀåĬł":2112,"äºĭä»¶":2113,"ability":2114,"Ġlog":2115,"ructure":2116,"rone":2117,"æ¦Ĥçİĩ":2118,"å®¢æĪ·ç«¯":2119,"ï¼Įå¸¸çĶ¨äºİ":2120,"èº«ä»½":2121,"Ġusing":2122,"åĽºå®ļ":2123,"ïĤ·Built":2124,"Ġauthent":2125,"åĪ©çĶ¨":2126,"itecture":2127,"åı¯éĿłæĢ§":2128,"Ġincluding":2129,"æĸ°çĸĨ":2130,"BullMQ":2131,"CI":2132,"Mart":2133,"PR":2134,"ak":2135,"cal":2136,"ead":2137,"fer":2138,"ful":2139,"ge":2140,"ow":2141,"ore":2142,"ris":2143,"up":2144,"¤çŁ":2145,"½Ĳ":2146,"æħ":2147,"é»":2148,"é½Ĳ":2149,"ĠJ":2150,"ĠçĽ¸åħ³":2151,"ĠGateway":2152,"Ķç¦»":2153,"ãĢģä½¿çĶ¨":2154,"ãĢģä»ĵåºĵ":2155,"ãĢģéĥ¨ç½²":2156,"ãĢģZustand":2157,"ãĢģä»ªè¡¨çĽĺ":2158,"ãĢģVue":2159,"ï¼ĮåŁºäºİ":2160,"ï¼ĮçĶŁæĪĲ":2161,"ï¼Įæ¶":2162,"ï¼ĮéĻįä½İ":2163,"åħ¼":2164,"ç»ĩ":2165,"çļĦWebSocket":2166,"çļĦæĥħåĨµä¸ĭ":2167,"ä½ķ":2168,"è¿Ł":2169,"ïĤ·E":2170,"ïĤ·S":2171,"ïĤ·æ·»åĬł":2172,"ä¹¦":2173,"ä¹Ł":2174,"æĺ¾":2175,"\",čĊ":2176,"éĢģ":2177,"ç¨ĭåºı":2178,"\")čĊ":2179,"å·¥èī":2180,"éĹŃ":2181,"ä¸įä»ħ":2182,"åıĳè¡¨":2183,"æĹ¶åºı":2184,"æĹ¶ç©º":2185,"cket":2186,"å°Ħ":2187,"è¾¾":2188,"Ġcom":2189,"å¼Ģå±ķ":2190,"åĲİç»Ń":2191,"ash":2192,"chem":2193,"ä»¥åıĬåŁºäºİ":2194,"ä»¥åıĬè¿Ĳç»´":2195,"åºĶåĻ¨":2196,"Ġrequest":2197,"AIåĵįåºĶ":2198,"åħ³éĶ®":2199,"åħ³éĹŃ":2200,"æľįåĬ¡åıĳçİ°":2201,"Ġpad":2202,"ä¸ºä»Ģä¹Ī":2203,"å¿Ĩ":2204,"å·¥ç¨ĭèĥ½åĬĽ":2205,"ĠEthers":2206,"Recharts":2207,"å¤ļåħĥ":2208,"æłĩçŃ¾":2209,"rib":2210,"çĽ¸ä¼¼":2211,"çĽĳç®¡":2212,"éĿ¢åĲĳ":2213,"æĸĩä»¶åŃĺåĤ¨":2214,"json":2215,"åĳ¨":2216,"artif":2217,"ĠAPIs":2218,"Ġapplication":2219,"åĽŀæ»":2220,"æĹ¶éĹ´åºıåĪĹ":2221,"è·¨":2222,"Ġtoken":2223,"æľĢé«ĺ":2224,"ä½ĵçİ°":2225,"Ġex":2226,"ification":2227,"ãĢģPR":2228,"éļĶç¦»":2229,"è¿Ļè¾¹":2230,"æºĲçłģ":2231,"ĠNode":2232,"ç»Ħç»ĩ":2233,"å·¥ä¸ļå®īåħ¨":2234,"å·¥ä¸ļäººå·¥æĻºèĥ½":2235,"waypoint":2236,"åĪĹè¡¨":2237,"å·¥ä½ľæµģ":2238,"æĥ³":2239,"æŃ£å¸¸":2240,"ä¾Ŀæį®":2241,"éĻĲåĪ¶":2242,"åĽ¢éĺŁç®¡çĲĨ":2243,"ĠTypeScript":2244,"duc":2245,"åħ¨æłĪå·¥ç¨ĭå¸Ī":2246,"æĬ¥åĳĬçĶŁæĪĲ":2247,"lay":2248,"è®°å¿Ĩ":2249,"è¯Ńä¹īçº§":2250,"åīįç«¯é¡µéĿ¢":2251,"ç»ĵæŀĦåĮĸ":2252,"æ´»":2253,"asks":2254,"Ġseed":2255,"ãĢģTypeScript":2256,"ãĢģTailwind":2257,"commit":2258,"ãĢģEureka":2259,"ãĢģSwagger":2260,"å¹¿æĴŃ":2261,"ãĢģFiber":2262,"å¤įæĿĤåº¦":2263,"ãĢģConfig":2264,"åĿĩåĢ¼":2265,"èģĬå¤©åĲİç«¯":2266,"çħ§":2267,"çħ¤çŁ":2268,"ãĢģJWTè®¤è¯ģ":2269,"ïĤ·çłĶç©¶çĶŁ":2270,"æķħéļľæ£Ģæµĭä¸İ":2271,"åģ¥åº·æ£ĢæŁ¥":2272,"æĿ¡ä»¶":2273,"çīĪæľ¬":2274,"èĩªåĬ¨åĮĸ":2275,"RESTful":2276,"tripe":2277,"ency":2278,"ãĢģæµģå¼ıAIåĵįåºĶ":2279,"icroMart":2280,"ä»£çłģæĻºèĥ½å¹³åı°":2281,"Ġbackend":2282,"å°±ç»ªæ£ĢæŁ¥":2283,"æĺłå°Ħ":2284,"çŁŃæľŁ":2285,"xperience":2286,"ĠåıįåºĶåĻ¨":2287,"æĪ¿éĹ´":2288,"ä¸ŃåĽ½çŁ³æ²¹":2289,"å»¶è¿Ł":2290,"Ġauthentication":2291,"risma":2292,"å·¥èīº":2293,"artifact":2294,"åĽŀæ»ļ":2295,"çħ¤çŁ¿":2296,"-user":2297,"MicroMart":2298,"OUT":2299,"UM":2300,"cess":2301,"htt":2302,"hook":2303,"not":2304,"ph":2305,"samples":2306,"ySQL":2307,"{\"":2308,"¤æĸŃ":2309,"æĤ":2310,"çĮ":2311,"èİ":2312,"éĤ":2313,"Ġ]":2314,"Ġæ¨¡åŀĭ":2315,"Ġas":2316,"ĠJWT":2317,"ãĢģJava":2318,"ï¼Įä»İ":2319,"åħ±":2320,"ç»§":2321,"åĪ¤æĸŃ":2322,"å®¶":2323,"ongo":2324,"è¿ĳ":2325,"è®¸":2326,"ïĤ·éĽĨæĪĲ":2327,"ath":2328,"æĺĵ":2329,"itbu":2330,"æ¨¡å¼ı":2331,"è§Ī":2332,"å¹´":2333,"éĻ¤":2334,"åħ¨èģĮ":2335,"Ġsystem":2336,"Ġcover":2337,"esign":2338,"åĲĪå¹¶":2339,"éĺħ":2340,"ĠCPU":2341,"tell":2342,"é¢Ħå¤ĦçĲĨ":2343,"å¯¹åºĶ":2344,"Ġintegr":2345,"action":2346,"ill":2347,"ï¼īï¼Į":2348,"æĽ¿":2349,"è½½":2350,"çī©":2351,"çīĩ":2352,"agement":2353,"unt":2354,"Ġdeplo":2355,"éļı":2356,"æĻºæħ":2357,"æĶ¯æĮģè¿ľç¨ĭ":2358,"éĶģ":2359,"éĶĻ":2360,"ä¿ĿæĮģ":2361,"ä¿ĿæĬ¤":2362,"ä¿ĿçķĻ":2363,"Ġstructure":2364,"ç»ĦåĲĪ":2365,"ï¼Įå¹¶æĶ¯æĮģ":2366,"vices":2367,"è§ĦåĪĻ":2368,"Ġproduction":2369,"ç¼ĸç¨ĭ":2370,"åħ¬å¼Ģ":2371,"è·¯çº¿":2372,"ound":2373,"è¯¯å·®":2374,"ãĢģNode":2375,"able":2376,"èī²":2377,"æ¯Ķè¾ĥ":2378,"-storage":2379,"ï¼ĮèĢĮæĺ¯":2380,"æĮīçħ§":2381,"acle":2382,"Ġservice":2383,"æ¸ħçĲĨ":2384,"è¡¡éĩı":2385,"LAM":2386,"Ġworkflow":2387,"è§Ĵèī²":2388,"Ġmanagement":2389,"åĳ¨æľŁ":2390,"layGO":2391,"http":2392,"èİ·":2393,"ongoDB":2394,"itbucket":2395,"æĻºæħ§":2396,"Ġstructured":2397,"-p":2398,"/B":2399,"AU":2400,"Dexifier":2401,"EOUT":2402,"Hikaflow":2403,"Lo":2404,"Mask":2405,"OR":2406,"_refit":2407,"dd":2408,"liver":2409,"model":2410,"ration":2411,"rics":2412,"token":2413,"yn":2414,"{}":2415,"´æĹ¶":2416,"èĪ":2417,"ĠçŃī":2418,"ĠåºĶçĶ¨":2419,"ĠGo":2420,"Ġuser":2421,"ĠGitHub":2422,"Ġarch":2423,"ĺè®¤":2424,"Ľå»º":2425,"Ńä»£":2426,"ä¸´æĹ¶":2427,"ãĢģæ¨¡åŀĭ":2428,"åıī":2429,"ä»ĭ":2430,"ï¼Įåĩıå°ĳ":2431,"åĪĽå»º":2432,"æķ£":2433,"è¿Ńä»£":2434,"ïĤ·I":2435,"red":2436,"æķ°éĩı":2437,"æįŁ":2438,"ite":2439,"æķ°æį®çľĭ":2440,"è§ī":2441,"ross":2442,"ä¸ĢæŃ¥":2443,"åħ¨éĥ¨":2444,"let":2445,"learn":2446,"éĩıåĮĸ":2447,"isk":2448,"Ġcont":2449,"åĲİåı°":2450,"Ġreview":2451,"Ġreasoning":2452,"åľ¨è¯»":2453,"ĠSe":2454,"æľįåĬ¡åĻ¨":2455,"åĪĨæŀĲä¸İ":2456,"å¼Ģåıĳç»ıéªĮ":2457,"Ġfile":2458,"å¤įåĪ¶":2459,"å®ļä½į":2460,"ç´¯":2461,"Ġmain":2462,"Ġmult":2463,"éĩįçĤ¹":2464,"RelayGO":2465,"è®Ńç»ĥéĽĨ":2466,"mented":2467,"åĳ½":2468,"ç±»åĪ«":2469,"åĲİç«¯å¼Ģåıĳ":2470,"ç¼º":2471,"æ²»":2472,"Ġdeliver":2473,"åģı":2474,"åģľ":2475,"æ··":2476,"å®¹åĻ¨":2477,"éĺŁåĪĹ":2478,"æĬĢæľ¯æĸĩæ¡£":2479,"å¦Ĥä½ķ":2480,"ç»Ħä»¶":2481,"ible":2482,"old":2483,"è§ĦåĪĴ":2484,"STR":2485,"iral":2486,"amm":2487,"ï¼Įä½¿æ¨¡åŀĭ":2488,"åĽłä¸º":2489,"-server":2490,"Ġnot":2491,"å½Ĵå±ŀ":2492,"åįıè°ĥ":2493,"ĠData":2494,"Ġtechnical":2495,"ä¾ĭå¦Ĥ":2496,"Ġrisk":2497,"Ġreports":2498,"æ¯ıä¸ª":2499,"IMEOUT":2500,"éĩĩçĶ¨":2501,"èĬĤçĤ¹":2502,"æ³ĽåĮĸ":2503,"Ġacross":2504,"curity":2505,"latform":2506,"çªģ":2507,"Ġfrontend":2508,"èģļåĲĪ":2509,"/OpenAPI":2510,"çĽĳçĿ£åŃ¦ä¹ł":2511,"èº«ä»½è®¤è¯ģ":2512,"é»ĺè®¤":2513,"åħ¼å®¹":2514,"çĮ®":2515,"Ġ],čĊ":2516,"ï¼Įä»İèĢĮ":2517,"ç»§ç»Ń":2518,"Ġintegration":2519,"Ġdeployment":2520,"éĶĻè¯¯":2521,"Ġarchitecture":2522,"æķ°æį®çľĭæĿ¿":2523,"-b":2524,"-g":2525,"//":2526,"/E":2527,"/T":2528,"/t":2529,"/NestJS":2530,"://":2531,"CH":2532,"CCU":2533,"DPE":2534,"IL":2535,"OM":2536,"SUM":2537,"_F":2538,"ace":2539,"auth":2540,"cast":2541,"eck":2542,"failed":2543,"ik":2544,"ne":2545,"ning":2546,"par":2547,"ract":2548,"sw":2549,"sist":2550,"sign":2551,"ux":2552,"uard":2553,"upy":2554,"¡è¶³":2555,"¡çĮ®":2556,"¨é½Ĳ":2557,"²ģ":2558,"¿çľŁ":2559,"ç¿":2560,"èĲ":2561,"é²ģ":2562,"Ġv":2563,"ĠåıĬ":2564,"Ġis":2565,"Ġä¸Ń":2566,"ĠJava":2567,"Ġob":2568,"ĠâĢĵ":2569,"Ġvalid":2570,"Ġwaypoint":2571,"ģè®¸":2572,"Įé²ģ":2573,"ä¸ĵ":2574,"ãĢģL":2575,"åı¸":2576,"ä»¤":2577,"ä»¿çľŁ":2578,"ï¼Įå°Ĩ":2579,"ï¼Įèĥ½å¤Ł":2580,"ï¼ĮæıĲé«ĺ":2581,"ï¼Įè¿ĺ":2582,"æľĽ":2583,"æľ¨é½Ĳ":2584,"åħģè®¸":2585,"inux":2586,"åĪł":2587,"çļĦçĲĨè§£":2588,"enar":2589,"ä¹Įé²ģ":2590,"ance":2591,"æĺ¯åľ¨":2592,"stri":2593,"stru":2594,"æłĳ":2595,"åĪĨç¦»":2596,"éĹ¨":2597,"ĠAttention":2598,"å®ŀä¾ĭ":2599,"é¢Ŀ":2600,"rol":2601,"role":2602,"Ġsamples":2603,"Ġschem":2604,"æĸ¹éĿ¢":2605,"è¿ĩæĭŁåĲĪ":2606,"åŁºåĩĨ":2607,"å½¢":2608,"Ġresp":2609,"è¯ģæĺİ":2610,"è´¡çĮ®":2611,"æĶ¾":2612,"æīį":2613,"æĿŁ":2614,"tection":2615,"Ġpull":2616,"ĠPLS":2617,"éĽĨä¸Ń":2618,"æĸ°å¢ŀ":2619,"ä¸Ĭçº¿":2620,"è°ĥåıĤ":2621,"Ġmess":2622,"Ġmountain":2623,"éĩįè¦ģ":2624,"ç¡¬":2625,"è¿Ľä¸ĢæŃ¥":2626,"uture":2627,"èĩªçĦ¶":2628,"Ġdesign":2629,"åĨħéĥ¨":2630,"å¤§éĩı":2631,"Ġexperience":2632,"è¿Ļä¸ª":2633,"è¿ĻäºĽ":2634,"åįķåħĥ":2635,"ä¿ĿåŃĺ":2636,"åħ·ä½ĵ":2637,"åħĥæķ°æį®":2638,"ï¼Įä¸įèĥ½":2639,"ï¼Įä¸įè¦ģ":2640,"dustri":2641,"Ġproject":2642,"èģĮè´£":2643,"æıĲä¾ĽåŁºç¡Ģ":2644,"ize":2645,"éĢĤçĶ¨äºİ":2646,"æĹłæķĪ":2647,"éĺ²æĬ¤":2648,"åĽłæŀľ":2649,"çī¹å®ļ":2650,"çĶŁäº§çº§":2651,"ä¸ļåĬ¡éĢ»è¾ĳ":2652,"è½¯ä»¶å¼Ģåıĳ":2653,"æ»¡è¶³":2654,"æĿ¥æºĲ":2655,"mplemented":2656,"æĤ¨å¥½":2657,"ä¼łæĴŃ":2658,"Ġconsist":2659,"çĨŁæĤ":2660,"æ³¨æĦıåĬĽæľºåĪ¶":2661,"ä»·åĢ¼":2662,"éĢŁåº¦":2663,"Ġservices":2664,"æĬķéĢĴ":2665,"è¯´æĺİ":2666,"enerated":2667,"åįļå£«åľ¨è¯»":2668,"âī¥":2669,"æī©å±ķ":2670,"ĠInformer":2671,"ï¼ĮæĪĳè¿Ļè¾¹":2672,"å°½éĩı":2673,"board":2674,"ĠJupy":2675,"phan":2676,"https":2677,"ïĤ·Implemented":2678,"æįŁå¤±":2679,"Ġmaintain":2680,"é»ĺè®¤åħ³éĹŃ":2681,"-generated":2682,"/ECharts":2683,"ikit":2684,"enario":2685,"ä¹Įé²ģæľ¨é½Ĳ":2686,"Ġrespon":2687,"dustrial":2688,"çĨŁæĤī":2689,"ĠJupyter":2690,"##":2691,"(samples":2692,"-d":2693,"/C":2694,"/čĊ":2695,"/AI":2696,"/å¯¼":2697,"/æ³¨åĨĮ":2698,"/å°±ç»ªæ£ĢæŁ¥":2699,"AD":2700,"Actuator":2701,"LO":2702,"NT":2703,"Py":2704,"Top":2705,"Torch":2706,"Val":2707,"]čĊ":2708,"_d":2709,"aMask":2710,"ey":2711,"earn":2712,"pth":2713,"qu":2714,"ry":2715,"rum":2716,"uer":2717,"xt":2718,"¥ä¸İ":2719,"¦æĪ·":2720,"´éľ":2721,"µçĽĸ":2722,"·æĸ°":2723,"¿Ģ":2724,"æ¿Ģ":2725,"èį":2726,"ĠI":2727,"ĠåĴĮ":2728,"Ġå¼Ģåıĳ":2729,"Ġif":2730,"Ġof":2731,"Ġåħ¨æłĪ":2732,"Ġæİ¥åı£":2733,"Ġå·²":2734,"Ġèĩ³":2735,"Ġç»Łè®¡":2736,"ĠåºĶçĶ¨å¼Ģåıĳ":2737,"Ġæİ§åĪ¶åĽ¾":2738,"ĠRESTful":2739,"ĭå·®":2740,"Įæı":2741,"ĵåº¦":2742,"ãĢĬ":2743,"ãĢĭ":2744,"ãĢģä»£çłģ":2745,"ãĢģåŁºäºİ":2746,"ãĢģå¤ļ":2747,"ãĢģçİ¯å¢ĥ":2748,"ãĢģæ¶Īæģ¯":2749,"ãĢģæī«æıı":2750,"ãĢģå½±åĵį":2751,"ãĢģæľºåĻ¨åŃ¦ä¹ł":2752,"ãĢģåģ¥åº·":2753,"ãĢģéĢļçŁ¥":2754,"ãĢģåºĶæĢ¥ç®¡çĲĨ":2755,"ãĢģjob":2756,"ãĢģpgvector":2757,"ãĢģè®¡è´¹":2758,"ãĢģembedding":2759,"ãĢģåĲĳéĩıæ£Ģç´¢":2760,"ãĢģçŁ³åĮĸ":2761,"ãĢģåı¯è§ĤæµĭæĢ§":2762,"ãĢģOpenFeign":2763,"ãĢģBullMQ":2764,"ãĢģæľįåĬ¡åıĳçİ°":2765,"ãĢģRecharts":2766,"ãĢģæĹ¶éĹ´åºıåĪĹ":2767,"ãĢģcommit":2768,"ãĢģåĲİåı°":2769,"ä»Ĭ":2770,"ï¼Įå¯¹":2771,"ï¼ĮçłĶç©¶":2772,"ï¼Įä¸Ģä¸ª":2773,"ï¼Įå±ķç¤º":2774,"ï¼ĮæĬĢæľ¯æłĪ":2775,"ï¼Įä¹Ł":2776,"ï¼Įä½ĵçİ°":2777,"ï¼ĮæĽ¿":2778,"ï¼Įä¾ĭå¦Ĥ":2779,"ï¼ĮéĩĩçĶ¨":2780,"ãĢĤè¯¥":2781,"ç»Ĩ":2782,"ç»ķ":2783,"åĪĬ":2784,"åĪ·æĸ°":2785,"çļĦä¿¡æģ¯":2786,"çļĦå®Įæķ´":2787,"çļĦå¼ĤæŃ¥":2788,"è¯¦":2789,"ä½Ĩ":2790,"è®®":2791,"ïĤ·åľ¨":2792,"ïĤ·åĬł":2793,"ïĤ·å»ºç«ĭ":2794,"ïĤ·ç¼ĸåĨĻ":2795,"ïĤ·å¼ķåħ¥":2796,"ïĤ·åıĳè¡¨":2797,"ates":2798,"ature":2799,"res":2800,"ream":2801,"æĺ¯ä»Ģä¹Ī":2802,"æĺ¯å°Ĩ":2803,"ä¸İåı¯å¤įçİ°":2804,"ä¸İä»¿çľŁ":2805,"æµ·":2806,"æµĵåº¦":2807,"æİĮæı":2808,"ï¼ļå¯¹":2809,"ï¼ļå®īåħ¨":2810,"ï¼ļéĿ¢è¯ķ":2811,"ï¼ļãĢĬ":2812,"çĲĨå·¥":2813,"åĪĨåıĳ":2814,"æ¨¡æĭŁ":2815,"åı¯å±ķç¤º":2816,"åı¯ç»´æĬ¤":2817,"æķ°æį®çļĦ":2818,"æķ°æį®æİ¥":2819,"æķ°æį®åĪĨæŀĲ":2820,"åıĬçĶŁäº§":2821,"åŀ¢":2822,"åĨ²":2823,"ĠApp":2824,"ĠAir":2825,"ĠAgent":2826,"ä¸įå®īåħ¨":2827,"æĪĲåĪĨ":2828,"æĪĲæŀľ":2829,"åĮĸå·¥":2830,"roach":2831,"anding":2832,"å¼Ģå§ĭ":2833,"çĶŁåĳ½":2834,"åŃ¦ä¸ļ":2835,"Webhook":2836,"ä»¥åıĬWebSocket":2837,"Ġreal":2838,"ä¸ªäºº":2839,"è¯ģä¹¦":2840,"åĲĪä½ľ":2841,"è´¦æĪ·":2842,"AIçĶŁæĪĲ":2843,"AIåħ¨æłĪå·¥ç¨ĭå¸Ī":2844,"ety":2845,"etaMask":2846,"ĠSoftware":2847,"ĠSpatiotemporal":2848,"ĠSLAM":2849,"ĠConfig":2850,"å¾ħ":2851,"åıĤèĢĥ":2852,"ä»£ä¸įå®īåħ¨":2853,"æľįåĬ¡ä»¥åıĬ":2854,"æľįåĬ¡è¾¹çķĮ":2855,"ç§ģ":2856,"ä½ľçĶ¨":2857,"åĪĨæŀĲä»¥åıĬ":2858,"Ġfull":2859,"åİ»":2860,"åİĤ":2861,"ç»ĵåŀ¢":2862,"å¹¶æıĲåįĩ":2863,"é¢Ħéĺ²":2864,"å®īåħ¨æĢ§":2865,"å®īåħ¨çĽĳç®¡":2866,"ç´ł":2867,"æĸ°åĨłåĨĽ":2868,"æĮģç»Ń":2869,"ĠEmbedding":2870,"ç»ıè¿ĩ":2871,"SQLè¿ģç§»":2872,"ä¸ĭçļĦ":2873,"ä¸ĭéĻį":2874,"è®Ńç»ĥæķ°æį®":2875,"è®Ńç»ĥæ¨¡åŀĭ":2876,"é£İæł¼":2877,"è¿Ľåº¦":2878,"Ġdrone":2879,"é£İéĻ©è¯Ħä¼°":2880,"æĸĩä»¶åħĥæķ°æį®":2881,"éħįå¯¹":2882,"ï¼īåĪĨæŀĲ":2883,"åıĺæĽ´":2884,"ï¼ĪS":2885,"print":2886,"åĲİç«¯æľįåĬ¡":2887,"åĲİç«¯æŀ¶æŀĦ":2888,"æľŁåĪĬ":2889,"é«ĺæķĪ":2890,".json":2891,"æĶ¯ä»ĺ":2892,"èĩªçĽ¸åħ³":2893,"èĩªæ²»":2894,"äº¤æĺĵ":2895,"unk":2896,"çĽ¸åħ³æĢ§":2897,"ä»»åĬ¡å¤ĦçĲĨ":2898,"ĠBased":2899,"å¤§è¯Ńè¨Ģæ¨¡åŀĭ":2900,"ãĢģPBKDF":2901,"ãĢģPrisma":2902,"äº§çĶŁ":2903,"äº§å±ķç¤º":2904,"åįķåıĺéĩı":2905,"äºĨä¸Ģä¸ª":2906,"è¿ŀç»Ń":2907,"æºĲä»£çłģ":2908,"ĠFiber":2909,"ĠFore":2910,"Ġstate":2911,"éĢļå¸¸çĶ¨äºİ":2912,"ĠNew":2913,"ç»ĦæĪĲ":2914,"éĽĨæĪĲæµĭè¯ķ":2915,"ä¸»æĪĲåĪĨ":2916,"æŃ£ç¡®":2917,"ïĤ·åıĤä¸İåºĶæĢ¥ç®¡çĲĨ":2918,"é¢ĦæµĭçłĶç©¶":2919,"è¿ŀæİ¥çĶŁåĳ½":2920,"è¿Ľè¡Įæķ°æį®":2921,"WebSocketèģĬå¤©åĲİç«¯":2922,"istrib":2923,"éĴ¥ä¸İ":2924,"åħ¨æłĪAI":2925,"æĦıè¯Ĩ":2926,"éħįç½®ä»¥åıĬ":2927,"ĠModel":2928,"èµĦäº§å±ķç¤º":2929,"åħ¬åı¸":2930,"è¯Ńä¹īæĲľç´¢":2931,"========čĊ":2932,"è·¯çĶ±":2933,"å±ķç¤ºäºĨ":2934,"afety":2935,"æķħé¢Ħéĺ²":2936,"å®ŀæĹ¶éĢļä¿¡":2937,"å®ŀæĹ¶WebSocketèģĬå¤©åĲİç«¯":2938,"åīįç«¯çķĮ":2939,"ç½ĳåħ³":2940,"çĽĳæİ§æĸ¹æ¡Ī":2941,"æĶ¹åıĺ":2942,"éĺ²çģ«":2943,"ï¼Įä½ł":2944,"ç©ºæ°Ķ":2945,"äº¤äºĴæµģç¨ĭ":2946,"åľºæĻ¯ä¸ĭçļĦ":2947,"ç»ĻæĪĳ":2948,"è®¿éĹ®æİ§åĪ¶":2949,"æİĴè¡Į":2950,"ĠComposeä»¥åıĬ":2951,"ä¸ļåĬ¡æľįåĬ¡":2952,"Ġnq":2953,"ç¦»æķ£":2954,"æ®ĭå·®":2955,"Ġgener":2956,"äºĭæķħé¢Ħéĺ²":2957,"å¯ĨéĴ¥ä¸İ":2958,"ĠçļĦçħ¤çŁ¿":2959,"è¯¯æĬ¥":2960,"æł¸å¿ĥæľŁåĪĬ":2961,"èĩ³PostgreSQL":2962,"å£°":2963,"çģ¾":2964,"Ġtest":2965,"Ġteam":2966,"ãĢģNestJS":2967,"ãĢģNext":2968,"ä¼łéĢĴ":2969,"æµģå¼ıAPI":2970,"å¾®æľįåĬ¡å¹³åı°":2971,"å¾ĹåĪ°":2972,"antis":2973,"Ġscenario":2974,"éľĢæ±ĤçĲĨè§£":2975,"èģĬå¤©åİĨåı²":2976,"ïĤ·æŀĦå»ºäºĨä¸Ģä¸ª":2977,"å¸ĮæľĽ":2978,"çĵ¦æĸ¯æµĵåº¦":2979,"Ġä¸ªä¸»æĪĲåĪĨ":2980,"ãĢģå®īåħ¨çĽĳæµĭ":2981,"åĽ½å®¶":2982,"é¢ĨåŁŁçŁ¥è¯Ĩ":2983,"ãĢģMySQL":2984,"ãĢģMongoDB":2985,"ïĤ·Design":2986,"ç¨³å®ļæĢ§":2987,"ĠRequest":2988,"ïĤ·è®¾è®¡äºĨ":2989,"éĩĩæł·":2990,"è·¯å¾ĦçļĦæĥħåĨµä¸ĭ":2991,"é©±åĬ¨çļĦ":2992,"astAPI":2993,"ãĢģæķ°æį®åºĵè®¾è®¡":2994,"ä¸¤ä¸ª":2995,"ç§ĳçłĶé¡¹çĽ®":2996,"æķĪæŀľè¯Ħä¼°":2997,"content":2998,"æ¼ı":2999,"ãĢģAIä»£çłģåĪĨæŀĲ":3000,"ãĢģé£İéĻ©é¢Ħæµĭ":3001,"éĻĲæµģæľºåĪ¶":3002,"========================čĊ":3003,"å¯ĨçłģåĵĪå¸Į":3004,"ç¬¦åĲĪ":3005,"çģ«çģ¾":3006,"çĵ¦æĸ¯çĪĨçĤ¸é£İéĻ©é¢ĦèŃ¦çłĶç©¶":3007,"å¤©æ´¥çĲĨå·¥":3008,"æļ´éľ":3009,"GORMæĮģä¹ħåĮĸ":3010,"è½¬æį¢ä¸º":3011,"è£ħ":3012,"ä¸ŃéĹ´ä»¶":3013,"åĮºåĿĹéĵ¾äº¤äºĴ":3014,"ç¥ŀç»ıç½ĳç»ľ":3015,"éĢĲæŃ¥":3016,"æĢĿç»´":3017,"ç«ŀæĢģ":3018,"ä¸Ńæĸĩæł¸å¿ĥæľŁåĪĬ":3019,"æıĲç¤ºè¯į":3020,"å¿«éĢŁ":3021,"æĸ°çĸĨå¤§åŃ¦":3022,"ãĢģä½¿çĶ¨éĩı":3023,"ï¼Įæ¶µçĽĸ":3024,"çļĦWebSocketæ¶Īæģ¯":3025,"çĽ¸ä¼¼åº¦":3026,"æĸĩä»¶åŃĺåĤ¨æľįåĬ¡":3027,"Ġapplications":3028,"è¯Ńä¹īçº§ä»£çłģ":3029,"æķħéļľæ£Ģæµĭä¸İè¯ĬæĸŃ":3030,"æĪ¿éĹ´ç®¡çĲĨ":3031,"Ġsystems":3032,"çī©è¿ĩç¨ĭ":3033,"éļıæľº":3034,"åĳ¨æľŁç®¡çĲĨ":3035,"itbucketä»£çłģä»ĵåºĵ":3036,"AUC":3037,"èģļåĲĪçī©è¿ĩç¨ĭ":3038,"casting":3039,"paration":3040,"åĪłéĻ¤":3041,"éĽĨä¸Ńéħįç½®":3042,"ç¡¬ç¼ĸçłģ":3043,"æĹłæķĪJSON":3044,"uery":3045,"Ġèĩ³ä»Ĭ":3046,"ï¼Įä¸Ģä¸ªåŁºäºİ":3047,"ï¼ĮæĽ¿ä»£ä¸įå®īåħ¨":3048,"ãĢĤè¯¥é¡¹çĽ®":3049,"ïĤ·åĬłæ·±":3050,"æİĮæı¡":3051,"ï¼ļå®īåħ¨å·¥ç¨ĭ":3052,"ï¼ļéĿ¢è¯ķåı¯å±ķç¤º":3053,"åı¯ç»´æĬ¤æĢ§":3054,"æķ°æį®æİ¥åħ¥":3055,"ĠApproach":3056,"åŃ¦ä¸ļå¥ĸåŃ¦éĩĳ":3057,"è´¦æĪ·ç®¡çĲĨ":3058,"èĩªæ²»åĮº":3059,"ĠForecasting":3060,"è¿ŀæİ¥çĶŁåĳ½åĳ¨æľŁç®¡çĲĨ":3061,"èµĦäº§å±ķç¤ºåıĬ":3062,"åīįç«¯çķĮéĿ¢":3063,"éĺ²çģ«æľį":3064,"ç©ºæ°Ķè´¨éĩı":3065,"ĠçļĦçħ¤çŁ¿çĵ¦æĸ¯çĪĨçĤ¸é£İéĻ©é¢ĦèŃ¦":3066,"å¤©æ´¥çĲĨå·¥å¤§åŃ¦":3067,"æļ´éľ²":3068,"ï¼ĮæĽ¿ä»£ä¸įå®īåħ¨çļĦ":3069,"-on":3070,"Embedding":3071,"LP":3072,"Query":3073,"_V":3074,"ay":3075,"ci":3076,"cord":3077,"gith":3078,"ie":3079,"ian":3080,"lib":3081,"man":3082,"od":3083,"ool":3084,"pend":3085,"piral":3086,"su":3087,"sor":3088,"sure":3089,"tack":3090,"ude":3091,"uran":3092,"vents":3093,"xed":3094,"{term":3095,"´å¹³":3096,"»è§ī":3097,"½åľ°":3098,"ç¢":3099,"é¦":3100,"Ġor":3101,"Ġit":3102,"ĠåĲİ":3103,"ĠID":3104,"ĠGit":3105,"ĠRAG":3106,"Ġout":3107,"ģæŃ¢":3108,"īåıĬ":3109,"ıæĦŁ":3110,"ıè§Ī":3111,"ĳå®ļ":3112,"ĶåĽŀ":3113,"ä¸Ķ":3114,"ãĢģg":3115,"ãĢģè¡Į":3116,"ãĢģReact":3117,"åı¥":3118,"ï¼Įä¸İ":3119,"ï¼Įèĥ½":3120,"ï¼Įæľī":3121,"ï¼ĮæĹ¶éĹ´":3122,"ï¼ĮåĲĮæĹ¶":3123,"ï¼Įéģ¿åħį":3124,"ï¼ĮåĨį":3125,"ï¼ĮéĢĤåĲĪ":3126,"ç»ĳå®ļ":3127,"çļĦéĹ®é¢ĺ":3128,"çļĦç®ĢåİĨ":3129,"åĬ¿":3130,"äºī":3131,"åĲĹ":3132,"æķıæĦŁ":3133,"ä½Ļ":3134,"è¿ĶåĽŀ":3135,"å¤´":3136,"ïĤ·L":3137,"ating":3138,"rep":3139,"rect":3140,"orer":3141,"ä¸İå·¥ç¨ĭ":3142,"ä¸İçľŁå®ŀ":3143,"æµıè§Ī":3144,"allet":3145,"å·¥åľ°":3146,"åĪĨä¸º":3147,"æķ°æį®å¤ĦçĲĨ":3148,"åıĬç»ĵæŀľ":3149,"ä¸įè¦ģ":3150,"å¸¦":3151,"æĪĲåĳĺ":3152,"å¹»è§ī":3153,"å®ŀè·":3154,"arm":3155,"rom":3156,"route":3157,"roduc":3158,"åįģ":3159,"Ġcla":3160,"Ġcap":3161,"icip":3162,"çİ°æľī":3163,"çŃĽ":3164,"åĲİæīį":3165,"local":3166,"Ġremo":3167,"æİ¥è¿ĳ":3168,"æıĲåıĸ":3169,"æľīåºı":3170,"ĠSQL":3171,"å¾Ī":3172,"æľįåĬ¡è°ĥçĶ¨":3173,"è¡Įä¸ļ":3174,"ä½¿çĶ¨çļĦ":3175,"Ġfe":3176,"é¡¹çĽ®ç±»åŀĭ":3177,"è°¢":3178,"è¡¨è¾¾":3179,"Ġinstru":3180,"Ġindustrial":3181,"ä¸Ĭä¼ł":3182,"emory":3183,"emant":3184,"ĠECharts":3185,"åħ¥åı£":3186,"Ġdash":3187,"Ġbu":3188,"è½»":3189,"articip":3190,"æ±ĤèģĮ":3191,"èĩªçĶ±":3192,"æŁ¥æī¾":3193,"åĬłåħ¥":3194,"åĬłè½½":3195,"Ġtr":3196,"åĲĮä¸Ģ":3197,"æľĢå°ı":3198,"ä½ĵéªĮ":3199,"Ġwh":3200,"Ġwallet":3201,"åįķä½į":3202,"cover":3203,"å¹³åĿĩ":3204,"ateg":3205,"ï¼ĮåĮħæĭ¬æ¨¡åŀĭ":3206,"ĠFull":3207,"Ġstream":3208,"ĠNum":3209,"çĶ¨æĪ·ä½ĵéªĮ":3210,"æİ¨å¹¿":3211,"ï¼Įä¸įéľĢè¦ģ":3212,"ĠTIMEOUT":3213,"Ġenv":3214,"èģĮä¸ļ":3215,"å°ıæĹ¶":3216,"laude":3217,"æĮĩä»¤":3218,"ç¦ģæŃ¢":3219,"åıªèĥ½":3220,"è®¡ç®Ĺæľº":3221,"OpenAI":3222,"åīįç«¯å¼Ģåıĳ":3223,"çľŁæŃ£":3224,"å¼ķçĶ¨":3225,"ç§ĳåŃ¦":3226,"å¢ŀå¼º":3227,"uman":3228,"TTL":3229,"omain":3230,"Ġguard":3231,"æ°´å¹³":3232,"æ¨¡åĿĹåĮĸ":3233,"angu":3234,"-stack":3235,"ä¼ĺåħĪçº§":3236,"Ġscan":3237,"Ġdatabase":3238,"ãĢģæķ°æį®å¤ĦçĲĨ":3239,"Ġconne":3240,"space":3241,"è¶ħè¿ĩ":3242,"åĬ©äºİ":3243,"readiness":3244,"å±ŀäºİ":3245,"ç¡®è®¤ä¸Ģä¸ĭ":3246,"-Stack":3247,"çªĹ":3248,"èĻĳ":3249,"èĻļ":3250,"scent":3251,"Ġassess":3252,"å®¡è®¡":3253,"ĠUI":3254,"Ġinteraction":3255,"èĢĥèĻĳ":3256,"ç¬¬ä¸ī":3257,"Ġsupporting":3258,"å±Ģéĥ¨":3259,"ference":3260,"Ġcommit":3261,"ãĢģJavaScript":3262,"å¹´ä»¥ä¸Ĭ":3263,"Ġcovering":3264,"æĶ¯æĮģè¿ľç¨ĭåĬŀåħ¬":3265,"Ġworkflows":3266,"èİ·å¾Ĺ":3267,"æĻºæħ§å·¥åľ°":3268,"è¿Ńä»£äº¤ä»ĺ":3269,"Ġdelivery":3270,"oldout":3271,"èĲ½åľ°":3272,"Ġschema":3273,"Ġconsistency":3274,"åĨ²çªģ":3275,"Ġscenarios":3276,"ïĤ·Designed":3277,"github":3278,"urance":3279,"æµıè§ĪåĻ¨":3280,"åıĬç»ĵæŀľåı¯è§ĨåĮĸ":3281,"å®ŀè·µ":3282,"emantic":3283,"Ġdashboard":3284,"èĩªçĶ±èģĮä¸ļ":3285,"ĠNumPy":3286,"Ġconnection":3287,")ï¼ĽčĊ":3288,"--":3289,"-re":3290,"-file":3291,"-readiness":3292,".m":3293,".)čĊ":3294,"/O":3295,"/p":3296,"/API":3297,"@q":3298,"Agent":3299,"Dis":3300,"GIL":3301,"HS":3302,"Key":3303,"MA":3304,"MAT":3305,"NLP":3306,"Pro":3307,"Prompt":3308,"_P":3309,"_T":3310,"_or":3311,"_pat":3312,"_local":3313,"ape":3314,"call":3315,"crum":3316,"ear":3317,"for":3318,"fill":3319,"gist":3320,"ior":3321,"ling":3322,"lision":3323,"np":3324,"ner":3325,"nor":3326,"ness":3327,"rc":3328,"vid":3329,"¢éĺħ":3330,"®åĬ©":3331,"¹è®Ń":3332,"åĶ":3333,"æŁ":3334,"Ġ&":3335,"Ġk":3336,"Ġä»¥åıĬ":3337,"Ġä½¿çĶ¨":3338,"Ġé¡¹çĽ®":3339,"ĠVue":3340,"Ġartifact":3341,"Ĥç§»":3342,"ħåĬ©":3343,"ĭåĬ¿":3344,"ï¼ģ":3345,"ãĢģä»»åĬ¡":3346,"ãĢģè¯Ħ":3347,"ãĢģæĢ§èĥ½":3348,"ãĢģå¤±è´¥":3349,"ãĢģçī¹å¾ģ":3350,"ãĢģåĽŀå½Ĵ":3351,"ãĢģç»Ħç»ĩ":3352,"ãĢģåĪĨæŀĲä¸İ":3353,"ï¼Įåı¯":3354,"ï¼Įåľ¨":3355,"ï¼Įå¤ļ":3356,"ãĢĤå¦Ĥæŀľ":3357,"åħħ":3358,"åħŃ":3359,"ç»į":3360,"çļĦæ¨¡åŀĭ":3361,"çļĦç³»ç»Ł":3362,"çļĦåħ³ç³»":3363,"çļĦè¯·æ±Ĥ":3364,"çļĦåħ¨èģĮ":3365,"ering":3366,"onment":3367,"å¤ª":3368,"è®¢éĺħ":3369,"ïĤ·In":3370,"eng":3371,"ĠĠĠĠĠĠĠĠĠĠĠĠĠĠĠ":3372,"ress":3373,"æĪª":3374,"\",\"":3375,"æķ°åĢ¼":3376,"æĺ¯ä¸Ģä¸ª":3377,"éĩĮ":3378,"alization":3379,"edge":3380,"ited":3381,"æķ°æį®è¿Ľè¡Į":3382,"åĽĽ":3383,"è¡¥":3384,"Ġ\"{}":3385,"ĠActuator":3386,"äºİç®Ģåįķ":3387,"å¸®åĬ©":3388,"åıĳéĢģ":3389,"roun":3390,"ä¸Ģå®ļ":3391,"ä¸Ģç»Ħ":3392,"ä¸ĢéĶ®":3393,"åįĬ":3394,"åįł":3395,"æ¨¡åŀĭåıĤæķ°":3396,"Ġsol":3397,"Ġsafety":3398,"Ġsemantic":3399,"ations":3400,"lem":3401,"les":3402,"lementation":3403,"åŁ¹è®Ń":3404,"andid":3405,"è¾ħåĬ©":3406,"Ġconfig":3407,"ä¸ŃæľŁ":3408,"ä¸Ńå¿ĥ":3409,"åĲİçļĦ":3410,"lock":3411,"è®¡æķ°":3412,"è¿ĩæľŁ":3413,"åºĶè¯¥":3414,"Ġrefin":3415,"ä¸ªå²Ĺä½į":3416,"æľ¬ç§ĳ":3417,"æľīä»Ģä¹Ī":3418,"æĶ¿":3419,"éĺ³":3420,"éĺ»":3421,"æī¹":3422,"æĭĨ":3423,"etrics":3424,"ĠSwagger":3425,"teamm":3426,"text":3427,"æŃ¤":3428,"Ġper":3429,"Ġplatform":3430,"ç§¯":3431,"Ġfleet":3432,"å¸¸è§ģ":3433,"åĲĳä¼łæĴŃ":3434,"æĻ°":3435,"SQLite":3436,"æģ¶":3437,"è®Ńç»ĥæł·æľ¬":3438,"è¿Ľåħ¥":3439,"Ġbe":3440,"Ġbus":3441,"seed":3442,"ormalization":3443,"æ±ł":3444,"igence":3445,"è½®":3446,"ï¼ĪSC":3447,"åĲİç«¯æķ°æį®":3448,"èĢ¦":3449,"æľŁéĹ´":3450,"åĩºçİ°":3451,"äº¤åıī":3452,"Ġdet":3453,"åģĩ":3454,"è·Ł":3455,"Ġtasks":3456,"ä½ĵå·¥ä½ľ":3457,"æķ´ä½ĵ":3458,"ifest":3459,"å¥Ĺ":3460,"åįķçĭ¬":3461,"coll":3462,"éĶĢ":3463,"ä½İé£İéĻ©":3464,"æĬĢæľ¯æĸ¹æ¡Ī":3465,"è¶ĭåĬ¿":3466,"Ġstorage":3467,"ĠNestJS":3468,"éªĮè¯ģéĽĨ":3469,"ä¸»ä½ĵå·¥ä½ľ":3470,"æİ¨åĬ¨":3471,"å¤©çĦ¶":3472,"éĻįç»´":3473,"åħĥç´ł":3474,"å½ĵåīįåĨłåĨĽ":3475,"çŃĶæ¡Ī":3476,"ollision":3477,"è¯įè¡¨":3478,"å°ıè§Ħæ¨¡":3479,"è¡¨ç¤ºæ¨¡åŀĭ":3480,"ironment":3481,"éģĵ":3482,"å°±åı¯ä»¥":3483,"Ġimport":3484,"Ġimplementation":3485,"Chunk":3486,"ï¼Įä½¿åħ¶":3487,"ç»ĻæĤ¨":3488,"è½¯ä»¶ç³»ç»Ł":3489,"å®Įæķ´çļĦ":3490,"éĶ®åĢ¼":3491,"ONN":3492,"äºĭåĬ¡":3493,"Ġseen":3494,"æĿ¥èĩª":3495,"çĭ¬ç«ĭçļĦ":3496,"\":\"":3497,"åıįåĲĳä¼łæĴŃ":3498,"-time":3499,"å¾®æľįåĬ¡æŀ¶æŀĦ":3500,"æľªæĿ¥":3501,"ï¼Įä»¥éĻįä½İ":3502,"åİŁåĪĻ":3503,"åİŁå§ĭ":3504,"xpress":3505,"Ġlock":3506,"æ¯ıå¤©":3507,"çĦ¶åĲİ":3508,"veloped":3509,"overnor":3510,"ï¼ĮèĢĮä¸įæĺ¯":3511,"allback":3512,"åĨ³çŃĸ":3513,"éģ¿åħįéĩįå¤į":3514,"Ġlen":3515,"è¿ĺæľī":3516,"åĽ´ç»ķ":3517,"ïĤ·Particip":3518,"æ¸ħæĻ°":3519,"æĬķåħ¥":3520,"èģĶç³»":3521,"çº¦æĿŁ":3522,"éĹ®çŃĶç³»ç»Ł":3523,"å·²ç»ıå®ĮæĪĲ":3524,"ç§ĳçłĶä¸»ä½ĵå·¥ä½ľ":3525,"/mantis":3526,"LAB":3527,"åĮ¹éħįåº¦":3528,"æ¼Ĥç§»":3529,"ï¼Įä¸ºåĲİç»Ń":3530,"ïĤ·Add":3531,"Ġcheck":3532,"Technical":3533,"æļĤ":3534,"ï¼Įè¿Ļä¸ªå²Ĺä½į":3535,"åĪĩåĪĨ":3536,"ä»¥ä¸ĬçļĦåħ¨èģĮ":3537,"åĵªäºĽæĸĩä»¶":3538,"ç¥ŀç»ıåħĥ":3539,"åĪĿå§ĭ":3540,"å®¢æĪ·ç«¯ä¸İ":3541,"eader":3542,"ïĤ·Evalu":3543,"ä¸ºä»Ģä¹ĪéľĢè¦ģ":3544,"æľĢé«ĺçļĦ":3545,"notation":3546,"telligence":3547,"untime":3548,"ä»ĭç»į":3549,"learned":3550,"Ġcontrol":3551,"Ġreviewer":3552,"ç´¯è®¡":3553,"/tasks":3554,"Ġvis":3555,"å½¢æĪĲ":3556,"è¿Ľä¸ĢæŃ¥æ²ŁéĢļ":3557,"Ġrespons":3558,"æ¿Ģæ´»":3559,"resent":3560,"istribution":3561,"-only":3562,"çŃĽéĢī":3563,"è½»éĩı":3564,"Ġwhile":3565,"Ġstreaming":3566,"Ġenvironment":3567,"å°ıæĹ¶ä»¥ä¸ĬçļĦåħ¨èģĮ":3568,"anguage":3569,"çªĹåı£":3570,".md":3571,"@qq":3572,"Discord":3573,"_oracle":3574,"_path":3575,"crumb":3576,"Ġconfigur":3577,"è¿ĩæľŁæĹ¶éĹ´":3578,"Ġrefinement":3579,"teammate":3580,"Ġbusiness":3581,"collision":3582,"ïĤ·Participated":3583,"ç§ĳçłĶä¸»ä½ĵå·¥ä½ľå·²ç»ıå®ĮæĪĲ":3584,"ïĤ·Added":3585,"å°ıæĹ¶ä»¥ä¸ĬçļĦåħ¨èģĮæĬķåħ¥":3586,"\"čĊ":3587,"(f":3588,"++":3589,"-a":3590,"-cont":3591,".a":3592,"/h":3593,"/Redis":3594,"/Spring":3595,"/WebSocket":3596,"/ang":3597,"/pgvector":3598,"/åĽŀæ»ļ":3599,"AL":3600,"CPU":3601,"DE":3602,"HP":3603,"IV":3604,"Learn":3605,"ME":3606,"My":3607,"Node":3608,"OD":3609,"OLO":3610,"RO":3611,"RRE":3612,"RIM":3613,"SHA":3614,"UI":3615,"Va":3616,"Work":3617,"YOLO":3618,"Zook":3619,"_a":3620,"_b":3621,"_v":3622,"_RE":3623,"_CU":3624,"config":3625,"candid":3626,"diver":3627,"distribution":3628,"eval":3629,"eureka":3630,"eveloped":3631,"fleet":3632,"iv":3633,"ient":3634,"ilo":3635,"ky":3636,"min":3637,"mess":3638,"nal":3639,"ous":3640,"otell":3641,"smodel":3642,"sky":3643,"tlib":3644,"yTorch":3645,"¡ŀ":3646,"¡éªĮ":3647,"¤ä¸İ":3648,"¥æľī":3649,"¦ľ":3650,"¨ģ":3651,"©éĺ":3652,"©åº¦":3653,"¬ä¸Ĭ":3654,"®ä»¶":3655,"¯ä¸Ģ":3656,"¯å¥½":3657,"°å¯":3658,"±ç³»":3659,"µæ´»":3660,"¼åĲĪ":3661,"åĸ":3662,"å¡ŀ":3663,"å¨ģ":3664,"æĳ":3665,"æ¦ľ":3666,"éŁ":3667,"Ġ(":3668,"Ġ>":3669,"Ġ{":3670,"Ġå":3671,"Ġat":3672,"Ġæķ°æį®":3673,"ĠåĲĪ":3674,"Ġåīį":3675,"Ġç³»ç»Ł":3676,"Ġun":3677,"ĠéªĮè¯ģ":3678,"Ġåıª":3679,"Ġå¦Ĥæŀľ":3680,"ĠKafka":3681,"Ġjob":3682,"ĠGemini":3683,"Ġjson":3684,"ĠçĨŁæĤī":3685,"ĺè¦ģ":3686,"ĻæĢģ":3687,"ļæľª":3688,"ä¸ľ":3689,"ä¸°å¯":3690,"ãĢģd":3691,"ãĢģåĪĨ":3692,"ãĢģé¡¹çĽ®":3693,"ãĢģä¾Ŀèµĸ":3694,"ãĢģéĩįå¤į":3695,"ãĢģå®ŀéªĮ":3696,"ãĢģæĪĲæľ¬":3697,"ãĢģè·¨":3698,"ãĢģèº«ä»½è®¤è¯ģ":3699,"ãĢģåİ»":3700,"ãĢģæĪĲåĳĺ":3701,"ãĢģæĬĢæľ¯æĸ¹æ¡Ī":3702,"åı·":3703,"ï¼Įä½¿çĶ¨":3704,"ï¼ĮJava":3705,"ï¼ĮRAG":3706,"ï¼Įç»ĵåĲĪ":3707,"ï¼Įæĺİç¡®":3708,"ï¼Įå¯¼èĩ´":3709,"ï¼ĮåĽłä¸º":3710,"ãĢĤä¸į":3711,"ãĢĤä½¿çĶ¨":3712,"æľĪ":3713,"åħ«":3714,"åħ¸":3715,"ç»Ŀ":3716,"ç»¼åĲĪ":3717,"çļĦåĪĨæŀĲ":3718,"çļĦé¡¹çĽ®":3719,"çļĦè§£":3720,"çļĦæķ°æį®åºĵ":3721,"çļĦåĢ¼":3722,"çļĦæŀ¶æŀĦ":3723,"çļĦåĨħå®¹":3724,"çļĦæł¸å¿ĥ":3725,"åĬ±":3726,"æĸ½":3727,"äºĶ":3728,"æķĻ":3729,"ïĤ·AI":3730,"ïĤ·Re":3731,"ïĤ·Python":3732,"ïĤ·Git":3733,"ative":3734,"atplo":3735,"atsmodel":3736,"reak":3737,"æĺ¯æ¨¡åŀĭ":3738,"æĺ¯çĶ¨äºİ":3739,"å·¦":3740,"stacle":3741,"ä¸İå®īåħ¨":3742,"ä¸İéªĮè¯ģ":3743,"æµ®":3744,"æł¡éªĮ":3745,"edian":3746,"æ¨¡æĿ¿":3747,"æĢ»":3748,"åı¯çĶ¨":3749,"æķ°æį®ç»ĵæŀĦ":3750,"åıĬé¡¹çĽ®":3751,"åıĬä¹ĭ":3752,"åĨ¯":3753,"ĠARIM":3754,"è§Ĩ":3755,"æĪĲçĨŁ":3756,"åıĳçĶŁ":3757,"åıĳç»ĻæĤ¨":3758,"ï¼Łå¦Ĥæŀľ":3759,"é¢ĳ":3760,"ently":3761,"roduction":3762,"æ¨¡åŀĭè°ĥçĶ¨":3763,"depend":3764,"descent":3765,"å°ļæľª":3766,"andas":3767,"isited":3768,"Ġcor":3769,"ä»Ģä¹Īæĺ¯S":3770,"ä»Ģä¹Īæĺ¯Python":3771,"ä»Ģä¹Īæĺ¯æĸĩæľ¬":3772,"asel":3773,"chain":3774,"chron":3775,"è¿ĩæ»":3776,"åŁºæľ¬":3777,"Ġread":3778,"Ġreference":3779,"Ġredistribution":3780,"æĶ»":3781,"æ³¢":3782,"æĭ¥æľī":3783,"ĠCSTR":3784,"å¾ĭ":3785,"æľįåĬ¡çļĦæŀ¶æŀĦ":3786,"Ġpath":3787,"å¼Ģåıĳå·¥ç¨ĭå¸Ī":3788,"Ġform":3789,"Ġflow":3790,"ç»Łä¸Ģ":3791,"å¸¸çĶ¨çļĦ":3792,"å»ºè®¾":3793,"éĿĻæĢģ":3794,"ĠPresent":3795,"ĠPandas":3796,"éĽĨåŀĭ":3797,"è°±ç³»":3798,"è¡¨çİ°":3799,"èĥ½åĬĽä¸İ":3800,"ä¸ĬçļĦ":3801,"ä¸ĬéĿ¢":3802,"ĠEvents":3803,"åŃĺåľ¨":3804,"è°ĥæķ´":3805,"Ġmemory":3806,"å¤ļç§į":3807,"rik":3808,"åĻª":3809,"çĽ¸åĲĮ":3810,"å¤ĦçĲĨçļĦ":3811,"uted":3812,"utom":3813,"Ġbo":3814,"Ġbreak":3815,"è®¾å®ļ":3816,"è®¾ç½®":3817,"è®¾å¤ĩ":3818,"igh":3819,"uby":3820,"åı¯ä»¥åľ¨ä¸į":3821,"gress":3822,"èĢĹ":3823,"æľŁå¾ħ":3824,"çº¿ä¸Ĭ":3825,"Ġautom":3826,"åĽŀæº":3827,"agn":3828,"unction":3829,"Ġdetection":3830,"ppend":3831,"Ġtask":3832,"Ġtime":3833,"çŃīåĬŁèĥ½":3834,"æµĭè¯ķéĽĨ":3835,"çŁ©éĺ":3836,"ĠBullMQ":3837,"å¤§å°ı":3838,"æķ´ä¸ª":3839,"æĬĢèĥ½":3840,"éľĢè¦ģæĽ´":3841,"éľĢè¦ģæİĮæı¡":3842,"æĽ´åĬł":3843,"æĽ´éĢĤåĲĪ":3844,"åľ°çĤ¹":3845,"åįķçº¿ç¨ĭ":3846,"æ³¨åħ¥":3847,"ç¡®å®ļ":3848,"æĪĳçĽ®åīį":3849,"åıĤæķ°æĽ´æĸ°":3850,"ĠFCCU":3851,"Ġstrik":3852,"éĢļå¸¸æĮĩ":3853,"udit":3854,"ï¼Įå¹¶ä½¿çĶ¨":3855,"ï¼Įå¹¶éĢļè¿ĩ":3856,"æİ¨è¿Ľ":3857,"æİ¨éĢģ":3858,"æĻºèĥ½ç³»ç»Ł":3859,"ibility":3860,"å½ĵåīįä½įç½®":3861,"ĠTransformer":3862,"ualization":3863,"äººæľº":3864,"istant":3865,"ollow":3866,"éĴĪ":3867,"Ġensure":3868,"READ":3869,"Ġprompt":3870,"Ġprocess":3871,"åĲĳéĩıè¡¨ç¤º":3872,"æ¶Īæģ¯ä¼łéĢĴ":3873,"ĠMountain":3874,"ĠMatplo":3875,"izer":3876,"è¯Ńä¹īæ£Ģç´¢":3877,"éķ¿æĹ¶éĹ´":3878,"ÂłPython":3879,"å²Ĺä½įæııè¿°":3880,"Ġansw":3881,"å·²æľī":3882,"åħ¶ä»ĸä»»åĬ¡":3883,"Chain":3884,"æĹłäººæľº":3885,"çĬ¶æĢģç®¡çĲĨ":3886,"åĽłæŃ¤":3887,"åľºæĻ¯çļĦ":3888,"è½¯ä»¶äº¤ä»ĺ":3889,"elsky":3890,"æĬĬç®ĢåİĨ":3891,"ä¼ļè¯Ŀ":3892,"æĿĥå¨ģ":3893,"outer":3894,"Ġsecurity":3895,"å¯ĨéĽĨåŀĭ":3896,"åĩĨç¡®":3897,"ä½įç½®ç¼ĸçłģ":3898,"eeper":3899,"åıįé¦":3900,"çģµæ´»":3901,"å¹¿æ³Ľ":3902,"å¤±è´¥éĺ¶æ®µ":3903,"èī¯å¥½":3904,"gging":3905,"æ¸©åº¦":3906,"äºĮåĪĨç±»":3907,"angChain":3908,"æĮģä¹ħåĮĸåŃĺåĤ¨":3909,"æ²ŁéĢļèĥ½åĬĽ":3910,"è¾ĵåħ¥ä¸İ":3911,"åŁºç¡Ģèĥ½åĬĽ":3912,"é©¬ä¸Ĭ":3913,"æĺ¯åĲ¦æĶ¯æĮģè¿ľç¨ĭåĬŀåħ¬":3914,"Ġreproduc":3915,"æ¯ıæ¬¡":3916,"ĠRouter":3917,"è¿Ĳè¡ĮæĹ¶":3918,"ï¼ĮèĢĮä¸į":3919,"èĭ¥":3920,"ïĤ·Data":3921,"ïĤ·Developed":3922,"ç¨³å®ļçļĦ":3923,"iple":3924,"ĠReview":3925,"å¥ĸåĬ±":3926,"ä»·æł¼":3927,"ï¼Įå¸¸è§ģ":3928,"Tokenizer":3929,"çĿĢ":3930,"åŃĹèĬĤ":3931,"æ¢¯åº¦ä¸ĭéĻį":3932,"shape":3933,"Ġthe":3934,"utions":3935,"å¼Ĥå¸¸æ£Ģæµĭ":3936,"-Sent":3937,"-SHA":3938,"/metrics":3939,"max":3940,"å¯¼èĩ´çļĦ":3941,"è®©æĪĳ":3942,"Ġchat":3943,"tegrated":3944,"Tech":3945,"lane":3946,"ĠHotell":3947,"Ġclue":3948,"Ġfrontier":3949,"è£Ĥ":3950,"ç²¾ç®Ģ":3951,"ãĢģå¼ĤæŃ¥å¤ĦçĲĨ":3952,"ç«ŀäºī":3953,"Ġcomple":3954,"ĠStack":3955,"æ¦ĤçİĩåĪĨå¸ĥ":3956,"own":3957,"Ġseeds":3958,"notification":3959,"éĤ£":3960,"éĤ®ä»¶":3961,"åĲĪå¹¶åĪ°":3962,"éĺħè¯»":3963,"ç¼ĸç¨ĭè¯Ńè¨Ģ":3964,"LoRA":3965,"Loss":3966,"ynchron":3967,"redi":3968,"ĠSecurity":3969,"Ġmultiple":3970,"åģıå·®":3971,"åģľæŃ¢":3972,"æ··åĲĪ":3973,"Ġnotification":3974,"æ³ĽåĮĸèĥ½åĬĽ":3975,"-based":3976,"ç¿»":3977,"Ġvalidation":3978,"Ġmessage":3979,"èĩªçĦ¶è¯Ńè¨Ģ":3980,"Ġprojects":3981,"çī¹å®ļä»»åĬ¡":3982,"Ġmaintainability":3983,"-drone":3984,"Value":3985,"_data":3986,"qui":3987,"æİĴè¡Įæ¦ľ":3988,"Ġtests":3989,"Ġremote":3990,"Ġtrack":3991,"èĻļæĭŁ":3992,"Ġassessment":3993,"ç¬¬ä¸īæĸ¹":3994,"å®ŀè·µç»ıéªĮ":3995,"earer":3996,"vidence":3997,"åĶ¯ä¸Ģ":3998,"æŁĲ":3999,"çļĦç³»ç»ŁæĢ§":4000,"ïĤ·Integrated":4001,"Ġsolutions":4002,"éĺ»å¡ŀ":4003,"åģĩè®¾":4004,"ONNX":4005,"æļĤæĹ¶":4006,"ï¼Įè¿Ļä¸ªå²Ĺä½įæĺ¯åĲ¦æĶ¯æĮģè¿ľç¨ĭåĬŀåħ¬":4007,"ïĤ·Evaluated":4008,".append":4009,"/angelsky":4010,"IVE":4011,"RRENT":4012,"Zookeeper":4013,"_CURRENT":4014,"candidates":4015,"ilot":4016,"messages":4017,"åĸĦ":4018,"æĳĺè¦ģ":4019,"éŁ³":4020,"ä¸°å¯Į":4021,"ïĤ·Review":4022,"atsmodels":4023,"ĠARIMA":4024,"aseline":4025,"åĽŀæº¯":4026,"çŁ©éĺµ":4027,"ĠMatplotlib":4028,"æĬĬç®ĢåİĨåıĳç»ĻæĤ¨":4029,"åıįé¦Ī":4030,"ĠHotelling":4031,"/angelskydiver":4032,"#ï¼Į":4033,"%čĊ":4034,"%ãĢģ":4035,"%ï¼Į":4036,"%ï¼Ľ":4037,"%ï¼ī":4038,"&A":4039,"(S":4040,"()ï¼ĽčĊ":4041,"-c":4042,"-k":4043,"-s":4044,"-or":4045,"-learn":4046,"-space":4047,"-seed":4048,"-Learn":4049,"..":4050,".du":4051,"/M":4052,"/P":4053,"/b":4054,"/æ¨¡åŀĭ":4055,"/ç±»":4056,"/ä»ĵåºĵ":4057,"/åĽ¢éĺŁ":4058,"/ex":4059,"/é£İéĻ©é¢ĦèŃ¦":4060,"/éĩįå¤į":4061,"/æľºåĻ¨åŃ¦ä¹ł":4062,"/In":4063,"/é¢ĨåŁŁ":4064,"/WGAN":4065,"/Gemini":4066,"/è®¡è´¹":4067,"/final":4068,"/æĹ¶åºı":4069,"/åĽ¢éĺŁç®¡çĲĨ":4070,"/ç§ģ":4071,"/GORMæĮģä¹ħåĮĸ":4072,"/è´¦æĪ·ç®¡çĲĨ":4073,"/èµĦäº§å±ķç¤ºåıĬ":4074,"/YOLO":4075,"=F":4076,"AC":4077,"ASS":4078,"Attention":4079,"BO":4080,"Bitbucketä»£çłģä»ĵåºĵ":4081,"Bearer":4082,"COM":4083,"Claude":4084,"DD":4085,"DR":4086,"De":4087,"Dro":4088,"ED":4089,"ER":4090,"Eureka":4091,"FT":4092,"FIT":4093,"Flyway":4094,"Future":4095,"IF":4096,"IS":4097,"LDPE":4098,"Lay":4099,"Norm":4100,"PM":4101,"Pad":4102,"Pull":4103,"PBKDF":4104,"Ruby":4105,"Swagger":4106,"Server":4107,"Spatiotemporal":4108,"Stripe":4109,"Th":4110,"TypeScript":4111,"Tool":4112,"UL":4113,"USUM":4114,"WS":4115,"WMA":4116,"__":4117,"_m":4118,"_as":4119,"_co":4120,"_final":4121,"ai":4122,"bor":4123,"cy":4124,"cision":4125,"eering":4126,"get":4127,"groun":4128,"hart":4129,"hew":4130,"ius":4131,"ients":4132,"li":4133,"lin":4134,"lask":4135,"landing":4136,"ms":4137,"mon":4138,"nq":4139,"niver":4140,"our":4141,"put":4142,"prompt":4143,"production":4144,"rit":4145,"rateg":4146,"sQL":4147,"sity":4148,"ww":4149,"word":4150,"yle":4151,"})čĊ":4152,"¢äºĮ":4153,"£è":4154,"£ģ":4155,"¤å·¥ä½ľ":4156,"¥°":4157,"¥çĶ¨":4158,"¥æł¼":4159,"§Ľ":4160,"©ä½Ļ":4161,"ªī":4162,"ªé©±åĬ¨":4163,"«æĥħ":4164,"¬åĮĸ":4165,"¬åĽŀ":4166,"®éĢļ":4167,"±åĮĸ":4168,"²ç»ıåİĨ":4169,"´åĿ":4170,"µĮ":4171,"¶å°":4172,"¸è¡Įä¸ļ":4173,"¹èĪ":4174,"¼æİ¨è¿Ľ":4175,"½ľ":4176,"¾å°":4177,"¾æŀĦå»º":4178,"¾æ°Ķ":4179,"åµĮ":4180,"æ§Ľ":4181,"æ½ľ":4182,"çĩ":4183,"ç£ģ":4184,"èĤ":4185,"é¥°":4186,"ĉæľĢé«ĺ":4187,"ĠO":4188,"Ġal":4189,"ĠåĪĨ":4190,"Ġå®ŀçİ°":4191,"ĠæĪĸ":4192,"ĠæŀĦå»º":4193,"ĠâĢ":4194,"Ġç»´":4195,"ĠçĶ¨æĪ·":4196,"Ġend":4197,"Ġè°ĥçĶ¨":4198,"Ġæŀ¶æŀĦ":4199,"Ġå¹³åı°":4200,"ĠçĽĳæİ§":4201,"Ġæį¢":4202,"Ġäº¤äºĴ":4203,"Ġè¿ĩç¨ĭ":4204,"ĠæĲ":4205,"Ġæĸ¹æ¡Ī":4206,"ĠåĬŁèĥ½":4207,"Ġæ·±åº¦åŃ¦ä¹ł":4208,"Ġæĺ¯åĲ¦":4209,"Ġæķħéļľæ£Ģæµĭ":4210,"Ġè¶ħ":4211,"ĠJSON":4212,"ĠZustand":4213,"Ġçº¦":4214,"Ġç¡®è®¤":4215,"Ġembedding":4216,"Ġäº§åĵģ":4217,"ĠéĴ±åĮħè¿ŀæİ¥":4218,"ĠXSEC":4219,"Ġåįıä½ľ":4220,"Ġç¬¬":4221,"Ġç©ºéĹ´":4222,"ĠæĹ¶åºı":4223,"Ġå¤ļåħĥ":4224,"Ġå¹´":4225,"ĠåİĤ":4226,"Ġè¿Ľè¡Įæķ°æį®":4227,"Ġè¯Ńä¹īæĲľç´¢":4228,"Ġå®ŀæĹ¶WebSocketèģĬå¤©åĲİç«¯":4229,"Ġå¾®æľįåĬ¡å¹³åı°":4230,"Ġæķħéļľæ£Ģæµĭä¸İè¯ĬæĸŃ":4231,"Ġå¥Ĺ":4232,"Ġå°ıæĹ¶ä»¥ä¸ĬçļĦåħ¨èģĮæĬķåħ¥":4233,"Ġæ¸©åº¦":4234,"Ģåħ±":4235,"ģæĢ§":4236,"Ĥ¬åĮĸ":4237,"ĥåľ":4238,"ĥæ°Ķ":4239,"Ĩæŀ¶":4240,"ĪåĢ¼":4241,"īçŃī":4242,"İå¸":4243,"ıçİ°æľī":4244,"ĲæĸĻ":4245,"ĳçº¦":4246,"ĳç¿":4247,"ĴåĽ¢":4248,"Ķèĩªæ²»åĮº":4249,"ķå£«":4250,"ķè§ģ":4251,"ĸéĿ¢":4252,"ĺé¡¹çĽ®":4253,"ĺä¹¦":4254,"Ŀæ°Ķ":4255,"łæĭŁåĲĪ":4256,"Ńå»º":4257,"ä¸¥æł¼":4258,"ãĢģåıĳ":4259,"ãĢģåį":4260,"ãĢģåľ¨":4261,"ãĢģåīį":4262,"ãĢģä»£":4263,"ãĢģå®ļ":4264,"ãĢģé«ĺ":4265,"ãĢģåĬł":4266,"ãĢģåıĤä¸İ":4267,"ãĢģGo":4268,"ãĢģAPI":4269,"ãĢģå·¥ä¸ļ":4270,"ãĢģUID":4271,"ãĢģè¿ŀæİ¥":4272,"ãĢģå½ĵåīį":4273,"ãĢģè®¤è¯ģ":4274,"ãĢģåĽ¢éĺŁ":4275,"ãĢģWebSocket":4276,"ãĢģæĬ¥åĳĬ":4277,"ãĢģæĸĩæľ¬":4278,"ãĢģè¿ľç¨ĭ":4279,"ãĢģæİ¥åı£":4280,"ãĢģå®ŀæĹ¶":4281,"ãĢģæĸŃ":4282,"ãĢģåıĺéĩı":4283,"ãĢģçĬ¶æĢģ":4284,"ãĢģçĶŁäº§":4285,"ãĢģé£İéĻ©é¢ĦèŃ¦":4286,"ãĢģéĴ±åĮħ":4287,"ãĢģuser":4288,"ãĢģå¾®æľįåĬ¡":4289,"ãĢģçŁ¥è¯Ĩ":4290,"ãĢģæ·±åº¦åŃ¦ä¹ł":4291,"ãĢģè¯·æ±Ĥ":4292,"ãĢģéĵ¾":4293,"ãĢģé¢ĨåŁŁ":4294,"ãĢģæĮī":4295,"ãĢģåĵįåºĶ":4296,"ãĢģfile":4297,"ãĢģREST":4298,"ãĢģGateway":4299,"ãĢģä»£çłģä»ĵåºĵ":4300,"ãĢģDeepSeek":4301,"ãĢģæĮĩæłĩ":4302,"ãĢģGemini":4303,"ãĢģéĴ±åĮħè¿ŀæİ¥":4304,"ãĢģGORM":4305,"ãĢģåıĳå¸ĥ":4306,"ãĢģåĲ¯åĬ¨":4307,"ãĢģèĭ±æĸĩ":4308,"ãĢģå¹¶åıĳ":4309,"ãĢģåı¯éĿłæĢ§":4310,"ãĢģå·¥ä¸ļå®īåħ¨":4311,"ãĢģå·¥ä½ľæµģ":4312,"ãĢģåĽ¢éĺŁç®¡çĲĨ":4313,"ãĢģåīįç«¯é¡µéĿ¢":4314,"ãĢģç»ĵæŀĦåĮĸ":4315,"ãĢģå¹¿æĴŃ":4316,"ãĢģå¤įæĿĤåº¦":4317,"ãĢģRESTful":4318,"ãĢģå°±ç»ªæ£ĢæŁ¥":4319,"ãĢģè§Ĵèī²":4320,"ãĢģæĬĢæľ¯æĸĩæ¡£":4321,"ãĢģauth":4322,"ãĢģActuator":4323,"ãĢģç§ģ":4324,"ãĢģåıĺæĽ´":4325,"ãĢģæĶ¯ä»ĺ":4326,"ãĢģäº¤æĺĵ":4327,"ãĢģè¯Ńä¹īæĲľç´¢":4328,"ãĢģç½ĳåħ³":4329,"ãĢģäºĭæķħé¢Ħéĺ²":4330,"ãĢģéľĢæ±ĤçĲĨè§£":4331,"ãĢģçĵ¦æĸ¯æµĵåº¦":4332,"ãĢģç§ĳçłĶé¡¹çĽ®":4333,"ãĢģéĻĲæµģæľºåĪ¶":4334,"ãĢģåĮºåĿĹéĵ¾äº¤äºĴ":4335,"ãĢģç«ŀæĢģ":4336,"ãĢģæıĲç¤ºè¯į":4337,"ãĢģè¯Ńä¹īçº§ä»£çłģ":4338,"ãĢģæĪ¿éĹ´ç®¡çĲĨ":4339,"ãĢģèģļåĲĪçī©è¿ĩç¨ĭ":4340,"ãĢģéĽĨä¸Ńéħįç½®":4341,"ãĢģæĹłæķĪJSON":4342,"ãĢģè´¦æĪ·ç®¡çĲĨ":4343,"ãĢģåīįç«¯çķĮéĿ¢":4344,"ãĢģè¿Ńä»£äº¤ä»ĺ":4345,"ãĢģnp":4346,"ãĢģSQLite":4347,"ãĢģeureka":4348,"ãĢģè®¾å¤ĩ":4349,"ãĢģæ²ŁéĢļèĥ½åĬĽ":4350,"ãĢģä»·æł¼":4351,"ãĢģå¼Ĥå¸¸æ£Ģæµĭ":4352,"ãĢģnotification":4353,"ãĢģç¬¬ä¸īæĸ¹":4354,"ãĢģZookeeper":4355,"ãĢģçĩ":4356,"åı¦":4357,"åı³":4358,"åıĹ":4359,"åı¬åĽŀ":4360,"ä»¬":4361,"ï¼ĮC":4362,"ï¼ĮAI":4363,"ï¼ĮåĪĨæŀĲ":4364,"ï¼Įæĸĩæ¡£":4365,"ï¼ĮåıĤä¸İ":4366,"ï¼ĮGo":4367,"ï¼ĮSpring":4368,"ï¼ĮSc":4369,"ï¼Įå°±":4370,"ï¼Įå®ĮæĪĲ":4371,"ï¼Įæī«æıı":4372,"ï¼Įå½±åĵį":4373,"ï¼Įä¸»è¦ģ":4374,"ï¼Įè¯ĨåĪ«":4375,"ï¼ĮCU":4376,"ï¼ĮDeepSeek":4377,"ï¼ĮçłĶç©¶æĸ¹åĲĳ":4378,"ï¼Įåħ·å¤ĩ":4379,"ï¼Įè¿½è¸ª":4380,"ï¼Įå·¥åħ·":4381,"ï¼Įåľ¨ä¸į":4382,"ï¼Įè®Ńç»ĥéĽĨ":4383,"ï¼ĮçĨŁæĤī":4384,"ï¼ĮæıĲåıĸ":4385,"ï¼ĮOpenAI":4386,"ï¼Įå¢ŀå¼º":4387,"ï¼ĮMAT":4388,"ï¼ĮPrompt":4389,"ï¼Įæİ¨åĬ¨":4390,"ï¼Įå½¢æĪĲ":4391,"ï¼ĮæľŁå¾ħ":4392,"ï¼ĮåĽłæŃ¤":4393,"ï¼ĮRuby":4394,"ãĢĤãĢĤ":4395,"ãĢĤç³»ç»Ł":4396,"ãĢĤæĽ":4397,"ãĢĤçĲĨè§£":4398,"ãĢĤèĥ½å¤Ł":4399,"ãĢĤåĲĮæĹ¶":4400,"ãĢĤçĽ®åīį":4401,"çļĦde":4402,"çļĦAI":4403,"çļĦSpring":4404,"çļĦæĸ¹æ³ķ":4405,"çļĦæľ¬åľ°":4406,"çļĦæ¢¯åº¦":4407,"çļĦå·¥ä¸ļå®īåħ¨":4408,"çļĦèº«ä»½è®¤è¯ģ":4409,"çļĦéĩįè¦ģ":4410,"çļĦå®ŀæĹ¶WebSocketèģĬå¤©åĲİç«¯":4411,"çļĦæµģå¼ıAPI":4412,"çļĦå¾®æľįåĬ¡å¹³åı°":4413,"çļĦéĻĲæµģæľºåĪ¶":4414,"çļĦçĵ¦æĸ¯çĪĨçĤ¸é£İéĻ©é¢ĦèŃ¦çłĶç©¶":4415,"çļĦæĹłæķĪJSON":4416,"çļĦçĶ¨æĪ·ä½ĵéªĮ":4417,"çļĦç»¼åĲĪ":4418,"çļĦè¯Ńä¹īæ£Ģç´¢":4419,"å®ĥ":4420,"å®¤å·¥ä½ľ":4421,"erature":4422,"äº«":4423,"åĲ¾å°":4424,"ïĤ·Web":4425,"ïĤ·å¯¹":4426,"ïĤ·å®īåħ¨":4427,"ïĤ·å¤ĦçĲĨ":4428,"ïĤ·éĢļè¿ĩ":4429,"ïĤ·æıĲåįĩ":4430,"ïĤ·å·¥ä¸ļ":4431,"ïĤ·React":4432,"ïĤ·è¾ĵåĩº":4433,"ïĤ·Transformer":4434,"ïĤ·å®ĮæĪĲ":4435,"ïĤ·æł¹æį®":4436,"ïĤ·é£İéĻ©é¢ĦèŃ¦":4437,"ïĤ·PostgreSQL":4438,"ïĤ·è´Łè´£":4439,"ïĤ·æĹ¶ç©º":4440,"ïĤ·å¼Ģå±ķ":4441,"ïĤ·å·¥ä¸ļäººå·¥æĻºèĥ½":4442,"ïĤ·ä¸ŃåĽ½çŁ³æ²¹":4443,"ïĤ·èĩªæ²»åĮº":4444,"ïĤ·NLP":4445,"ïĤ·ç§¯":4446,"ïĤ·Technical":4447,"ïĤ·Work":4448,"ensor":4449,"atic":4450,"çĽĬ":4451,"ï¼ĽéĩıåĮĸ":4452,"reel":4453,"resh":4454,"æĪĺé¡¹çĽ®":4455,"æķ°æĹ¶éĹ´":4456,"æŀģ":4457,"oring":4458,"oriz":4459,"éĢł":4460,"ä¸İå¸¸":4461,"ä¸İé¡¹çĽ®":4462,"ä¸İRedis":4463,"ä¸İéĹ®é¢ĺ":4464,"ä¸İJWT":4465,"ä¸İPostgreSQL":4466,"ä¸İæķħéļľæ£Ģæµĭ":4467,"ä¸İåĽŀçŃĶ":4468,"ä¸İç¼ĵåŃĺ":4469,"ä¸İéĢļçŁ¥":4470,"ä¸İçĪĨçĤ¸é£İéĻ©é¢ĦèŃ¦":4471,"ä¸İçĥŃ":4472,"ä¸İGemini":4473,"ä¸İåı¯éħįç½®":4474,"ä¸İè¿Ĳç»´":4475,"ä¸İçĻ»å½ķ":4476,"ä¸İåıĳå¸ĥ":4477,"ä¸İåĽ¢éĺŁç®¡çĲĨ":4478,"ä¸İå·¥èīº":4479,"ä¸İä¸Ĭçº¿":4480,"ä¸İæ³¨æĦıåĬĽæľºåĪ¶":4481,"ä¸İè¯ģä¹¦":4482,"ä¸İæĶ¯ä»ĺ":4483,"ä¸İå®ŀæĹ¶éĢļä¿¡":4484,"ä¸İä¸ļåĬ¡æľįåĬ¡":4485,"ä¸İGORMæĮģä¹ħåĮĸ":4486,"ä¸İè®¢éĺħ":4487,"ä¸İå¤©çĦ¶":4488,"ä¸İèģĶç³»":4489,"ä¸İBitbucketä»£çłģä»ĵåºĵ":4490,"ä¸İFlyway":4491,"æµªé©±åĬ¨":4492,"èĥ½æºĲ":4493,"ï¼ļåŁºäºİ":4494,"ï¼ļå®ŀçİ°":4495,"ï¼ļä»ĵåºĵ":4496,"ï¼ļGo":4497,"ï¼ļJava":4498,"ï¼ļReact":4499,"ï¼ļæ·±åº¦åŃ¦ä¹ł":4500,"ï¼ļä»ħ":4501,"ï¼ļçŁ³æ²¹":4502,"ï¼ļä¸įä»ħ":4503,"ï¼ļå·¥èīº":4504,"ï¼ļAIåħ¨æłĪå·¥ç¨ĭå¸Ī":4505,"ï¼ļconfig":4506,"ï¼ļLDPE":4507,"ional":4508,"alse":4509,"ä»¥ä¸ĭ":4510,"å·¥è´":4511,"å·¥åĨµ":4512,"åĪĨçīĩ":4513,"æĹ§":4514,"åı¯è®Ńç»ĥ":4515,"åı¯åıĺ":4516,"åı¯è¿ŀæİ¥":4517,"åı¯çĭ¬ç«ĭ":4518,"åı¯çĶ¨çļĦ":4519,"åı¯æŃ£å¸¸":4520,"åı¯å®¡è®¡":4521,"æķ°æį®åĴĮ":4522,"æķ°æį®éĽĨ":4523,"æķ°æį®ç®¡çĲĨ":4524,"æķ°æį®éĽĨæĪĲ":4525,"æķ°æį®å»ºç«ĭ":4526,"æķ°æį®æķ´çĲĨ":4527,"æķ°æį®å½Ĵå±ŀ":4528,"æķ°æį®æĻºèĥ½ç³»ç»Ł":4529,"åıĬåŁºäºİ":4530,"åıĬé£İéĻ©":4531,"åıĬçĽ¸åħ³":4532,"åıĬåıĺéĩı":4533,"åıĬåĲĦ":4534,"åıĬæĸĩä»¶åŃĺåĤ¨":4535,"åıĬè·¨":4536,"åıĬæĬĢæľ¯æĸĩæ¡£":4537,"åıĬä¸ļåĬ¡éĢ»è¾ĳ":4538,"åıĬçĽĳæİ§æĸ¹æ¡Ī":4539,"åıĬäºĭæķħé¢Ħéĺ²":4540,"åıĬåĮºåĿĹéĵ¾äº¤äºĴ":4541,"åıĬèĥ½æºĲ":4542,"åıĬæķ°æį®æĻºèĥ½ç³»ç»Ł":4543,"åŀĥåľ":4544,"æĸĩåĳĺ":4545,"æĸĩå¯Ĩçłģ":4546,"çł´åĿ":4547,"åŀĭåŃĺåĤ¨":4548,"åŀĭåľºæĻ¯":4549,"ĠAss":4550,"ĠApplication":4551,"ä¸įéľĢè¦ģ":4552,"ä¸įè¶³":4553,"ä¸įå¤ª":4554,"äºİè¿ŀæİ¥":4555,"å¸ģ":4556,"æĪĲä¸º":4557,"åĮĸä¸º":4558,"åĮĸåŃ¦ä¹ł":4559,"åĮĸäº¤äºĴ":4560,"åĮĸä¸İåı¯å¤įçİ°":4561,"å®ŀæĸ½":4562,"å®ŀæĪĺé¡¹çĽ®":4563,"éĻĨ":4564,"éĻ¢äºĮ":4565,"æĹ¶ä»»åĬ¡":4566,"arge":4567,"arget":4568,"ä»Ģä¹ĪéĹ®é¢ĺ":4569,"ä»Ģä¹Īéĥ½":4570,"ä¸Ģè¡Į":4571,"ä¸Ģç§į":4572,"æ¨¡åŀĭå¯¹":4573,"æ¨¡åŀĭéĽĨæĪĲ":4574,"åħ¨éĩı":4575,"åħ¨æµģç¨ĭ":4576,"Ġsh":4577,"Ġset":4578,"Ġspiral":4579,"Ġsrc":4580,"lease":4581,"åŁİå¸":4582,"éĩıè®¾å®ļ":4583,"ise":4584,"çĽ®å½ķ":4585,"Ġcat":4586,"Ġcollision":4587,"ä»Ģä¹Īæĺ¯R":4588,"mperature":4589,"å¼Ģæ¸ħçĲĨ":4590,"çİ°åľ¨":4591,"ebook":4592,"æĢ§åĴĮ":4593,"æĢ§ä¸İéĥ¨ç½²":4594,"ä¸Ńä½į":4595,"ä¸ŃçŃī":4596,"ä¸Ńè¿Ľè¡Į":4597,"ä¸Ńè¢«":4598,"ä¸Ńå¼ķåħ¥":4599,"åĩ»":4600,"åĲİéĿ¢":4601,"åĲİæľŁ":4602,"log":4603,"çĶŁå¥ĸåŃ¦éĩĳ":4604,"çĶŁåŃ¦ä¸ļå¥ĸåŃ¦éĩĳ":4605,"ases":4606,"ç½ķè§ģ":4607,"ç³»æķ°":4608,"åĪ¶åŃĺåĤ¨":4609,"åĪ¶åħ¨æłĪ":4610,"åŃ¦ä½į":4611,"è¿ĩå¤§":4612,"åŁºéĩĳ":4613,"ä»¥åıĬå·¥ç¨ĭ":4614,"ä»¥åıĬDocker":4615,"ä»¥åıĬGo":4616,"ä»¥åıĬåĽ¢éĺŁ":4617,"ä»¥åıĬæ¶Īæģ¯":4618,"ä»¥åıĬåīįç«¯":4619,"ä»¥åıĬå¤±è´¥":4620,"ä»¥åıĬæľ¬åľ°":4621,"ä»¥åıĬjob":4622,"ä»¥åıĬåĮºåĿĹéĵ¾":4623,"ä»¥åıĬå·¥ä¸ļäººå·¥æĻºèĥ½":4624,"ä»¥åıĬæĪ¿éĹ´":4625,"ä»¥åıĬWebhook":4626,"ä»¥åıĬAIçĶŁæĪĲ":4627,"ä»¥åıĬå¤§è¯Ńè¨Ģæ¨¡åŀĭ":4628,"ä»¥åıĬè®¿éĹ®æİ§åĪ¶":4629,"ä»¥åıĬæĿ¥èĩª":4630,"ä»¥åıĬç¨³å®ļçļĦ":4631,"ä»¥åıĬåĲİæľŁ":4632,"éĹ´éĢļä¿¡":4633,"Ġres":4634,"Ġretri":4635,"Ġreduc":4636,"ä¸ªæľįåĬ¡çļĦæŀ¶æŀĦ":4637,"æİ¥åĲİç«¯":4638,"åī©ä½Ļ":4639,"åīĸéĿ¢":4640,"æıĲäº¤":4641,"æľ¬èº«":4642,"åĲĪçĲĨ":4643,"æľīè·¯çĶ±":4644,"ç«¯åĪ°":4645,"ç«¯Java":4646,"ç«¯çĤ¹":4647,"åľ¨ä½İ":4648,"åľ¨LLM":4649,"åľ¨ç½ĳ":4650,"åľ¨åĲİç«¯æŀ¶æŀĦ":4651,"åľ¨æĸ°çĸĨå¤§åŃ¦":4652,"åľ¨äºİè¿ŀæİ¥":4653,"AIç³»ç»Ł":4654,"AIå¤ĦçĲĨ":4655,"AIæĸĩæ¡£":4656,"AIåĽŀçŃĶ":4657,"AIåºĶçĶ¨å¼Ģåıĳ":4658,"AIä»£çłģåĪĨæŀĲ":4659,"AIæĥ³":4660,"AIåħ¼å®¹":4661,"AIçļĦå®Įæķ´":4662,"AIé©±åĬ¨çļĦ":4663,"AIä¸İå·¥ç¨ĭ":4664,"éĺĪåĢ¼":4665,"åħ³èģĶ":4666,"æīĳç¿":4667,"æĭĽ":4668,"etro":4669,"etry":4670,"æ£Ģåĩº":4671,"æ£Ģçİĩ":4672,"æĿĲæĸĻ":4673,"ĠSCI":4674,"ĠStripe":4675,"ĠSize":4676,"ĠShew":4677,"ĠCI":4678,"ĠComp":4679,"ĠCET":4680,"åºĵå¼Ģåıĳ":4681,"åºĵéĹ®çŃĶ":4682,"æľįåĬ¡è¿Ľè¡Į":4683,"æľįåĬ¡çĽ´æİ¥":4684,"æľįåĬ¡åĲ¯åĬ¨":4685,"æľįåĬ¡çĭ¬ç«ĭçļĦ":4686,"æľįåĬ¡éĹ´éĢļä¿¡":4687,"Ġpgvector":4688,"Ġplan":4689,"Ġpages":4690,"Ġpract":4691,"Ġpredi":4692,"ä½¿çĶ¨æİ§åĪ¶":4693,"ç§°":4694,"ç§Ģåħ±":4695,"ç§ĺä¹¦":4696,"ä½ľåĵģ":4697,"åĪĨæŀĲçłĶç©¶":4698,"åĪĨæŀĲåı¯è§ĨåĮĸ":4699,"åĪĨæŀĲæĪĲæŀľ":4700,"åĪĨæŀĲæºĲä»£çłģ":4701,"åĪĨæŀĲçļĦçĶ¨æĪ·ä½ĵéªĮ":4702,"å¼Ģåıĳæµģç¨ĭ":4703,"å¼Ģåıĳæ¨¡å¼ı":4704,"Ġfail":4705,"Ġfollow":4706,"é¡¹æ³¢":4707,"åİħ":4708,"å»ºè¡¨":4709,"ç©¿":4710,"éĿĴåĽ¢":4711,"ĠPro":4712,"ĠPrisma":4713,"ĠPath":4714,"å¹¶åŃĺåĤ¨":4715,"å¹¶ä¿ĿæĬ¤":4716,"é¢ĦæľŁ":4717,"ç®¡æĬ¥åĳĬçĶŁæĪĲ":4718,"é¡¹çĽ®ä¸Ń":4719,"é¡¹çĽ®æĹ¶éĹ´":4720,"é¡¹çĽ®éľĢæ±Ĥ":4721,"é¡¹çĽ®ç»ıåİĨ":4722,"é¡¹çĽ®æııè¿°":4723,"é¡¹çĽ®è§Ĵèī²":4724,"å¯¹æ¯Ķ":4725,"å¯¹æīĢæľī":4726,"å¯¹å®īåħ¨çĽĳç®¡":4727,"å¯¹æİ¥åĲİç«¯":4728,"å·¥ç¨ĭæĬ¥åĳĬ":4729,"å·¥ç¨ĭè´¨éĩı":4730,"å·¥ç¨ĭå·¥åħ·":4731,"å·¥ç¨ĭæĬ¥åĳĬçĶŁæĪĲ":4732,"å·¥ç¨ĭæĸ¹éĿ¢":4733,"å·¥ç¨ĭæĢĿç»´":4734,"å·¥ç¨ĭåľºæĻ¯çļĦ":4735,"å®ļä»·":4736,"å®īåħ¨è®¾è®¡":4737,"å®īåħ¨å·¥ä½ľ":4738,"å®īåħ¨åľºæĻ¯":4739,"å®īåħ¨çĽĳæµĭ":4740,"å®īåħ¨åŁºçº¿":4741,"å®īåħ¨æķıæĦŁ":4742,"åĲĳåŀĭåľºæĻ¯":4743,"èĥ½åĬĽæıĲåįĩ":4744,"èĥ½åĬĽè½¬":4745,"èĥ½åĬĽç»ĦåĲĪ":4746,"Ġindepend":4747,"æĸ°çĶŁå¥ĸåŃ¦éĩĳ":4748,"éĥ¨å¤©æ´¥":4749,"éĥ¨éĹ¨":4750,"ä»£çłģå®ŀçİ°":4751,"ä»£çłģå½±åĵį":4752,"ä»£çłģä¸Ĭä¸ĭæĸĩ":4753,"ä»£çłģæ¦Ĥ":4754,"ä»£çłģæł¼å¼ı":4755,"ä»£çłģå¼ķçĶ¨":4756,"ä¸Ĭäº¤äºĴ":4757,"ä¸ĬèĪ":4758,"æ¡Ĩæŀ¶":4759,"æĻ®éĢļ":4760,"èģĺ":4761,"åĬ¨æīĳç¿":4762,"åŃ¦ä¹łçİĩ":4763,"åŃ¦ä¹łåĨħå®¹":4764,"ĠEureka":4765,"ç®¡çĲĨæĸĩæ¡£":4766,"ĠAIåºĶçĶ¨":4767,"ĠAIé©±åĬ¨":4768,"ĠAIä»£çłģæĻºèĥ½":4769,"åħ¥ä¸İæ³¨æĦıåĬĽæľºåĪ¶":4770,"ç»ıå¸¸":4771,"è°ĥåº¦":4772,"è°ĥè¯ķ":4773,"ä½įæİ§åĪ¶":4774,"ä½įæııè¿°":4775,"Ġme":4776,"Ġmod":4777,"éĩįæī«":4778,"æİ§ä½ĵç³»":4779,"åŁºäºİRedis":4780,"åŁºäºİJWT":4781,"åŁºäºİKafka":4782,"åŁºäºİWGAN":4783,"åŁºäºİBullMQ":4784,"åŁºäºİServer":4785,"Recall":4786,"å¤ļæľº":4787,"å¤ļéĺ¶æ®µ":4788,"å¤ļæĹ¶éĹ´åºıåĪĹ":4789,"å¤ļå®ŀä¾ĭ":4790,"å¼ıUI":4791,"æłĩé¡¹çĽ®":4792,"æłĩæ³¨":4793,"æłĩè¯Ĩ":4794,"ç¡ķå£«":4795,"è®Ńç»ĥçĽ®æłĩ":4796,"è®Ńç»ĥLoss":4797,"è¿ĽåĪ¶åŃĺåĤ¨":4798,"çĶ¨äºİèģĬå¤©åİĨåı²":4799,"ç³»ç»Łè¿Ĳè¡Į":4800,"ç³»ç»ŁæĦıè¯Ĩ":4801,"ç³»ç»Łå»ºè®¾":4802,"ç³»ç»Łå®īåħ¨åŁºçº¿":4803,"riv":4804,"Ġdi":4805,"Ġdis":4806,"å®ŀçİ°è®¤è¯ģ":4807,"å®ŀçİ°æĮĩæłĩ":4808,"å®ŀçİ°æľįåĬ¡åıĳçİ°":4809,"å®ŀçİ°éĽĨä¸Ńéħįç½®":4810,"å®ŀçİ°æľįåĬ¡éĹ´éĢļä¿¡":4811,"actual":4812,"éľĢæĸĩä»¶":4813,"å¤ĦçĲĨæĸ¹å¼ı":4814,"å¤ĦçĲĨä»¥åıĬåŁºäºİ":4815,"åĻ¨ç»ĵåŀ¢":4816,"è¯Ńæ³ķ":4817,"éĿ¢çļĦç³»ç»ŁæĢ§":4818,"é£İéĻ©æİ§åĪ¶":4819,"é£İéĻ©å¹¶ä¿ĿæĬ¤":4820,"Ġbase":4821,"Ġbound":4822,"Ġbaseline":4823,"æĸĩä»¶æĸĩæ¡£":4824,"æĸĩä»¶åĨħå®¹":4825,"æĸĩä»¶ç±»åŀĭ":4826,"æĸĩä»¶æķ´çĲĨ":4827,"æĸĩä»¶éĩįæī«":4828,"çłĶç©¶é¡¹çĽ®":4829,"çłĶç©¶æīĢ":4830,"çłĶç©¶çĶŁåŃ¦ä¸ļå¥ĸåŃ¦éĩĳ":4831,"éħįé¢Ŀ":4832,"separation":4833,"çĶŁæĪĲåĻ¨":4834,"çĶŁæĪĲåĽ¢éĺŁ":4835,"çĶŁæĪĲembedding":4836,"ments":4837,"æĪ·åı¯ä»¥":4838,"æĪĸå¯¹æİ¥åĲİç«¯":4839,"ï¼īåºĶçĶ¨":4840,"ï¼īæĸĩæ¡£":4841,"ï¼īä½ĵç³»":4842,"ï¼īçļĦæµģå¼ıAPI":4843,"ï¼īä»¥åıĬæĿ¥èĩª":4844,"add":4845,"ader":4846,"adius":4847,"ular":4848,"åıĺæį¢":4849,"æĽĿæ°Ķ":4850,"ï¼ĪLLM":4851,"ï¼Īçİ¯å¢ĥ":4852,"ï¼ĪHTTP":4853,"ï¼ĪDexifier":4854,"ï¼Īä¸ªäºº":4855,"ï¼Īä¸Ńæĸĩæł¸å¿ĥæľŁåĪĬ":4856,"ï¼Īæķħéļľæ£Ģæµĭä¸İè¯ĬæĸŃ":4857,"ï¼Īç´¯è®¡":4858,"ï¼Īproduction":4859,"ï¼ĪæĽĿæ°Ķ":4860,"RedisçĬ¶æĢģ":4861,"Redisåħ¼å®¹":4862,"ubrics":4863,"åĲİç«¯éĢ»è¾ĳ":4864,"åĲİç«¯è¿Ľç¨ĭ":4865,"åĲİç«¯å·¥ç¨ĭèĥ½åĬĽ":4866,"é«ĺäºİ":4867,"é«ĺçº§":4868,"arty":4869,"åĩºä¿¡æģ¯":4870,"ĠAPIçļĦde":4871,"çº¿æĢ§":4872,"çº¿æ²ŁéĢļ":4873,"åĮħæĭ¬React":4874,"åĮħæĭ¬å·¥ä¸ļäººå·¥æĻºèĥ½":4875,"åĽŀæĶ¶":4876,"äº¤æį¢":4877,"æŁ¥èĥ½åĬĽ":4878,"Ġdepth":4879,"åĬłæĿĥ":4880,"åĬłåĽº":4881,"IDä¸ŃéĹ´ä»¶":4882,"åĨħå®¡":4883,"è·Ŀ":4884,"Ġter":4885,"ä¼ĺç§Ģåħ±":4886,"çĽ¸åħ³çļĦ":4887,"çĽ¸åħ³æµģç¨ĭ":4888,"çĽ¸åħ³é¢ĨåŁŁçŁ¥è¯Ĩ":4889,"çĽ¸åħ³ä»£çłģä¸Ĭä¸ĭæĸĩ":4890,"çĽ¸åħ³åĲİç«¯éĢ»è¾ĳ":4891,"åĲĮåĪ¶åħ¨æłĪ":4892,"çŃīæµģç¨ĭ":4893,"åºĶçĶ¨æľįåĬ¡":4894,"åºĶçĶ¨åĬŁèĥ½":4895,"åºĶçĶ¨å·¥ç¨ĭæĸ¹éĿ¢":4896,"otion":4897,"otebook":4898,"æµĭè¯ķç»ıéªĮ":4899,"ĠBO":4900,"ĠBenchmark":4901,"æľĢæĸ°":4902,"æľĢå¤§":4903,"å¤§è§Ħæ¨¡":4904,"Ġel":4905,"Ġexp":4906,"Ġevidence":4907,"æĸĩæ¡£èĥ½åĬĽ":4908,"æĸĩæ¡£çĶŁæĪĲ":4909,"æĸĩæ¡£æµıè§ĪåĻ¨":4910,"ãĢģPull":4911,"ãĢģPHP":4912,"æķ°æį®åºĵè¿ģç§»":4913,"æķ°æį®åºĵä¸İç¼ĵåŃĺ":4914,"çĤīçŃī":4915,"æĶ¯æĮģä»¥åıĬåĲİæľŁ":4916,"Dockerfile":4917,"æŀĦå»ºDocker":4918,"æŀĦå»ºè°ĥçĶ¨":4919,"æŀĦå»ºå®ŀæĹ¶":4920,"æŀĦå»ºä¸İéĥ¨ç½²":4921,"æŀĦå»ºHikaflow":4922,"æŀĦå»ºRelayGO":4923,"å¥ĳçº¦":4924,"Ġweb":4925,"ä»ĵåºĵæĸĩæ¡£":4926,"ä»ĵåºĵæī«æıı":4927,"ä»ĵåºĵæ³¨åĨĮ":4928,"ä»ĵåºĵåĪĨæŀĲçļĦçĶ¨æĪ·ä½ĵéªĮ":4929,"è¿Ļå²Ĺä½į":4930,"åįķæ¨¡åĿĹ":4931,"GoåĲİç«¯å¼Ģåıĳ":4932,"GoçļĦå®ŀæĹ¶WebSocketèģĬå¤©åĲİç«¯":4933,"count":4934,"æıĲåįĩè®¤è¯ģ":4935,"æıĲåįĩå¤įæĿĤ":4936,"æıĲåįĩåı¯éĿłæĢ§":4937,"æıĲåįĩç³»ç»Łè¿Ĳè¡Į":4938,"è®¾è®¡å®Įæķ´":4939,"äºĨå¯¹":4940,"äºĨè§£":4941,"äºĨæľįåĬ¡è¾¹çķĮ":4942,"äºĨåĽ´ç»ķ":4943,"äºĨå®īåħ¨çĽĳæµĭ":4944,"æµģç¨ĭä¸İJWT":4945,"æİ§åĪ¶éĶģ":4946,"æİ§åĪ¶ä¸İåıĳå¸ĥ":4947,"æĬĢæľ¯æĬĢèĥ½":4948,"åĪ°ä¸įåĲĮ":4949,"åĪ°å¤ļåħĥ":4950,"å·®å¼Ĥ":4951,"éĹ®é¢ĺåıĬ":4952,"ï¼ĮåĮħæĭ¬åĽ¢éĺŁ":4953,"ï¼ĮåĮħæĭ¬WebSocket":4954,"ï¼ĮåĮħæĭ¬éĴ±åĮħ":4955,"ï¼ĮåĮħæĭ¬DeepSeek":4956,"ï¼ĮåĮħæĭ¬éĴ±åĮħè¿ŀæİ¥":4957,"ï¼ĮåĮħæĭ¬çĻ»å½ķ":4958,"ï¼ĮåĮħæĭ¬å®¢æĪ·ç«¯":4959,"ï¼ĮåĮħæĭ¬auth":4960,"ï¼ĮåĮħæĭ¬éľĢæ±ĤçĲĨè§£":4961,"ï¼ĮåĮħæĭ¬ä¼ļè¯Ŀ":4962,"ï¼ĮåĮħæĭ¬ä»£çłģæ¦Ĥ":4963,"ï¼ĮåĮħæĭ¬ä»ĵåºĵæ³¨åĨĮ":4964,"åıĤæķ°é«ĺæķĪ":4965,"ĠFAR":4966,"ĠFuture":4967,"ĠFastAPI":4968,"ĠFDD":4969,"ĠFlask":4970,"Ġstatsmodels":4971,"Ġsteering":4972,"æ³ķä»İ":4973,"æ³ķèĥ½åĬĽæıĲåįĩ":4974,"APIéĽĨæĪĲ":4975,"APIè°ĥçĶ¨":4976,"APIç½ĳåħ³":4977,"APIè®¿éĹ®æİ§åĪ¶":4978,"ç»´åĲ¾å°":4979,"ç®Ģä»ĭ":4980,"æŃ¥éª":4981,"æŃ¥æİ¨çĲĨ":4982,"ĠNormalization":4983,"ĠNotebook":4984,"çĶ¨æĪ·æķ°æį®":4985,"çĶ¨æĪ·æ³¨åĨĮ":4986,"çĶ¨æĪ·çļĦWebSocketæ¶Īæģ¯":4987,"å·¥ä¸ļåľºæĻ¯":4988,"å·¥ä¸ļè¿ĩç¨ĭ":4989,"å·¥ä¸ļè¿Ĳè¡Į":4990,"å·¥ä¸ļæķ°æį®éĽĨ":4991,"æ£Ģç´¢ç»ĵæŀľ":4992,"æ£Ģç´¢è´¨éĩı":4993,"éªĮè¯ģèĥ½åĬĽ":4994,"ï¼Įå¹¶æıĲä¾Ľ":4995,"ï¼Įå¹¶ä¿®å¤į":4996,"ï¼Įå¹¶ä¿Ŀè¯ģ":4997,"ï¼Įå¹¶çĶŁæĪĲåĽ¢éĺŁ":4998,"ï¼Įå¹¶æŀĦå»ºDocker":4999,"åħĪç¡®è®¤ä¸Ģä¸ĭ":5000,"éĽĨæĪĲèĥ½åĬĽ":5001,"éĽĨæĪĲåı¯ç»´æĬ¤æĢ§":5002,"æ¶Īéĺ²":5003,"ä¸»è¯·æ±Ĥ":5004,"ä¸»åĬ¨æīĳç¿":5005,"æĻºèĥ½åĮĸ":5006,"æĻºèĥ½åĨ³çŃĸ":5007,"å·¥ä½ľç»ıåİĨ":5008,"JWTæľºåĪ¶":5009,"JWTå¯ĨéĴ¥ä¸İ":5010,"çº§æķħéļľ":5011,"çº§å·¥ç¨ĭæĬ¥åĳĬ":5012,"åħĥç»Ħ":5013,"ïĤ·åıĤä¸İå¹¿":5014,"ïĤ·åıĤä¸İçŁ³æ²¹":5015,"ïĤ·åıĤä¸İå¤©æ´¥":5016,"ïĤ·åıĤä¸İå·¥èīº":5017,"ïĤ·åıĤä¸İåĽ½å®¶":5018,"ïĤ·åıĤä¸İè½¯ä»¶äº¤ä»ĺ":5019,"ïĤ·åıĤä¸İå·¥è´":5020,"ïĤ·åıĤä¸İè°ĥè¯ķ":5021,"åĽ¾è¯ĬæĸŃ":5022,"éĻĲé¢ĦèŃ¦":5023,"éĻĲäºİç®Ģåįķ":5024,"é¢Ħæµĭå¹³åı°":5025,"é¢ĦæµĭæĢ§èĥ½":5026,"è¿ŀæİ¥åĪ°ä¸įåĲĮ":5027,"å½ĵåīįçĬ¶æĢģ":5028,"ï¼Įä¸įå±Ģ":5029,"è®¤è¯ģçļĦWebSocket":5030,"è®¤è¯ģä¸İå®ŀæĹ¶éĢļä¿¡":5031,"è®¤è¯ģç³»ç»Łå®īåħ¨åŁºçº¿":5032,"åĽ¢éĺŁåįıä½ľ":5033,"åĽ¢éĺŁå¼Ģå±ķ":5034,"LLMéĽĨæĪĲèĥ½åĬĽ":5035,"å°ĨæĮģä¹ħåĮĸ":5036,"å°ĨAIæĥ³":5037,"çİ¯å¢ĥåıĺéĩı":5038,"çİ¯å¢ĥä¹ĭéĹ´çļĦ":5039,"çİ¯å¢ĥåı¯å¤įçİ°":5040,"çİ¯å¢ĥæķ°æį®çļĦ":5041,"pout":5042,"è¯Ħå®¡":5043,"ïĤ·ä½¿çĶ¨Go":5044,"ïĤ·ä½¿çĶ¨Spring":5045,"ïĤ·ä½¿çĶ¨PostgreSQL":5046,"ïĤ·ä½¿çĶ¨Zustand":5047,"ïĤ·ä½¿çĶ¨OpenFeign":5048,"ïĤ·ä½¿çĶ¨Eureka":5049,"ïĤ·ä½¿çĶ¨å¤ļéĺ¶æ®µ":5050,"æĺİæĸĩå¯Ĩçłģ":5051,"è¿Ľè¡Įåīįç«¯":5052,"äººç±»":5053,"äººåĪĹè¡¨":5054,"åı¯è§ģæĢ§":5055,"WebSocketå®¢æĪ·ç«¯ä¸İ":5056,"Reactåīįç«¯é¡µéĿ¢":5057,"åŃĺåĤ¨èģĮè´£":5058,"SEæİ¥åı£":5059,"SEæµģå¼ıAPI":5060,"è°ĥçĶ¨æµģç¨ĭ":5061,"olla":5062,"åħ¨æłĪé¡¹çĽ®":5063,"åħ¨æłĪä¸ļåĬ¡":5064,"åħ¨æłĪäº¤ä»ĺ":5065,"è¦ĨçĽĸNode":5066,"è¯įåħĥ":5067,"è§Ħå¾ĭ":5068,"èģĮä½įæııè¿°":5069,"é¢ĦèŃ¦åıĬèĥ½æºĲ":5070,"ä»İä¸´æĹ¶":5071,"ä»İåįķåıĺéĩı":5072,"åĲĳéĩıæķ°æį®åºĵ":5073,"éĥ¨ç½²å®īåħ¨æĢ§":5074,"éĥ¨ç½²ä¸İè¿Ĳç»´":5075,"éĥ¨ç½²éªĮè¯ģèĥ½åĬĽ":5076,"æ·±åħ¥":5077,"oftmax":5078,"å°ıåŀĭ":5079,"çĽ®æłĩè¾ĵåĩº":5080,"çĽ®æłĩåľ°åĽ¾":5081,"ä¿¡æģ¯ç¡¬ç¼ĸçłģ":5082,"æ¶Īæģ¯å½Ĵå±ŀ":5083,"æ¶Īæģ¯ä»¥åıĬæĪ¿éĹ´":5084,"æĬ¥åĳĬé¡¹çĽ®":5085,"ird":5086,"lace":5087,"ĠMetaMask":5088,"ĠMDR":5089,"æĮĩå®ļ":5090,"æĮĩéĴĪ":5091,"æıĲä¾Ľç»Ļ":5092,"ized":5093,"è¯»åįļå£«":5094,"è¿ľç¨ĭè½¯ä»¶å¼Ģåıĳ":5095,"è¿ľç¨ĭåĲĪä½ľ":5096,"æİ¥åı£çļĦéĻĲæµģæľºåĪ¶":5097,"æ¡Īä¾ĭ":5098,"ä¾Ŀèµĸprompt":5099,"ä¾Ŀèµĸæ£Ģç´¢è´¨éĩı":5100,"éķ¿ç§ĺä¹¦":5101,"ÂłReact":5102,"Âłæķ°æį®åĪĨæŀĲ":5103,"Ġimpact":5104,"çĲĨè§£è½¯ä»¶ç³»ç»Ł":5105,"å®ŀæĹ¶æ¶Īæģ¯ä¼łéĢĴ":5106,"å®ŀæĹ¶AIå¤ĦçĲĨ":5107,"å®ŀæĹ¶åĲİç«¯å·¥ç¨ĭèĥ½åĬĽ":5108,"ç»ıéªĮä¸°å¯Į":5109,"omposeéªĮè¯ģ":5110,"æ¬łæĭŁåĲĪ":5111,"Ġannotation":5112,"è¾ĥé«ĺ":5113,"è¾ĥä½İ":5114,"è¾ĥå¼º":5115,"ä¸ŃçļĦç«ŀæĢģ":5116,"ä¸ŃçļĦGoåĲİç«¯å¼Ģåıĳ":5117,"çĽĳæİ§æ¨¡åŀĭ":5118,"çĽĳæİ§æĢ§èĥ½":5119,"çĽĳæİ§ä¸İæķħéļľæ£Ģæµĭ":5120,"åħ¶ä»ĸç§ĳçłĶé¡¹çĽ®":5121,"ssue":5122,"åĮºåĪĨ":5123,"åĮºè®ºæĸĩ":5124,"èĥ½å¤ŁçĲĨè§£è½¯ä»¶ç³»ç»Ł":5125,"æĹłçĽĳçĿ£åŃ¦ä¹ł":5126,"å°ĳéĩı":5127,"éĺ²æİ§ä½ĵç³»":5128,"ç»ĵæŀĦè®¾è®¡":5129,"å®ĮæĪĲæķħéļľæ£Ģæµĭ":5130,"å®ĮæĪĲæķ°æį®æİ¥åħ¥":5131,"éļľç¢":5132,"çĬ¶æĢģè¿½è¸ª":5133,"ãĢģDockeræŀĦå»º":5134,"ãĢģDockerfile":5135,"ãĢģDockerä»¥åıĬWebSocket":5136,"æĸ¹åĲĳéĢĤçĶ¨äºİ":5137,"ĠBootå¾®æľįåĬ¡":5138,"ĠBootçļĦå¾®æľįåĬ¡å¹³åı°":5139,"ï¼Įä½¿æľįåĬ¡è¾¹çķĮ":5140,"ï¼Įä½¿ä¸ļåĬ¡æľįåĬ¡":5141,"åĽłåŃĲ":5142,"ç§ĳéĻ¢äºĮ":5143,"äº¤äºĴéĹ®é¢ĺ":5144,"ç»Ļåĩº":5145,"è®¿éĹ®æĹ¥å¿Ĺ":5146,"æİĴçīĪ":5147,"æİĴæŁ¥èĥ½åĬĽ":5148,"å¯¼åĲĳåŀĭåľºæĻ¯":5149,"çĶŁäº§å°±ç»ª":5150,"çĶŁäº§çļĦSpring":5151,"çĶŁäº§ä¸İå·¥èīº":5152,"ĠComposeçİ¯å¢ĥ":5153,"ĠComposeåģ¥åº·æ£ĢæŁ¥":5154,"ĠComposeéħįç½®ä»¥åıĬ":5155,"è½¯ä»¶æŀ¶æŀĦ":5156,"è½¯ä»¶äº§åĵģ":5157,"elie":5158,"æ»¥çĶ¨":5159,"Ġna":5160,"Ġno":5161,"ä¼ļè®®":5162,"assistant":5163,"assword":5164,"è¿ĩç¨ĭçĽĳæİ§":5165,"è¿ĩç¨ĭå¼Ĥå¸¸":5166,"å±Ĥçº§":5167,"å±Ĥç½ĳç»ľ":5168,"å±ĤéĿ¢çļĦç³»ç»ŁæĢ§":5169,"éĢ»è¾ĳä¸İéĢļçŁ¥":5170,"Ġgovernor":5171,"Ġhuman":5172,"Ġhigh":5173,"äºĭå®ŀ":5174,"æĺ¯ä¸Ģæ¬¡":5175,"åįıè®®":5176,"Ġseparation":5177,"æĢ§èĥ½è¯Ħä¼°":5178,"æĢ§èĥ½çłĶç©¶é¡¹çĽ®":5179,"åĮħåĲ«åĵªäºĽæĸĩä»¶":5180,"åĮħåĲ«åħ«":5181,"çĽĳæµĭçĽĳç®¡":5182,"çĽĳæµĭæķ°æį®åĪĨæŀĲ":5183,"ç±»åŀĭæıĲç¤º":5184,"éĴ±åĮħçļĦèº«ä»½è®¤è¯ģ":5185,"éĴ±åĮħäº¤äºĴéĹ®é¢ĺ":5186,"ĠçļĦé£İéĻ©è¯Ħä¼°":5187,"ĠçļĦå¼Ģåıĳæ¨¡å¼ı":5188,"æł¸å¿ĥä»·åĢ¼":5189,"æł¸å¿ĥä½ľçĶ¨":5190,"æ¨¡åĿĹåı¯çĭ¬ç«ĭ":5191,"ãĢģToken":5192,"éĩĬæĶ¾":5193,"èĩ³åı¯å®¡è®¡":5194,"æī§æ³ķèĥ½åĬĽæıĲåįĩ":5195,"GitHubä¸İBitbucketä»£çłģä»ĵåºĵ":5196,"ĠDeepSeek":5197,"ĠDexifier":5198,"ãĢģECharts":5199,"ãĢģEthers":5200,"ãĢģExpress":5201,"ãĢģEWMA":5202,"ãĢģSPE":5203,"ãĢģStripe":5204,"ãĢģSSEæµģå¼ıAPI":5205,"æµģå¼ıAIåĽŀçŃĶ":5206,"å¾®æľįåĬ¡éĽĨæĪĲåı¯ç»´æĬ¤æĢ§":5207,"GPT":5208,"ï¼ĮæĶ¯æĮģåı¯éħįç½®":5209,"ï¼ĮæĶ¯æĮģéĺ²æĬ¤":5210,"ï¼ĮæĶ¯æĮģæĸĩä»¶åħĥæķ°æį®":5211,"ï¼ĮæĶ¯æĮģè¯Ńä¹īçº§ä»£çłģ":5212,"ï¼ĮæĶ¯æĮģå¤ļç§į":5213,"ï¼ĮæĶ¯æĮģåħ¨éĩı":5214,"äºĮåıī":5215,"äºĮè¿ĽåĪ¶åŃĺåĤ¨":5216,"è¿ģç§»æī§è¡Į":5217,"è¿ģç§»èĩ³PostgreSQL":5218,"è¿ģç§»èĩ³åı¯å®¡è®¡":5219,"å®ŀéªĮä¸İä»¿çľŁ":5220,"å½±åĵįåĪĨæŀĲä»¥åıĬ":5221,"çľĭåĪ°":5222,"æ¯Ķä¸įåĲĮ":5223,"åı¯è§ĨåĮĸä»ªè¡¨çĽĺ":5224,"åı¯è§ĨåĮĸåºĵå¼Ģåıĳ":5225,"åı¯è§ĨåĮĸåĪĨæŀĲæĪĲæŀľ":5226,"æĮģä¹ħåĮĸä¸İåı¯éħįç½®":5227,"æ²ŁéĢļåıĬçĶŁäº§":5228,"-style":5229,"Ġradius":5230,"ãĢģFlyway":5231,"ãĢģFCCU":5232,"ãĢģFastAPI":5233,"ï¼Įä»¥æıĲé«ĺ":5234,"ï¼Įä»¥æıĲåįĩå¤įæĿĤ":5235,"å¤ļä¸ªè¿ľç¨ĭè½¯ä»¶å¼Ģåıĳ":5236,"ä¸»è¦ģå·¥ä½ľ":5237,"ä¸»è¦ģåŃ¦ä¹łåĨħå®¹":5238,"Ġlocal":5239,"ãĢģCSTR":5240,"ãĢģCUSUM":5241,"ãĢģComposeéªĮè¯ģ":5242,"ï¼ĮçĶ¨äºİä»£çłģä»ĵåºĵ":5243,"ï¼ĮçĶ¨äºİçĶ¨æĪ·æķ°æį®":5244,"ï¼ĮçĶ¨äºİå®ŀæĹ¶AIå¤ĦçĲĨ":5245,"Ġscikit":5246,"Ġreplan":5247,"ĠCloudä»¥åıĬGo":5248,"ç»Łè®¡çĽĳæİ§ä¸İæķħéļľæ£Ģæµĭ":5249,"ç»Łè®¡è¿ĩç¨ĭçĽĳæİ§":5250,"åĵģç®¡çĲĨ":5251,"èģĬå¤©æķ°æį®":5252,"HTTPS":5253,"gramm":5254,"ãĢģRedisä¸İPostgreSQL":5255,"ï¼Įè¦ĨçĽĸçĶ¨æĪ·":5256,"ï¼Įè¦ĨçĽĸå®īåħ¨æĢ§":5257,"ï¼Įè¦ĨçĽĸåĲİç«¯æľįåĬ¡":5258,"ï¼Įè¦ĨçĽĸä»£çłģæł¼å¼ı":5259,"ï¼Įè¦ĨçĽĸAPIç½ĳåħ³":5260,"ï¼Įè¦ĨçĽĸä»İåįķåıĺéĩı":5261,"ïĤ·å®ŀçİ°çĻ»å½ķ":5262,"ïĤ·å®ŀçİ°ç»Ħç»ĩ":5263,"ïĤ·å®ŀçİ°è¯Ńä¹īçº§":5264,"ïĤ·å®ŀçİ°ç»ıè¿ĩ":5265,"ïĤ·å®ŀçİ°çĶ¨æĪ·æ³¨åĨĮ":5266,"ïĤ·å®ŀçİ°GitHubä¸İBitbucketä»£çłģä»ĵåºĵ":5267,"ïĤ·çłĶç©¶æĪĲæŀľ":5268,"ïĤ·çłĶç©¶å¤ļæĹ¶éĹ´åºıåĪĹ":5269,"ïĤ·çłĶç©¶æĸ¹åĲĳéĢĤçĶ¨äºİ":5270,"ïĤ·æŀĦå»ºPR":5271,"ïĤ·æŀĦå»ºåįķåıĺéĩı":5272,"ïĤ·æŀĦå»ºæĸĩä»¶åŃĺåĤ¨æľįåĬ¡":5273,"ïĤ·æŀĦå»ºåŁºäºİBullMQ":5274,"åŃĲè¯į":5275,"åºĶæĢ¥ä¸ĵ":5276,"æ°Ķå·¥ç¨ĭ":5277,"Ġä¸ªåı¯å¤įçİ°":5278,"Ġä¸ªæ½ľ":5279,"ãĢģæķ°æį®åĪĨæŀĲ":5280,"ãĢģæķ°æį®ä¿ĿæĬ¤":5281,"ãĢģæķ°æį®åĪĨæŀĲä»¥åıĬ":5282,"ãĢģæķ°æį®åı¯è§ĨåĮĸä»ªè¡¨çĽĺ":5283,"ãĢģå®īåħ¨æ£ĢæŁ¥":5284,"ãĢģå®īåħ¨é£İéĻ©æİ§åĪ¶":5285,"ãĢģå®īåħ¨åĬłåĽº":5286,"ä»ħæŀĦå»ºè°ĥçĶ¨":5287,"åĨĻåħ¥":5288,"ä¸įåĲĮçģ«çģ¾":5289,"é¢ĨåŁŁéĢ»è¾ĳä¸İéĢļçŁ¥":5290,"å»ºç«ĭæķ°æį®å½Ĵå±ŀ":5291,"ä¸Ĭä¸ĭæĸĩçªĹåı£":5292,"acy":5293,"apfill":5294,"ĠLanguage":5295,"ãĢģMetaMask":5296,"åĬŀæĸĩåĳĺ":5297,"å¼ºåĮĸåŃ¦ä¹ł":5298,"åĬ¨æĢģåħ³ç³»":5299,"åĳĺè¯ģä¹¦":5300,"èĩªåĬ¨å»ºè¡¨":5301,"/SSEæİ¥åı£":5302,"æľ¬åľ°ä¸İéĥ¨ç½²":5303,"æľ¬åľ°åĲ¯åĬ¨":5304,"åºĶçĶ¨å¼Ģåıĳå·¥ç¨ĭå¸Ī":5305,"è®°å½ķåıĬä¸ļåĬ¡éĢ»è¾ĳ":5306,"çľŁå®ŀå·¥ä¸ļæķ°æį®éĽĨ":5307,"å®¢æĪ·åıĬé¡¹çĽ®":5308,"ç¥¨":5309,"ï¼Įå®ŀçİ°åĲĳéĩıæ£Ģç´¢":5310,"ï¼Įå®ŀçİ°çīĪæľ¬":5311,"ï¼Įå®ŀçİ°ç»ĵåŀ¢":5312,"ï¼Įå®ŀçİ°ä¸ĢéĶ®":5313,"ï¼Įå®ŀçİ°è¿ĩç¨ĭå¼Ĥå¸¸":5314,"ï¼ĮæıĲåįĩéķ¿æĹ¶éĹ´":5315,"ï¼ĮæıĲåįĩæľįåĬ¡åĲ¯åĬ¨":5316,"ï¼ĮæıĲåįĩçİ¯å¢ĥåı¯å¤įçİ°":5317,"ï¼ĮæıĲåįĩéĥ¨ç½²å®īåħ¨æĢ§":5318,"ï¼ĮæıĲåįĩæľ¬åľ°ä¸İéĥ¨ç½²":5319,"ïĤ·PyTorch":5320,"ïĤ·åŁºäºİSpring":5321,"ïĤ·åŁºäºİç®Ĺæ³ķ":5322,"ïĤ·åŁºäºİæĹ¶ç©º":5323,"ïĤ·è®¾è®¡åĲĦ":5324,"ïĤ·è®¾è®¡AIä»£çłģåĪĨæŀĲ":5325,"ïĤ·è®¾è®¡åŁºäºİRedis":5326,"åı¯å¤įçĶ¨çļĦ":5327,"ä¸įèĥ½çĽ´æİ¥":5328,"éĢļçŁ¥æµģç¨ĭ":5329,"éĢļçŁ¥åĬŁèĥ½":5330,"ä½ľä¸ºåħ¨æłĪAI":5331,"ä½ľä¸ºç»Łä¸Ģ":5332,"ä»£çłģä»ĵåºĵéĹ®çŃĶç³»ç»Ł":5333,"è¶ħåıĤæķ°":5334,"è¶ħè¶Ĭ":5335,"è¯ĨåĪ«åıĬæĬĢæľ¯æĸĩæ¡£":5336,"è·¯å¾ĦçĶ¨äºİèģĬå¤©åİĨåı²":5337,"é©±åĬ¨éħįç½®ä»¥åıĬ":5338,"åºĶæĢ¥ç®¡çĲĨåİħ":5339,"Ġusage":5340,"ãĢģæķ°æį®åºĵç»ĵæŀĦè®¾è®¡":5341,"ïĤ·å¼ĢåıĳåŁºäºİServer":5342,"ïĤ·å¼ĢåıĳæĪĸå¯¹æİ¥åĲİç«¯":5343,"ïĤ·å¼ĢåıĳReactåīįç«¯é¡µéĿ¢":5344,"readcrumb":5345,"åŃĹåħ¸":5346,"æĸ¹å·®è§£éĩĬ":5347,"å»ºæ¨¡ä¸İä»¿çľŁ":5348,"å»ºæ¨¡ä»¥åıĬå¤§è¯Ńè¨Ģæ¨¡åŀĭ":5349,"èģĶåĲĪ":5350,"èģĶç½ĳ":5351,"ĠdAppå¼Ģåıĳç»ıéªĮ":5352,"Ġaccess":5353,"Ġthird":5354,"ä¸¤åı¥":5355,"éĹ®çŃĶä»¥åıĬåĽ¢éĺŁ":5356,"åıĺåĮĸä¸İçĪĨçĤ¸é£İéĻ©é¢ĦèŃ¦":5357,"ä¿®å¤įä»¥åıĬAIçĶŁæĪĲ":5358,"ç§ĳçłĶç»ıåİĨ":5359,"åĬŀåħ¬å²Ĺä½į":5360,"åĬŀåħ¬å®¤å·¥ä½ľ":5361,"ATS":5362,"DeepSeekä¸İGemini":5363,"curacy":5364,"lative":5365,"pgvectorçļĦè¯Ńä¹īæ£Ģç´¢":5366,"çĸ«æĥħ":5367,"ĠLLMåºĶçĶ¨å¼Ģåıĳå·¥ç¨ĭå¸Ī":5368,"ï¼ĮåĮħåĲ«Redis":5369,"ï¼ĮåĮħåĲ«PostgreSQL":5370,"ï¼ĮåĮħåĲ«Gateway":5371,"ï¼ĮåĮħåĲ«å®ļä»·":5372,"ïĤ·Cont":5373,"ïĤ·CET":5374,"çŃ¾åıĳ":5375,"âĢĿãĢĤčĊ":5376,"æĮĩæłĩæİ¥åı£":5377,"å¤ĸéĥ¨çŁ¥è¯Ĩ":5378,"å¤ĸéĥ¨åħ¥åı£":5379,"è®ºæĸĩåıĳè¡¨":5380,"çĥŃæļ´éľ²":5381,"çĥŃåĻ¨ç»ĵåŀ¢":5382,"çĥŃçĤīçŃī":5383,"åįļå£«çłĶç©¶çĶŁåŃ¦ä¸ļå¥ĸåŃ¦éĩĳ":5384,"æĹ¥å¿Ĺè®°å½ķ":5385,"-TransformerçļĦçĵ¦æĸ¯çĪĨçĤ¸é£İéĻ©é¢ĦèŃ¦çłĶç©¶":5386,"âīĪ":5387,"ãĢģAIéĹ®çŃĶ":5388,"ãĢģé£İéĻ©åĪĨå¸ĥ":5389,"ãĢģé£İéĻ©è¯ĨåĪ«åıĬæĬĢæľ¯æĸĩæ¡£":5390,"ãĢģçĶ¨æĪ·ç®¡çĲĨ":5391,"ãĢģçĶ¨æĪ·ä»ªè¡¨çĽĺ":5392,"ãĢģçĶ¨æĪ·èµĦäº§å±ķç¤ºåıĬ":5393,"ãĢģæµģå¼ıåĵįåºĶ":5394,"ï¼Įä¸ºçĶ¨æĪ·":5395,"ï¼Įä¸ºå¤ļå®ŀä¾ĭ":5396,"ä¸İéĥ¨ç½²åı¯éħįç½®":5397,"åı¯éħįç½®è¿ĩæľŁæĹ¶éĹ´":5398,"icroser":5399,"è®¡è´¹ä¸İè®¢éĺħ":5400,"æłĩåĩĨå·®":5401,"Ġbackgroun":5402,"åĽŀå½ĴçĽĳæİ§æ¨¡åŀĭ":5403,"äº§åĵģå·¥ç¨ĭèĥ½åĬĽ":5404,"æİ§åĪ¶åĽ¾çĽĳæİ§":5405,"æİ§åĪ¶åĽ¾åĪ°å¤ļåħĥ":5406,"åħ·å¤ĩå®Įæķ´çļĦ":5407,"åħ·å¤ĩè¾ĥå¼º":5408,"è¯»åıĸè·¯å¾ĦçļĦæĥħåĨµä¸ĭ":5409,"çŁ³åĮĸå®īåħ¨":5410,"çŁ³åĮĸåħ¬åı¸":5411,"å¯Ĩçłģæł¡éªĮ":5412,"ä¸Ģèĩ´æĢ§éĹ®é¢ĺåıĬ":5413,"ä¸Ģèĩ´æĢ§ä¸İéĥ¨ç½²åı¯éħįç½®":5414,"/Subå¹¿æĴŃ":5415,"/SubçļĦWebSocketæ¶Īæģ¯":5416,"è¿½è¸ªä»¥åıĬåŁºäºİ":5417,"åı¯è§ĤæµĭæĢ§ä¸İéĹ®é¢ĺ":5418,"Temperature":5419,"ĠHikaflow":5420,"ĠUniver":5421,"ãĢģåĲİç«¯æŀ¶æŀĦ":5422,"ãĢģåĲİç«¯æľįåĬ¡ä»¥åıĬ":5423,"ï¼ĮéĢļè¿ĩçĶŁæĪĲembedding":5424,"ï¼Įè¿Ļæĺ¯ä¸Ģä¸ª":5425,"åĪĩæį¢":5426,"åĲĦæ¨¡åĿĹåı¯çĭ¬ç«ĭ":5427,"Ġclients":5428,"èģļç±»":5429,"/OpenAIåħ¼å®¹":5430,"ARL":5431,"ARCH":5432,"ãĢģæĸĩä»¶æķ´çĲĨ":5433,"ãĢģæĸĩä»¶ä¸Ĭä¼ł":5434,"ãĢģæĸĩä»¶æĸĩæ¡£æµıè§ĪåĻ¨":5435,"åıĳå¸ĥäºĭä»¶":5436,"æĶ¶çĽĬ":5437,"ç²¾ç¡®":5438,"é¡ºåºıæİ§åĪ¶":5439,"/Fiber":5440,"/Flyway":5441,"ING":5442,"INAL":5443,"NestJSåĲİç«¯æŀ¶æŀĦ":5444,"ãĢģå¼ĤæŃ¥äºĭä»¶":5445,"ãĢģå¼ĤæŃ¥ä»»åĬ¡å¤ĦçĲĨ":5446,"ä»įæľī":5447,"ä»įåı¯æŃ£å¸¸":5448,"å¹¶åıĳæİ§åĪ¶éĶģ":5449,"å¿«çļĦ":5450,"äºĭä»¶å¤ĦçĲĨä»¥åıĬåŁºäºİ":5451,"Ġlogin":5452,"Ġlogic":5453,"æĸ°çĸĨç»´åĲ¾å°":5454,"CIå·¥ä½ľæµģ":5455,"ake":5456,"ĠçĽ¸åħ³å¼Ģåıĳ":5457,"ĠçĽ¸åħ³ä¸ļåĬ¡éĢ»è¾ĳ":5458,"ĠçĽ¸åħ³åºĶçĶ¨åĬŁèĥ½":5459,"ĠGatewayä½ľä¸ºç»Łä¸Ģ":5460,"ãĢģä½¿çĶ¨æĹ¥å¿Ĺ":5461,"ãĢģä»ĵåºĵç®¡çĲĨ":5462,"ãĢģä»ĵåºĵæī«æıı":5463,"ãĢģä»ĵåºĵç»ĳå®ļ":5464,"ãĢģéĥ¨ç½²æĸĩæ¡£":5465,"ãĢģéĥ¨ç½²ä»¥åıĬè¿Ĳç»´":5466,"ãĢģéĥ¨ç½²æĶ¯æĮģä»¥åıĬåĲİæľŁ":5467,"ãĢģä»ªè¡¨çĽĺå¼Ģåıĳ":5468,"ãĢģä»ªè¡¨çĽĺå±ķç¤º":5469,"ï¼ĮåŁºäºİæ®ĭå·®":5470,"ï¼ĮåŁºäºİDeepSeekä¸İGemini":5471,"ï¼ĮçĶŁæĪĲç»ĵæŀĦåĮĸ":5472,"ï¼ĮçĶŁæĪĲAIæĸĩæ¡£":5473,"ï¼Įæ¶īåıĬ":5474,"ï¼ĮéĻįä½İèĩªçĽ¸åħ³":5475,"ï¼ĮéĻįä½İå®ŀæĹ¶æ¶Īæģ¯ä¼łéĢĴ":5476,"ï¼ĮéĻįä½İæ»¥çĶ¨":5477,"ïĤ·EHS":5478,"ïĤ·Spatiotemporal":5479,"ïĤ·æ·»åĬłSpring":5480,"ïĤ·æ·»åĬłåģ¥åº·æ£ĢæŁ¥":5481,"ïĤ·æ·»åĬłRedisåħ¼å®¹":5482,"æĺ¾åŃĺ":5483,"ç¨ĭåºıä¼ĺåĮĸ":5484,"ä¸įä»ħå±ķç¤ºäºĨ":5485,"ä¸įä»ħä¾Ŀèµĸprompt":5486,"æĹ¶åºıèĩªçĽ¸åħ³":5487,"æĹ¶ç©ºé¢ĦæµĭçłĶç©¶":5488,"å¼Ģå±ķç©ºæ°Ķè´¨éĩı":5489,"ä»¥åıĬåŁºäºİçĶ¨æĪ·çļĦWebSocketæ¶Īæģ¯":5490,"ä»¥åıĬè¿Ĳç»´åĨħå®¹":5491,"ä»¥åıĬè¿Ĳç»´åı¯è§ĤæµĭæĢ§":5492,"Ġrequests":5493,"åħ³éĶ®è¯į":5494,"åħ³éĶ®èģĬå¤©åİĨåı²":5495,"å·¥ç¨ĭèĥ½åĬĽçļĦæł¸å¿ĥ":5496,"æłĩçŃ¾çļĦæķ°æį®":5497,"éĿ¢åĲĳåĮĸå·¥":5498,"éĿ¢åĲĳçĶŁäº§çļĦSpring":5499,"Ġtokenä¸ŃéĹ´ä»¶":5500,"ĠtokençŃ¾åıĳ":5501,"ä½ĵçİ°äºĨåĽ´ç»ķ":5502,"ãĢģPRåĪĨæŀĲ":5503,"ãĢģPRæĬ¥åĳĬ":5504,"ãĢģPRæķ°æį®å¤ĦçĲĨ":5505,"å·¥ä¸ļå®īåħ¨çĽĳæµĭ":5506,"æĥ³åħĪç¡®è®¤ä¸Ģä¸ĭ":5507,"æĬ¥åĳĬçĶŁæĪĲæµģç¨ĭ":5508,"å¹¿æĴŃåŁºç¡Ģèĥ½åĬĽ":5509,"åĿĩåĢ¼æ¼Ĥç§»":5510,"ïĤ·çłĶç©¶çĶŁåĽ½å®¶":5511,"ïĤ·çłĶç©¶çĶŁåŃ¦ä¸ļå¥ĸåŃ¦éĩĳ":5512,"ïĤ·çłĶç©¶çĶŁæĸ°çĶŁå¥ĸåŃ¦éĩĳ":5513,"æķħéļľæ£Ģæµĭä¸İè´¡çĮ®":5514,"èĩªåĬ¨åĮĸèĦļæľ¬":5515,"ãĢģæµģå¼ıAIåĵįåºĶçĶŁæĪĲ":5516,"ãĢģæµģå¼ıAIåĵįåºĶè¾ĵåĩº":5517,"ĠåıįåºĶåĻ¨ä¿ĿçķĻ":5518,"ä¸ŃåĽ½çŁ³æ²¹ä¹Įé²ģæľ¨é½Ĳ":5519,"ä¸ŃåĽ½çŁ³æ²¹çļĦå·¥ä¸ļå®īåħ¨":5520,"çħ¤çŁ¿çĵ¦æĸ¯æµĵåº¦":5521,"-userä»¥åıĬjob":5522,"Ġæ¨¡åŀĭè°ĥçĶ¨":5523,"Ġasynchron":5524,"åħ±äº«":5525,"ïĤ·éĽĨæĪĲStripe":5526,"ïĤ·éĽĨæĪĲåŁºäºİKafka":5527,"è§ĪçĶŁæĪĲ":5528,"Ġcoverage":5529,"çīĩæ®µ":5530,"ï¼Įå¹¶æĶ¯æĮģéĥ¨ç½²ä¸İè¿Ĳç»´":5531,"ï¼Įå¹¶æĶ¯æĮģæµģå¼ıAIåĽŀçŃĶ":5532,"æ¯Ķè¾ĥçģµæ´»":5533,"-storageè°ĥçĶ¨æµģç¨ĭ":5534,"ï¼ĮèĢĮæĺ¯è®¾è®¡å®Įæķ´":5535,"æĻºæħ§åŁİå¸":5536,"-party":5537,"/Bitbucketä»£çłģä»ĵåºĵ":5538,"tokenå¯ĨéĴ¥ä¸İ":5539,"ĠçŃīæķ°æį®åºĵ":5540,"ĠçŃīåı¯è§ĨåĮĸåºĵå¼Ģåıĳ":5541,"ä¸´æĹ¶åĬŀåħ¬å²Ĺä½į":5542,"ãĢģæ¨¡åŀĭè®Ńç»ĥ":5543,"ãĢģæ¨¡åŀĭè°ĥåº¦":5544,"ï¼Įåĩıå°ĳåĨħéĥ¨":5545,"ï¼Įåĩıå°ĳç¡¬ç¼ĸçłģ":5546,"ĠSearch":5547,"æľįåĬ¡åĻ¨ä¹ĭéĹ´":5548,"åĪĨæŀĲä¸İæĬ¥åĳĬçĶŁæĪĲæµģç¨ĭ":5549,"å®ļä½įåıĬçĽĳæİ§æĸ¹æ¡Ī":5550,"ç´¯äºĨå®īåħ¨çĽĳæµĭ":5551,"Ġmulti":5552,"åģıå¥½":5553,"å®¹åĻ¨åĮĸ":5554,"å¦Ĥä½ķçĲĨè§£":5555,"ç»Ħä»¶å®ŀçİ°æĮĩæłĩ":5556,"ï¼Įä½¿æ¨¡åŀĭèĥ½å¤Ł":5557,"åįıè°ĥèĥ½åĬĽ":5558,"åįıè°ĥåıĬçĽ¸åħ³":5559,"/OpenAPIæĸĩæ¡£":5560,"/TypeScript":5561,"swarm":5562,"Ġissu":5563,"Ġä¸Ńç§ĳéĻ¢äºĮ":5564,"Ġobstacle":5565,"ä¸ĵä¸ļ":5566,"ãĢģLDPE":5567,"ãĢģLinux":5568,"ï¼Įå°Ĩæĸĩä»¶åħĥæķ°æį®":5569,"ï¼Įå°Ĩåħ³éĶ®èģĬå¤©åİĨåı²":5570,"ï¼Įèĥ½å¤Łå®ĮæĪĲæķ°æį®æİ¥åħ¥":5571,"ï¼ĮæıĲé«ĺå·¥ç¨ĭè´¨éĩı":5572,"ï¼ĮæıĲé«ĺè®¤è¯ģç³»ç»Łå®īåħ¨åŁºçº¿":5573,"ï¼Įè¿ĺä¾Ŀèµĸæ£Ģç´¢è´¨éĩı":5574,"ï¼Įè¿ĺä½ĵçİ°äºĨåĽ´ç»ķ":5575,"éĹ¨æ§Ľ":5576,"å®ŀä¾ĭå¹¿æĴŃåŁºç¡Ģèĥ½åĬĽ":5577,"é¢Ŀå¤ĸ":5578,"æĸ¹éĿ¢åħ·å¤ĩè¾ĥå¼º":5579,"è´¡çĮ®å®ļä½įåıĬçĽĳæİ§æĸ¹æ¡Ī":5580,"Ġmessages":5581,"èĩªçĦ¶ç§ĳåŃ¦":5582,"éĢĤçĶ¨äºİæĻºæħ§åŁİå¸":5583,"éĺ²æĬ¤åĪĨæŀĲçłĶç©¶":5584,"çĶŁäº§çº§AIç³»ç»Ł":5585,"çĶŁäº§çº§ç³»ç»ŁæĦıè¯Ĩ":5586,"è½¯ä»¶å¼Ģåıĳç»ıåİĨ":5587,"æĬķéĢĴè®°å½ķ":5588,"æĬķéĢĴçļĦè§£":5589,"æī©å±ķæıĲä¾ĽåŁºç¡Ģ":5590,"æįŁå¤±åĩ½æķ°":5591,"/EChartsé£İæł¼":5592,"/CD":5593,"/AIæ¨¡åŀĭè°ĥçĶ¨":5594,"/å¯¼åħ¥":5595,"/å¯¼åĩºä¿¡æģ¯":5596,"/æ³¨åĨĮæİ¥åı£çļĦéĻĲæµģæľºåĪ¶":5597,"/å°±ç»ªæ£ĢæŁ¥ç«¯çĤ¹":5598,"Actuatoråģ¥åº·æ£ĢæŁ¥":5599,"èį£è":5600,"ĠIssue":5601,"Ġå¼ĢåıĳåĲİç«¯æľįåĬ¡":5602,"Ġåħ¨æłĪåºĶçĶ¨":5603,"Ġç»Łè®¡å»ºæ¨¡":5604,"Ġç»Łè®¡éĩıè®¾å®ļ":5605,"ĠåºĶçĶ¨å¼ĢåıĳæıĲä¾ĽåŁºç¡Ģ":5606,"ãĢĭï¼Į":5607,"ãĢģä»£çłģè¯¦":5608,"ãĢģä»£çłģæĸĩæ¡£çĶŁæĪĲ":5609,"ãĢģåŁºäºİéĴ±åĮħçļĦèº«ä»½è®¤è¯ģ":5610,"ãĢģåŁºäºİpgvectorçļĦè¯Ńä¹īæ£Ģç´¢":5611,"ãĢģå¤ļåľ°çĤ¹":5612,"ãĢģå¤ļå®ŀä¾ĭå¹¿æĴŃåŁºç¡Ģèĥ½åĬĽ":5613,"ãĢģçİ¯å¢ĥçĽĳæµĭ":5614,"ãĢģçİ¯å¢ĥé©±åĬ¨éħįç½®ä»¥åıĬ":5615,"ãĢģæ¶Īæģ¯æĮģä¹ħåĮĸåŃĺåĤ¨":5616,"ãĢģæ¶Īæģ¯ä»¥åıĬæ¶Īæģ¯":5617,"ãĢģæī«æııè¿Ľåº¦":5618,"ãĢģæī«æııçĬ¶æĢģè¿½è¸ª":5619,"ãĢģå½±åĵįåĪĨæŀĲ":5620,"ãĢģå½±åĵįè¶ĭåĬ¿":5621,"ãĢģåģ¥åº·ä¸İå®īåħ¨":5622,"ãĢģéĢļçŁ¥æľįåĬ¡ä»¥åıĬ":5623,"ãĢģéĢļçŁ¥åıĬæĸĩä»¶åŃĺåĤ¨":5624,"ãĢģåºĶæĢ¥ç®¡çĲĨåıĬé£İéĻ©":5625,"ãĢģè®¡è´¹ç³»ç»Ł":5626,"ãĢģè®¡è´¹ä»¥åıĬWebhook":5627,"ãĢģembeddings":5628,"ãĢģembeddingçĶŁæĪĲ":5629,"ãĢģçŁ³åĮĸå®īåħ¨":5630,"ãĢģçŁ³åĮĸçŃīæµģç¨ĭ":5631,"ãĢģåı¯è§ĤæµĭæĢ§ä»¥åıĬç¨³å®ļçļĦ":5632,"ãĢģæĹ¶éĹ´åºıåĪĹé¢Ħæµĭå¹³åı°":5633,"ãĢģæĹ¶éĹ´åºıåĪĹå»ºæ¨¡ä»¥åıĬå¤§è¯Ńè¨Ģæ¨¡åŀĭ":5634,"ãĢģcommitåħ³èģĶ":5635,"ãĢģcommitè¿½è¸ªä»¥åıĬåŁºäºİ":5636,"ãĢģåĲİåı°éĺŁåĪĹ":5637,"ãĢģåĲİåı°ä»»åĬ¡å¤ĦçĲĨ":5638,"ï¼Įå¯¹æ¯Ķä¸įåĲĮ":5639,"ï¼ĮçłĶç©¶ä¸įåĲĮçģ«çģ¾":5640,"ï¼ĮçłĶç©¶çħ¤çŁ¿çĵ¦æĸ¯æµĵåº¦":5641,"ï¼Įå±ķç¤ºç«¯åĪ°":5642,"ï¼Įå±ķç¤ºåľ¨ä½İ":5643,"ï¼ĮæĬĢæľ¯æłĪåĮħæĭ¬React":5644,"ï¼ĮæĬĢæľ¯æłĪè¦ĨçĽĸNode":5645,"ï¼Įä½ĵçİ°äºĨæľįåĬ¡è¾¹çķĮ":5646,"ï¼Įä½ĵçİ°è¶ħè¶Ĭ":5647,"ï¼ĮéĩĩçĶ¨JWTæľºåĪ¶":5648,"ï¼ĮéĩĩçĶ¨çİ¯å¢ĥåıĺéĩı":5649,"çļĦå®Įæķ´æµģç¨ĭ":5650,"çļĦå¼ĤæŃ¥ä»ĵåºĵæī«æıı":5651,"çļĦå¼ĤæŃ¥éĢļçŁ¥æµģç¨ĭ":5652,"è¯¦ç»Ĩ":5653,"ïĤ·åľ¨WebSocketå®¢æĪ·ç«¯ä¸İ":5654,"ïĤ·åľ¨çĸ«æĥħ":5655,"ïĤ·å»ºç«ĭçŁ³åĮĸå®īåħ¨":5656,"ïĤ·ç¼ĸåĨĻçĶŁäº§å°±ç»ª":5657,"ïĤ·ç¼ĸåĨĻCIå·¥ä½ľæµģ":5658,"ïĤ·å¼ķåħ¥SQLè¿ģç§»":5659,"ïĤ·å¼ķåħ¥PBKDF":5660,"ïĤ·åıĳè¡¨ä¸Ńæĸĩæł¸å¿ĥæľŁåĪĬ":5661,"atures":5662,"ä¸İåı¯å¤įçİ°éĽĨæĪĲæµĭè¯ķ":5663,"æµ·å¤ĸ":5664,"æµ·ä¸ĬèĪ":5665,"åĪĨåıĳæľºåĪ¶":5666,"åĪĨåıĳæµĭè¯ķ":5667,"æ¨¡æĭŁçłĶç©¶":5668,"æ¨¡æĭŁä¸İçĥŃ":5669,"åıĬçĶŁäº§æķ°æį®ç®¡çĲĨ":5670,"ĠAgentåºĶçĶ¨å¼Ģåıĳ":5671,"ĠAgentå·¥ä½ľæµģ":5672,"åĮĸå·¥çĶŁäº§ä¸İå·¥èīº":5673,"WebhookçļĦåĪĨæŀĲ":5674,"ä»¥åıĬWebSocketåĪĨåıĳæµĭè¯ķ":5675,"ä¸ªäººç®Ģä»ĭ":5676,"AIçĶŁæĪĲçļĦæĹłæķĪJSON":5677,"ĠConfigå®ŀçİ°éĽĨä¸Ńéħįç½®":5678,"åıĤèĢĥå¹³åı°":5679,"åİĤåĬŀæĸĩåĳĺ":5680,"å¹¶æıĲåįĩAPIè®¿éĹ®æİ§åĪ¶":5681,"å¹¶æıĲåįĩå¾®æľįåĬ¡éĽĨæĪĲåı¯ç»´æĬ¤æĢ§":5682,"å®īåħ¨çĽĳç®¡æī§æ³ķèĥ½åĬĽæıĲåįĩ":5683,"è¿Ľåº¦æİ¨éĢģ":5684,"é£İéĻ©è¯Ħä¼°èĥ½åĬĽ":5685,"ï¼īåĪĨæŀĲä½ĵç³»":5686,"ï¼īåĪĨæŀĲæ¨¡æĿ¿":5687,"åıĺæĽ´ç®¡çĲĨ":5688,"ï¼ĪSSE":5689,"ï¼ĪSPM":5690,"äº¤æĺĵçĽ¸åħ³æµģç¨ĭ":5691,"éĽĨæĪĲæµĭè¯ķä»¥åıĬWebSocketåĪĨåıĳæµĭè¯ķ":5692,"ïĤ·åıĤä¸İåºĶæĢ¥ç®¡çĲĨéĥ¨å¤©æ´¥":5693,"ïĤ·åıĤä¸İåºĶæĢ¥ç®¡çĲĨæĸĩä»¶æķ´çĲĨ":5694,"åħ¨æłĪAIä»£çłģæĻºèĥ½å¹³åı°":5695,"å±ķç¤ºäºĨå®ŀæĹ¶åĲİç«¯å·¥ç¨ĭèĥ½åĬĽ":5696,"å®ŀæĹ¶éĢļä¿¡æ¨¡å¼ı":5697,"äº¤äºĴæµģç¨ĭéĹ®é¢ĺ":5698,"åľºæĻ¯ä¸ĭçļĦæ£Ģåĩº":5699,"åľºæĻ¯ä¸ĭçļĦçĥŃæļ´éľ²":5700,"ĠComposeä»¥åıĬSQLè¿ģç§»":5701,"ĠComposeä»¥åıĬActuatoråģ¥åº·æ£ĢæŁ¥":5702,"æ®ĭå·®è¿ŀæİ¥":5703,"Ġgeneration":5704,"è¯¯æĬ¥é£İéĻ©":5705,"è¯¯æĬ¥çİĩ":5706,"ïĤ·æŀĦå»ºäºĨä¸Ģä¸ªéĿ¢åĲĳçĶŁäº§çļĦSpring":5707,"ïĤ·æŀĦå»ºäºĨä¸Ģä¸ªåħ¨æłĪAIä»£çłģæĻºèĥ½å¹³åı°":5708,"Ġä¸ªä¸»æĪĲåĪĨè§£éĩĬ":5709,"ãĢģå®īåħ¨çĽĳæµĭåıĬäºĭæķħé¢Ħéĺ²":5710,"ĠRequestè¯Ħå®¡":5711,"ïĤ·è®¾è®¡äºĨæ¨¡åĿĹåĮĸ":5712,"ïĤ·è®¾è®¡äºĨåĮħåĲ«åħ«":5713,"è·¯å¾ĦçļĦæĥħåĨµä¸ĭåıĳå¸ĥäºĭä»¶":5714,"é©±åĬ¨çļĦJWTå¯ĨéĴ¥ä¸İ":5715,"æķĪæŀľè¯Ħä¼°æĬ¥åĳĬé¡¹çĽ®":5716,"æ¼ıæ£Ģçİĩ":5717,"ãĢģAIä»£çłģåĪĨæŀĲæıĲç¤ºè¯į":5718,"å¯ĨçłģåĵĪå¸Įä¸İå¸¸":5719,"çģ«çģ¾æ¨¡æĭŁçłĶç©¶":5720,"è£ħé¥°":5721,"éĢĲæŃ¥è¿ģç§»èĩ³PostgreSQL":5722,"ãĢģä½¿çĶ¨éĩıæĹ¥å¿Ĺ":5723,"ãĢģä½¿çĶ¨éĩıè¿½è¸ª":5724,"ï¼Įæ¶µçĽĸAIåºĶçĶ¨å¼Ģåıĳ":5725,"æĪ¿éĹ´ç®¡çĲĨä¸Ńå¼ķåħ¥":5726,"èģļåĲĪçī©è¿ĩç¨ĭéĻįç»´":5727,"ï¼Įä¸Ģä¸ªåŁºäºİSpring":5728,"ï¼Įä¸Ģä¸ªåŁºäºİGoçļĦå®ŀæĹ¶WebSocketèģĬå¤©åĲİç«¯":5729,"ãĢĤè¯¥é¡¹çĽ®ä¸įä»ħå±ķç¤ºäºĨ":5730,"ãĢĤè¯¥é¡¹çĽ®å±ķç¤ºäºĨå®ŀæĹ¶åĲİç«¯å·¥ç¨ĭèĥ½åĬĽ":5731,"ïĤ·åĬłæ·±å¯¹å®īåħ¨çĽĳç®¡":5732,"ïĤ·åĬłæ·±äºĨå¯¹":5733,"éĺ²çģ«æľįæ¨¡æĭŁä¸İçĥŃ":5734,"éĺ²çģ«æľįçģ«çģ¾æ¨¡æĭŁçłĶç©¶":5735,"ç©ºæ°Ķè´¨éĩıæĹ¶ç©ºé¢ĦæµĭçłĶç©¶":5736,"æļ´éľ²å¹¶æıĲåįĩAPIè®¿éĹ®æİ§åĪ¶":5737,"ï¼ĮæĽ¿ä»£ä¸įå®īåħ¨çļĦæĺİæĸĩå¯Ĩçłģ":5738,"ï¼ĮæĽ¿ä»£ä¸įå®īåħ¨çļĦèĩªåĬ¨å»ºè¡¨":5739,"cii":5740,"manifest":5741,"Ġitem":5742,"Ġoutput":5743,"ãĢģgateway":5744,"ãĢģè¡ĮæĶ¿":5745,"ï¼Įä¸İå®¢æĪ·åıĬé¡¹çĽ®":5746,"ï¼ĮæľīåĬ©äºİ":5747,"ï¼ĮæĹ¶éĹ´æ¯Ķè¾ĥçģµæ´»":5748,"ï¼ĮåĲĮæĹ¶å°ĨæĮģä¹ħåĮĸ":5749,"ï¼Įéģ¿åħįå®īåħ¨æķıæĦŁ":5750,"ïĤ·LangChain":5751,"replace":5752,"rectness":5753,"ä¸İçľŁå®ŀå·¥ç¨ĭåľºæĻ¯çļĦ":5754,"Ġclamp":5755,"æľįåĬ¡è°ĥçĶ¨å¹¶æıĲåįĩå¾®æľįåĬ¡éĽĨæĪĲåı¯ç»´æĬ¤æĢ§":5756,"Ġfeatures":5757,"Ġinstrumentation":5758,"Ġbug":5759,"æ±ĤèģĮæĸ¹åĲĳ":5760,"coverage":5761,"ï¼ĮåĮħæĭ¬æ¨¡åŀĭæİ¨çĲĨ":5762,"æ°´å¹³æī©å±ķæıĲä¾ĽåŁºç¡Ģ":5763,"ãĢģæķ°æį®å¤ĦçĲĨéĢ»è¾ĳ":5764,"Ġcommitment":5765,"å¹´ä»¥ä¸Ĭå¼Ģåıĳç»ıéªĮ":5766,"Ġschemaä¸İFlyway":5767,"-relative":5768,"/APIèĥ½åĬĽè½¬":5769,"Ġkeep":5770,"Ġé¡¹çĽ®åĪ¶":5771,"ãĢģè¯Ħè®º":5772,"ãĢģå¤±è´¥å¤ĦçĲĨ":5773,"ãĢģçī¹å¾ģåĪĨæŀĲ":5774,"ãĢģåĽŀå½Ĵå½±åĵįåĪĨæŀĲä»¥åıĬ":5775,"ãĢģåĪĨæŀĲä¸İåı¯è§ĨåĮĸ":5776,"ï¼Įåı¯çĶ¨äºİ":5777,"ï¼Įå¤ļæŃ¥æİ¨çĲĨ":5778,"çļĦåħ³ç³»åŀĭåŃĺåĤ¨":5779,"çļĦè¯·æ±Ĥè¿ĩæ»":5780,"æķ°æį®è¿Ľè¡Įå¤ĦçĲĨ":5781,"ĠActuatoråģ¥åº·":5782,"åıĳéĢģéĻĲæµģ":5783,"åįĬä¸»åĬ¨æīĳç¿":5784,"åįłçĶ¨":5785,"lemetry":5786,"åŁ¹è®Ńé¡¹çĽ®":5787,"ä¸Ńå¿ĥåĮĸäº¤äºĴ":5788,"Ġperform":5789,"æģ¶åĮĸ":5790,"ï¼ĪSCI":5791,"åĲİç«¯æķ°æį®ä¸Ģèĩ´æĢ§éĹ®é¢ĺåıĬ":5792,"èĢ¦èĥ½åĬĽ":5793,"æľŁéĹ´åıĬä¹ĭ":5794,"äº¤åıīéªĮè¯ģ":5795,"Ġdetailed":5796,"ï¼Įä½¿åħ¶èĥ½å¤ŁçĲĨè§£è½¯ä»¶ç³»ç»Ł":5797,"å¾®æľįåĬ¡æŀ¶æŀĦèĥ½åĬĽ":5798,"åĮ¹éħįåº¦æľĢé«ĺçļĦ":5799,"ï¼Įä¸ºåĲİç»Ńå·¥ä¸ļ":5800,"åĪĿå§ĭåĮĸ":5801,"Ġvisualization":5802,"++/":5803,"/RediséĽĨæĪĲæµĭè¯ķä»¥åıĬWebSocketåĪĨåıĳæµĭè¯ķ":5804,"/WebSocketè®¡æķ°":5805,"/åĽŀæ»ļä»¥åıĬè¿Ĳç»´åĨħå®¹":5806,"CPUå¯ĨéĽĨåŀĭ":5807,"_batch":5808,"_REFIT":5809,"iented":5810,"¤ä¸İåħ¬å¼Ģ":5811,"Ġ>=":5812,"ĠåĤ¬åĮĸ":5813,"ĠåĲĪåĲĮåĪ¶åħ¨æłĪ":5814,"ä¸ľåºĶæĢ¥ä¸ĵ":5815,"ãĢģdApp":5816,"ãĢģåĪĨæĶ¯":5817,"ãĢģé¡¹çĽ®éħįç½®":5818,"ãĢģä¾Ŀèµĸåı¯è§ģæĢ§":5819,"ãĢģéĩįå¤įä»£çłģå¼ķçĶ¨":5820,"ãĢģå®ŀéªĮå¯¹æ¯Ķ":5821,"ãĢģæĪĲæľ¬æİ§åĪ¶":5822,"ãĢģè·¨éĥ¨éĹ¨":5823,"ãĢģåİ»ä¸Ńå¿ĥåĮĸäº¤äºĴ":5824,"ãĢģæĪĲåĳĺåĪĨéħį":5825,"ãĢģæĬĢæľ¯æĸ¹æ¡Īè®¾è®¡":5826,"ï¼Įä½¿çĶ¨æĪ·åı¯ä»¥":5827,"ï¼Įç»ĵåĲĪåŁºäºİJWT":5828,"ï¼Įæĺİç¡®åŃĺåĤ¨èģĮè´£":5829,"ãĢĤä¸įè¿ĩ":5830,"ç»Ŀå¯¹":5831,"çļĦæķ°æį®åºĵåıĺæĽ´ç®¡çĲĨ":5832,"æķĻèĤ":5833,"ä¸İéªĮè¯ģèĦļæľ¬":5834,"æµ®æłĩé¡¹çĽ®":5835,"Ġcorrectness":5836,"Ġreadiness":5837,"æĶ»è¯»åįļå£«":5838,"æĭ¥æľīWeb":5839,"èĥ½åĬĽä¸İåįıè°ĥèĥ½åĬĽ":5840,"ä¸ĬéĿ¢æĺ¯":5841,"åĻªå£°":5842,"åı¯ä»¥åľ¨ä¸įéĺ»å¡ŀ":5843,"agnation":5844,"çŃīåĬŁèĥ½æ¨¡åĿĹ":5845,"æĽ´åĬłæ¸ħæĻ°":5846,"Ġstrike":5847,"ï¼Įå¹¶ä½¿çĶ¨Recharts":5848,"ï¼Įå¹¶éĢļè¿ĩBearer":5849,"è¾ĵåħ¥ä¸İçĽ®æłĩè¾ĵåĩº":5850,"Ġreproducible":5851,"ï¼ĮèĢĮä¸įæĺ¯ä¸Ģæ¬¡":5852,"å¥ĸåĬ±æ¨¡åŀĭ":5853,"çĿĢéĻĨ":5854,"/metricsæĮĩæłĩæİ¥åı£":5855,"å¯¼èĩ´çļĦè¯¯æĬ¥é£İéĻ©":5856,"è®©æĪĳå¤įåĪ¶":5857,"è£ĤåĮĸ":5858,"ç²¾ç®ĢçīĪ":5859,"Ġcomplex":5860,"éĤ®ä»¶éĢļçŁ¥åĬŁèĥ½":5861,"ĠSecurityå®ŀçİ°è®¤è¯ģ":5862,"æ··åĲĪæ£Ģç´¢":5863,"Ġtracking":5864,"èĻļæĭŁçİ¯å¢ĥ":5865,"ïĤ·Reviewed":5866,"%ï¼īï¼Ľ":5867,"-oriented":5868,".dump":5869,"/PLS":5870,"/æ¨¡åŀĭè¯Ħä¼°":5871,"/ä»ĵåºĵè®¿éĹ®":5872,"/é£İéĻ©é¢ĦèŃ¦å»ºæ¨¡":5873,"/éĩįå¤įä»£çłģåĪĨæŀĲ":5874,"/Informer":5875,"/è®¡è´¹ç®¡çĲĨ":5876,"/æĹ¶åºıé¢Ħæµĭ":5877,"/ç§ģæľīè·¯çĶ±":5878,"/èµĦäº§å±ķç¤ºåıĬäº¤äºĴæµģç¨ĭ":5879,"=False":5880,"Dropout":5881,"Layer":5882,"_ascii":5883,"ource":5884,"ªīä¸İè¯ģä¹¦":5885,"±åĮĸåĵģç®¡çĲĨ":5886,"¶å°¾æ°Ķ":5887,"¸è¡Įä¸ļå®īåħ¨çĽĳç®¡æī§æ³ķèĥ½åĬĽæıĲåįĩ":5888,"¹èĪ¶å°¾æ°Ķ":5889,"¼æİ¨è¿ĽæĢ§èĥ½çłĶç©¶é¡¹çĽ®":5890,"¾æŀĦå»ºMicroMart":5891,"åµĮåħ¥ä¸İæ³¨æĦıåĬĽæľºåĪ¶":5892,"ç£ģçĽĺ":5893,"ĠåĪĨä½įæİ§åĪ¶":5894,"ĠæŀĦå»ºåīįç«¯é¡µéĿ¢":5895,"ĠâĢĶ":5896,"Ġç»´èģļåĲĪçī©è¿ĩç¨ĭéĻįç»´":5897,"ĠçĶ¨æĪ·äº¤äºĴæµģç¨ĭéĹ®é¢ĺ":5898,"ĠçĽĳæİ§åıĬåıĺéĩı":5899,"Ġæį¢çĥŃåĻ¨ç»ĵåŀ¢":5900,"Ġè¿ĩç¨ĭæĸ¹å·®":5901,"ĠæĲŃå»º":5902,"Ġæĸ¹æ¡Īè¯¯æĬ¥çİĩ":5903,"Ġæ·±åº¦åŃ¦ä¹łæĸ¹æ³ķ":5904,"Ġè¶ħéĻĲé¢ĦèŃ¦":5905,"Ġäº§åĵģå¼Ģåıĳæµģç¨ĭ":5906,"ĠéĴ±åĮħè¿ŀæİ¥åıĬåĮºåĿĹéĵ¾äº¤äºĴ":5907,"Ġç©ºéĹ´æĸ¹å·®è§£éĩĬ":5908,"ĠæĹ¶åºıåĪĨæŀĲ":5909,"Ġå¤ļåħĥåĽŀå½ĴçĽĳæİ§æ¨¡åŀĭ":5910,"ĠåİĤéķ¿ç§ĺä¹¦":5911,"Ġè¿Ľè¡Įæķ°æį®é¢Ħå¤ĦçĲĨ":5912,"Ġè¯Ńä¹īæĲľç´¢å·¥ç¨ĭå¸Ī":5913,"Ġæķħéļľæ£Ģæµĭä¸İè¯ĬæĸŃçļĦå®Įæķ´æµģç¨ĭ":5914,"Ġå¥ĹçľŁå®ŀå·¥ä¸ļæķ°æį®éĽĨ":5915,"Ġæ¸©åº¦æķ°æį®å»ºç«ĭ":5916,"ĥæ°Ķé¢ĦèŃ¦":5917,"ıçİ°æľīè¯»åıĸè·¯å¾ĦçļĦæĥħåĨµä¸ĭ":5918,"Ķèĩªæ²»åĮºåºĶæĢ¥ç®¡çĲĨåİħ":5919,"ãĢģåıĳç¥¨":5920,"ãĢģåį±åĮĸåĵģç®¡çĲĨ":5921,"ãĢģåľ¨çº¿æ²ŁéĢļ":5922,"ãĢģåīįåĲİç«¯æķ°æį®ä¸Ģèĩ´æĢ§éĹ®é¢ĺåıĬ":5923,"ãĢģä»£å¸ģ":5924,"ãĢģå®ļæĹ¶ä»»åĬ¡":5925,"ãĢģé«ĺç®¡æĬ¥åĳĬçĶŁæĪĲ":5926,"ãĢģåĬłçĥŃçĤīçŃī":5927,"ãĢģåıĤä¸İèĢħ":5928,"ãĢģAPIæµĭè¯ķ":5929,"ãĢģå·¥ä¸ļçĽĳæµĭæķ°æį®åĪĨæŀĲ":5930,"ãĢģè¿ŀæİ¥å¯¼åĲĳåŀĭåľºæĻ¯":5931,"ãĢģåĽ¢éĺŁè®¾ç½®":5932,"ãĢģè¿ľç¨ĭåįıä½ľ":5933,"ãĢģå®ŀæĹ¶ç³»ç»Ł":5934,"ãĢģæĸŃå¼Ģæ¸ħçĲĨ":5935,"ãĢģåıĺéĩıè´¡çĮ®å®ļä½įåıĬçĽĳæİ§æĸ¹æ¡Ī":5936,"ãĢģçĬ¶æĢģæĮģä¹ħåĮĸ":5937,"ãĢģçĶŁäº§æķ°æį®æķ´çĲĨ":5938,"ãĢģéĴ±åĮħéĽĨæĪĲ":5939,"ãĢģçŁ¥è¯Ĩæ£Ģç´¢":5940,"ãĢģè¯·æ±ĤIDä¸ŃéĹ´ä»¶":5941,"ãĢģéĵ¾ä¸Ĭäº¤äºĴ":5942,"ãĢģé¢ĨåŁŁæľįåĬ¡":5943,"ãĢģæĮīéľĢæĸĩä»¶":5944,"ãĢģåĵįåºĶå¼ıUI":5945,"ãĢģGatewayåıĬåĲĦ":5946,"ãĢģä»£çłģä»ĵåºĵè¿ŀæİ¥":5947,"ãĢģæĮĩæłĩçĽĳæİ§":5948,"ãĢģåĲ¯åĬ¨è¿ģç§»æī§è¡Į":5949,"ãĢģå¹¶åıĳå®īåħ¨è®¾è®¡":5950,"ãĢģå·¥ä¸ļå®īåħ¨æĻºèĥ½åĮĸ":5951,"ãĢģå·¥ä½ľæµģèĩªåĬ¨åĮĸ":5952,"ãĢģåĽ¢éĺŁç®¡çĲĨä»¥åıĬåīįç«¯":5953,"ãĢģåīįç«¯é¡µéĿ¢å¼Ģåıĳ":5954,"ãĢģç»ĵæŀĦåĮĸè®¿éĹ®æĹ¥å¿Ĺ":5955,"ãĢģå¹¿æĴŃæ¶Īæģ¯ä»¥åıĬæĪ¿éĹ´":5956,"ãĢģè§Ĵèī²å±Ĥçº§":5957,"ãĢģæĬĢæľ¯æĸĩæ¡£åıĬè·¨":5958,"ãĢģç§ģèģĬ":5959,"ãĢģåıĺæĽ´æĸĩä»¶éĩįæī«":5960,"ãĢģæĶ¯ä»ĺäºĭä»¶å¤ĦçĲĨä»¥åıĬåŁºäºİ":5961,"ãĢģäº¤æĺĵè®°å½ķåıĬä¸ļåĬ¡éĢ»è¾ĳ":5962,"ãĢģç½ĳåħ³è·¯çĶ±":5963,"ãĢģéľĢæ±ĤçĲĨè§£èĥ½åĬĽä¸İåįıè°ĥèĥ½åĬĽ":5964,"ãĢģçĵ¦æĸ¯æµĵåº¦é¢Ħæµĭ":5965,"ãĢģåĮºåĿĹéĵ¾äº¤äºĴä»¥åıĬ":5966,"ãĢģç«ŀæĢģæ£Ģæµĭ":5967,"ãĢģæıĲç¤ºè¯įå·¥ç¨ĭ":5968,"ãĢģè¯Ńä¹īçº§ä»£çłģéĹ®çŃĶä»¥åıĬåĽ¢éĺŁ":5969,"ãĢģæĹłæķĪJSONä¿®å¤įä»¥åıĬAIçĶŁæĪĲ":5970,"ãĢģè¿Ńä»£äº¤ä»ĺåıĬåŁºäºİ":5971,"ãĢģnpm":5972,"ãĢģè®¾å¤ĩé¢ĦèŃ¦åıĬèĥ½æºĲ":5973,"ãĢģä»·æł¼ä¸İæĶ¯ä»ĺ":5974,"ãĢģç¬¬ä¸īæĸ¹APIéĽĨæĪĲ":5975,"ãĢģçĩĥæ°Ķé¢ĦèŃ¦":5976,"åı¬åĽŀçİĩ":5977,"ï¼ĮåĪĨæŀĲPull":5978,"ï¼Įæĸĩæ¡£æĻºèĥ½":5979,"ï¼ĮåıĤä¸İå¤ļä¸ªè¿ľç¨ĭè½¯ä»¶å¼Ģåıĳ":5980,"ï¼ĮScikit":5981,"ï¼Įå®ĮæĪĲæķħéļľæ£Ģæµĭä¸İè´¡çĮ®":5982,"ï¼Įæī«æııæºĲä»£çłģ":5983,"ï¼Įå½±åĵįåĽłåŃĲ":5984,"ï¼Įè¯ĨåĪ«æĸĩä»¶ç±»åŀĭ":5985,"ï¼ĮCUSUM":5986,"ï¼ĮçłĶç©¶æĸ¹åĲĳåĮħæĭ¬å·¥ä¸ļäººå·¥æĻºèĥ½":5987,"ï¼Įåħ·å¤ĩç½ķè§ģ":5988,"ï¼Įè¿½è¸ªä»£çłģå½±åĵį":5989,"ï¼Įå·¥åħ·è°ĥçĶ¨":5990,"ï¼Įåľ¨ä¸įçł´åĿ":5991,"ï¼ĮçĨŁæĤīå·¥ä¸ļè¿Ĳè¡Į":5992,"ï¼ĮæıĲåıĸåĩ½æķ°":5993,"ï¼Įå¢ŀå¼ºé¢ĨåŁŁéĢ»è¾ĳä¸İéĢļçŁ¥":5994,"ï¼ĮMATLAB":5995,"ï¼ĮPromptå·¥ç¨ĭ":5996,"ï¼Įå½¢æĪĲåı¯å¤įçĶ¨çļĦ":5997,"ï¼ĮæľŁå¾ħè¿Ľä¸ĢæŃ¥æ²ŁéĢļ":5998,"ãĢĤç³»ç»Łåı¯è¿ŀæİ¥":5999,"ãĢĤæĽ¾æŀĦå»ºMicroMart":6000,"ãĢĤçĲĨè§£çĶŁäº§çº§AIç³»ç»Ł":6001,"ãĢĤèĥ½å¤Łå°ĨAIæĥ³":6002,"ãĢĤåĲĮæĹ¶æĭ¥æľīWeb":6003,"ãĢĤçĽ®åīįåľ¨æĸ°çĸĨå¤§åŃ¦":6004,"çļĦAIä½¿çĶ¨æİ§åĪ¶":6005,"çļĦæľ¬åľ°äºĮè¿ĽåĪ¶åŃĺåĤ¨":6006,"çļĦç»¼åĲĪèĥ½åĬĽç»ĦåĲĪ":6007,"ïĤ·å¯¹å®ŀéªĮä¸İä»¿çľŁ":6008,"ïĤ·å®īåħ¨æĻºèĥ½":6009,"ïĤ·å¤ĦçĲĨæĹ¶åºıèĩªçĽ¸åħ³":6010,"ïĤ·æıĲåįĩæĸĩæ¡£èĥ½åĬĽ":6011,"ïĤ·å·¥ä¸ļAI":6012,"ïĤ·è¾ĵåĩºåı¯è§ĨåĮĸåĪĨæŀĲæĪĲæŀľ":6013,"ïĤ·æł¹æį®é¡¹çĽ®éľĢæ±Ĥ":6014,"ïĤ·è´Łè´£ä¼ļè®®":6015,"ïĤ·æĹ¶ç©ºé¢Ħæµĭ":6016,"ïĤ·å¼Ģå±ķå¤ļåħĥ":6017,"ïĤ·ä¸ŃåĽ½çŁ³æ²¹ä¼ĺç§Ģåħ±":6018,"ïĤ·èĩªæ²»åĮºåįļå£«çłĶç©¶çĶŁåŃ¦ä¸ļå¥ĸåŃ¦éĩĳ":6019,"ïĤ·ç§¯ç´¯äºĨå®īåħ¨çĽĳæµĭ":6020,"ïĤ·Worked":6021,"ï¼ĽéĩıåĮĸçĽĳæİ§æĢ§èĥ½":6022,"reelance":6023,"æķ°æĹ¶éĹ´å¯Ĩçłģæł¡éªĮ":6024,"ä¸İé¡¹çĽ®æĸĩæ¡£":6025,"ä¸İRedisçļĦå¼ĤæŃ¥ä»ĵåºĵæī«æıı":6026,"ä¸İåĽŀçŃĶåĪĨçīĩ":6027,"ä¸İçĻ»å½ķè®¤è¯ģ":6028,"ä¸İåĽ¢éĺŁç®¡çĲĨåĬŁèĥ½":6029,"ä¸İä¸Ĭçº¿é£İéĻ©è¯Ħä¼°èĥ½åĬĽ":6030,"ä¸İä¸ļåĬ¡æľįåĬ¡åĪĨç¦»":6031,"ä¸İGORMæĮģä¹ħåĮĸèģĬå¤©æķ°æį®":6032,"ä¸İå¤©çĦ¶æ°Ķå·¥ç¨ĭ":6033,"ä¸İèģĶç³»äººåĪĹè¡¨":6034,"æµªé©±åĬ¨åīĸéĿ¢":6035,"ï¼ļä»ĵåºĵæķ°æį®æİ¥åħ¥":6036,"ï¼ļä»ħçĶ¨":6037,"ï¼ļçŁ³æ²¹ä¸İå¤©çĦ¶æ°Ķå·¥ç¨ĭ":6038,"ï¼ļä¸įä»ħä»ħæŀĦå»ºè°ĥçĶ¨":6039,"ï¼ļå·¥èīºå·¥ç¨ĭå¸Ī":6040,"å·¥åĨµä¸ĭ":6041,"åı¯çĶ¨çļĦè½¯ä»¶äº§åĵģ":6042,"åŀĥåľ¾":6043,"ĠAssurance":6044,"åĮĸä¸ºåı¯çĶ¨çļĦè½¯ä»¶äº§åĵģ":6045,"åĮĸä¸İåı¯å¤įçİ°çļĦæķ°æį®åºĵåıĺæĽ´ç®¡çĲĨ":6046,"å®ŀæĸ½æİ§åĪ¶åĽ¾çĽĳæİ§":6047,"æĢ§ä¸İéĥ¨ç½²åı¯ç»´æĬ¤æĢ§":6048,"ä¸Ńä½įæķ°":6049,"åŁºéĩĳåįĬä¸»åĬ¨æīĳç¿":6050,"ä»¥åıĬå·¥ç¨ĭåĪĨæŀĲåı¯è§ĨåĮĸ":6051,"ä»¥åıĬå¤±è´¥æĹ¥å¿Ĺè®°å½ķ":6052,"ä»¥åıĬæľ¬åľ°éĥ¨ç½²éªĮè¯ģèĥ½åĬĽ":6053,"ä»¥åıĬåĮºåĿĹéĵ¾æķ°æį®éĽĨæĪĲ":6054,"ä»¥åıĬå·¥ä¸ļäººå·¥æĻºèĥ½çłĶç©¶":6055,"ä»¥åıĬè®¿éĹ®æİ§åĪ¶çĽ¸åħ³åĲİç«¯éĢ»è¾ĳ":6056,"Ġreducing":6057,"ç«¯Javaå¾®æľįåĬ¡æŀ¶æŀĦèĥ½åĬĽ":6058,"åľ¨LLMåºĶçĶ¨å·¥ç¨ĭæĸ¹éĿ¢":6059,"åľ¨ç½ĳé¡µ":6060,"åľ¨åĲİç«¯æŀ¶æŀĦæĸ¹éĿ¢åħ·å¤ĩè¾ĥå¼º":6061,"åľ¨äºİè¿ŀæİ¥AIä¸İå·¥ç¨ĭ":6062,"AIçļĦå®Įæķ´äº§åĵģå·¥ç¨ĭèĥ½åĬĽ":6063,"AIé©±åĬ¨çļĦä»£çłģæĻºèĥ½å¹³åı°":6064,"ĠShewhart":6065,"æľįåĬ¡è¿Ľè¡Įå®¹åĻ¨åĮĸ":6066,"æľįåĬ¡çĽ´æİ¥æļ´éľ²å¹¶æıĲåįĩAPIè®¿éĹ®æİ§åĪ¶":6067,"æľįåĬ¡çĭ¬ç«ĭçļĦPostgreSQL":6068,"Ġprediction":6069,"ä½ľåĵģéĽĨ":6070,"åĪĨæŀĲæºĲä»£çłģæĸĩä»¶":6071,"Ġfailure":6072,"é¡¹æ³¢æµªé©±åĬ¨åīĸéĿ¢":6073,"éĿĴåĽ¢åĳĺ":6074,"å¹¶åŃĺåĤ¨èĩ³PostgreSQL":6075,"å¯¹æīĢæľīæľįåĬ¡è¿Ľè¡Įå®¹åĻ¨åĮĸ":6076,"å·¥ç¨ĭæĢĿç»´ä¸İä¸Ĭçº¿é£İéĻ©è¯Ħä¼°èĥ½åĬĽ":6077,"ä»£çłģå®ŀçİ°å±ĤéĿ¢çļĦç³»ç»ŁæĢ§":6078,"ç®¡çĲĨæĸĩæ¡£å·¥ä½ľ":6079,"ĠAIåºĶçĶ¨å·¥ç¨ĭå¸Ī":6080,"ĠAIé©±åĬ¨ä»£çłģæĻºèĥ½å¹³åı°":6081,"ĠAIä»£çłģæĻºèĥ½å·¥ç¨ĭå¸Ī":6082,"ç³»ç»Łå»ºè®¾æķĪæŀľè¯Ħä¼°æĬ¥åĳĬé¡¹çĽ®":6083,"é£İéĻ©å¹¶ä¿ĿæĬ¤è®¤è¯ģä¸İå®ŀæĹ¶éĢļä¿¡":6084,"çłĶç©¶æīĢéĺ²çģ«æľįçģ«çģ¾æ¨¡æĭŁçłĶç©¶":6085,"éħįé¢ĿçļĦAIä½¿çĶ¨æİ§åĪ¶":6086,"ï¼īä½ĵç³»åĨħå®¡":6087,"ï¼īä»¥åıĬæĿ¥èĩªä¸ŃåĽ½çŁ³æ²¹çļĦå·¥ä¸ļå®īåħ¨":6088,"ï¼Īä¸ªäººå®ŀæĪĺé¡¹çĽ®":6089,"ï¼Īç´¯è®¡æĸ¹å·®":6090,"ï¼ĪæĽĿæ°Ķæ±ł":6091,"RedisçĬ¶æĢģè¿ģç§»èĩ³åı¯å®¡è®¡":6092,"åĲİç«¯è¿Ľç¨ĭä»įåı¯æŃ£å¸¸":6093,"ĠAPIçļĦdemo":6094,"æķ°æį®åºĵè¿ģç§»èĦļæľ¬":6095,"Dockerfileå¯¹æīĢæľīæľįåĬ¡è¿Ľè¡Įå®¹åĻ¨åĮĸ":6096,"æŀĦå»ºå®ŀæĹ¶èģĬå¤©åĲİç«¯":6097,"æŀĦå»ºHikaflowä½ľä¸ºåħ¨æłĪAI":6098,"æıĲåįĩè®¤è¯ģä¸Ģèĩ´æĢ§ä¸İéĥ¨ç½²åı¯éħįç½®":6099,"æıĲåįĩç³»ç»Łè¿Ĳè¡Įåı¯è§ĤæµĭæĢ§ä¸İéĹ®é¢ĺ":6100,"æİ§åĪ¶ä¸İåıĳå¸ĥåı¯éĿłæĢ§":6101,"ï¼ĮåĮħæĭ¬åĽ¢éĺŁåĪĽå»º":6102,"ï¼ĮåĮħæĭ¬WebSocketè¿ŀæİ¥çĶŁåĳ½åĳ¨æľŁç®¡çĲĨ":6103,"ï¼ĮåĮħæĭ¬éĴ±åĮħçĻ»å½ķ":6104,"ï¼ĮåĮħæĭ¬å®¢æĪ·ç«¯æ³¨åĨĮ":6105,"ï¼ĮåĮħæĭ¬ä»£çłģæ¦Ĥè§ĪçĶŁæĪĲ":6106,"åıĤæķ°é«ĺæķĪå¾®è°ĥ":6107,"æ³ķä»İæ¨¡åŀĭ":6108,"å·¥ä¸ļè¿ĩç¨ĭç»Łè®¡çĽĳæİ§ä¸İæķħéļľæ£Ģæµĭ":6109,"ï¼Įå¹¶ä¿®å¤įAIçĶŁæĪĲçļĦæĹłæķĪJSON":6110,"ï¼Įå¹¶ä¿Ŀè¯ģåĲĦæ¨¡åĿĹåı¯çĭ¬ç«ĭ":6111,"ï¼Įå¹¶çĶŁæĪĲåĽ¢éĺŁçº§å·¥ç¨ĭæĬ¥åĳĬ":6112,"æ¶Īéĺ²çłĶç©¶æīĢéĺ²çģ«æľįçģ«çģ¾æ¨¡æĭŁçłĶç©¶":6113,"ä¸»è¯·æ±Ĥè·¯å¾ĦçļĦæĥħåĨµä¸ĭåıĳå¸ĥäºĭä»¶":6114,"æĻºèĥ½åĨ³çŃĸæĶ¯æĮģ":6115,"çº§æķħéļľéļĶç¦»":6116,"ïĤ·åıĤä¸İå¹¿ä¸ľåºĶæĢ¥ä¸ĵ":6117,"ïĤ·åıĤä¸İçŁ³æ²¹åĮĸå·¥çĶŁäº§ä¸İå·¥èīº":6118,"ïĤ·åıĤä¸İå¤©æ´¥æµ·ä¸ĬèĪ":6119,"ïĤ·åıĤä¸İå·¥èīºçĽĳæµĭ":6120,"ïĤ·åıĤä¸İåĽ½å®¶èĩªçĦ¶ç§ĳåŃ¦":6121,"ïĤ·åıĤä¸İè½¯ä»¶äº¤ä»ĺåħ¨æµģç¨ĭ":6122,"ïĤ·åıĤä¸İå·¥è´¸è¡Įä¸ļå®īåħ¨çĽĳç®¡æī§æ³ķèĥ½åĬĽæıĲåįĩ":6123,"ïĤ·åıĤä¸İè°ĥè¯ķéĴ±åĮħäº¤äºĴéĹ®é¢ĺ":6124,"éĻĲäºİç®ĢåįķAPIè°ĥçĶ¨":6125,"è¿ŀæİ¥åĪ°ä¸įåĲĮåĲİç«¯è¿Ľç¨ĭä»įåı¯æŃ£å¸¸":6126,"ï¼Įä¸įå±ĢéĻĲäºİç®ĢåįķAPIè°ĥçĶ¨":6127,"è®¤è¯ģçļĦWebSocketè¿ŀæİ¥çĶŁåĳ½åĳ¨æľŁç®¡çĲĨ":6128,"åĽ¢éĺŁåįıä½ľç»ıéªĮ":6129,"åĽ¢éĺŁå¼Ģå±ķè¿ľç¨ĭåĲĪä½ľ":6130,"çİ¯å¢ĥä¹ĭéĹ´çļĦä¸Ģèĩ´æĢ§":6131,"çİ¯å¢ĥæķ°æį®çļĦåĬ¨æĢģåħ³ç³»":6132,"ïĤ·ä½¿çĶ¨PostgreSQLä¸İGORMæĮģä¹ħåĮĸèģĬå¤©æķ°æį®":6133,"ïĤ·ä½¿çĶ¨Zustandè¿Ľè¡Įåīįç«¯":6134,"ïĤ·ä½¿çĶ¨OpenFeignå®ŀçİ°æľįåĬ¡éĹ´éĢļä¿¡":6135,"ïĤ·ä½¿çĶ¨Eurekaå®ŀçİ°æľįåĬ¡åıĳçİ°":6136,"ïĤ·ä½¿çĶ¨å¤ļéĺ¶æ®µDockerfileå¯¹æīĢæľīæľįåĬ¡è¿Ľè¡Įå®¹åĻ¨åĮĸ":6137,"ollabor":6138,"åħ¨æłĪä¸ļåĬ¡åºĶçĶ¨":6139,"åħ¨æłĪäº¤ä»ĺèĥ½åĬĽ":6140,"ä»İä¸´æĹ¶RedisçĬ¶æĢģè¿ģç§»èĩ³åı¯å®¡è®¡":6141,"æ¶Īæģ¯å½Ĵå±ŀéĢĲæŃ¥è¿ģç§»èĩ³PostgreSQL":6142,"ä¸ŃçļĦç«ŀæĢģé£İéĻ©":6143,"ä¸ŃçļĦGoåĲİç«¯å¼Ģåıĳèĥ½åĬĽ":6144,"éĺ²æİ§ä½ĵç³»çļĦçĲĨè§£":6145,"éļľç¢į":6146,"ĠBootå¾®æľįåĬ¡åıĤèĢĥå¹³åı°":6147,"ï¼Įä½¿æľįåĬ¡è¾¹çķĮæĽ´åĬłæ¸ħæĻ°":6148,"ï¼Įä½¿ä¸ļåĬ¡æľįåĬ¡åı¯ä»¥åľ¨ä¸įéĺ»å¡ŀ":6149,"ĠComposeåģ¥åº·æ£ĢæŁ¥æľºåĪ¶":6150,"ĠComposeéħįç½®ä»¥åıĬSwagger":6151,"elief":6152,"çĽĳæµĭçĽĳç®¡ç³»ç»Łå»ºè®¾æķĪæŀľè¯Ħä¼°æĬ¥åĳĬé¡¹çĽ®":6153,"æł¸å¿ĥä»·åĢ¼åľ¨äºİè¿ŀæİ¥AIä¸İå·¥ç¨ĭ":6154,"ï¼ĮæĶ¯æĮģåı¯éħįç½®tokenå¯ĨéĴ¥ä¸İ":6155,"ï¼ĮæĶ¯æĮģéĺ²æĬ¤æĢ§èĥ½è¯Ħä¼°":6156,"ï¼ĮæĶ¯æĮģæĸĩä»¶åħĥæķ°æį®æĮģä¹ħåĮĸä¸İåı¯éħįç½®":6157,"ï¼ĮæĶ¯æĮģè¯Ńä¹īçº§ä»£çłģåºĵéĹ®çŃĶ":6158,"ï¼ĮæĶ¯æĮģå¤ļç§įå®ŀæĹ¶éĢļä¿¡æ¨¡å¼ı":6159,"ï¼ĮæĶ¯æĮģåħ¨éĩıæī«æıı":6160,"æ²ŁéĢļåıĬçĶŁäº§ç®¡çĲĨæĸĩæ¡£å·¥ä½ľ":6161,"ï¼Įä»¥æıĲåįĩå¤įæĿĤé¢ĦæµĭæĢ§èĥ½":6162,"ï¼ĮçĶ¨äºİä»£çłģä»ĵåºĵåĪĨæŀĲ":6163,"ï¼ĮçĶ¨äºİå®ŀæĹ¶AIå¤ĦçĲĨè¿Ľåº¦æİ¨éĢģ":6164,"gramming":6165,"ãĢģRedisä¸İPostgreSQLæŀĦå»ºå®ŀæĹ¶èģĬå¤©åĲİç«¯":6166,"ï¼Įè¦ĨçĽĸä»£çłģæł¼å¼ıæ£ĢæŁ¥":6167,"ï¼Įè¦ĨçĽĸä»İåįķåıĺéĩıæİ§åĪ¶åĽ¾åĪ°å¤ļåħĥ":6168,"ïĤ·å®ŀçİ°ç»Ħç»ĩä¸İåĽ¢éĺŁç®¡çĲĨåĬŁèĥ½":6169,"ïĤ·å®ŀçİ°è¯Ńä¹īçº§ä»£çłģä»ĵåºĵéĹ®çŃĶç³»ç»Ł":6170,"ïĤ·å®ŀçİ°ç»ıè¿ĩè®¤è¯ģçļĦWebSocketè¿ŀæİ¥çĶŁåĳ½åĳ¨æľŁç®¡çĲĨ":6171,"ïĤ·å®ŀçİ°çĶ¨æĪ·æ³¨åĨĮä¸İçĻ»å½ķè®¤è¯ģ":6172,"ïĤ·å®ŀçİ°GitHubä¸İBitbucketä»£çłģä»ĵåºĵéĽĨæĪĲ":6173,"ïĤ·çłĶç©¶æĪĲæŀľéĢĤçĶ¨äºİæĻºæħ§åŁİå¸":6174,"ïĤ·çłĶç©¶æĸ¹åĲĳéĢĤçĶ¨äºİå·¥ä¸ļå®īåħ¨çĽĳæµĭ":6175,"ïĤ·æŀĦå»ºPRåĪĨæŀĲä¸İæĬ¥åĳĬçĶŁæĪĲæµģç¨ĭ":6176,"ïĤ·æŀĦå»ºåįķåıĺéĩıçĽĳæİ§æĸ¹æ¡Ī":6177,"ïĤ·æŀĦå»ºåŁºäºİBullMQä¸İRedisçļĦå¼ĤæŃ¥ä»ĵåºĵæī«æıı":6178,"Ġä¸ªåı¯å¤įçİ°åĪĨæŀĲ":6179,"Ġä¸ªæ½ľåıĺéĩı":6180,"ãĢģæķ°æį®åĪĨæŀĲä»¥åıĬæĻºèĥ½åĨ³çŃĸæĶ¯æĮģ":6181,"ãĢģå®īåħ¨é£İéĻ©æİ§åĪ¶åıĬçĶŁäº§æķ°æį®ç®¡çĲĨ":6182,"ãĢģå®īåħ¨åĬłåĽºä»¥åıĬè¿Ĳç»´åı¯è§ĤæµĭæĢ§":6183,"æľ¬åľ°åĲ¯åĬ¨ä¸İåı¯å¤įçİ°éĽĨæĪĲæµĭè¯ķ":6184,"ï¼Įå®ŀçİ°åĲĳéĩıæ£Ģç´¢çĽ¸åħ³ä»£çłģä¸Ĭä¸ĭæĸĩ":6185,"ï¼Įå®ŀçİ°çīĪæľ¬åĮĸä¸İåı¯å¤įçİ°çļĦæķ°æį®åºĵåıĺæĽ´ç®¡çĲĨ":6186,"ï¼Įå®ŀçİ°ç»ĵåŀ¢å·¥åĨµä¸ĭ":6187,"ï¼Įå®ŀçİ°ä¸ĢéĶ®æľ¬åľ°åĲ¯åĬ¨ä¸İåı¯å¤įçİ°éĽĨæĪĲæµĭè¯ķ":6188,"ï¼Įå®ŀçİ°è¿ĩç¨ĭå¼Ĥå¸¸è¯ĨåĪ«":6189,"ï¼ĮæıĲåįĩéķ¿æĹ¶éĹ´ä»ĵåºĵåĪĨæŀĲçļĦçĶ¨æĪ·ä½ĵéªĮ":6190,"ï¼ĮæıĲåįĩæľįåĬ¡åĲ¯åĬ¨é¡ºåºıæİ§åĪ¶":6191,"ï¼ĮæıĲåįĩçİ¯å¢ĥåı¯å¤įçİ°æĢ§ä¸İéĥ¨ç½²åı¯ç»´æĬ¤æĢ§":6192,"ï¼ĮæıĲåįĩæľ¬åľ°ä¸İéĥ¨ç½²çİ¯å¢ĥä¹ĭéĹ´çļĦä¸Ģèĩ´æĢ§":6193,"ïĤ·åŁºäºİç®Ĺæ³ķå»ºæ¨¡ä¸İä»¿çľŁ":6194,"ïĤ·åŁºäºİæĹ¶ç©ºåµĮåħ¥ä¸İæ³¨æĦıåĬĽæľºåĪ¶":6195,"ïĤ·è®¾è®¡åĲĦæľįåĬ¡çĭ¬ç«ĭçļĦPostgreSQL":6196,"ïĤ·è®¾è®¡AIä»£çłģåĪĨæŀĲæµģç¨ĭ":6197,"è·¯å¾ĦçĶ¨äºİèģĬå¤©åİĨåı²ä¸İèģĶç³»äººåĪĹè¡¨":6198,"åıĺåĮĸä¸İçĪĨçĤ¸é£İéĻ©é¢ĦèŃ¦éĹ®é¢ĺ":6199,"ï¼ĮåĮħåĲ«å®ļä»·æĸ¹æ¡Ī":6200,"ãĢģé£İéĻ©è¯ĨåĪ«åıĬæĬĢæľ¯æĸĩæ¡£ç¼ĸåĨĻ":6201,"ãĢģçĶ¨æĪ·èµĦäº§å±ķç¤ºåıĬäº¤æĺĵçĽ¸åħ³æµģç¨ĭ":6202,"ï¼Įä¸ºå¤ļå®ŀä¾ĭæ°´å¹³æī©å±ķæıĲä¾ĽåŁºç¡Ģ":6203,"è®¡è´¹ä¸İè®¢éĺħç³»ç»Ł":6204,"Ġbackground":6205,"åħ·å¤ĩå®Įæķ´çļĦåħ¨æłĪäº¤ä»ĺèĥ½åĬĽ":6206,"/SubçļĦWebSocketæ¶Īæģ¯åĪĨåıĳæľºåĪ¶":6207,"ĠUniversity":6208,"ãĢģåĲİç«¯æľįåĬ¡ä»¥åıĬåħ¨æłĪä¸ļåĬ¡åºĶçĶ¨":6209,"ï¼ĮéĢļè¿ĩçĶŁæĪĲembeddingå¹¶åŃĺåĤ¨èĩ³PostgreSQL":6210,"ï¼Įè¿Ļæĺ¯ä¸Ģä¸ªAIé©±åĬ¨çļĦä»£çłģæĻºèĥ½å¹³åı°":6211,"/OpenAIåħ¼å®¹æ¨¡åŀĭéĽĨæĪĲ":6212,"ãĢģæĸĩä»¶ä¸Ĭä¼łä»¥åıĬ":6213,"ãĢģå¼ĤæŃ¥äºĭä»¶éĢļä¿¡":6214,"å¹¶åıĳæİ§åĪ¶éĶģæľºåĪ¶":6215,"æĸ°çĸĨç»´åĲ¾å°Ķèĩªæ²»åĮºåºĶæĢ¥ç®¡çĲĨåİħ":6216,"ĠçĽ¸åħ³ä¸ļåĬ¡éĢ»è¾ĳä»¥åıĬåĮºåĿĹéĵ¾æķ°æį®éĽĨæĪĲ":6217,"ĠGatewayä½ľä¸ºç»Łä¸Ģå¤ĸéĥ¨åħ¥åı£":6218,"ãĢģä»ĵåºĵç»ĳå®ļä»¥åıĬè®¿éĹ®æİ§åĪ¶çĽ¸åħ³åĲİç«¯éĢ»è¾ĳ":6219,"ãĢģéĥ¨ç½²ä»¥åıĬè¿Ĳç»´æĢĿç»´":6220,"ãĢģéĥ¨ç½²æĶ¯æĮģä»¥åıĬåĲİæľŁç»´æĬ¤":6221,"ï¼ĮåŁºäºİæ®ĭå·®å®ŀæĸ½æİ§åĪ¶åĽ¾çĽĳæİ§":6222,"ï¼ĮåŁºäºİDeepSeekä¸İGeminiåĪĨæŀĲæºĲä»£çłģæĸĩä»¶":6223,"ï¼ĮçĶŁæĪĲç»ĵæŀĦåĮĸæĸĩä»¶æĸĩæ¡£":6224,"ï¼Įæ¶īåıĬéĴ±åĮħè¿ŀæİ¥":6225,"ï¼ĮéĻįä½İèĩªçĽ¸åħ³å¯¼èĩ´çļĦè¯¯æĬ¥é£İéĻ©":6226,"ï¼ĮéĻįä½İå®ŀæĹ¶æ¶Īæģ¯ä¼łéĢĴä¸ŃçļĦç«ŀæĢģé£İéĻ©":6227,"ï¼ĮéĻįä½İæ»¥çĶ¨é£İéĻ©å¹¶ä¿ĿæĬ¤è®¤è¯ģä¸İå®ŀæĹ¶éĢļä¿¡":6228,"ïĤ·æ·»åĬłRedisåħ¼å®¹è·¯å¾ĦçĶ¨äºİèģĬå¤©åİĨåı²ä¸İèģĶç³»äººåĪĹè¡¨":6229,"å¼Ģå±ķç©ºæ°Ķè´¨éĩıé¢ĦæµĭçłĶç©¶":6230,"ä»¥åıĬåŁºäºİçĶ¨æĪ·çļĦWebSocketæ¶Īæģ¯åıĳéĢģéĻĲæµģ":6231,"å·¥ç¨ĭèĥ½åĬĽçļĦæł¸å¿ĥè¯ģæĺİ":6232,"Ġtokenä¸ŃéĹ´ä»¶æıĲåįĩè®¤è¯ģä¸Ģèĩ´æĢ§ä¸İéĥ¨ç½²åı¯éħįç½®":6233,"åĿĩåĢ¼æ¼Ĥç§»åľºæĻ¯ä¸ĭçļĦæ£Ģåĩº":6234,"ïĤ·çłĶç©¶çĶŁåĽ½å®¶å¥ĸåŃ¦éĩĳ":6235,"ä¸ŃåĽ½çŁ³æ²¹ä¹Įé²ģæľ¨é½ĲçŁ³åĮĸåħ¬åı¸":6236,"Ġasynchronous":6237,"ïĤ·éĽĨæĪĲStripeè®¡è´¹ä¸İè®¢éĺħç³»ç»Ł":6238,"ïĤ·éĽĨæĪĲåŁºäºİKafkaçļĦå¼ĤæŃ¥éĢļçŁ¥æµģç¨ĭ":6239,"ï¼Įå¹¶æĶ¯æĮģéĥ¨ç½²ä¸İè¿Ĳç»´èĲ½åľ°":6240,"ï¼Įå¹¶æĶ¯æĮģæµģå¼ıAIåĽŀçŃĶè¾ĵåĩº":6241,"ï¼ĮèĢĮæĺ¯è®¾è®¡å®Įæķ´ç³»ç»Ł":6242,"ĠçŃīåı¯è§ĨåĮĸåºĵå¼Ģåıĳåīįç«¯çķĮéĿ¢":6243,"ï¼Įåĩıå°ĳåĨħéĥ¨æľįåĬ¡çĽ´æİ¥æļ´éľ²å¹¶æıĲåįĩAPIè®¿éĹ®æİ§åĪ¶":6244,"ï¼Įåĩıå°ĳç¡¬ç¼ĸçłģæľįåĬ¡è°ĥçĶ¨å¹¶æıĲåįĩå¾®æľįåĬ¡éĽĨæĪĲåı¯ç»´æĬ¤æĢ§":6245,"åįıè°ĥåıĬçĽ¸åħ³åĬŀåħ¬å®¤å·¥ä½ľ":6246,"Ġä¸Ńç§ĳéĻ¢äºĮåĮºè®ºæĸĩ":6247,"ï¼Įå°Ĩæĸĩä»¶åħĥæķ°æį®ä¸İä¸ļåĬ¡æľįåĬ¡åĪĨç¦»":6248,"ï¼Įå°Ĩåħ³éĶ®èģĬå¤©åİĨåı²ä»İä¸´æĹ¶RedisçĬ¶æĢģè¿ģç§»èĩ³åı¯å®¡è®¡":6249,"ï¼ĮæıĲé«ĺå·¥ç¨ĭè´¨éĩıæİ§åĪ¶ä¸İåıĳå¸ĥåı¯éĿłæĢ§":6250,"ï¼Įè¿ĺä½ĵçİ°äºĨåĽ´ç»ķAIçļĦå®Įæķ´äº§åĵģå·¥ç¨ĭèĥ½åĬĽ":6251,"æĬķéĢĴçļĦè§£èĢ¦èĥ½åĬĽ":6252,"/EChartsé£İæł¼ç»Ħä»¶å®ŀçİ°æĮĩæłĩ":6253,"/æ³¨åĨĮæİ¥åı£çļĦéĻĲæµģæľºåĪ¶ä»¥åıĬåŁºäºİçĶ¨æĪ·çļĦWebSocketæ¶Īæģ¯åıĳéĢģéĻĲæµģ":6254,"/å°±ç»ªæ£ĢæŁ¥ç«¯çĤ¹ä»¥åıĬDocker":6255,"èį£èªīä¸İè¯ģä¹¦":6256,"ãĢģä»£çłģè¯¦æĥħ":6257,"ãĢģå¤ļåľ°çĤ¹çİ¯å¢ĥæķ°æį®çļĦåĬ¨æĢģåħ³ç³»":6258,"ãĢģçİ¯å¢ĥé©±åĬ¨éħįç½®ä»¥åıĬçĶŁäº§çº§ç³»ç»ŁæĦıè¯Ĩ":6259,"ãĢģæ¶Īæģ¯ä»¥åıĬæ¶Īæģ¯æĬķéĢĴè®°å½ķ":6260,"ãĢģæī«æııçĬ¶æĢģè¿½è¸ªä»¥åıĬå¤±è´¥æĹ¥å¿Ĺè®°å½ķ":6261,"ãĢģå½±åĵįè¶ĭåĬ¿ä»¥åıĬå·¥ç¨ĭåĪĨæŀĲåı¯è§ĨåĮĸ":6262,"ãĢģéĢļçŁ¥æľįåĬ¡ä»¥åıĬæĸĩä»¶åŃĺåĤ¨æľįåĬ¡":6263,"ãĢģéĢļçŁ¥åıĬæĸĩä»¶åŃĺåĤ¨å»ºç«ĭæķ°æį®å½Ĵå±ŀ":6264,"ãĢģåºĶæĢ¥ç®¡çĲĨåıĬé£İéĻ©éĺ²æİ§ä½ĵç³»çļĦçĲĨè§£":6265,"ãĢģè®¡è´¹ä»¥åıĬWebhookçŃīåĬŁèĥ½æ¨¡åĿĹ":6266,"ãĢģçŁ³åĮĸçŃīæµģç¨ĭå·¥ä¸ļåľºæĻ¯":6267,"ãĢģåı¯è§ĤæµĭæĢ§ä»¥åıĬç¨³å®ļçļĦè½¯ä»¶æŀ¶æŀĦ":6268,"ãĢģæĹ¶éĹ´åºıåĪĹé¢Ħæµĭå¹³åı°åıĬæķ°æį®æĻºèĥ½ç³»ç»Ł":6269,"ãĢģcommitåħ³èģĶåĪĨæŀĲ":6270,"ãĢģcommitè¿½è¸ªä»¥åıĬåŁºäºİWebhookçļĦåĪĨæŀĲ":6271,"ï¼Įå¯¹æ¯Ķä¸įåĲĮåĿĩåĢ¼æ¼Ĥç§»åľºæĻ¯ä¸ĭçļĦæ£Ģåĩº":6272,"ï¼ĮçłĶç©¶ä¸įåĲĮçģ«çģ¾åľºæĻ¯ä¸ĭçļĦçĥŃæļ´éľ²":6273,"ï¼ĮçłĶç©¶çħ¤çŁ¿çĵ¦æĸ¯æµĵåº¦åıĺåĮĸä¸İçĪĨçĤ¸é£İéĻ©é¢ĦèŃ¦éĹ®é¢ĺ":6274,"ï¼Įå±ķç¤ºç«¯åĪ°ç«¯Javaå¾®æľįåĬ¡æŀ¶æŀĦèĥ½åĬĽ":6275,"ï¼Įå±ķç¤ºåľ¨ä½İå»¶è¿Ł":6276,"ï¼Įä½ĵçİ°äºĨæľįåĬ¡è¾¹çķĮè®¾è®¡":6277,"ï¼Įä½ĵçİ°è¶ħè¶Ĭä»£çłģå®ŀçİ°å±ĤéĿ¢çļĦç³»ç»ŁæĢ§":6278,"ï¼ĮéĩĩçĶ¨çİ¯å¢ĥåıĺéĩıé©±åĬ¨çļĦJWTå¯ĨéĴ¥ä¸İ":6279,"ïĤ·åľ¨WebSocketå®¢æĪ·ç«¯ä¸İæĪ¿éĹ´ç®¡çĲĨä¸Ńå¼ķåħ¥":6280,"ïĤ·åľ¨çĸ«æĥħæľŁéĹ´åıĬä¹ĭ":6281,"ïĤ·ç¼ĸåĨĻCIå·¥ä½ľæµģä¸İéªĮè¯ģèĦļæľ¬":6282,"ïĤ·å¼ķåħ¥SQLè¿ģç§»èĦļæľ¬":6283,"ïĤ·åıĳè¡¨ä¸Ńæĸĩæł¸å¿ĥæľŁåĪĬè®ºæĸĩ":6284,"ĠConfigå®ŀçİ°éĽĨä¸Ńéħįç½®ç®¡çĲĨ":6285,"ïĤ·åıĤä¸İåºĶæĢ¥ç®¡çĲĨéĥ¨å¤©æ´¥æ¶Īéĺ²çłĶç©¶æīĢéĺ²çģ«æľįçģ«çģ¾æ¨¡æĭŁçłĶç©¶":6286,"ãĢģå®īåħ¨çĽĳæµĭåıĬäºĭæķħé¢Ħéĺ²çĽ¸åħ³é¢ĨåŁŁçŁ¥è¯Ĩ":6287,"ïĤ·è®¾è®¡äºĨæ¨¡åĿĹåĮĸNestJSåĲİç«¯æŀ¶æŀĦ":6288,"ïĤ·è®¾è®¡äºĨåĮħåĲ«åħ«ä¸ªæľįåĬ¡çļĦæŀ¶æŀĦ":6289,"ãĢģAIä»£çłģåĪĨæŀĲæıĲç¤ºè¯įè®¾è®¡":6290,"å¯ĨçłģåĵĪå¸Įä¸İå¸¸æķ°æĹ¶éĹ´å¯Ĩçłģæł¡éªĮ":6291,"è£ħé¥°åĻ¨":6292,"ï¼Įä¸Ģä¸ªåŁºäºİGoçļĦå®ŀæĹ¶WebSocketèģĬå¤©åĲİç«¯ç³»ç»Ł":6293,"ãĢĤè¯¥é¡¹çĽ®ä¸įä»ħå±ķç¤ºäºĨLLMéĽĨæĪĲèĥ½åĬĽ":6294,"éĺ²çģ«æľįæ¨¡æĭŁä¸İçĥŃéĺ²æĬ¤åĪĨæŀĲçłĶç©¶":6295,"ï¼ĮæĽ¿ä»£ä¸įå®īåħ¨çļĦæĺİæĸĩå¯Ĩçłģå¤ĦçĲĨæĸ¹å¼ı":6296,"ï¼ĮæĽ¿ä»£ä¸įå®īåħ¨çļĦèĩªåĬ¨å»ºè¡¨æĸ¹å¼ı":6297,"ãĢģè¡ĮæĶ¿åįıè°ĥåıĬçĽ¸åħ³åĬŀåħ¬å®¤å·¥ä½ľ":6298,"ï¼Įä¸İå®¢æĪ·åıĬé¡¹çĽ®åĽ¢éĺŁå¼Ģå±ķè¿ľç¨ĭåĲĪä½ľ":6299,"ï¼ĮåĲĮæĹ¶å°ĨæĮģä¹ħåĮĸæ¶Īæģ¯å½Ĵå±ŀéĢĲæŃ¥è¿ģç§»èĩ³PostgreSQL":6300,"ï¼Įéģ¿åħįå®īåħ¨æķıæĦŁä¿¡æģ¯ç¡¬ç¼ĸçłģ":6301,"ä¸İçľŁå®ŀå·¥ç¨ĭåľºæĻ¯çļĦç»ĵåĲĪ":6302,"Ġschemaä¸İFlywayæķ°æį®åºĵè¿ģç§»èĦļæľ¬":6303,"/APIèĥ½åĬĽè½¬åĮĸä¸ºåı¯çĶ¨çļĦè½¯ä»¶äº§åĵģ":6304,"ãĢģåĽŀå½Ĵå½±åĵįåĪĨæŀĲä»¥åıĬéĤ®ä»¶éĢļçŁ¥åĬŁèĥ½":6305,"çļĦè¯·æ±Ĥè¿ĩæ»¤ä¸İåħ¬å¼Ģ":6306,"ï¼Įä½¿åħ¶èĥ½å¤ŁçĲĨè§£è½¯ä»¶ç³»ç»Łä¸İçľŁå®ŀå·¥ç¨ĭåľºæĻ¯çļĦç»ĵåĲĪ":6307,"åĮ¹éħįåº¦æľĢé«ĺçļĦATS":6308,"ĠåĤ¬åĮĸè£ĤåĮĸ":6309,"ĠåĲĪåĲĮåĪ¶åħ¨æłĪå¼Ģåıĳå·¥ç¨ĭå¸Ī":6310,"ãĢģä¾Ŀèµĸåı¯è§ģæĢ§ä»¥åıĬæľ¬åľ°éĥ¨ç½²éªĮè¯ģèĥ½åĬĽ":6311,"ãĢģå®ŀéªĮå¯¹æ¯ĶåıĬç»ĵæŀľåı¯è§ĨåĮĸ":6312,"ãĢģè·¨éĥ¨éĹ¨æ²ŁéĢļåıĬçĶŁäº§ç®¡çĲĨæĸĩæ¡£å·¥ä½ľ":6313,"ï¼Įä½¿çĶ¨æĪ·åı¯ä»¥è¿ŀæİ¥åĪ°ä¸įåĲĮåĲİç«¯è¿Ľç¨ĭä»įåı¯æŃ£å¸¸":6314,"ï¼Įç»ĵåĲĪåŁºäºİJWTçļĦè¯·æ±Ĥè¿ĩæ»¤ä¸İåħ¬å¼Ģ":6315,"ï¼Įæĺİç¡®åŃĺåĤ¨èģĮè´£è¾¹çķĮ":6316,"æķĻèĤ²ç»ıåİĨ":6317,"æĶ»è¯»åįļå£«åŃ¦ä½į":6318,"ĠSecurityå®ŀçİ°è®¤è¯ģæµģç¨ĭä¸İJWT":6319,"/ç§ģæľīè·¯çĶ±åĪĨç¦»":6320,"¹èĪ¶å°¾æ°ĶçĽĳæµĭçĽĳç®¡ç³»ç»Łå»ºè®¾æķĪæŀľè¯Ħä¼°æĬ¥åĳĬé¡¹çĽ®":6321,"ĠåĪĨä½įæİ§åĪ¶éĻĲ":6322,"Ġç»´èģļåĲĪçī©è¿ĩç¨ĭéĻįç»´èĩ³":6323,"ĠçĽĳæİ§åıĬåıĺéĩıçº§æķħéļľéļĶç¦»":6324,"Ġæį¢çĥŃåĻ¨ç»ĵåŀ¢æ¡Īä¾ĭ":6325,"ĠæĲŃå»ºç»Łè®¡è¿ĩç¨ĭçĽĳæİ§":6326,"Ġäº§åĵģå¼Ģåıĳæµģç¨ĭçļĦçĲĨè§£":6327,"ĠéĴ±åĮħè¿ŀæİ¥åıĬåĮºåĿĹéĵ¾äº¤äºĴéĢ»è¾ĳ":6328,"ıçİ°æľīè¯»åıĸè·¯å¾ĦçļĦæĥħåĨµä¸ĭæıĲåįĩåı¯éĿłæĢ§":6329,"ãĢģè¿ŀæİ¥å¯¼åĲĳåŀĭåľºæĻ¯ä¸ŃçļĦGoåĲİç«¯å¼Ģåıĳèĥ½åĬĽ":6330,"ãĢģåıĺéĩıè´¡çĮ®å®ļä½įåıĬçĽĳæİ§æĸ¹æ¡ĪæķĪæŀľè¯Ħä¼°":6331,"ãĢģæĮīéľĢæĸĩä»¶æī«æıı":6332,"ãĢģGatewayåıĬåĲĦåºĶçĶ¨æľįåĬ¡":6333,"ãĢģåĲ¯åĬ¨è¿ģç§»æī§è¡ĮåĻ¨":6334,"ãĢģå¹¶åıĳå®īåħ¨è®¾è®¡æĦıè¯Ĩ":6335,"ãĢģåĽ¢éĺŁç®¡çĲĨä»¥åıĬåīįç«¯æķ°æį®çľĭæĿ¿":6336,"ãĢģç»ĵæŀĦåĮĸè®¿éĹ®æĹ¥å¿Ĺä»¥åıĬ":6337,"ãĢģå¹¿æĴŃæ¶Īæģ¯ä»¥åıĬæĪ¿éĹ´æ¶Īæģ¯":6338,"ãĢģæĬĢæľ¯æĸĩæ¡£åıĬè·¨åĽ¢éĺŁåįıä½ľç»ıéªĮ":6339,"ãĢģæĶ¯ä»ĺäºĭä»¶å¤ĦçĲĨä»¥åıĬåŁºäºİéħįé¢ĿçļĦAIä½¿çĶ¨æİ§åĪ¶":6340,"ãĢģäº¤æĺĵè®°å½ķåıĬä¸ļåĬ¡éĢ»è¾ĳç®¡çĲĨ":6341,"ãĢģè¯Ńä¹īçº§ä»£çłģéĹ®çŃĶä»¥åıĬåĽ¢éĺŁå·¥ç¨ĭæĬ¥åĳĬçĶŁæĪĲ":6342,"ãĢģæĹłæķĪJSONä¿®å¤įä»¥åıĬAIçĶŁæĪĲä»ĵåºĵæĸĩæ¡£":6343,"ãĢģè®¾å¤ĩé¢ĦèŃ¦åıĬèĥ½æºĲå®īåħ¨åľºæĻ¯":6344,"ãĢģä»·æł¼ä¸İæĶ¯ä»ĺé¡µéĿ¢":6345,"ï¼ĮåıĤä¸İå¤ļä¸ªè¿ľç¨ĭè½¯ä»¶å¼Ģåıĳé¡¹çĽ®":6346,"ï¼Įå®ĮæĪĲæķħéļľæ£Ģæµĭä¸İè´¡çĮ®åĽ¾è¯ĬæĸŃ":6347,"ï¼Įåħ·å¤ĩç½ķè§ģçļĦç»¼åĲĪèĥ½åĬĽç»ĦåĲĪ":6348,"ï¼Įåľ¨ä¸įçł´åĿıçİ°æľīè¯»åıĸè·¯å¾ĦçļĦæĥħåĨµä¸ĭæıĲåįĩåı¯éĿłæĢ§":6349,"ï¼Įå¢ŀå¼ºé¢ĨåŁŁéĢ»è¾ĳä¸İéĢļçŁ¥æĬķéĢĴçļĦè§£èĢ¦èĥ½åĬĽ":6350,"ï¼Įå½¢æĪĲåı¯å¤įçĶ¨çļĦå·¥ä¸ļ":6351,"ãĢĤç³»ç»Łåı¯è¿ŀæİ¥GitHub":6352,"ãĢĤçĲĨè§£çĶŁäº§çº§AIç³»ç»Łä¸įä»ħä¾Ŀèµĸprompt":6353,"ãĢĤèĥ½å¤Łå°ĨAIæĥ³æ³ķä»İæ¨¡åŀĭ":6354,"ãĢĤçĽ®åīįåľ¨æĸ°çĸĨå¤§åŃ¦æĶ»è¯»åįļå£«åŃ¦ä½į":6355,"ïĤ·å¯¹å®ŀéªĮä¸İä»¿çľŁæķ°æį®è¿Ľè¡Įå¤ĦçĲĨ":6356,"ïĤ·å¤ĦçĲĨæĹ¶åºıèĩªçĽ¸åħ³éĹ®é¢ĺ":6357,"ïĤ·è¾ĵåĩºåı¯è§ĨåĮĸåĪĨæŀĲæĪĲæŀľä¸İé¡¹çĽ®æĸĩæ¡£":6358,"ïĤ·æł¹æį®é¡¹çĽ®éľĢæ±ĤéĽĨæĪĲ":6359,"ïĤ·è´Łè´£ä¼ļè®®æĿĲæĸĻ":6360,"ïĤ·ä¸ŃåĽ½çŁ³æ²¹ä¼ĺç§Ģåħ±éĿĴåĽ¢åĳĺ":6361,"ä¸İåĽŀçŃĶåĪĨçīĩè¾ĵåĩº":6362,"ï¼ļä¸įä»ħä»ħæŀĦå»ºè°ĥçĶ¨LLM":6363,"åŁºéĩĳåįĬä¸»åĬ¨æīĳç¿¼æİ¨è¿ĽæĢ§èĥ½çłĶç©¶é¡¹çĽ®":6364,"åľ¨LLMåºĶçĶ¨å·¥ç¨ĭæĸ¹éĿ¢ç»ıéªĮä¸°å¯Į":6365,"åľ¨åĲİç«¯æŀ¶æŀĦæĸ¹éĿ¢åħ·å¤ĩè¾ĥå¼ºèĥ½åĬĽ":6366,"é¡¹æ³¢æµªé©±åĬ¨åīĸéĿ¢æµ®æłĩé¡¹çĽ®":6367,"ï¼īä½ĵç³»åĨħå®¡åĳĺè¯ģä¹¦":6368,"ï¼īä»¥åıĬæĿ¥èĩªä¸ŃåĽ½çŁ³æ²¹çļĦå·¥ä¸ļå®īåħ¨å®ŀè·µç»ıéªĮ":6369,"æŀĦå»ºHikaflowä½ľä¸ºåħ¨æłĪAIå·¥ç¨ĭèĥ½åĬĽçļĦæł¸å¿ĥè¯ģæĺİ":6370,"æıĲåįĩç³»ç»Łè¿Ĳè¡Įåı¯è§ĤæµĭæĢ§ä¸İéĹ®é¢ĺæİĴæŁ¥èĥ½åĬĽ":6371,"å·¥ä¸ļè¿ĩç¨ĭç»Łè®¡çĽĳæİ§ä¸İæķħéļľæ£ĢæµĭåĪĨæŀĲ":6372,"ï¼Įå¹¶ä¿®å¤įAIçĶŁæĪĲçļĦæĹłæķĪJSONè¾ĵåĩº":6373,"ï¼Įå¹¶ä¿Ŀè¯ģåĲĦæ¨¡åĿĹåı¯çĭ¬ç«ĭæŀĦå»ºä¸İéĥ¨ç½²":6374,"ïĤ·åıĤä¸İå¹¿ä¸ľåºĶæĢ¥ä¸ĵé¡¹æ³¢æµªé©±åĬ¨åīĸéĿ¢æµ®æłĩé¡¹çĽ®":6375,"ïĤ·åıĤä¸İçŁ³æ²¹åĮĸå·¥çĶŁäº§ä¸İå·¥èīºå®īåħ¨å·¥ä½ľ":6376,"ïĤ·åıĤä¸İå¤©æ´¥æµ·ä¸ĬèĪ¹èĪ¶å°¾æ°ĶçĽĳæµĭçĽĳç®¡ç³»ç»Łå»ºè®¾æķĪæŀľè¯Ħä¼°æĬ¥åĳĬé¡¹çĽ®":6377,"ïĤ·åıĤä¸İåĽ½å®¶èĩªçĦ¶ç§ĳåŃ¦åŁºéĩĳåįĬä¸»åĬ¨æīĳç¿¼æİ¨è¿ĽæĢ§èĥ½çłĶç©¶é¡¹çĽ®":6378,"ïĤ·åıĤä¸İå·¥è´¸è¡Įä¸ļå®īåħ¨çĽĳç®¡æī§æ³ķèĥ½åĬĽæıĲåįĩåŁ¹è®Ńé¡¹çĽ®":6379,"ïĤ·ä½¿çĶ¨Zustandè¿Ľè¡Įåīįç«¯çĬ¶æĢģç®¡çĲĨ":6380,"ï¼Įä½¿ä¸ļåĬ¡æľįåĬ¡åı¯ä»¥åľ¨ä¸įéĺ»å¡ŀä¸»è¯·æ±Ĥè·¯å¾ĦçļĦæĥħåĨµä¸ĭåıĳå¸ĥäºĭä»¶":6381,"ï¼ĮæĶ¯æĮģåı¯éħįç½®tokenå¯ĨéĴ¥ä¸İTTL":6382,"ï¼ĮæĶ¯æĮģæĸĩä»¶åħĥæķ°æį®æĮģä¹ħåĮĸä¸İåı¯éħįç½®çļĦæľ¬åľ°äºĮè¿ĽåĪ¶åŃĺåĤ¨":6383,"ï¼ĮçĶ¨äºİå®ŀæĹ¶AIå¤ĦçĲĨè¿Ľåº¦æİ¨éĢģä¸İåĽŀçŃĶåĪĨçīĩè¾ĵåĩº":6384,"ïĤ·çłĶç©¶æĪĲæŀľéĢĤçĶ¨äºİæĻºæħ§åŁİå¸Ĥ":6385,"ïĤ·æŀĦå»ºåŁºäºİBullMQä¸İRedisçļĦå¼ĤæŃ¥ä»ĵåºĵæī«æııç³»ç»Ł":6386,"ïĤ·åŁºäºİç®Ĺæ³ķå»ºæ¨¡ä¸İä»¿çľŁåĪĨæŀĲ":6387,"ïĤ·åŁºäºİæĹ¶ç©ºåµĮåħ¥ä¸İæ³¨æĦıåĬĽæľºåĪ¶å¼Ģå±ķç©ºæ°Ķè´¨éĩıé¢ĦæµĭçłĶç©¶":6388,"ï¼ĮéĻįä½İæ»¥çĶ¨é£İéĻ©å¹¶ä¿ĿæĬ¤è®¤è¯ģä¸İå®ŀæĹ¶éĢļä¿¡æİ¥åı£":6389,"Ġtokenä¸ŃéĹ´ä»¶æıĲåįĩè®¤è¯ģä¸Ģèĩ´æĢ§ä¸İéĥ¨ç½²åı¯éħįç½®æĢ§":6390,"ï¼Įåĩıå°ĳåĨħéĥ¨æľįåĬ¡çĽ´æİ¥æļ´éľ²å¹¶æıĲåįĩAPIè®¿éĹ®æİ§åĪ¶èĥ½åĬĽ":6391,"ï¼Įå°Ĩåħ³éĶ®èģĬå¤©åİĨåı²ä»İä¸´æĹ¶RedisçĬ¶æĢģè¿ģç§»èĩ³åı¯å®¡è®¡çļĦåħ³ç³»åŀĭåŃĺåĤ¨":6392,"ãĢģcommitè¿½è¸ªä»¥åıĬåŁºäºİWebhookçļĦåĪĨæŀĲæµģç¨ĭ":6393,"ï¼Įå¯¹æ¯Ķä¸įåĲĮåĿĩåĢ¼æ¼Ĥç§»åľºæĻ¯ä¸ĭçļĦæ£Ģåĩºèĥ½åĬĽ":6394,"ï¼ĮçłĶç©¶ä¸įåĲĮçģ«çģ¾åľºæĻ¯ä¸ĭçļĦçĥŃæļ´éľ²æĥħåĨµ":6395,"ï¼Įä½ĵçİ°è¶ħè¶Ĭä»£çłģå®ŀçİ°å±ĤéĿ¢çļĦç³»ç»ŁæĢ§å·¥ç¨ĭæĢĿç»´ä¸İä¸Ĭçº¿é£İéĻ©è¯Ħä¼°èĥ½åĬĽ":6396,"ï¼ĮéĩĩçĶ¨çİ¯å¢ĥåıĺéĩıé©±åĬ¨çļĦJWTå¯ĨéĴ¥ä¸İåı¯éħįç½®è¿ĩæľŁæĹ¶éĹ´":6397,"ïĤ·åľ¨WebSocketå®¢æĪ·ç«¯ä¸İæĪ¿éĹ´ç®¡çĲĨä¸Ńå¼ķåħ¥å¹¶åıĳæİ§åĪ¶éĶģæľºåĪ¶":6398,"ïĤ·åľ¨çĸ«æĥħæľŁéĹ´åıĬä¹ĭåĲİ":6399,"ï¼Įä½¿çĶ¨æĪ·åı¯ä»¥è¿ŀæİ¥åĪ°ä¸įåĲĮåĲİç«¯è¿Ľç¨ĭä»įåı¯æŃ£å¸¸éĢļä¿¡":6400,"(json":6401,"({\"":6402,"))čĊ":6403,",{\"":6404,"-N":6405,"-f":6406,"-h":6407,"-čĊ":6408,"-le":6409,"-ad":6410,"-gr":6411,"-refit":6412,"-back":6413,"-chain":6414,"./":6415,".o":6416,".sh":6417,".add":6418,"/re":6419,"/te":6420,"/åİĨåı²":6421,"/XSEC":6422,"/æķ°æį®å¤ĦçĲĨ":6423,"=\"":6424,"AO":6425,"An":6426,"ARM":6427,"ACH":6428,"BF":6429,"Bat":6430,"CC":6431,"CPython":6432,"Cloud":6433,"Data":6434,"EAD":6435,"ENT":6436,"IC":6437,"IG":6438,"IST":6439,"Ja":6440,"Leader":6441,"MSE":6442,"Mountain":6443,"MIT":6444,"Net":6445,"OACH":6446,"PC":6447,"PO":6448,"Pre":6449,"Post":6450,"PPR":6451,"SA":6452,"Sen":6453,"Software":6454,"Softmax":6455,"TE":6456,"TIT":6457,"WARM":6458,"[{\"":6459,"]})čĊ":6460,"_B":6461,"_N":6462,"_n":6463,"_ST":6464,"_SC":6465,"_read":6466,"apt":6467,"aus":6468,"air":6469,"aust":6470,"ayment":6471,"ared":6472,"bution":6473,"cup":6474,"dle":6475,"domain":6476,"ec":6477,"ep":6478,"eal":6479,"fess":6480,"gor":6481,"gle":6482,"gapfill":6483,"hav":6484,"hip":6485,"hikaflow":6486,"haust":6487,"ix":6488,"iat":6489,"ide":6490,"ipe":6491,"kip":6492,"ld":6493,"lit":6494,"lic":6495,"lum":6496,"ledge":6497,"mountain":6498,"nar":6499,"nect":6500,"now":6501,"oute":6502,"odd":6503,"olog":6504,"qa":6505,"quality":6506,"rch":6507,"rain":6508,"rap":6509,"rator":6510,"rphan":6511,"reng":6512,"runtime":6513,"sed":6514,"to":6515,"ting":6516,"type":6517,"time":6518,"torch":6519,"uch":6520,"with":6521,"work":6522,"warm":6523,"}ï¼Ł\",čĊ":6524,"}\")čĊ":6525,"},{\"":6526,"}]})čĊ":6527,"¥¿":6528,"³°":6529,"´è¶":6530,"½çĦ¶":6531,"¾İ":6532,"åł":6533,"ç¾İ":6534,"èĥ":6535,"èŀ":6536,"è¥¿":6537,"éĨĴ":6538,"ĉæľīæķĪ":6539,"ĉçŁŃæľŁ":6540,"ĉä¸ŃæľŁ":6541,"ĠG":6542,"ĠV":6543,"Ġ_":6544,"Ġj":6545,"Ġent":6546,"Ġå¹¶":6547,"Ġæĸ°":6548,"Ġæĸĩä»¶":6549,"Ġver":6550,"ĠæĽ´":6551,"Ġä»ĵåºĵ":6552,"ĠéĽĨæĪĲ":6553,"Ġè¾ĵåĩº":6554,"ĠOpen":6555,"ĠçĬ¶æĢģ":6556,"Ġä¸ļåĬ¡":6557,"Ġå®Įæķ´":6558,"Ġä½įç½®":6559,"Ġåı¯èĥ½":6560,"Ġvector":6561,"Ġæİ¨çĲĨ":6562,"ĠæĿ¡":6563,"Ġä¸¤":6564,"Ġop":6565,"ĠGORM":6566,"ĠOpenFeign":6567,"Ġæķ°æį®çľĭæĿ¿":6568,"ĠæľįåĬ¡è°ĥçĶ¨":6569,"ĠOpenAI":6570,"Ġedge":6571,"Ġéĺ³":6572,"Ġèĭ¥":6573,"Ġown":6574,"Ĥå¯":6575,"ĤçŃī":6576,"ĥı":6577,"ĪæĿĥ":6578,"įåĲĪ":6579,"Ĵåħ¥":6580,"ĶæĸŃ":6581,"ļèĩ³":6582,"ä¸ĥ":6583,"ãĢģB":6584,"ãĢģs":6585,"ãĢģre":6586,"ãĢģå¼Ģåıĳ":6587,"ãĢģæµģç¨ĭ":6588,"ãĢģè¦ĨçĽĸ":6589,"ãĢģæł·æľ¬":6590,"ãĢģèµĦæºĲ":6591,"ãĢģä¸Ģèĩ´æĢ§":6592,"ãĢģéļĶç¦»":6593,"ãĢģartifact":6594,"ãĢģåŃĲè¯į":6595,"ï¼ĮåºĶ":6596,"ï¼Įç¡®":6597,"ï¼Įåħ¶":6598,"ï¼ĮåħĪ":6599,"ï¼ĮçĽ®æłĩ":6600,"ï¼Įè¯·":6601,"ï¼Įåħ¶ä»ĸ":6602,"ï¼Įæł¹æį®":6603,"ï¼Įå¦Ĥæŀľ":6604,"ï¼Įåı¯èĥ½":6605,"ï¼Įå¿ħé¡»":6606,"ï¼ĮæīĢ":6607,"ï¼Įä¿®å¤į":6608,"ï¼ĮæĦŁ":6609,"ï¼Įæ¯ıä¸ª":6610,"ï¼Įæ»¡è¶³":6611,"ï¼Įç»ĻæĪĳ":6612,"ï¼Įè¿Ńä»£äº¤ä»ĺ":6613,"ï¼Įæ¯ıå¤©":6614,"ãĢĤæĪĳ":6615,"ãĢĤä¸įèĥ½":6616,"åħ´è¶":6617,"ink":6618,"inning":6619,"çļĦèĥ½åĬĽ":6620,"çļĦæľºåĪ¶":6621,"çļĦåıĤæķ°":6622,"çļĦå°±":6623,"çļĦæĸ¹åĲĳ":6624,"çļĦåºıåĪĹ":6625,"çļĦçŃĸçķ¥":6626,"çļĦåĢĻéĢī":6627,"çļĦåĽŀçŃĶ":6628,"çļĦçī¹å¾ģ":6629,"çļĦåŁºæľ¬":6630,"çĶļèĩ³":6631,"ert":6632,"ered":6633,"è¯ĳ":6634,"onit":6635,"ontext":6636,"ä½ı":6637,"ïĤ·U":6638,"ïĤ·ä¸İ":6639,"ann":6640,"ancy":6641,"æķ°ID":6642,"æķ°ç»Ħ":6643,"ories":6644,"orphan":6645,"orld":6646,"æĺ¯Python":6647,"æĺ¯åĬ¨æĢģ":6648,"æĺ¯è¯Ńè¨Ģæ¨¡åŀĭ":6649,"éĢĢ":6650,"å¼¦":6651,"static":6652,"æİĪæĿĥ":6653,"ï¼ļs":6654,"ï¼ļä¸į":6655,"ï¼ļ\",čĊ":6656,"alized":6657,"alPost":6658,"edback":6659,"ä»¥åĲİ":6660,"ä»¥åīį":6661,"item":6662,"ities":6663,"itiat":6664,"åĪĨå·®":6665,"åĪĨå±Ĥ":6666,"åĪĨé¡µ":6667,"åı¯åŃ¦ä¹ł":6668,"åı¯è¿ģç§»":6669,"æķ°æį®ä¸Ĭ":6670,"æķ°æį®ä¸ŃçļĦ":6671,"æķ°æį®åĪĴ":6672,"æķ°æį®ç»§ç»Ń":6673,"æķ°æį®ç§ĳåŃ¦":6674,"åıĬç®¡çĲĨ":6675,"æĸĩåŃĹ":6676,"Ġ\"{":6677,"Ġ\"\")":6678,"åĨ³å®ļ":6679,"ĠArch":6680,"ä¸įçĽ´æİ¥":6681,"ä¸įéĩįæĸ°":6682,"ä¸įç¨³å®ļ":6683,"ä¸įåĨį":6684,"ä¸įéĢĤåĲĪ":6685,"ä¸įåĪłéĻ¤":6686,"ä¸įåŃĺåľ¨":6687,"è§Ĥæµĭ":6688,"è§Ĥå¯":6689,"cted":6690,"å¹ĤçŃī":6691,"å®ŀæķ°":6692,"å®ŀä½ĵ":6693,"ï¼ŁčĊ":6694,"ary":6695,"ä¸ĢåĮĸ":6696,"æıĴåħ¥":6697,"æĬ¢":6698,"æĬĺ":6699,"æ¨¡åŀĭåŃ¦ä¹ł":6700,"æ¨¡åŀĭçĶŁæĪĲ":6701,"æ¨¡åŀĭéĢīæĭ©":6702,"depth":6703,"åħ¨åıĤæķ°":6704,"Ġsize":6705,"Ġsource":6706,"Ġskip":6707,"Ġsuch":6708,"åĴĮF":6709,"åĴĮç®¡çĲĨ":6710,"åĴĮè®Ńç»ĥ":6711,"åĴĮä»»åĬ¡":6712,"åĴĮè®¡ç®Ĺ":6713,"åĴĮè¯Ńä¹ī":6714,"åĴĮä¾Ŀèµĸ":6715,"leader":6716,"Ġco":6717,"Ġcre":6718,"Ġconf":6719,"Ġcloud":6720,"Ġcases":6721,"å¼Ģåħ³":6722,"å¼ĢéĶĢ":6723,"æĢ§æµĭè¯ķ":6724,"åĲİåĨį":6725,"æĸ¹ä¾":6726,"check":6727,"è¿ĩçļĦ":6728,"è¿ĩåº¦":6729,"éĹ´æİ¥":6730,"çº¯":6731,"Ġregist":6732,"Ġreli":6733,"è¦ģçļĦ":6734,"åīª":6735,"åĮħå¤§å°ı":6736,"æıĲåĩº":6737,"æıĲéĨĴ":6738,"æľ¬è½®":6739,"åĲĪéĢĤ":6740,"æľīéĻĲ":6741,"æľīåĬ©äºİ":6742,"åľ¨å®ŀéĻħ":6743,"AIL":6744,"åħ³æ³¨":6745,"æīĭ":6746,"æīĵ":6747,"æĭ¿":6748,"ĠSC":6749,"ĠSystem":6750,"telemetry":6751,"Ġpr":6752,"Ġpub":6753,"Ġpart":6754,"Ġpassword":6755,"Ġpayment":6756,"Ġpinning":6757,"è¡Įä¸º":6758,"éªĮæĶ¶":6759,"åİĭ":6760,"ç»ĵè®º":6761,"ç»ĵæĿŁ":6762,"ĠPR":6763,"ĠPrompt":6764,"ĠPBKDF":6765,"å¹¶æĬ¥åĳĬ":6766,"å¤įçİ°":6767,"é¡¹çĽ®çļĦ":6768,"å¿µ":6769,"å·¥ç¨ĭä¼ĺåĮĸ":6770,"Ġinv":6771,"Ġintelligence":6772,"Ġinitiat":6773,"æĸ°çŃĸçķ¥":6774,"ä¸ĬéĻĲ":6775,"ä¸Ĭæī¾":6776,"è°ĥæŁ¥":6777,"Ġmig":6778,"Ġmap":6779,"Ġmicroser":6780,"Ġmonit":6781,"ç»ĥä½¿çĶ¨":6782,"éĩįè®Ńç»ĥ":6783,"å¤ļå¤´":6784,"ä¸ĭéĿ¢":6785,"ä¸ĭä¸Ģä¸ª":6786,"çĶ¨äºİåľ¨":6787,"rid":6788,"Ġdur":6789,"Ġdomain":6790,"çĽ¸å¯¹":6791,"active":6792,"è¯ŃéŁ³":6793,"utf":6794,"uter":6795,"utop":6796,"Ġbill":6797,"Ġblock":6798,"search":6799,"æĪĸåħ¶ä»ĸ":6800,"æĪĸå®¢æĪ·":6801,"æĪĸèĢħ":6802,"ï¼īãĢĤčĊ":6803,"admin":6804,"èµ·":6805,"åı¯ä»¥çĽ´æİ¥":6806,"åı¯ä»¥ä¿Ŀè¯ģ":6807,"ç¼©":6808,"é«ĺä¼ĺåħĪçº§":6809,"artup":6810,"åĩºæĿ¥":6811,"vel":6812,"Ġab":6813,"ä»»èģĮ":6814,"åĽŀå¤į":6815,"agent":6816,"Ġdemon":6817,"åĬłéĢŁ":6818,"æľºåĪ¶éĢļè¿ĩ":6819,"valence":6820,"è·³":6821,"Ġtake":6822,"çĽ¸åħ³åĨħå®¹":6823,"çĽ¸åħ³ä¸ĵä¸ļ":6824,"æ¶īåıĬ":6825,"çŃīå¾ħ":6826,"åºĶçĶ¨åľºæĻ¯":6827,"ä»»åĬ¡åĨłåĨĽ":6828,"æľĢå¤ļ":6829,"æľĢä¼ĺ":6830,"å¤§äºİ":6831,"å¤§éĥ¨åĪĨ":6832,"aining":6833,"Ġequi":6834,"æķ´æķ°ID":6835,"æĸĩæ¡£åĪĩåĪĨ":6836,"ify":6837,"åįĩçº§":6838,"æĶ¯æĮģçļĦè¯Ŀ":6839,"peci":6840,"éľĢè¦ģç»ĵåĲĪ":6841,"åįķä¸ª":6842,"core":6843,"coding":6844,"æĪĳçļĦç®ĢåİĨ":6845,"å¹³æĸ¹":6846,"åı£è¯Ń":6847,"åĪ°çļĦ":6848,"éĹ®é¢ĺè§£åĨ³":6849,"åıĤæķ°åĨ»ç»ĵ":6850,"åıĤæķ°çļĦæ¢¯åº¦":6851,"ĠFlyway":6852,"Ġstartup":6853,"ç®Ģæ´":6854,"å¦Ĥä¸ĭ":6855,"ĠNext":6856,"æ¶Īå¤±":6857,"æķĪçİĩ":6858,"æİ¨èį":6859,"ïĤ·åıĤä¸İå¤ļä¸ª":6860,"åĽ¾ä¼ĺåĮĸ":6861,"é¢Ħæµĭä¸ĭä¸Ģä¸ª":6862,"çŁ¥éģĵ":6863,"åĽ¢éĺŁæĪĸå®¢æĪ·":6864,"ĠTe":6865,"ĠTailwind":6866,"å¤±æķĪ":6867,"è¿Ľè¡Įå½Ĵ":6868,"è¿Ľè¡ĮåĬłæĿĥ":6869,"äººåĳĺ":6870,"è¾ĵåĩºå±Ĥ":6871,"åŃĺåĤ¨ç³»ç»Ł":6872,"SEARCH":6873,"idx":6874,"ident":6875,"idation":6876,"iddle":6877,"istory":6878,"istrator":6879,"ä¹ĭä¸Ģ":6880,"ä¹ĭåīį":6881,"ä¹ĭä¸Ĭ":6882,"olving":6883,"Ġenab":6884,"Ġencoding":6885,"è¿Ĳç®Ĺ":6886,"Ġprogress":6887,"æĦıæĢĿ":6888,"åĲĳéĩıåĮĸ":6889,"éħįç½®åĴĮ":6890,"æ·±å±Ĥç½ĳç»ľ":6891,"used":6892,"éģ®":6893,"éģĹ":6894,"ĠMySQL":6895,"ĠMongoDB":6896,"è®°ä¸Ģä¸ĭ":6897,"æĸĩæľ¬çīĩæ®µ":6898,"ä¼°è®¡":6899,"æıĲä¾Ľä½įç½®":6900,"æıĲä¾Ľä¾Ŀæį®":6901,"åıªè¦ģ":6902,"åıªæľī":6903,"åıªåľ¨":6904,"è¿ľç¨ĭåĬŀåħ¬":6905,"è¿ľç¨ĭåĽ¢éĺŁæĪĸå®¢æĪ·":6906,"éķ¿åº¦":6907,"å¹³åı°åĪĨéħį":6908,"å²Ĺä½įè¦ģæ±Ĥ":6909,"å²Ĺä½įèģĮè´£":6910,"ç½ĳä¸Ĭæī¾":6911,"åħ¶ä»ĸåľ°åĽ¾":6912,"åĮºåĪ«":6913,"éĢĤéħį":6914,"èĥ½å¤Łåľ¨":6915,"èĥ½å¤Łå¤ĦçĲĨçļĦ":6916,"ithms":6917,"æĹłæ³ķ":6918,"æĶ¹åĸĦ":6919,"éĺ²æŃ¢":6920,"ä¼ĺåĮĸçĶ¨æĪ·ä½ĵéªĮ":6921,"å¢ŀéķ¿":6922,"çī¹çĤ¹":6923,"ummar":6924,"ç»Ļä½ł":6925,"ä¸ļåĬ¡éľĢæ±Ĥ":6926,"æĥħæĦŁ":6927,"ONE":6928,"elf":6929,"ell":6930,"Ġquest":6931,"ä¼ļå½±åĵį":6932,"ä¼ļå¢ŀåĬł":6933,"è¿ĩç¨ĭä¸ŃçļĦ":6934,"æĿĥè¡¡":6935,"Ġhead":6936,"Ġholdout":6937,"Ġheal":6938,"Ġhistory":6939,"çĶ±äºİ":6940,"çĶ±å¤ļä¸ª":6941,"åħ³ç³»æķ°æį®åºĵ":6942,"æĮģä¹ħæĢ§":6943,"ä½įç½®ä¿¡æģ¯":6944,"ĠQA":6945,"\":[{\"":6946,"åıįå¤į":6947,"åıįæĺł":6948,"ĠDe":6949,"ĠDesign":6950,"ãĢģSC":6951,"æĤ¨çļĦ":6952,"ä¼łè¾ĵ":6953,"anged":6954,"ï¼Įä½Ĩå¿ħé¡»":6955,"ï¼Įä½Ĩç§ĳçłĶä¸»ä½ĵå·¥ä½ľå·²ç»ıå®ĮæĪĲ":6956,"æ²ŁéĢļéľĢæ±Ĥ":6957,"çĨĶæĸŃ":6958,"Ġrubrics":6959,"ï¼Įåı¯ä»¥çļĦ":6960,"è´Łç»ĵæŀľ":6961,"åİŁçĲĨ":6962,"åİŁåŃĲ":6963,"å®ĺæĸ¹å®¹åĻ¨":6964,"åŁºç¡Ģä¸Ĭ":6965,"Ġscorer":6966,"ç»Łè®¡éĩı":6967,"åĲĮæĹ¶åĪ©çĶ¨":6968,"ards":6969,"éĩįæĸ°è®Ńç»ĥ":6970,"è§£éĩĬåĻ¨":6971,"è§£éĩĬä¸Ģä¸ĭ":6972,"Ġwithout":6973,"SCENT":6974,"occup":6975,"rong":6976,"ership":6977,"ä¸įåĲĮä¸ļåĬ¡éľĢæ±Ĥ":6978,"acity":6979,"spiral":6980,"split":6981,"ĠLive":6982,"ĠLinux":6983,"ĠLearn":6984,"ĠLeader":6985,"Ġroom":6986,"å¼ºåº¦":6987,"æľĢç»ĪçĽ®æłĩ":6988,"æ¦Ĥå¿µ":6989,"Ġ[]čĊ":6990,"Ġlarge":6991,"ĠReasoning":6992,"erior":6993,"åĨ»ç»ĵå®ŀçİ°":6994,"çĨŁç»ĥä½¿çĶ¨":6995,"tribution":6996,"åĲ¯çĶ¨":6997,"ïĤ·å¼Ģåıĳæķ°æį®çľĭæĿ¿":6998,"åŃĹç¬¦":6999,"Ġaccount":7000,"æ²¡æľīåĲį":7001,"æ¢¯åº¦æ¶Īå¤±":7002,"Ġone":7003,"Ġä¸İåħ¨æłĪé¡¹çĽ®":7004,"Ġthat":7005,"enced":7006,"å¼Ĥå¸¸å¤ĦçĲĨ":7007,"upporting":7008,"èĻ½çĦ¶":7009,"âĢĿčĊ":7010,"âĢĿçļĦ":7011,"æĦŁåħ´è¶":7012,"è¶³å¤Ł":7013,"scorer":7014,"âī¤":7015,"Ġassurance":7016,"çļĦæķ°æį®ç»ĵæŀĦ":7017,"ïĤ·Benchmark":7018,"åĪĨéħįåĪ°":7019,"æłĩåĩĨåĮĸ":7020,"åĽŀå½Ĵä»»åĬ¡":7021,"è´Łè´£åīįç«¯å¼Ģåıĳ":7022,"HASE":7023,"ache":7024,"jective":7025,"Ġä¸įæģ¶åĮĸ":7026,"åĪĩçīĩ":7027,"Ġclass":7028,"æī©å¤§":7029,"Ġinternal":7030,"xperienced":7031,"ĠIntelligence":7032,"å°½åı¯èĥ½":7033,"éĿŀçº¿æĢ§":7034,"éĿŀçĽ®æłĩåľ°åĽ¾":7035,"è§£åĨ³æĸ¹æ¡Ī":7036,"è§£åĨ³ä»Ģä¹ĪéĹ®é¢ĺ":7037,"validation":7038,"è¶Ĭè¿ĩ":7039,"è¶ĬçķĮ":7040,"è§Ħæ¨¡å¢ŀéķ¿":7041,"éķ¿æľŁè®°å¿Ĩ":7042,"ç²¾åº¦":7043,"/Fallback":7044,"/visited":7045,"éĥ½æĺ¯":7046,"ĠDockerfile":7047,"åĪĿæŃ¥":7048,"åĲįç§°":7049,"åĪĨå¸ĥå¼ı":7050,"Ġlogical":7051,"å®¢æĪ·ç«¯åĴĮ":7052,"ïĤ·Software":7053,"æĺ¾å¼ı":7054,"è¾¾åĪ°":7055,"chemical":7056,"ributed":7057,"Ġexec":7058,"Ġexhaust":7059,"èĩªåĬ¨åĮĸåıĬç»ĵæŀľåı¯è§ĨåĮĸ":7060,"æĺłå°ĦåĪ°":7061,"çī©èģĶç½ĳ":7062,"è¡¡éĩıäºĮåĪĨç±»":7063,"èİ·åıĸ":7064,"ync":7065,"ç±»åĪ«çļĦ":7066,"ç¼ºåı£":7067,"ç¼ºå¤±":7068,"ï¼Įä½¿æ¨¡åŀĭåŃ¦ä¹ł":7069,"èĬĤçĤ¹çļĦ":7070,"æ³ĽåĮĸæĢ§èĥ½":7071,"/TPE":7072,"ILT":7073,"_FAIL":7074,"Ġobjective":7075,"Ġvalidator":7076,"æĸ°å¢ŀæľºåĪ¶":7077,"è¿Ļä¸ªæĸĩä»¶":7078,"ï¼ĮæĪĳè¿Ļè¾¹é©¬ä¸Ĭ":7079,"å°½éĩıåĲĪå¹¶":7080,"Ġresponse":7081,"-driv":7082,"Validation":7083,"_dir":7084,"Ġåħ¨æłĪèĩªçĶ±èģĮä¸ļ":7085,"Ġå·²æľī":7086,"ãĢĭãĢĤčĊ":7087,"ï¼Įä¹Łåı¯ä»¥":7088,"è®Ńç»ĥæķ°æį®ä¸ŃçļĦ":7089,"éħįå¯¹å®ŀéªĮ":7090,"å£°æĺİ":7091,"Ġtesting":7092,"Ġteams":7093,"ç¢°":7094,"Ġorphan":7095,"ä½Ļå¼¦":7096,"åĪĨä¸ºå¤ļä¸ª":7097,"Ġclaim":7098,"Ġcapability":7099,"Ġcapacity":7100,"åĲİæīįåģļ":7101,"Ġfeedback":7102,"è°¢æĤ¨çļĦ":7103,"Ġinstruction":7104,"Ġbuil":7105,"covery":7106,"æĮĩä»¤å¾®è°ĥ":7107,"è®¡ç®ĹæľºçĽ¸åħ³ä¸ĵä¸ļ":7108,"Ġscans":7109,"ãĢģæķ°æį®å¤ĦçĲĨåıĬ":7110,"èİ·å¾ĹæĽ´":7111,"Ġdashboards":7112,"---čĊ":7113,"/OOD":7114,"Profess":7115,"_PASS":7116,"ï¼ģčĊ":7117,"æĪªæŃ¢":7118,"è¡¥åħħ":7119,"Ġplatforms":7120,"Ġimplementations":7121,"æ¿Ģæ´»åĩ½æķ°":7122,"è½»éĩıçº§":7123,"Ġconfigurable":7124,"-aware":7125,"-control":7126,"DESCENT":7127,"ROC":7128,"_audit":7129,"ives":7130,"Ġattribution":7131,"ï¼Łå¦ĤæŀľæĶ¯æĮģçļĦè¯Ŀ":7132,"Ġflows":7133,"Ġboxed":7134,"unctions":7135,"æĽ´éĢĤåĲĪä½¿çĶ¨":7136,"ç¡®å®ļæĢ§":7137,"æĪĳçĽ®åīįåįļå£«åľ¨è¯»":7138,"README":7139,"Ġprocessing":7140,"Ġanswer":7141,"åŃĹèĬĤçłģ":7142,"åĲĪå¹¶åĪ°ä¸Ģè¡Į":7143,"ç¿»è¯ĳ":7144,"æŁĲä¸ª":7145,"åģĩè®¾ä½ł":7146,"(Supporting":7147,"/exp":7148,"PadNet":7149,"ULT":7150,"_colum":7151,"lines":7152,"rategy":7153,"ï¼Įä¸»è¦ģè´Łè´£åīįç«¯å¼Ģåıĳ":7154,"reshold":7155,"orizon":7156,"æĢ§åĴĮæĮģä¹ħæĢ§":7157,"ä¸Ńè¿Ľè¡Įéĩĩæł·":7158,"Ġretrieval":7159,"åī©ä½ĻæĹ¶éĹ´":7160,"åĲĪçĲĨçļĦ":7161,"æĭĽèģĺ":7162,"etrochemical":7163,"Ġplanning":7164,"Ġpractical":7165,"Ġfollowing":7166,"Ġindependently":7167,"Ġdirect":7168,"è·Ŀç¦»":7169,"æŃ¥éª¤":7170,"ïĤ·Contributed":7171,"åħ³éĶ®è¯įæ£Ģç´¢":7172,"Ġissues":7173,"Ġoutputs":7174,"Ġperformance":7175,"CPUå¯ĨéĽĨåŀĭä»»åĬ¡":7176,"ãĢĤä¸įè¿ĩæĥ³åħĪç¡®è®¤ä¸Ģä¸ĭ":7177,"ï¼ĮèĢĮä¸įæĺ¯ä¸Ģæ¬¡æĢ§":7178,".dumps":7179,"åŀĥåľ¾åĽŀæĶ¶":7180,"-level":7181,"-adapt":7182,".open":7183,"Batis":7184,"JaVa":7185,"Precision":7186,"PPROACH":7187,"Senior":7188,"_SCO":7189,"_reader":7190,"ausal":7191,"gorithms":7192,"nowledge":7193,"rength":7194,"workspace":7195,"åłĨ":7196,"èĥĮ":7197,"èŀįåĲĪ":7198,"ĉçŁŃæľŁé«ĺä¼ĺåħĪçº§":7199,"Ġå¹¶ä¼ĺåĮĸçĶ¨æĪ·ä½ĵéªĮ":7200,"Ġoper":7201,"Ġownership":7202,"ãĢģæµģç¨ĭèĩªåĬ¨åĮĸåıĬç»ĵæŀľåı¯è§ĨåĮĸ":7203,"ãĢģéļĶç¦»æĢ§åĴĮæĮģä¹ħæĢ§":7204,"ï¼Įç¡®ä¿Ŀ":7205,"ï¼ĮæīĢä»¥":7206,"ï¼ĮæĦŁè°¢æĤ¨çļĦ":7207,"ï¼Įæ»¡è¶³ä¸įåĲĮä¸ļåĬ¡éľĢæ±Ĥ":7208,"ï¼Įè¿Ńä»£äº¤ä»ĺåĬŁèĥ½":7209,"ï¼Įæ¯ıå¤©åı¯ä»¥ä¿Ŀè¯ģ":7210,"ïĤ·ä¸İè¿ľç¨ĭåĽ¢éĺŁæĪĸå®¢æĪ·":7211,"alPosterior":7212,"åıĬç®¡çĲĨé¡µéĿ¢":7213,"ĠArchitecture":7214,"è§Ĥå¯Ł":7215,"åħ¨åıĤæķ°å¾®è°ĥ":7216,"æĸ¹ä¾¿":7217,"Ġregistration":7218,"Ġreliability":7219,"Ġpartner":7220,"Ġinitiatives":7221,"Ġmigration":7222,"Ġmonitoring":7223,"å¤ļå¤´æ³¨æĦıåĬĽ":7224,"utopilot":7225,"Ġbilling":7226,"administrator":7227,"ä»»èģĮè¦ģæ±Ĥ":7228,"Ġdemonst":7229,"Ġtakeover":7230,"Ġequivalence":7231,"ç®Ģæ´ģ":7232,"æİ¨èįĲ":7233,"ïĤ·åıĤä¸İå¤ļä¸ªå°ıåŀĭ":7234,"è¿Ľè¡Įå½Ĵä¸ĢåĮĸ":7235,"iddleware":7236,"Ġenabling":7237,"ç½ĳä¸Ĭæī¾ä¸Ģä¸ĭ":7238,"Ġquestion":7239,"Ġhealth":7240,"åİŁåŃĲæĢ§":7241,"occupancy":7242,"ïĤ·å¼Ģåıĳæķ°æį®çľĭæĿ¿åıĬç®¡çĲĨé¡µéĿ¢":7243,"æ²¡æľīåĲįçļĦé¡¹çĽ®":7244,"æĦŁåħ´è¶£":7245,"ï¼ĮæĪĳè¿Ļè¾¹é©¬ä¸ĬæĬĬç®ĢåİĨåıĳç»ĻæĤ¨":7246,"-driven":7247,"Ġåħ¨æłĪèĩªçĶ±èģĮä¸ļé¡¹çĽ®":7248,"Professional":7249,"åĲĪå¹¶åĪ°ä¸Ģè¡ĮçļĦå°±":7250,"_columnar":7251,"-adaptive":7252,"ïĤ·ä¸İè¿ľç¨ĭåĽ¢éĺŁæĪĸå®¢æĪ·æ²ŁéĢļéľĢæ±Ĥ":7253,"\"å·²":7254,"\"JSON":7255,"(K":7256,"(term":7257,"(nq":7258,"(item":7259,")}":7260,")ãĢģ":7261,")ï¼Į":7262,"-act":7263,"-ID":7264,"-co":7265,"-end":7266,"-po":7267,"-æĸ¹å·®":7268,"-go":7269,"-Attention":7270,"-quality":7271,"-agent":7272,".s":7273,".t":7274,".w":7275,".in":7276,".form":7277,".cur":7278,".np":7279,".eval":7280,".replace":7281,"/D":7282,"/L":7283,"/f":7284,"/s":7285,"/ä½İ":7286,"/Jav":7287,"/UID":7288,"/çĽ®æłĩ":7289,"/æ¬":7290,"/App":7291,"/ru":7292,"/commit":7293,"/lane":7294,"/candidates":7295,"/coverage":7296,"/An":7297,"/active":7298,"/JaVa":7299,"/workspace":7300,"/administrator":7301,"AS":7302,"AW":7303,"Ac":7304,"Action":7305,"AUT":7306,"AéªĮæĶ¶":7307,"APPROACH":7308,"BM":7309,"Bo":7310,"BPE":7311,"Breadcrumb":7312,"CON":7313,"Cook":7314,"COR":7315,"Context":7316,"Causal":7317,"DIT":7318,"DING":7319,"DPO":7320,"Epo":7321,"Experienced":7322,"FP":7323,"FET":7324,"Function":7325,"Freelance":7326,"GB":7327,"Gor":7328,"Groun":7329,"GER":7330,"HF":7331,"HR":7332,"Hash":7333,"HOR":7334,"Human":7335,"HREAD":7336,"HEAD":7337,"IP":7338,"ICA":7339,"JM":7340,"JV":7341,"KL":7342,"KV":7343,"LU":7344,"Landing":7345,"LHF":7346,"MR":7347,"MV":7348,"Mar":7349,"Map":7350,"Median":7351,"MIS":7352,"NK":7353,"NDING":7354,"OIN":7355,"Orphan":7356,"PT":7357,"Plan":7358,"Pilot":7359,"PHASE":7360,"QAéªĮæĶ¶":7361,"Res":7362,"RIG":7363,"RPC":7364,"Se":7365,"SSE":7366,"Såį³":7367,"Spiral":7368,"SFT":7369,"SWARM":7370,"Self":7371,"TF":7372,"TL":7373,"Tilt":7374,"TLS":7375,"TIMEOUT":7376,"Tian":7377,"User":7378,"UNDING":7379,"WOR":7380,"Writ":7381,"XT":7382,"Xin":7383,"[:":7384,"]ï¼ĽčĊ":7385,"_R":7386,"_g":7387,"_p":7388,"_th":7389,"_UID":7390,"_GA":7391,"_temp":7392,"_back":7393,"_model":7394,"_COM":7395,"_swarm":7396,"_manifest":7397,"_SA":7398,"_qa":7399,"_runtime":7400,"_scorer":7401,"_AUT":7402,"_CON":7403,"_MIS":7404,"aN":7405,"bd":7406,"bit":7407,"ble":7408,"blem":7409,"cre":7410,"cing":7411,"ced":7412,"cation":7413,"cay":7414,"ded":7415,"dent":7416,"dro":7417,"data":7418,"dates":7419,"efit":7420,"fail":7421,"fac":7422,"from":7423,"fix":7424,"gh":7425,"gan":7426,"gment":7427,"governor":7428,"hD":7429,"hat":7430,"ial":7431,"ied":7432,"ick":7433,"iang":7434,"jin":7435,"jiang":7436,"ker":7437,"kä¸ª":7438,"kill":7439,"len":7440,"line":7441,"lue":7442,"lack":7443,"list":7444,"lated":7445,"lgorithms":7446,"mation":7447,"mand":7448,"mun":7449,"mall":7450,"memory":7451,"median":7452,"motion":7453,"maining":7454,"new":7455,"naly":7456,"normalization":7457,"nnotation":7458,"oRA":7459,"oPE":7460,"oDB":7461,"pm":7462,"pis":7463,"pip":7464,"pics":7465,"prom":7466,"pai":7467,"qi":7468,"ql":7469,"qw":7470,"ror":7471,"run":7472,"rite":7473,"rating":7474,"ralized":7475,"sion":7476,"sçŃī":7477,"sue":7478,"saf":7479,"sible":7480,"src":7481,"tical":7482,"top":7483,"tract":7484,"try":7485,"ues":7486,"use":7487,"uide":7488,"ugh":7489,"vement":7490,"visited":7491,"vTool":7492,"wser":7493,"wall":7494,"wered":7495,"}ãĢĤ":7496,"},čĊ":7497,"¥æµĭ":7498,"¦åıĳ":7499,"§æ´":7500,"¨è¿":7501,"¨çİĩ":7502,"¨è®º":7503,"©ç½":7504,"©åı¯è®Ńç»ĥ":7505,"ªå":7506,"ªçİ¯":7507,"ªå¿ĥ":7508,"°æĥ":7509,"°åĩı":7510,"²çº¿":7511,"²ä»»":7512,"´©":7513,"µæįŁå¤±":7514,"·ä¿®å¤į":7515,"¸é¦":7516,"ºåº¦":7517,"»æī¾":7518,"¾æĸ":7519,"âĪ":7520,"åĦ":7521,"åķ":7522,"å³°":7523,"åĥı":7524,"èĴ":7525,"ĉUID":7526,"ĉæĹł":7527,"ĉæľª":7528,"ĉè¯ģæį®":7529,"ĉåĪĨæķ°":7530,"ĉéļĶç¦»":7531,"ĉå¾Ī":7532,"ĉè¾ħåĬ©":7533,"ĉä½İé£İéĻ©":7534,"ĉä¸ŃçŃī":7535,"ĉçŃīå¾ħ":7536,"ĠK":7537,"ĠçĶ¨":7538,"Ġèĥ½":7539,"Ġar":7540,"Ġæľī":7541,"Ġåľ¨":7542,"Ġå¾":7543,"Ġå¯¹":7544,"Ġä¸Ĭ":7545,"Ġem":7546,"Ġå¤ļ":7547,"Ġä¸ĭ":7548,"Ġé£İéĻ©":7549,"Ġï¼Ī":7550,"ĠåĲİç«¯":7551,"ĠæľĢ":7552,"Ġå°Ĩ":7553,"Ġæ¨¡åĿĹ":7554,"ĠGP":7555,"Ġå¿ħé¡»":7556,"Ġè¾ĵåħ¥":7557,"Ġä¼ĺåħĪ":7558,"Ġover":7559,"Ġå»ºç«ĭ":7560,"ĠåĨį":7561,"Ġçī¹å¾ģ":7562,"Ġæ²¡æľī":7563,"Ġä¿®å¤į":7564,"ĠæīĢæľī":7565,"Ġæģ¢å¤į":7566,"ĠåĽºå®ļ":7567,"Ġup":7568,"Ġ{\"":7569,"ĠåĪ¤æĸŃ":7570,"Ġæ¸ħçĲĨ":7571,"Ġå¤įåĪ¶":7572,"Ġæ¯ıä¸ª":7573,"Ġéħįå¯¹":7574,"Ġå¹´ä»¥ä¸Ĭ":7575,"ĠåĨ¯":7576,"Ġå°ļæľª":7577,"ĠONNX":7578,"ĠæĪĲä¸º":7579,"Ġactual":7580,"Ġæµĭè¯ķç»ıéªĮ":7581,"Ġodd":7582,"Ġleader":7583,"Ġå¼Ģåħ³":7584,"ĠValidation":7585,"ĠREADME":7586,"Ġoccupancy":7587,"ĠâĪ":7588,"ģåŃĺ":7589,"ģå¢ŀåĬł":7590,"ĥä¸":7591,"Ħæ¼ı":7592,"ħéĺħè¯»":7593,"Ĩä¸ļ":7594,"Ĩä¿®æĶ¹":7595,"ĨçŁ©éĺµ":7596,"ĩåĪ°":7597,"ĩåĪ«":7598,"ĭè½¬":7599,"ĮåĲĳ":7600,"įåİĨ":7601,"İä¹Ī":7602,"ıå®ŀ":7603,"ĳçĽ":7604,"ĳåº¦":7605,"Ĵæµĭè¯ķ":7606,"Ķç¤º":7607,"Ĺç¾İ":7608,"Ļs":7609,"ľæĹ¶":7610,"ĠĠčĊ":7611,"ãĢģD":7612,"ãĢģc":7613,"ãĢģt":7614,"ãĢģæĹ¶éĹ´":7615,"ãĢģè¿Ĳ":7616,"ãĢģex":7617,"ãĢģå®ĮæĪĲ":7618,"ãĢģç§»":7619,"ãĢģç»ĵæŀľ":7620,"ãĢģæŁ¥è¯¢":7621,"ãĢģåĪĨéħį":7622,"ãĢģåĵĪå¸Į":7623,"ãĢģè¿Ľç¨ĭ":7624,"ãĢģèĮĥåĽ´":7625,"ãĢģåĨħåŃĺ":7626,"ãĢģéķ¿æľŁ":7627,"ãĢģç¨ĭåºı":7628,"ãĢģåħ¼å®¹":7629,"ãĢģé»ĺè®¤åħ³éĹŃ":7630,"ãĢģéļıæľº":7631,"ãĢģæ¨¡åĿĹåĮĸ":7632,"ãĢģéĻįç»´":7633,"ãĢģè¶ħåıĤæķ°":7634,"ãĢģæµ·å¤ĸ":7635,"ãĢģçĿĢéĻĨ":7636,"ãĢģæıĴåħ¥":7637,"ãĢģéħįç½®åĴĮ":7638,"ãĢģéĿŀçĽ®æłĩåľ°åĽ¾":7639,"ãĢģçī©èģĶç½ĳ":7640,"ãĢģJM":7641,"ï¼Įa":7642,"ï¼Įåį":7643,"ï¼ĮUID":7644,"ï¼ĮçĽ´æİ¥":7645,"ï¼Įè®¡ç®Ĺ":7646,"ï¼Įç±»åŀĭ":7647,"ï¼ĮæĤ¨":7648,"ï¼Įæľª":7649,"ï¼ĮæĮī":7650,"ï¼ĮçĽ®åīį":7651,"ï¼Įç®Ģåįķ":7652,"ï¼Įè®©":7653,"ï¼Įbase":7654,"ï¼Įæ¨¡åŀĭçļĦ":7655,"ï¼Įåħ·æľī":7656,"ï¼Įåıªèĥ½":7657,"ï¼Įå¸®åĬ©":7658,"ï¼ĮçĦ¶åĲİ":7659,"ï¼ĮéĤ£":7660,"ï¼ĮåģľæŃ¢":7661,"ï¼Įè¾ĥé«ĺ":7662,"ï¼Įè®©æĪĳå¤įåĪ¶":7663,"ï¼Įä¹ĭåīį":7664,"ï¼Įè®¡ç®ĹæľºçĽ¸åħ³ä¸ĵä¸ļ":7665,"ï¼ĮåĲĪçĲĨçļĦ":7666,"ãĢĤï¼Į":7667,"ãĢĤéľĢè¦ģ":7668,"ãĢĤåıĤä¸İ":7669,"ãĢĤåħĪ":7670,"ãĢĤå½ĵåīį":7671,"ãĢĤå°±":7672,"ãĢĤæł¹æį®":7673,"ãĢĤè°¢":7674,"ãĢĤ\"čĊ":7675,"inal":7676,"åĪļ":7677,"çļĦæĺ¯":7678,"çļĦä½¿çĶ¨":7679,"çļĦå¹³":7680,"çļĦæĬĢæľ¯":7681,"çļĦæŃ¥":7682,"çļĦäºº":7683,"çļĦåĲĳéĩı":7684,"çļĦçĽ®æłĩ":7685,"çļĦä¾Ŀèµĸ":7686,"çļĦå²Ĺä½į":7687,"çļĦæ¨¡åĿĹ":7688,"çļĦéĩįå¤į":7689,"çļĦæł·æľ¬":7690,"çļĦæ¯Ķ":7691,"çļĦéĢļä¿¡":7692,"çļĦåıĺåĮĸ":7693,"çļĦXSEC":7694,"çļĦåıĤèĢĥ":7695,"çļĦç¦»æķ£":7696,"çļĦç¥ŀç»ıç½ĳç»ľ":7697,"çļĦéļıæľº":7698,"çļĦè¾ħåĬ©":7699,"çļĦæ¦ĤçİĩåĪĨå¸ĥ":7700,"çļĦæłĩæ³¨":7701,"çļĦè¯įåħĥ":7702,"çļĦæķ´æķ°ID":7703,"çļĦç»Ļä½ł":7704,"çļĦå°½éĩıåĲĪå¹¶":7705,"çļĦè½»éĩıçº§":7706,"ere":7707,"eran":7708,"error":7709,"ond":7710,"åĲ§":7711,"è®²":7712,"è®¨è®º":7713,"ïĤ·M":7714,"ïĤ·Human":7715,"åºķ":7716,"ena":7717,"enefit":7718,"atas":7719,"atist":7720,"atible":7721,"release":7722,"rements":7723,"refix":7724,"remaining":7725,"çĶ¨è¯į":7726,"çĶ¨ä¾ĭ":7727,"anual":7728,"anout":7729,"åĮĹç¾İ":7730,"æŀĿ":7731,"ora":7732,"æĺ¯å¯¹":7733,"æĺ¯åºĶçĶ¨":7734,"æĺ¯Go":7735,"æĺ¯ä»İ":7736,"æĺ¯æĮĩ":7737,"æĺ¯åĿĩ":7738,"æĺ¯è¿Ļå²Ĺä½į":7739,"æĺ¯æıĲä¾Ľç»Ļ":7740,"å·±":7741,"éĢı":7742,"éĢĨä¿®æĶ¹":7743,"state":7744,"stagnation":7745,"strategy":7746,"ä¸İåĽ¢éĺŁ":7747,"ä¸İåŁºç¡Ģ":7748,"ä¸İè´¨éĩı":7749,"ä¸İå®ŀéĻħ":7750,"ä¸İäº§åĵģ":7751,"ä¸İç¼º":7752,"ä¸İæµ·å¤ĸ":7753,"èĥ½åĮ¹éħį":7754,"èĥ½ä¿Ŀè¯ģ":7755,"èĥ½åĲĪå¹¶":7756,"ï¼ļUID":7757,"ï¼ļé»":7758,"alib":7759,"alist":7760,"edul":7761,"(\"ï¼Ł\",":7762,"(\"./":7763,"ä»¥è¶³å¤Ł":7764,"ition":7765,"çĲĨçĶ±":7766,"çĲĨè®º":7767,"æ¨ª":7768,"åĪĨè¾":7769,"åĪĨè¯į":7770,"åĪĨæŁ¥æī¾":7771,"åĪĨæī¹":7772,"æĹģå¢ŀåĬł":7773,"æĹĭè½¬":7774,"æĢ»ç»ĵ":7775,"æĢİä¹Ī":7776,"åı¯éªĮè¯ģ":7777,"åı¯éĩįå¤į":7778,"åı¯æī§è¡Į":7779,"åı¯åħ¼":7780,"åı¯éĢĨä¿®æĶ¹":7781,"æķ°æį®æ³":7782,"åıĬåħ¶":7783,"åıĬä»¥ä¸Ĭ":7784,"åĽ°æĥ":7785,"è¡°åĩı":7786,"Ġ\"\\":7787,"åŀĭæķ°æį®åºĵ":7788,"ĠAWS":7789,"ä¸įæĸŃ":7790,"ä¸įå¥½":7791,"ä¸įå¾Ĺ":7792,"ä¸įä¿®æĶ¹":7793,"ä¸įç¬¦":7794,"ä¸įå¸ĮæľĽ":7795,"ä¸įä¸Ģå®ļ":7796,"ä¸įå¤©çĦ¶":7797,"ä¸įåı¯åıĺ":7798,"ä¸įåı¯éĢĨä¿®æĶ¹":7799,"å¸§":7800,"è§¦åıĳ":7801,"æĪĲå¤ļä¸ª":7802,"éĻĦ":7803,"éĻ·ä¿®å¤į":7804,"æĹ¶è¾ĵåĩº":7805,"æĹ¶åĢĻ":7806,"æĹ¶éļıæľº":7807,"æĹ¶ä½¿çĶ¨çļĦ":7808,"ï¼Łç½ĳä¸Ĭæī¾ä¸Ģä¸ĭ":7809,"aries":7810,"arles":7811,"arative":7812,"ä»Ģä¹Īæł·":7813,"ä»Ģä¹ĪæĹ¶åĢĻ":7814,"entralized":7815,"rough":7816,"rowser":7817,"ä¸ĢåĿĩ":7818,"ä¸ĢæĿ¡":7819,"ä¸Ģéĥ¨åĪĨ":7820,"ä¸ĢèĪ":7821,"ä¸Ģåı¥":7822,"æµĭéĩı":7823,"æ¨¡åŀĭæĪĸ":7824,"æ¨¡åŀĭé¢Ħæµĭ":7825,"æ¨¡åŀĭå°Ĩ":7826,"æ¨¡åŀĭè¾ĵåĩº":7827,"æ¨¡åŀĭæŀ¶æŀĦ":7828,"æ¨¡åŀĭæıĲä¾Ľ":7829,"æ¨¡åŀĭåıª":7830,"æ¨¡åŀĭæĢ§èĥ½":7831,"æ¨¡åŀĭæĿĥéĩį":7832,"æ¨¡åŀĭåĨħéĥ¨":7833,"æ¨¡åŀĭåīª":7834,"defer":7835,"detection":7836,"å°ºåº¦":7837,"å°ģåŃĺ":7838,"åħ¨éĿ¢":7839,"åħ¨è·¯å¾Ħ":7840,"åħ¨å±Ģ":7841,"é¡¶":7842,"éĢļçĶ¨":7843,"Ġsch":7844,"Ġsmall":7845,"ational":7846,"åĴĮåĪĨæŀĲ":7847,"åĴĮä¸º":7848,"åĴĮå®īåħ¨":7849,"åĴĮå¤ĦçĲĨ":7850,"åĴĮåĩº":7851,"åĴĮæ£Ģç´¢":7852,"åĴĮæĸĩæľ¬":7853,"åĴĮä¼ĺåĮĸ":7854,"åĴĮæ²ŁéĢļ":7855,"åĴĮçº¿ç¨ĭ":7856,"åĴĮèµĦæºĲ":7857,"åĴĮåħ¨èģĮ":7858,"åĴĮåĪłéĻ¤":7859,"åĴĮè¿ĶåĽŀ":7860,"åĴĮValue":7861,"åĴĮåĨĻåħ¥":7862,"åĴĮçĲĨè®º":7863,"lection":7864,"andom":7865,"andards":7866,"å¯»æī¾":7867,"isy":7868,"Ġcf":7869,"Ġcan":7870,"Ġcore":7871,"Ġcateg":7872,"Ġcrit":7873,"Ġcalib":7874,"Ġcentralized":7875,"icing":7876,"ices":7877,"ä»Ģä¹Īæĺ¯RAG":7878,"ä»Ģä¹Īæĺ¯æĸ¹å·®":7879,"ä»Ģä¹Īæĺ¯Batch":7880,"ä»Ģä¹Īæĺ¯Top":7881,"ä»Ģä¹Īæĺ¯Agent":7882,"ä»Ģä¹Īæĺ¯Chunk":7883,"ä»Ģä¹Īæĺ¯åģıå·®":7884,"ä»Ģä¹Īæĺ¯äºĮåıī":7885,"mpatible":7886,"çİ°åľº":7887,"ä¸ŃçĶŁæĪĲ":7888,"ä¸Ńå®ļä¹ī":7889,"ä¸Ńå¸¸çĶ¨çļĦ":7890,"åĩŃ":7891,"location":7892,"çĶŁæĢģ":7893,"async":7894,"changed":7895,"è®¡åĪĴ":7896,"åŃ¦åİĨ":7897,"åŃ¦ç»ıåİĨ":7898,"åŃ¦èĢħ":7899,"WebæľįåĬ¡":7900,"è¿ĩåº¦åŃ¦ä¹ł":7901,"è¿ĩè¿ĻäºĽ":7902,"è¿ĩäºİç®Ģåįķ":7903,"è¿ĩç§ĳçłĶä¸»ä½ĵå·¥ä½ľå·²ç»ıå®ĮæĪĲ":7904,"ä»¥åıĬæµģç¨ĭ":7905,"åºĶä»¥":7906,"åºĶçī¹å®ļä»»åĬ¡":7907,"çº²":7908,"çº³":7909,"Ġrebase":7910,"Ġregress":7911,"Ġrequi":7912,"Ġrelease":7913,"Ġresearch":7914,"è¦ģæĬķ":7915,"è¦ģä¸įè¦ģ":7916,"åĮħè£ħ":7917,"thena":7918,"æľ¬ä»»åĬ¡":7919,"åĲĪè§Ħ":7920,"æľīè¾ĥ":7921,"æľīè¯ģæį®":7922,"æľīåĵªäºĽ":7923,"è´ªå¿ĥ":7924,"åľ¨å½ĵåīį":7925,"åľ¨ç»Ļ":7926,"åľ¨éĿ¢è¯ķ":7927,"åľ¨æłĩåĩĨ":7928,"æľįåĽ¢éĺŁ":7929,"åħ³äºİ":7930,"åº¦ä¼ĺåħĪ":7931,"åº¦è¿Ľè¡Įå½Ĵä¸ĢåĮĸ":7932,"æĭĸ":7933,"æŀĦéĢł":7934,"eto":7935,"eter":7936,"etad":7937,"åīįQAéªĮæĶ¶":7938,"ĠSSE":7939,"ĠSHA":7940,"ĠSafety":7941,"ĠSwarm":7942,"ĠSpeci":7943,"ĠSummar":7944,"ĠSkill":7945,"ĠCall":7946,"ĠCache":7947,"ĠChat":7948,"tep":7949,"Ġpool":7950,"Ġpipe":7951,"Ġpetrochemical":7952,"è¡ĮåĬ¨":7953,"ä½¿çĶ¨æ²¡æľī":7954,"ä½¿çĶ¨å¸¦":7955,"ç§©åı¯è®Ńç»ĥ":7956,"å¼ĢåıĳåŁºåĩĨ":7957,"Ġfoc":7958,"Ġfrom":7959,"Ġfactual":7960,"Ġfinal":7961,"Ġfanout":7962,"å±±":7963,"å±ħ":7964,"å±ı":7965,"å¸¸éĩı":7966,"ĠPO":7967,"ĠPostgre":7968,"ĠPlatform":7969,"å¹¶éĻįä½İ":7970,"å¹¶åĩıå°ĳ":7971,"å¤įçĶ¨":7972,"é¢Ħè®Ńç»ĥ":7973,"é¢ĦåħĪ":7974,"é¢Ħæ³¨åĨĮ":7975,"é¢Ħå®ļä¹ī":7976,"éĽªå":7977,"å®īè£ħ":7978,"ä¸ºäºĨ":7979,"ä¸ºæŃ£":7980,"ä¸ºçŁŃæľŁ":7981,"å¯¹åĲĦ":7982,"å¯¹ä¸ŃéĹ´":7983,"å¯¹è¿Ļä¸ª":7984,"å¯¹çº¿ä¸Ĭ":7985,"å¯¹åĪĿæŃ¥":7986,"å¿į":7987,"å¿ĺ":7988,"æµģçķ":7989,"å®ļæľŁ":7990,"å®īåħ¨éĹ®é¢ĺ":7991,"å®īåħ¨éĹ¨æ§Ľ":7992,"QLoRA":7993,"è¡¨ä¸ŃçļĦ":7994,"èĥ½åĬĽå¼º":7995,"ç´§":7996,"Ġinto":7997,"æĸ°æķ°æį®":7998,"æĸ°æľºåĪ¶":7999,"æĸ°åŁºçº¿":8000,"æĸ°åŁºåĩĨ":8001,"ä»£çłģæ³¨":8002,"ä»£çłģçļĦæĥħåĨµä¸ĭ":8003,"ä»£çłģè°±ç³»":8004,"ä¸Ĭå®Įæķ´":8005,"åĬ¨ç«¯":8006,"åŃ¦ä¹łåĵªäºĽæĸĩä»¶":8007,"åŃ¦ä¹łæķ°æį®ä¸ŃçļĦ":8008,"ĠExperience":8009,"ĠExpress":8010,"ĠETL":8011,"åŃĺæĶ¾":8012,"åħ¥åĨħåŃĺ":8013,"SQLæ³¨åħ¥":8014,"Ġmo":8015,"Ġmost":8016,"Ġmak":8017,"Ġmiddleware":8018,"Ġmetad":8019,"éĩįæŁ¥":8020,"éĩįæİĴåºı":8021,"ReLU":8022,"å¤ļå±Ĥ":8023,"å¤ļè¿Ľç¨ĭ":8024,"å¤ļAgent":8025,"å¼ıæ³ķ":8026,"æłĩè®°":8027,"ä¸ĭè½½":8028,"è®Ńç»ĥåĴĮ":8029,"è®Ńç»ĥæłĩçŃ¾":8030,"è®Ńç»ĥæĹ¶éļıæľº":8031,"è¿ĽåħĪ":8032,"çĶ¨äºİé¢Ħæµĭ":8033,"çĶ¨äºİåŃĺåĤ¨":8034,"çĶ¨äºİè¡¡éĩı":8035,"çĶ¨äºİåĮħè£ħ":8036,"Ġdron":8037,"Ġdistrib":8038,"Ġdtype":8039,"çĽ¸è¿ĳ":8040,"å®ŀçİ°çļĦ":8041,"å®ŀçİ°æİ¥åı£":8042,"å¤ĦçĲĨæĸĩæľ¬":8043,"å¤ĦçĲĨå¤§éĩı":8044,"è§£æŀĲ":8045,"é£İéĻ©ä¼ĺåĮĸ":8046,"uting":8047,"Ġbatch":8048,"Ġbash":8049,"Ġbelief":8050,"æĸĩä»¶å¿ħé¡»":8051,"æĸĩä»¶å®ŀéĻħ":8052,"æĸĩä»¶åĬłè½½":8053,"çĶŁæĪĲæĹ¶":8054,"çĶŁæĪĲæ¨¡åŀĭ":8055,"çĶŁæĪĲæ¦ĤçİĩåĪĨå¸ĥ":8056,"çĶŁæĪĲåĮ¹éħįåº¦æľĢé«ĺçļĦATS":8057,"åĳ³":8058,"æĪĸæķ°æį®":8059,"æĪĸç±»":8060,"æĪĸæĥ":8061,"æĪĸåħ¨éĥ¨":8062,"åĢ¾æĸ":8063,"ï¼īä¼ĺåħĪ":8064,"igmo":8065,"igible":8066,"verla":8067,"åıĺå¾Ĺ":8068,"ostman":8069,"æĽ²çº¿":8070,"è½¨è¿":8071,"ï¼ĪPython":8072,"ï¼Īè¿ľç¨ĭåĬŀåħ¬":8073,"ï¼ĪåĮĹç¾İ":8074,"Redisåı¯ä»¥":8075,"prise":8076,"çīĮ":8077,"åı¯ä»¥ä½¿çĶ¨":8078,"åı¯ä»¥çĶ¨äºİ":8079,"åı¯ä»¥æıĲä¾Ľ":8080,"åı¯ä»¥ç»§ç»Ń":8081,"åı¯ä»¥å¤ĦçĲĨçļĦ":8082,"gree":8083,"è®¤çľŁ":8084,"é«ĺèĢĮ":8085,"é«ĺè´¨éĩı":8086,"é«ĺåı¯çĶ¨":8087,"é«ĺåĢ¾æĸ":8088,"åĩºçļĦæķ°æį®ç»ĵæŀĦ":8089,"æ²¿":8090,"åĮħæĭ¬åħ¥":8091,"æ±ĤåĴĮ":8092,"Ġagent":8093,"ä»»å¿ĥ":8094,"ä»»ä½ķ":8095,"å®Įåħ¨":8096,"å®ĮåĸĦ":8097,"èĩªæ£Ģ":8098,"èĩªè¡Į":8099,"èĩªä¿®":8100,"èĩªæ³¨æĦıåĬĽ":8101,"èĩªèº«":8102,"èĩªåĽŀå½Ĵ":8103,"èĩªå·±":8104,"Ġdebu":8105,"Ġdescent":8106,"Ġdecay":8107,"åĬłå¯Ĩ":8108,"cept":8109,"æľºåĪ¶æľīæķĪ":8110,"æľºåĪ¶æĿ¥æºĲ":8111,"åĨħå¤ļä¸ª":8112,"æĹ¶éĹ´å¤įæĿĤåº¦":8113,"Ġtrans":8114,"Ġtorch":8115,"ä¿¡åı·":8116,"çĽ¸åħ³ç³»æķ°":8117,"çŃīéĹ®é¢ĺ":8118,"çŃīä¼ļ":8119,"çŃīå¤įæĿĤ":8120,"ä»»åĬ¡åĴĮ":8121,"æµĭè¯ķæĸ¹æ³ķ":8122,"æµĭè¯ķå·¥åħ·":8123,"æµĭè¯ķçĶ¨ä¾ĭ":8124,"æµĭè¯ķä¸İåŁºç¡Ģ":8125,"æµĭè¯ķçŃīä¼ļ":8126,"éĢļè¿ĩåľ¨":8127,"éĢļè¿ĩSQL":8128,"éĢļè¿ĩè®Ńç»ĥ":8129,"éĢļè¿ĩHTTP":8130,"éĢļè¿ĩåĵĪå¸Į":8131,"éĢļè¿ĩç´¢å¼ķ":8132,"æ·ĨçŁ©éĺµ":8133,"çľģ":8134,"ĠBatch":8135,"ĠBitbucket":8136,"å¤§æķ°æį®":8137,"Ġevalu":8138,"Ġevents":8139,"Ġepis":8140,"ified":8141,"ãĢģPostman":8142,"éļ¾":8143,"éļĲ":8144,"å®¹éĩı":8145,"å®¹æĺĵ":8146,"å®¹å¿į":8147,"pec":8148,"ueues":8149,"ç®ĹåŃĲ":8150,"éľĢè¦ģæ³¨æĦı":8151,"æĽ´ç¨³å®ļ":8152,"æĽ´å¿«çļĦ":8153,"âĢ¦":8154,"âĢĳ":8155,"âĢĻs":8156,"æĦ¿":8157,"Ġwind":8158,"Ġworld":8159,"è¿Ļæĺ¯":8160,"è¿Ļæł·":8161,"è¿Ļç§į":8162,"è¿Ļæ±ĤèģĮ":8163,"GoalPosterior":8164,"coded":8165,"æĪĳä¼ļ":8166,"æĪĳå·²ç»ı":8167,"æĪĳè¿Ļè¾¹":8168,"æĪĳä»¬":8169,"æĪĳèĩªå·±":8170,"å¹³è¡¡":8171,"è®¾è®¡ç»ıéªĮ":8172,"ackend":8173,"ä½İç§©åı¯è®Ńç»ĥ":8174,"æİ§åĪ¶æ¯ıæ¬¡":8175,"æİ§åĪ¶çĶŁæĪĲæ¦ĤçİĩåĪĨå¸ĥ":8176,"åĪ°åºıåĪĹ":8177,"åĪ°æľª":8178,"åĪ°å¯¹è±¡":8179,"åĪ°è¾¾":8180,"å·®åĪ«":8181,"éĹ®é¢ĺåĴĮ":8182,"éĹ®é¢ĺåı¯èĥ½":8183,"éĹ®é¢ĺå¤§éĥ¨åĪĨ":8184,"ava":8185,"åıĤæķ°åĮĸ":8186,"åıĤæķ°éĩı":8187,"åıĤæķ°æĪĸ":8188,"åıĤæķ°åĴĮè¿ĶåĽŀ":8189,"ĠFunctions":8190,"Ġstagnation":8191,"Ġstandards":8192,"éĢļå¸¸å¯¹":8193,"éĢļå¸¸éľĢè¦ģ":8194,"éĢļå¸¸æĽ´":8195,"éĢļå¸¸è¡¨ç¤º":8196,"éĢļå¸¸ä¸įçĽ´æİ¥":8197,"åħ¶ä¸Ń":8198,"åħ¶å®ļä¹ī":8199,"ç»´åº¦è¿Ľè¡Įå½Ĵä¸ĢåĮĸ":8200,"ç®Ģè¦ģ":8201,"udge":8202,"udgment":8203,"çĶ¨æĪ·åıįé¦Ī":8204,"çĶ¨æĪ·è§Ĥå¯Ł":8205,"éªĮè¯ģè¸":8206,"åħĪè¯»åıĸ":8207,"åħĪè®°ä¸Ģä¸ĭ":8208,"æ¶Īè´¹":8209,"ä¸»éĶ®":8210,"æİ¨æµĭ":8211,"æİ¨å¯¼":8212,"æĻºèĥ½ä½ĵ":8213,"å·¥ä½ľæ²¡æľī":8214,"æŃ£åĲĳ":8215,"æŃ£æł·æľ¬":8216,"æŃ£è´Ł":8217,"æŃ£åĪĻ":8218,"Pythonçº¿ç¨ĭ":8219,"Pythonè§£éĩĬåĻ¨":8220,"PythonåŃĹèĬĤçłģ":8221,"åĽ¾ç½ĳç»ľ":8222,"åĽ¾åĥı":8223,"è¿ŀæİ¥æŁ¥è¯¢":8224,"å½ĵåīįå®ĺæĸ¹":8225,"å½ĵåīįåľ°åĽ¾":8226,"å½ĵåīįæĿĥå¨ģ":8227,"ï¼Įä¸įå¾Ĺ":8228,"ï¼Įä¸įä¼ļå½±åĵį":8229,"éĢīä¿®":8230,"å¾®ä¿¡":8231,"åĽ¢éĺŁè¿Ľè¡Į":8232,"ĠTh":8233,"ĠTensor":8234,"ĠTILT":8235,"æŀ¶æĹłäººæľº":8236,"å°Ĩæķ°æį®åĪĴ":8237,"RAME":8238,"RANK":8239,"æĺİæĺ¾":8240,"è¿Ľè¡ĮæİĴåºı":8241,"è¿Ľè¡Įå¤įçİ°":8242,"åŃĺåĤ¨ç©ºéĹ´":8243,"duct":8244,"ternal":8245,"è°ĥçĶ¨éĵ¾":8246,"olang":8247,"è¦ĨçĽĸæĸ¹åĲĳ":8248,"è¯įè¯Ń":8249,"è¯įåĲĳéĩı":8250,"è§ĦèĮĥ":8251,"ä¸Ģä¸ªä¸Ģä¸ª":8252,"ä¸Ģä¸ªåıĺéĩı":8253,"ä¸Ģä¸ªåºıåĪĹ":8254,"ä¸Ģä¸ªè·Ł":8255,"Ġprotection":8256,"Ġpromotion":8257,"Ġproduct":8258,"æĦıä¹ī":8259,"ä»İç´¯è®¡":8260,"ä»İè¾ĵåĩºå±Ĥ":8261,"åĪ«è¯´":8262,"åĲĳéĩıç©ºéĹ´":8263,"import":8264,"çĽ´æİ¥åĬł":8265,"çĽ´æİ¥ä¿®æĶ¹":8266,"å°ıçļĦ":8267,"çĽ®æłĩä¸İ":8268,"çĽ®æłĩåıĺéĩı":8269,"çĽ®æłĩä¸įæĺ¯":8270,"çĽ®æłĩåĪĩæį¢":8271,"è¡¨ç¤ºä¸Ģæ¬¡":8272,"ä¿¡æģ¯åĴĮ":8273,"æ¶Īæģ¯éĺŁåĪĹ":8274,"irmation":8275,"lacing":8276,"éģ¥æµĭ":8277,"éģĩåĪ°":8278,"éģįåİĨ":8279,"ĠMAT":8280,"æĸĩæľ¬è½¬æį¢ä¸º":8281,"ails":8282,"åħ¬åħ±":8283,"è¯»åĨĻ":8284,"å°±çĶ¨":8285,"å°±è¡Į":8286,"å°±ç»ĻæĪĳ":8287,"è®¡ç®ĹæĪĸ":8288,"è®¡ç®Ĺåįķåħĥ":8289,"æİ¥åı£æµĭè¯ķä¸İåŁºç¡Ģ":8290,"è¯Ńä¹īçĽ¸ä¼¼åº¦":8291,"è¯Ńè¨Ģåįķä½į":8292,"ä¾ĿèµĸæľįåĬ¡":8293,"ä¾Ŀèµĸæ³¨åħ¥":8294,"éķ¿æĸĩæ¡£åĪĩåĪĨ":8295,"ambd":8296,"amoDB":8297,"åīįç«¯å·¥ç¨ĭå¸Ī":8298,"å²Ĺä½įæĶ¯æĮģè¿ľç¨ĭ":8299,"å²Ĺä½įè¦ģçļĦ":8300,"urr":8301,"urora":8302,"Ġangle":8303,"è¾ĥå¤§":8304,"è¾ĥå·®":8305,"è¾ĥå¿«çļĦ":8306,"ä¸ŃçļĦæ¯ıä¸ª":8307,"åħ¶ä»ĸä½įç½®":8308,"Chann":8309,"Charles":8310,"ests":8311,"ssess":8312,"onfirmation":8313,"åĮºéĹ´":8314,"éĢĤåºĶçī¹å®ļä»»åĬ¡":8315,"æĹłåºı":8316,"ç§įåŃĲ":8317,"ignment":8318,"å®ĮæĪĲç®Ģåįķ":8319,"å®ĮæĪĲæİ¥åı£æµĭè¯ķä¸İåŁºç¡Ģ":8320,"éĻįä½İè¾ĵåħ¥":8321,"è¯Ħä¼°åĻ¨":8322,"ä¼ĺåĮĸçīĪ":8323,"ä¼ĺåĮĸè¯Ńè¨Ģæ¨¡åŀĭ":8324,"æ´Ĺ":8325,"ï¼Įä½¿è¯Ńä¹ī":8326,"åĽłç´ł":8327,"å¢ŀéĩı":8328,"çī¹åĪ«":8329,"-series":8330,"ume":8331,"åıĸæ¶Ī":8332,"åıĸå¾Ĺ":8333,"åıĸåĨ³":8334,"è®¿éĹ®çļĦæķ°æį®":8335,"è®¿éĹ®åĲİç«¯æķ°æį®":8336,"å¯¼åħ¥":8337,"çŃĸæłĩåĩĨ":8338,"éĶ®çļĦ":8339,"éĶ®å¿«éĢŁ":8340,"æł¹æį®æŁ¥è¯¢":8341,"æł¹æį®æįŁå¤±åĩ½æķ°":8342,"æł¹æį®åħ¶ä»ĸä½įç½®":8343,"æ»ĳ":8344,"Ġnpm":8345,"Ġnudge":8346,"Ġqueues":8347,"æĬĬä¸Ģç»Ħ":8348,"æĬĬå²Ĺä½įæııè¿°":8349,"è¿ĩç¨ĭä¸Ń":8350,"æĿĥéĻĲ":8351,"å±Ĥè¾ĵåĩº":8352,"å±Ĥåįıè®®":8353,"ome":8354,"outine":8355,"Ġgate":8356,"Ġgrap":8357,"Ġguide":8358,"Ġhand":8359,"Ġhard":8360,"æĺ¯ä¸Ģç±»":8361,"åįıç¨ĭ":8362,"Ġsearch":8363,"Ġsecre":8364,"åħ³ç³»åŀĭæķ°æį®åºĵ":8365,"å¿ħçľĭ":8366,"ä½įç½®æł¹æį®åħ¶ä»ĸä½įç½®":8367,"åİĨåı²æĬ¥åĳĬ":8368,"åİĨåı²åĨ»ç»ĵ":8369,"çĭ¬ç«ĭæĢ§":8370,"çĭ¬ç«ĭå¤ĦçĲĨ":8371,"çĭ¬ç«ĭè¿Ľè¡Įæķ°æį®":8372,"çĭ¬ç«ĭä»£çłģè°±ç³»":8373,"çĭ¬ç«ĭå®ĮæĪĲæİ¥åı£æµĭè¯ķä¸İåŁºç¡Ģ":8374,"ĠçļĦæıĲåįĩ":8375,"ĠçļĦåĬŁèĥ½":8376,"å¦ĤæŀľåĨłåĨĽ":8377,"å¦Ĥæŀľå²Ĺä½įæĶ¯æĮģè¿ľç¨ĭ":8378,"èĩ³å°ĳ":8379,"å¥½çļĦ":8380,"å¥½ä½Ĩ":8381,"æī«æııåħ¶ä»ĸä»»åĬ¡":8382,"-target":8383,"ioS":8384,"é¡µå·¦":8385,"æľºåĻ¨ç¿»è¯ĳ":8386,"åºıåĪĹä½įç½®ä¿¡æģ¯":8387,"åºıåĪĹåĪ°åºıåĪĹ":8388,"åºıåĪĹä¸ŃçļĦæ¯ıä¸ª":8389,"åı¯èĥ½çļĦ":8390,"åı¯èĥ½å¯¼èĩ´":8391,"æł·æľ¬è¿Ľè¡ĮæİĴåºı":8392,"æľªè¦ĨçĽĸæĸ¹åĲĳ":8393,"äºĮåĪĨæŁ¥æī¾":8394,"ä¸Ģèĩ´æĪĸ":8395,"è´£ä»»å¿ĥ":8396,"çľĭäºĨ":8397,"ï¼Įä½Ĩä¸į":8398,"ï¼Įä½Ĩä¸įèĥ½":8399,"ï¼Įä½Ĩä¼ļå¢ŀåĬł":8400,"æĲľç´¢æłĳ":8401,"å¿ħé¡»åĲĮæĹ¶":8402,"å¿ħé¡»è®°å½ķ":8403,"æ²ŁéĢļèĢħ":8404,"åĨłåĨĽåĪ·æĸ°":8405,"PETIT":8406,"çĨµæįŁå¤±":8407,"Ġrun":8408,"Ġrace":8409,"Ġrandom":8410,"ï¼Įä»¥åĩıå°ĳ":8411,"ï¼Įä»¥èİ·å¾ĹæĽ´":8412,"ï¼Įåı¯ä»¥åľ¨":8413,"ï¼Įåı¯ä»¥çĶ¨äºİ":8414,"ï¼Įåı¯ä»¥éĢļè¿ĩ":8415,"ï¼Įåı¯ä»¥åĩıå°ĳ":8416,"ï¼Įåı¯ä»¥åľ¨ä¸į":8417,"äºĽé¡¹çĽ®ä¸Ń":8418,"è´Łè½½":8419,"åİŁåĽł":8420,"åİŁå¯¹è±¡":8421,"å¤ļä¸ªå¯¹è±¡":8422,"è¾ĵåħ¥åĴĮ":8423,"è¾ĵåħ¥è§Ħæ¨¡å¢ŀéķ¿":8424,"çŃĸçķ¥å¿ħé¡»":8425,"æī§è¡Įåįķåħĥ":8426,"æī§è¡ĮPythonåŃĹèĬĤçłģ":8427,"å®ĺæĸ¹çİ¯å¢ĥ":8428,"å®ĺæĸ¹åĪĨæķ°":8429,"å®ĺæĸ¹æºĲçłģ":8430,"å®ĺæĸ¹åįķçº¿ç¨ĭ":8431,"Ġlogging":8432,"ï¼ĮçĶ¨äºİæııè¿°":8433,"æĺ¯åĲ¦çľŁæŃ£":8434,"Ġscal":8435,"Ġreport":8436,"Ġrepair":8437,"Ġreplacing":8438,"éľĢæ±Ĥç¼ĸåĨĻ":8439,"éľĢæ±ĤèĲ½åľ°":8440,"ç¼ĵè§£":8441,"åĿĩè¡¡":8442,"åĲĮæĹ¶æī§è¡ĮPythonåŃĹèĬĤçłģ":8443,"åĢĻéĢīéĽĨåĲĪ":8444,"HTTPä¹ĭä¸Ĭ":8445,"æĴŀ":8446,"ĠRuntime":8447,"ĠRoute":8448,"ç»ĪæŃ¢":8449,"åŃĲæłĳ":8450,"ä¸Ģä¸ĭåħ·ä½ĵ":8451,"åĩ½æķ°æĪĸç±»":8452,"ç»ıåİĨçļĦäºº":8453,"éĩįæĸ°æĲľç´¢":8454,"éĩįæĸ°åĪĨéħį":8455,"éĩįæĸ°è§ĦåĪĴ":8456,"Ġwithin":8457,"æİ¨çĲĨä¼ĺåĮĸ":8458,"è¿Ĳè¡ĮæľŁéĹ´":8459,"éĵ¾è¡¨":8460,"éĵ¾å¼ıæ³ķ":8461,"Ġä¸ªçĭ¬ç«ĭä»£çłģè°±ç³»":8462,"åĪĻä»İè¾ĵåĩºå±Ĥ":8463,"å®¢æľįåĽ¢éĺŁ":8464,"ersist":8465,"Ġcontext":8466,"Ġconnect":8467,"å»ºç«ĭçļĦè¾ħåĬ©":8468,"åĽŀçŃĶçļĦ":8469,"ç®ĢåİĨåĲ§":8470,"æĺ¯ä¸Ģç§įéĿ¢åĲĳ":8471,"æĺ¯ä¸Ģç§įæľīåºı":8472,"æĺ¯ä¸Ģç§įçĶ¨äºİåĮħè£ħ":8473,"ç¼ĵåŃĺé¡¹":8474,"ç¼ĵåŃĺéĿĻæĢģ":8475,"ç¼ĵåŃĺåĩ»":8476,"ç¼ĵåŃĺç©¿":8477,"ç¼ĵåŃĺéĽªå":8478,"ä¸Ĭä¸ĭæĸĩçļĦ":8479,"ä¸Ĭä¸ĭæĸĩåħ³ç³»":8480,"å¼ºçļĦ":8481,"æıĲé«ĺæŁ¥è¯¢":8482,"åĬ¨æĢģåıĺåĮĸ":8483,"åĬ¨æĢģè§ĦåĪĴ":8484,"åģļå®ļä½į":8485,"åģļè¿ĩè¿ĻäºĽ":8486,"æľĢç»ĪçĬ¶æĢģ":8487,"RESTæĺ¯ä¸Ģç§įéĿ¢åĲĳ":8488,"ä¿®æĶ¹æ¨¡åŀĭ":8489,"Ġimprovement":8490,"Ġlanguage":8491,"ĠRecharts":8492,"eria":8493,"åĨ»ç»ĵåıĤæķ°":8494,"æĸ¹æ³ķéĽĨåĲĪ":8495,"æĸ¹æ³ķè¡¨è¾¾":8496,"éĽĨåĲĪè¿Ĳç®Ĺ":8497,"éĥ¨åĪĨç¥ŀç»ıåħĥ":8498,"Ġtopics":8499,"Ġanalyz":8500,"çĨŁæģ¶":8501,"æ³¨æĦıåĬĽè®¡ç®Ĺ":8502,"RMSE":8503,"ïĤ·Prompt":8504,"ïĤ·Prep":8505,"ïĤ·Produc":8506,"ä¸įèĥ½åıįå¤į":8507,"åŁºçº¿æ¨¡åŀĭ":8508,"åŁºçº¿ä¸Ĭ":8509,"çº¿ç¨ĭæ±ł":8510,"çº¿ç¨ĭåĲĮæĹ¶æī§è¡ĮPythonåŃĹèĬĤçłģ":8511,"æııè¿°ç®Ĺæ³ķ":8512,"èµĦæºĲéªĮè¯ģ":8513,"èµĦæºĲæĵįä½ľ":8514,"çī¹å¾ģå·¥ç¨ĭ":8515,"æ¸ħæ´Ĺ":8516,"èĬĤçĶļèĩ³":8517,"èĬĤçľģ":8518,"TokenéĽĨåĲĪ":8519,"Tokenæĺ¯è¯Ńè¨Ģæ¨¡åŀĭ":8520,"Ġused":8521,"reads":8522,"éĢĴå½Ĵ":8523,"åŃĹæ®µ":8524,"åĪĨç±»ä»»åĬ¡":8525,"æĬķç®ĢåİĨ":8526,"çĽ®åīįä½ł":8527,"chnolog":8528,"æ³Ľåŀĭ":8529,"ç»ĵåĲĪè¿ĻäºĽ":8530,"ç»ĵåĲĪåħ³éĶ®è¯įæ£Ģç´¢":8531,"Ġaccuracy":8532,"æ²¡æľīå·®åĪ«":8533,"æ¢¯åº¦çĪĨçĤ¸":8534,"shell":8535,"Ġthreshold":8536,"Ġthrough":8537,"è¯´æĪĳ":8538,"è¯´ä½ł":8539,"ences":8540,"çº¦å®ļ":8541,"åıĺåĮĸçļĦ":8542,"points":8543,"ä¹ĭéĹ´çļĦåħ³ç³»":8544,"ä¹ĭéĹ´çļĦçĽ¸ä¼¼":8545,"ä¹ĭéĹ´çļĦæĺłå°Ħ":8546,"ä¹ĭéĹ´çļĦè¿ĩåº¦":8547,"çĻ»è®°":8548,"/mass":8549,"/manual":8550,"ATE":8551,"ATIVE":8552,"lates":8553,"ä½łçİ°åľ¨":8554,"ä½łå°±çĶ¨":8555,"ïĤ·Code":8556,"ïĤ·Cloud":8557,"ïĤ·Collabor":8558,"åĮ¹éħįåĴĮè¯Ńä¹ī":8559,"ç®Ĺæ³ķå®ŀéªĮ":8560,"âĢĿï¼Į":8561,"ç»´æĬ¤æĪĲæľ¬":8562,"å¤ĸéĥ¨ä¿¡æģ¯":8563,"èĭ±åĽ½":8564,"contention":8565,"scal":8566,"æ¼Ķç¤º":8567,"Ġasset":8568,"Ġassignment":8569,"çļĦæķ°æį®éĽĨåĲĪ":8570,"è®©åºıåĪĹä¸ŃçļĦæ¯ıä¸ª":8571,"ïĤ·AWS":8572,"åĵĪå¸Įè¡¨":8573,"æłĩåĩĨåºĵ":8574,"è¿Ľç¨ĭåĨħå¤ļä¸ª":8575,"åħ·å¤ĩçķĻ":8576,"æİĴåºıç®Ĺæ³ķ":8577,"ç¬¦åı·":8578,"è´Łè´£æĬĬ":8579,"ITATIVE":8580,"achine":8581,"è¢«ä¿®æĶ¹":8582,"ĠHIST":8583,"ĠUse":8584,"Ġä¸įåħģè®¸":8585,"ãĢģæµĭè¯ķæĬ¥åĳĬ":8586,"ãĢģæµĭè¯ķè®¡åĪĴ":8587,"ï¼Įè¿Ļå²Ĺä½įè¦ģçļĦ":8588,"ï¼Įè¿ĻäºĽé¡¹çĽ®ä¸Ń":8589,"Ġclar":8590,"æī©åħħ":8591,"Ġinterview":8592,"Ġinterfac":8593,"æł¼å¼ıåĴĮ":8594,"ï¼ĮæĪĳåı¯ä»¥":8595,"ç¨ĭåº¦çļĦ":8596,"è§Ĵåº¦":8597,"æľīæķĪåįķçº¿ç¨ĭ":8598,"éĿŀå¸¸":8599,"éĿŀåĨłåĨĽ":8600,"éĿŀå½ĵåīįåľ°åĽ¾":8601,"å¯¹è±¡æīĢ":8602,"å¯¹è±¡è½¬æį¢ä¸º":8603,"åĵªäºĽçŁ¥è¯Ĩ":8604,"åĨħåŃĺç®¡çĲĨ":8605,"è¶Ĭå¤§":8606,"æŃ£å¼ıéªĮè¯ģ":8607,"æŃ£å¼ıæİ¨å¹¿":8608,"æĿĥéĩįåĪĿå§ĭåĮĸ":8609,"èĭ±æĸĩPR":8610,"èĭ±æĸĩéĺħè¯»":8611,"èĭ±æĸĩæµĭè¯ķçĶ¨ä¾ĭ":8612,"èĭ±æĸĩçĶ¨æĪ·åıįé¦Ī":8613,"æĵįä½ľåĮħæĭ¬åħ¥":8614,"çĽĳçĿ£å¾®è°ĥ":8615,"/FINAL":8616,"BatchNorm":8617,"INT":8618,"box":8619,"boxed":8620,"éĥ½è¾ĥå·®":8621,"ï¼Įæĺ¯é¢Ħæµĭ":8622,"ï¼Įæĺ¯è¡¡éĩı":8623,"åĪĿåŃ¦èĢħ":8624,"åĲįåĴĮ":8625,"åĲįå®ŀä½ĵ":8626,"éĢĲä¸ª":8627,"æĪĲæľ¬é«ĺ":8628,"ä¸Ģæ¬¡èĥ½å¤Łå¤ĦçĲĨçļĦ":8629,"åį³åı¯":8630,"Ġsupports":8631,"Ġcomplet":8632,"Ġcomparative":8633,"ĠStructure":8634,"ĠStrength":8635,"å¹¶åıĳä»»åĬ¡":8636,"Ġmanifest":8637,"Ġmodels":8638,"Ġmodeling":8639,"ç´¢å¼ķæĺ¯":8640,"èµĦæĸĻåĪĨæŀĲ":8641,"ç©ºéĹ´å¤įæĿĤåº¦":8642,"Ġlogs":8643,"æ¦ĤçİĩæľĢé«ĺçļĦ":8644,"æ¦Ĥçİĩè¾¾åĪ°":8645,"åĽºå®ļæ¨¡åŀĭ":8646,"åĽºå®ļåİĨåı²":8647,"åĪ©çĶ¨å·²æľī":8648,"åĪ©çĶ¨éĵ¾å¼ıæ³ķ":8649,"PROM":8650,"ferences":8651,"ĠJOIN":8652,"ï¼ĮçĶŁæĪĲç²¾ç®ĢçīĪ":8653,"ï¼ĮçĶŁæĪĲä¸Ģä¸ªè·Ł":8654,"æĺ¾ç¤º":8655,"Ġcomb":8656,"Ġcommun":8657,"åħ³éĹŃéĥ¨åĪĨç¥ŀç»ıåħĥ":8658,"jsonl":8659,"è·¨æºĲ":8660,"åĪĹè¡¨æİ¨å¯¼":8661,"æŃ£å¸¸å·¥ä½ľ":8662,"æŃ£å¸¸åħ¨èģĮ":8663,"ä¾Ŀæį®æĪĸ":8664,"éĻĲåĪ¶åĲĮä¸Ģ":8665,"ç»ĵæŀĦåĮĸæķ°æį®":8666,"çīĪæľ¬å¦Ĥä¸ĭ":8667,"æĺłå°Ħä¸º":8668,"çŁŃæľŁçŃĸçķ¥":8669,"å»¶è¿ŁåĬłè½½":8670,"æĤĦ":8671,"éĻ¤ä»¥":8672,"å¯¹åºĶçļĦåĢ¼":8673,"æĽ¿æį¢":8674,"éļıè¾ĵåħ¥è§Ħæ¨¡å¢ŀéķ¿":8675,"éĶģå®ļ":8676,"ä¿ĿæĮģéĢŁåº¦":8677,"ä¿ĿæĮģé»ĺè®¤åħ³éĹŃ":8678,"è·¯çº¿èĢĹ":8679,"ounds":8680,"æĮīçħ§ä»¥ä¸ĭ":8681,"è¡¡éĩıæ¨¡åŀĭé¢Ħæµĭ":8682,"-péĩĩæł·":8683,"AUDIT":8684,"Masked":8685,"ORT":8686,"ORICA":8687,"ynamoDB":8688,"{}ï¼Ł\",čĊ":8689,"è¿Ńä»£åĻ¨":8690,"éĩıåĮĸæĸ¹æ³ķ":8691,"Ġcontact":8692,"Ġcontention":8693,"éĩįçĤ¹å¿ħçľĭ":8694,"åĳ½åĲįå®ŀä½ĵ":8695,"æ²»çĲĨ":8696,"åģľçĶ¨è¯į":8697,"æ··æ·ĨçŁ©éĺµ":8698,"ç»Ħä»¶ä¹ĭéĹ´":8699,"ï¼Įä½¿æ¨¡åŀĭéĢĤåºĶçī¹å®ļä»»åĬ¡":8700,"èģļåĲĪçļĦä¿¡æģ¯":8701,"çĽĳçĿ£åŃ¦ä¹łä½¿çĶ¨å¸¦":8702,"ï¼Įä»İèĢĮåĩıå°ĳ":8703,"-bound":8704,"/tmp":8705,"OMP":8706,"_FINAL":8707,"_FRAME":8708,"èĲ¥":8709,"Ġveto":8710,"Ġissue":8711,"ĠJavaScript":8712,"ä»¤çīĮ":8713,"æĺ¯åľ¨HTTPä¹ĭä¸Ĭ":8714,"struction":8715,"æłĳå½¢":8716,"Ġschemas":8717,"è¿ĩæĭŁåĲĪé£İéĻ©":8718,"ä¸Ĭçº¿äºĨ":8719,"ä¸Ĭçº¿åīįQAéªĮæĶ¶":8720,"éĩįè¦ģçļĦ":8721,"è¿Ļä¸ªç®ĢåİĨ":8722,"ä¿ĿåŃĺéĶ®åĢ¼":8723,"ï¼Įä¸įèĥ½çĽ´æİ¥":8724,"ï¼Įä¸įè¦ģå¤ª":8725,"åĽłæŀľè¯Ńè¨Ģæ¨¡åŀĭ":8726,"åĽłæŀľæ³¨æĦıåĬĽ":8727,"æ³¨æĦıåĬĽæľºåĪ¶ä¸Ń":8728,"æ³¨æĦıåĬĽæľºåĪ¶æľ¬èº«":8729,"å°½éĩıåĲĪå¹¶åĪ°":8730,"Ġmaintaining":8731,"###":8732,"/Confirmation":8733,"TorchScript":8734,"quir":8735,"rumqi":8736,"Ġå·²æıĲä¾Ľä½įç½®":8737,"ç»ĨèĬĤçĶļèĩ³":8738,"çļĦä¿¡æģ¯è®¡ç®Ĺ":8739,"æĺ¯ä»Ģä¹ĪæĦıæĢĿ":8740,"æĸ°åĨłåĨĽåŁºçº¿":8741,"æĮģç»ŃåĪ·æĸ°":8742,"é«ĺæķĪåįıä½ľ":8743,".jsonl":8744,"çĽ¸åħ³æĢ§æİĴåºı":8745,"äº§çĶŁæķ°æį®":8746,"ç»ĦæĪĲçļĦæłĩæ³¨":8747,"æŃ£ç¡®é¡ºåºı":8748,"åħ¬åı¸åĲĪä½ľ":8749,"ï¼Įä½łåħĪè®°ä¸Ģä¸ĭ":8750,"ï¼Įä½łå°±ç»ĻæĪĳ":8751,"ç»ĻæĪĳçĶŁæĪĲåĮ¹éħįåº¦æľĢé«ĺçļĦATS":8752,"æİĴè¡Įæ¨¡åŀĭ":8753,"Ġgenerating":8754,"ç¨³å®ļæĢ§ä¸İè´¨éĩı":8755,"ä¸¤ä¸ªåıĺéĩı":8756,"è½¬æį¢ä¸ºåĴĮä¸º":8757,"éĢĲæŃ¥éĻįä½İ":8758,"AUCå¤§äºİ":8759,"æİĮæı¡ä»Ģä¹Ī":8760,"Embeddingæ¨¡åŀĭ":8761,"Queryè¡¨ç¤º":8762,"Ġorgan":8763,"ä¸Ķæ²¡æľīåĲįçļĦé¡¹çĽ®":8764,"ãĢģè¡Įä¸º":8765,"ï¼Įä¸İæŃ£å¸¸åħ¨èģĮ":8766,"ï¼Įèĥ½åĲĪå¹¶åĪ°ä¸Ģè¡ĮçļĦå°±":8767,"ï¼Įèĥ½ä¸İæµ·å¤ĸ":8768,"ï¼Įèĥ½æµģçķ":8769,"ï¼Įæľīè´£ä»»å¿ĥ":8770,"ï¼ĮæĹ¶éĹ´åĴĮåħ¨èģĮ":8771,"ï¼ĮåĨįå¼Ģå§ĭ":8772,"ï¼ĮéĢĤåĲĪè¡¨ç¤º":8773,"ï¼ĮéĢĤåĲĪå¤ĦçĲĨå¤§éĩı":8774,"ç»ĳå®ļåĪ°å¯¹è±¡":8775,"çļĦéĹ®é¢ĺè¿Ľè¡Įå¤įçİ°":8776,"çļĦç®ĢåİĨçīĪæľ¬å¦Ĥä¸ĭ":8777,"äºīæĬ¢":8778,"å¸¦è¿ĩæľŁæĹ¶éĹ´":8779,"å¾Īå¥½ä½Ĩ":8780,"ä½¿çĶ¨çļĦè®Ńç»ĥæł·æľ¬":8781,"æŁ¥æī¾å¯¹åºĶçļĦåĢ¼":8782,"åĬłè½½ä¸Ģæ¬¡":8783,"æľĢå°ıæĸ°åŁºçº¿":8784,"å¹³åĿĩæĥħåĨµä¸ĭ":8785,"å¹³åĿĩç»Ŀå¯¹":8786,"ï¼Įä¸įéľĢè¦ģå¤ļ":8787,"ï¼Įä¸įéľĢè¦ģè§£éĩĬ":8788,"Ġscanning":8789,"è¶ħè¿ĩå½ĵåīįåĨłåĨĽ":8790,"å±Ģéĥ¨éļľç¢į":8791,"èİ·å¾ĹçļĦ":8792,"æĻºæħ§å·¥åľ°è¡Įä¸ļ":8793,"-related":8794,"KeyåĴĮValue":8795,"MAE":8796,"MATCH":8797,"Programming":8798,"_TAS":8799,"_THREAD":8800,"_TRIG":8801,"gister":8802,"Ġknowledge":8803,"Ġä»¥åıĬåĲİåı°":8804,"ãĢģè¯ĦåĪĨ":8805,"ãĢģæĢ§èĥ½æµĭè¯ķçŃīä¼ļ":8806,"ãĢģåĽŀå½Ĵæµĭè¯ķ":8807,"ãĢģåĪĨæŀĲä¸İåĽŀæº¯":8808,"ï¼Įåľ¨Transformer":8809,"ãĢĤå¦ĤæŀľçŃĶæ¡Ī":8810,"åħŃå¯¹":8811,"éĩĮéĿ¢":8812,"åįĬçĽĳçĿ£åŃ¦ä¹ł":8813,"åŁ¹è®ŃèµĦæĸĻ":8814,"è¾ħåĬ©éĢīä¿®":8815,"æľ¬ç§ĳåıĬä»¥ä¸Ĭ":8816,"æľīä»Ģä¹Īåħ³ç³»":8817,"æľīä»Ģä¹Īä½ľçĶ¨":8818,"æĶ¿çŃĸæłĩåĩĨ":8819,"æī¹å¤ĦçĲĨ":8820,"æĭĨè§£":8821,"æĭĨåĪĨä¸ºå¤ļä¸ª":8822,"å¸¸è§ģæµĭè¯ķæĸ¹æ³ķ":8823,"Ġbehav":8824,"äº¤åıīçĨµæįŁå¤±":8825,"Ġdetails":8826,"æİ¨åĬ¨èĥ½åĬĽ":8827,"åħĥç´łçļĦ":8828,"å½ĵåīįåĨłåĨĽåŁºçº¿ä¸Ĭ":8829,"è¯įè¡¨æĺ¯":8830,"å°ıè§Ħæ¨¡è®Ńç»ĥ":8831,"åıįåĲĳä¼łæĴŃåĪ©çĶ¨éĵ¾å¼ıæ³ķ":8832,"æľªæĿ¥ä¿¡æģ¯":8833,"æ¯ıå¤©èĥ½ä¿Ŀè¯ģ":8834,"çĦ¶åĲİçĽ®åīįä½ł":8835,"è¿ĺæľīèĥ½åĲĪå¹¶":8836,"Ġchecks":8837,"ç¥ŀç»ıåħĥä¹ĭéĹ´çļĦè¿ĩåº¦":8838,"å®¢æĪ·ç«¯ä¸İæľįåĬ¡åĻ¨ä¹ĭéĹ´":8839,"Ġvisibility":8840,"Ġresponses":8841,"Ġresponsive":8842,"Ġenvironments":8843,"crumbs":8844,"Ġconfiguration":8845,"-contract":8846,"/hikaflow":8847,"/holdout":8848,"MysQL":8849,"MyBatis":8850,"_autopilot":8851,"miner":8852,"Ġunsaf":8853,"Ġunchanged":8854,"Ġjobs":8855,"ï¼Įå¯¼èĩ´è¯·æ±Ĥ":8856,"ï¼ĮåĽłä¸ºçº¯":8857,"åĨ¯éĺ³":8858,"è§Ĩä¸º":8859,"è§Ĩè§ī":8860,"åıĳçĶŁåľ¨":8861,"é¢ĳéģĵ":8862,"Ġpaths":8863,"Ġpathlib":8864,"éĿĻæĢģæ£ĢæŁ¥":8865,"è¡¨çİ°éĥ½è¾ĥå·®":8866,"ä¸ĬçļĦè¡¨çİ°éĥ½è¾ĥå·®":8867,"çĽ¸åĲĮçļĦ":8868,"Ġboth":8869,"èĢĹæĹ¶":8870,"çº¿ä¸Ĭç¨³å®ļæĢ§ä¸İè´¨éĩı":8871,"Ġautomation":8872,"Ġautomated":8873,"éľĢè¦ģæĽ´å¤ļ":8874,"åıĤæķ°æĽ´æĸ°çļĦæŃ¥":8875,"Ġprompts":8876,"ä½įç½®ç¼ĸçłģåĲĳ":8877,"å¹¿æ³Ľä½¿çĶ¨":8878,"èī¯å¥½çļĦ":8879,"ï¼Įå¸¸è§ģæĵįä½ľåĮħæĭ¬åħ¥":8880,"æ¢¯åº¦ä¸ĭéĻįæł¹æį®æįŁå¤±åĩ½æķ°":8881,"ç¿»è½¬":8882,"èĩªçĦ¶è¯Ńè¨Ģå¤ĦçĲĨ":8883,"æİĴè¡Įæ¦ľåİĨåı²":8884,"Ġremotely":8885,"åĶ¯ä¸Ģæłĩè¯Ĩ":8886,"çŁ©éĺµæĿ¥":8887,"-clock":8888,"-kéĩĩæł·":8889,"-size":8890,"/belief":8891,"ACK":8892,"ACID":8893,"COMMIT":8894,"DevTool":8895,"ISING":8896,"Thread":8897,"_mode":8898,"_mantis":8899,"www":8900,"ĠOverla":8901,"Ġallocation":8902,"Ġendpoints":8903,"Ġæĺ¯åĲ¦è¶Ĭè¿ĩ":8904,"Ġembeddings":8905,"Ġç¬¬äºĮ":8906,"ãĢģå½ĵåīįçŃĸçķ¥":8907,"ãĢģæİ¥åı£æµĭè¯ķ":8908,"ãĢģèĭ±æĸĩæĬĢæľ¯æĸĩæ¡£":8909,"ãĢģèĭ±æĸĩä»£çłģæ³¨":8910,"åı³å°±åı¯ä»¥":8911,"ï¼Įå°±ç»ĻæĪĳçĶŁæĪĲåĮ¹éħįåº¦æľĢé«ĺçļĦATS":8912,"ï¼Įæİ¨åĬ¨éĹ®é¢ĺè§£åĨ³":8913,"ï¼Įæİ¨åĬ¨éľĢæ±ĤèĲ½åľ°":8914,"ãĢĤãĢĤãĢĤï¼Į":8915,"æŀģç«¯":8916,"åı¯è®Ńç»ĥåıĤæķ°":8917,"ä¸įè¶³æĪĸ":8918,"ä»Ģä¹Īéĥ½åĪ«è¯´":8919,"ä¸Ģç§įèĩªçĦ¶è¯Ńè¨Ģ":8920,"æ¨¡åŀĭå¯¹æŃ£è´Ł":8921,"ä¸Ńè¢«å¹¿æ³Ľä½¿çĶ¨":8922,"åĲİéĿ¢æĪĳä¼ļ":8923,"Ġresume":8924,"æıĲäº¤åīį":8925,"ĠSizeè¡¨ç¤ºä¸Ģæ¬¡":8926,"ĠComputing":8927,"é¢ĦæľŁç±»åŀĭ":8928,"åŃ¦ä¹łçİĩæİ§åĪ¶æ¯ıæ¬¡":8929,"ç»ıå¸¸è®¿éĹ®çļĦæķ°æį®":8930,"Ġmean":8931,"Ġmodular":8932,"Ġdiscovery":8933,"Ġbounds":8934,"çĶŁæĪĲåĻ¨éĢļè¿ĩ":8935,"é«ĺçº§åīįç«¯å·¥ç¨ĭå¸Ī":8936,"äº¤æį¢è¯·æ±Ĥ":8937,"Ġterm":8938,"å¤§è§Ħæ¨¡è®Ńç»ĥ":8939,"Ġelif":8940,"Ġexpert":8941,"Ġwebhook":8942,"è¿Ļå²Ĺä½įåĮ¹éħįåº¦æľĢé«ĺçļĦATS":8943,"åĲĳéĩıæķ°æį®åºĵçĶ¨äºİåŃĺåĤ¨":8944,"æĮĩå®ļéĺĪåĢ¼":8945,"æĹłçĽĳçĿ£åŃ¦ä¹łä½¿çĶ¨æ²¡æľī":8946,"æİĴçīĪå¥½":8947,"æİĴçīĪè®©æĪĳå¤įåĪ¶":8948,"Ġnoisy":8949,"éĩĬæĶ¾åĴĮ":8950,"GPTQ":8951,"çľĭåĪ°æľªæĿ¥ä¿¡æģ¯":8952,"ï¼Įä»¥æıĲé«ĺæľĢç»Ī":8953,"HTTPSæĺ¯åľ¨HTTPä¹ĭä¸Ĭ":8954,"èģĶåĲĪç´¢å¼ķ":8955,"ä¸¤åı¥å°±åı¯ä»¥":8956,"ä¸¤åı¥çĲĨçĶ±":8957,"Temperatureæİ§åĪ¶çĶŁæĪĲæ¦ĤçİĩåĪĨå¸ĥ":8958,"ç²¾ç¡®çİĩ":8959,"æĺ¾åŃĺåįłçĶ¨":8960,"æłĩçŃ¾çļĦæķ°æį®è®Ńç»ĥæ¨¡åŀĭ":8961,"èĩªåĬ¨åĮĸèĦļæľ¬å¼Ģåıĳ":8962,"èĩªåĬ¨åĮĸèĦļæľ¬ä¼ĺåħĪ":8963,"åģıå¥½æķ°æį®":8964,"Ġitems":8965,"ä¸ĬéĿ¢æĺ¯å²Ĺä½įæııè¿°":8966,"ä¸ĬéĿ¢æĺ¯æĪĳçļĦç®ĢåİĨ":8967,"è¾ĵåħ¥ä¸İçĽ®æłĩè¾ĵåĩºç»ĦæĪĲçļĦæłĩæ³¨":8968,"Dropoutè®Ńç»ĥæĹ¶éļıæľº":8969,"LayerNorm":8970,"åľ¨ç½ĳé¡µä¸Ĭå®Įæķ´":8971,"åľ¨ç½ĳé¡µæİĴçīĪå¥½":8972,"ollaboration":8973,"è£ħé¥°åĻ¨æĺ¯ä¸Ģç§įçĶ¨äºİåĮħè£ħ":8974,"-horizon":8975,"-gram":8976,"-backend":8977,"/register":8978,"/team":8979,"AOP":8980,"TEXT":8981,"_BUT":8982,"_NUM":8983,"_num":8984,"_STATE":8985,"è¥¿å®ī":8986,"Ġjudgment":8987,"Ġåı¯èĥ½æ¶īåıĬ":8988,"Ġèĭ¥åĨ»ç»ĵ":8989,"ãĢģBrowser":8990,"ï¼ĮåħĪä»Ģä¹Īéĥ½åĪ«è¯´":8991,"ï¼ĮçĽ®æłĩæĺ¯åľ¨":8992,"ï¼Įåħ¶ä»ĸä»Ģä¹Īéĥ½":8993,"ãĢĤä¸įèĥ½è¢«":8994,"ïĤ·Used":8995,"æĺ¯åĬ¨æĢģç±»åŀĭ":8996,"ï¼ļsidx":8997,"ï¼ļä¸įéĻĲ":8998,"åĪĨå·®è¶ħè¿ĩå½ĵåīįåĨłåĨĽ":8999,"åĪĨå±ĤåŁºçº¿":9000,"åĪĨé¡µæŁ¥è¯¢":9001,"åı¯åŃ¦ä¹łåıĤæķ°":9002,"Ġ\"\").":9003,"ä¸įéĩįæĸ°åģļå®ļä½į":9004,"è§ĤæµĭåĢ¼":9005,"å¹ĤçŃīæĢ§":9006,"å®ŀæķ°è½¬æį¢ä¸ºåĴĮä¸º":9007,"åĴĮFallback":9008,"åĴĮç®¡çĲĨæķ°æį®çļĦ":9009,"åĴĮä¾ĿèµĸåĮħ":9010,"Ġcreation":9011,"Ġconfident":9012,"checkpoint":9013,"åħ³æ³¨åĵªäºĽ":9014,"æīĭåĬ¨":9015,"æīĵå¼Ģ":9016,"æĭ¿åĩºæĿ¥":9017,"Ġpricing":9018,"Ġpublic":9019,"åİĭåĬĽ":9020,"Ġinvolving":9021,"Ġmicroservice":9022,"ä¸ĭéĿ¢ç§¯":9023,"ridor":9024,"Ġdurable":9025,"Ġblockchain":9026,"Ġability":9027,"æľºåĪ¶éĢļè¿ĩåĲİæīįåģļ":9028,"è·³å¸§":9029,"æľĢä¼ĺçļĦ":9030,"åįķä¸ªæł·æľ¬":9031,"åı£è¯Ńæ²ŁéĢļèĢħ":9032,"ĠTechnolog":9033,"è¿Ľè¡ĮåĬłæĿĥæ±ĤåĴĮ":9034,"äººåĳĺæ²¡æľīå·®åĪ«":9035,"æ·±å±Ĥç½ĳç»ľä¸ŃçļĦ":9036,"éģ®çĽĸ":9037,"éģĹæ¼ı":9038,"æĥħæĦŁåĪĨæŀĲ":9039,"ĠDegree":9040,"ĠLearning":9041,"ĠLeaderåĴĮFallback":9042,"æ¦Ĥå¿µæĺ¯ä»Ģä¹Ī":9043,"çĨŁç»ĥä½¿çĶ¨Charles":9044,"èĻ½çĦ¶æĺ¯":9045,"Ġclassifier":9046,"å°½åı¯èĥ½æ·±åħ¥":9047,"ç²¾åº¦è¡¨ç¤º":9048,"åĪĨå¸ĥå¼ıéĶģ":9049,"å®¢æĪ·ç«¯åĴĮæľįåĬ¡åĻ¨ä¹ĭéĹ´":9050,"Ġexecution":9051,"Ġexhausted":9052,"è¡¡éĩıäºĮåĪĨç±»æ¨¡åŀĭå¯¹æŃ£è´Ł":9053,"ï¼Įä½¿æ¨¡åŀĭåŃ¦ä¹łçī¹å®ļä»»åĬ¡":9054,"_FAILED":9055,"ï¼Įä¹Łåı¯ä»¥è¯´":9056,"è®Ńç»ĥæķ°æį®ä¸ŃçļĦç»ĨèĬĤçĶļèĩ³":9057,"ç¢°æĴŀ":9058,"ä½Ļå¼¦çĽ¸ä¼¼åº¦":9059,"Ġbuild":9060,"æĪªæŃ¢æĹ¶éĹ´":9061,"ROCæĽ²çº¿":9062,"åģĩè®¾ä½łæĺ¯è¿Ļå²Ĺä½į":9063,"ULTI":9064,"ï¼ĮèĢĮä¸įæĺ¯ä¸Ģæ¬¡æĢ§æĬĬ":9065,"_SCOPE":9066,"èĥĮæĻ¯":9067,"Ġoperations":9068,"ãĢģéļĶç¦»æĢ§åĴĮæĮģä¹ħæĢ§çŃī":9069,"ï¼Įç¡®ä¿Ŀçº¿ä¸Ĭç¨³å®ļæĢ§ä¸İè´¨éĩı":9070,"æĸ¹ä¾¿çļĦè¯Ŀ":9071,"Ġmigrations":9072,"Ġdemonstrating":9073,"æİ¨èįĲè¦ģä¸įè¦ģ":9074,"\"å·²çĶŁæĪĲ":9075,"(Keep":9076,"-IDF":9077,"-compatible":9078,"-powered":9079,"-æĸ¹å·®æĿĥè¡¡":9080,".set":9081,".write":9082,".inference":9083,".format":9084,".cursor":9085,".npz":9086,"/sn":9087,"/ä½İåĪĨ":9088,"/JavVa":9089,"/æ¬§æ´":9090,"/rules":9091,"/Andro":9092,"/JaVaå®ĮæĪĲç®Ģåįķ":9093,"AWQ":9094,"Accuracy":9095,"Cookie":9096,"CORS":9097,"Epoch":9098,"FETY":9099,"Goroutine":9100,"Grounding":9101,"HashMap":9102,"HORITATIVE":9103,"JVM":9104,"MVCC":9105,"Planner":9106,"Tianjin":9107,"WORK":9108,"Xinjiang":9109,"_guard":9110,"_prefix":9111,"_threads":9112,"_templates":9113,"_backfill":9114,"_COMPETIT":9115,"_SAFETY":9116,"_AUTHORITATIVE":9117,"_CONTEXT":9118,"_MISMATCH":9119,"ceding":9120,"kä¸ªåĢĻéĢī":9121,"lacklist":9122,"promotion":9123,"paired":9124,"qwen":9125,"sçŃīæµĭè¯ķå·¥åħ·":9126,"topics":9127,"}ãĢĤ\",čĊ":9128,"©ç½ļ":9129,"²ä»»ä¸ĢåĿĩ":9130,"¸é¦ı":9131,"åĦ¿":9132,"åķĨä¸ļ":9133,"èĴ¸é¦ı":9134,"ĉæľªæİĪæĿĥ":9135,"ĉåĪĨæķ°æŃ£åĲĳ":9136,"ĉå¾Īé«ĺ":9137,"Ġèĥ½çĭ¬ç«ĭè¿Ľè¡Įæķ°æį®":9138,"Ġå¾ªçİ¯":9139,"Ġä¸ĭçķĮ":9140,"ĠGPU":9141,"Ġupdates":9142,"Ġæ¯ıä¸ªæĸĩä»¶å¿ħé¡»":9143,"Ġå¹´ä»¥ä¸Ĭæµĭè¯ķç»ıéªĮ":9144,"ĠæĪĲä¸ºå¼ĢåıĳåŁºåĩĨ":9145,"ĠâĪĴ":9146,"ĥä¸ĩåĪ«":9147,"ħéĺħè¯»èĭ±æĸĩPR":9148,"ıå®ŀè®¤çľŁ":9149,"ĳçĽĴæµĭè¯ķ":9150,"ãĢģè¿ĲèĲ¥":9151,"ãĢģexcept":9152,"ãĢģå®ĮæĪĲæĪĸ":9153,"ãĢģç§»åĬ¨ç«¯":9154,"ãĢģåħ¼å®¹æĢ§æµĭè¯ķ":9155,"ãĢģæµ·å¤ĸå®¢æľįåĽ¢éĺŁ":9156,"ãĢģæıĴåħ¥åĴĮåĪłéĻ¤":9157,"ãĢģJMeter":9158,"ï¼Įåįĥä¸ĩåĪ«":9159,"ï¼ĮçĽ´æİ¥åľ¨ç½ĳé¡µæİĴçīĪå¥½":9160,"ï¼Įè®¡ç®Ĺé¢Ħæµĭ":9161,"ï¼Įç®Ģåįķä¸¤åı¥çĲĨçĶ±":9162,"ï¼Įbaseè¥¿å®ī":9163,"ï¼ĮçĦ¶åĲİç»Ļ":9164,"ï¼ĮéĤ£ä½łå°±çĶ¨":9165,"ï¼Įè®©æĪĳå¤įåĪ¶å°±è¡Į":9166,"ï¼Įè®¡ç®ĹæľºçĽ¸åħ³ä¸ĵä¸ļä¼ĺåħĪ":9167,"ãĢĤåıĤä¸İä¸Ĭçº¿åīįQAéªĮæĶ¶":9168,"ãĢĤå°±ä¸¤åı¥å°±åı¯ä»¥":9169,"ãĢĤæł¹æį®éľĢæ±Ĥç¼ĸåĨĻ":9170,"ãĢĤè°¢è°¢":9171,"çļĦå¹³åĿĩåĢ¼":9172,"çļĦæ¯Ķä¾ĭ":9173,"çļĦéĢļä¿¡æĸ¹å¼ı":9174,"çļĦåıĺåĮĸè¶ĭåĬ¿":9175,"çļĦéļıæľºç¨ĭåº¦":9176,"eranker":9177,"ataset":9178,"atistics":9179,"æĺ¯åĿĩæĸ¹":9180,"ä¸İåĽ¢éĺŁæĪĲåĳĺ":9181,"ä¸İç¼ºéĻ·ä¿®å¤į":9182,"èĥ½åĮ¹éħįä¸Ķæ²¡æľīåĲįçļĦé¡¹çĽ®":9183,"ï¼ļé»ĳçĽĴæµĭè¯ķ":9184,"eduled":9185,"ä»¥è¶³å¤ŁåĪĨå·®è¶ħè¿ĩå½ĵåīįåĨłåĨĽ":9186,"åĪĨè¾¨çİĩ":9187,"æĹģå¢ŀåĬłä½İç§©åı¯è®Ńç»ĥ":9188,"åı¯åħ¼èģĮ":9189,"æķ°æį®æ³Ħæ¼ı":9190,"åĽ°æĥĳåº¦":9191,"ä¸įå¸ĮæľĽè¢«ä¿®æĶ¹":9192,"ä¸įä¸Ģå®ļæıĲåįĩ":9193,"ä¸įå¤©çĦ¶åĮħåĲ«":9194,"ï¼Łç½ĳä¸Ĭæī¾ä¸Ģä¸ĭèĥ½åĮ¹éħįä¸Ķæ²¡æľīåĲįçļĦé¡¹çĽ®":9195,"ä»Ģä¹Īæł·ç»ıåİĨçļĦäºº":9196,"ä»Ģä¹ĪæĹ¶åĢĻæĽ´éĢĤåĲĪä½¿çĶ¨":9197,"ä¸ĢèĪ¬":9198,"ä¸Ģåı¥è¯Ŀ":9199,"æ¨¡åŀĭè¾ĵåĩºè´¨éĩı":9200,"æ¨¡åŀĭåıªåĬłè½½ä¸Ģæ¬¡":9201,"æ¨¡åŀĭåĨħéĥ¨çŁ¥è¯Ĩ":9202,"æ¨¡åŀĭåīªæŀĿ":9203,"åħ¨éĿ¢éĩįæŁ¥":9204,"Ġscheduled":9205,"åĴĮæ²ŁéĢļæİ¨åĬ¨èĥ½åĬĽ":9206,"åĴĮåĨĻåħ¥ç»´æĬ¤æĪĲæľ¬":9207,"Ġcriteria":9208,"Ġcalibration":9209,"asyncio":9210,"è¿ĩåº¦åŃ¦ä¹łè®Ńç»ĥæķ°æį®ä¸ŃçļĦç»ĨèĬĤçĶļèĩ³":9211,"Ġregression":9212,"Ġrequirements":9213,"è¦ģæĬķçļĦè¯Ŀ":9214,"è´ªå¿ĥç®Ĺæ³ķ":9215,"åº¦ä¼ĺåħĪæĲľç´¢":9216,"ĠSpecialist":9217,"ĠSummary":9218,"ĠSkills":9219,"ĠCalling":9220,"Ġfocused":9221,"ĠPostgresQL":9222,"å¯¹åĲĦåıĤæķ°çļĦæ¢¯åº¦":9223,"å¯¹ä¸ŃéĹ´æ¿Ģæ´»":9224,"å¯¹çº¿ä¸Ĭèĭ±æĸĩçĶ¨æĪ·åıįé¦Ī":9225,"åŃ¦ä¹łæķ°æį®ä¸ŃçļĦè§Ħå¾ĭ":9226,"Ġmostly":9227,"Ġmaking":9228,"Ġmetadata":9229,"å¤ļAgentç³»ç»Ł":9230,"è¿ĽåħĪåĩºçļĦæķ°æį®ç»ĵæŀĦ":9231,"Ġdrones":9232,"Ġdistributed":9233,"å¤ĦçĲĨæĸĩæľ¬æĹ¶ä½¿çĶ¨çļĦ":9234,"æĪĸæĥ©ç½ļ":9235,"igmoid":9236,"è½¨è¿¹":9237,"ï¼ĪåĮĹç¾İèĭ±åĽ½":9238,"é«ĺè´¨éĩıçļĦ":9239,"é«ĺåĢ¾æĸľæĹ¶":9240,"å®ĮåĸĦçļĦ":9241,"èĩªåĽŀå½ĴçĶŁæĪĲæĹ¶":9242,"Ġdebugging":9243,"Ġepisode":9244,"ç®ĹåŃĲèŀįåĲĪ":9245,"æĽ´å¿«çļĦåŃĺåĤ¨":9246,"Ġwindow":9247,"è¿Ļæ±ĤèģĮèĢħ":9248,"åĪ°æľªæĲľç´¢":9249,"åĪ°è¾¾æĹ¶éĹ´":9250,"éĹ®é¢ĺå¤§éĥ¨åĪĨæĺ¯":9251,"åıĤæķ°åĴĮè¿ĶåĽŀåĢ¼":9252,"éªĮè¯ģè¸ıå®ŀè®¤çľŁ":9253,"å·¥ä½ľæ²¡æľīåĮºåĪ«":9254,"æŃ£åĪĻåĮĸ":9255,"Pythonè§£éĩĬåĻ¨åĴĮä¾ĿèµĸåĮħ":9256,"å½ĵåīįæĿĥå¨ģç´¢å¼ķ":9257,"ï¼Įä¸įä¼ļå½±åĵįæŃ£å¸¸å·¥ä½ľ":9258,"åĽ¢éĺŁè¿Ľè¡Įåı£è¯Ńæ²ŁéĢļèĢħ":9259,"ä¸Ģä¸ªä¸Ģä¸ªçļĦç»Ļä½ł":9260,"ä¸Ģä¸ªåºıåĪĹä½ľä¸º":9261,"ä»İç´¯è®¡æ¦Ĥçİĩè¾¾åĪ°":9262,"çĽ´æİ¥ä¿®æĶ¹åİŁå¯¹è±¡":9263,"ĠMATLAB":9264,"æĸĩæľ¬è½¬æį¢ä¸ºæ¨¡åŀĭ":9265,"ambda":9266,"è¾ĥå¿«çļĦæŁ¥æī¾":9267,"Channel":9268,"éĻįä½İè¾ĵåħ¥åĪĨè¾¨çİĩ":9269,"ä¼ĺåĮĸçīĪç®ĢåİĨåĲ§":9270,"åıĸåĨ³äºİ":9271,"è®¿éĹ®åĲİç«¯æķ°æį®æºĲ":9272,"éĶ®å¿«éĢŁæŁ¥æī¾å¯¹åºĶçļĦåĢ¼":9273,"æĬĬå²Ĺä½įæııè¿°ä¸Ģä¸ªä¸Ģä¸ªçļĦç»Ļä½ł":9274,"Ġgraph":9275,"Ġguidelines":9276,"Ġhardcoded":9277,"Ġsecret":9278,"ä½įç½®æł¹æį®åħ¶ä»ĸä½įç½®çļĦä¿¡æģ¯è®¡ç®Ĺ":9279,"çĭ¬ç«ĭå®ĮæĪĲæİ¥åı£æµĭè¯ķä¸İåŁºç¡ĢèĩªåĬ¨åĮĸèĦļæľ¬å¼Ģåıĳ":9280,"ĠçļĦåĬŁèĥ½æµĭè¯ķ":9281,"é¡µå·¦åı³å°±åı¯ä»¥":9282,"Ġrandomization":9283,"ï¼Įåı¯ä»¥åľ¨ä¸įçĽ´æİ¥ä¿®æĶ¹åİŁå¯¹è±¡":9284,"è´Łè½½åĿĩè¡¡":9285,"ĠRoutePlanner":9286,"åŃĲæłĳéĶ®åĢ¼":9287,"åĩ½æķ°æĪĸç±»çļĦæľºåĪ¶":9288,"åĪĻä»İè¾ĵåĩºå±ĤåĲĳ":9289,"å»ºç«ĭçļĦè¾ħåĬ©æķ°æį®ç»ĵæŀĦ":9290,"ç¼ĵåŃĺåĩ»ç©¿":9291,"ç¼ĵåŃĺç©¿éĢı":9292,"ç¼ĵåŃĺéĽªå´©":9293,"åģļè¿ĩè¿ĻäºĽé¡¹çĽ®":9294,"RESTæĺ¯ä¸Ģç§įéĿ¢åĲĳèµĦæºĲ":9295,"æĸ¹æ³ķè¡¨è¾¾èµĦæºĲæĵįä½ľ":9296,"çĨŁæģ¶å¸¸è§ģæµĭè¯ķæĸ¹æ³ķ":9297,"ïĤ·Prepared":9298,"ïĤ·Produced":9299,"Tokenæĺ¯è¯Ńè¨Ģæ¨¡åŀĭå¤ĦçĲĨæĸĩæľ¬æĹ¶ä½¿çĶ¨çļĦ":9300,"ç»ĵåĲĪè¿ĻäºĽä¿¡æģ¯":9301,"è¯´ä½łåģļè¿ĩè¿ĻäºĽé¡¹çĽ®":9302,"ïĤ·Collaborated":9303,"è®©åºıåĪĹä¸ŃçļĦæ¯ıä¸ªä½įç½®æł¹æį®åħ¶ä»ĸä½įç½®çļĦä¿¡æģ¯è®¡ç®Ĺ":9304,"è¿Ľç¨ĭåĨħå¤ļä¸ªçº¿ç¨ĭåĲĮæĹ¶æī§è¡ĮPythonåŃĹèĬĤçłģ":9305,"åħ·å¤ĩçķĻåŃ¦ç»ıåİĨ":9306,"ĠHISTORICA":9307,"ï¼Įè¿Ļå²Ĺä½įè¦ģçļĦä»Ģä¹Īæł·ç»ıåİĨçļĦäºº":9308,"ï¼Įè¿ĻäºĽé¡¹çĽ®ä¸Ńæĭ¿åĩºæĿ¥":9309,"Ġinterfaces":9310,"èĭ±æĸĩéĺħè¯»èĥ½åĬĽå¼º":9311,"ä¸Ģæ¬¡èĥ½å¤Łå¤ĦçĲĨçļĦæľĢå¤§":9312,"ĠStructures":9313,"ĠStrengths":9314,"æ¦ĤçİĩæľĢé«ĺçļĦkä¸ªåĢĻéĢī":9315,"PROMISING":9316,"ï¼ĮçĶŁæĪĲä¸Ģä¸ªè·Łè¿Ļå²Ĺä½įåĮ¹éħįåº¦æľĢé«ĺçļĦATS":9317,"Ġcommunication":9318,"åĪĹè¡¨æİ¨å¯¼å¼ı":9319,"éĻĲåĪ¶åĲĮä¸Ģè¿Ľç¨ĭåĨħå¤ļä¸ªçº¿ç¨ĭåĲĮæĹ¶æī§è¡ĮPythonåŃĹèĬĤçłģ":9320,"å»¶è¿ŁåĬłè½½éĿŀå½ĵåīįåľ°åĽ¾":9321,"éļıè¾ĵåħ¥è§Ħæ¨¡å¢ŀéķ¿çļĦåıĺåĮĸè¶ĭåĬ¿":9322,"è·¯çº¿èĢĹå°½":9323,"-péĩĩæł·ä»İç´¯è®¡æ¦Ĥçİĩè¾¾åĪ°":9324,"åĳ½åĲįå®ŀä½ĵè¯ĨåĪ«":9325,"ï¼Įä½¿æ¨¡åŀĭéĢĤåºĶçī¹å®ļä»»åĬ¡æĪĸ":9326,"_FRAMEWORK":9327,"ï¼Įä¸įè¦ģå¤ªéķ¿":9328,"æ³¨æĦıåĬĽæľºåĪ¶æľ¬èº«ä¸įå¤©çĦ¶åĮħåĲ«":9329,"ï¼Įä½łå°±ç»ĻæĪĳæİ¨èįĲè¦ģä¸įè¦ģ":9330,"Ġorganization":9331,"ï¼Įä¸İæŃ£å¸¸åħ¨èģĮå·¥ä½ľæ²¡æľīåĮºåĪ«":9332,"ï¼Įèĥ½åĲĪå¹¶åĪ°ä¸Ģè¡ĮçļĦå°±å°½éĩıåĲĪå¹¶åĪ°":9333,"ï¼Įèĥ½ä¸İæµ·å¤ĸåĽ¢éĺŁè¿Ľè¡Įåı£è¯Ńæ²ŁéĢļèĢħ":9334,"ï¼Įèĥ½æµģçķħéĺħè¯»èĭ±æĸĩPR":9335,"ï¼Įæľīè´£ä»»å¿ĥåĴĮæ²ŁéĢļæİ¨åĬ¨èĥ½åĬĽ":9336,"ï¼ĮæĹ¶éĹ´åĴĮåħ¨èģĮäººåĳĺæ²¡æľīå·®åĪ«":9337,"ä½¿çĶ¨çļĦè®Ńç»ĥæł·æľ¬æķ°éĩı":9338,"_TASK":9339,"_THREADS":9340,"_TRIGGER":9341,"ãĢģæĢ§èĥ½æµĭè¯ķçŃīä¼ļä½¿çĶ¨":9342,"ãĢĤå¦ĤæŀľçŃĶæ¡ĪéĩĮ":9343,"æľ¬ç§ĳåıĬä»¥ä¸ĬåŃ¦åİĨ":9344,"Ġbehavior":9345,"åıįåĲĳä¼łæĴŃåĪ©çĶ¨éĵ¾å¼ıæ³ķåĪĻä»İè¾ĵåĩºå±ĤåĲĳ":9346,"çĦ¶åĲİçĽ®åīįä½łçļĦç®ĢåİĨçīĪæľ¬å¦Ĥä¸ĭ":9347,"è¿ĺæľīèĥ½åĲĪå¹¶çļĦå°½éĩıåĲĪå¹¶":9348,"ç¥ŀç»ıåħĥä¹ĭéĹ´çļĦè¿ĩåº¦ä¾Ŀèµĸ":9349,"Ġunsafe":9350,"ï¼ĮåĽłä¸ºçº¯æ³¨æĦıåĬĽæľºåĪ¶æľ¬èº«ä¸įå¤©çĦ¶åĮħåĲ«":9351,"åıĤæķ°æĽ´æĸ°çļĦæŃ¥éķ¿":9352,"DevToolsçŃīæµĭè¯ķå·¥åħ·":9353,"ĠOverlap":9354,"ãĢģèĭ±æĸĩä»£çłģæ³¨éĩĬ":9355,"ï¼Įå°±ç»ĻæĪĳçĶŁæĪĲåĮ¹éħįåº¦æľĢé«ĺçļĦATSä¼ĺåĮĸçīĪç®ĢåİĨåĲ§":9356,"ï¼Įæİ¨åĬ¨éľĢæ±ĤèĲ½åľ°ä¸İç¼ºéĻ·ä¿®å¤į":9357,"åĲİéĿ¢æĪĳä¼ļæĬĬå²Ĺä½įæııè¿°ä¸Ģä¸ªä¸Ģä¸ªçļĦç»Ļä½ł":9358,"ĠSizeè¡¨ç¤ºä¸Ģæ¬¡åıĤæķ°æĽ´æĸ°":9359,"åŃ¦ä¹łçİĩæİ§åĪ¶æ¯ıæ¬¡åıĤæķ°æĽ´æĸ°çļĦæŃ¥éķ¿":9360,"æİĴçīĪè®©æĪĳå¤įåĪ¶å°±åı¯ä»¥":9361,"Temperatureæİ§åĪ¶çĶŁæĪĲæ¦ĤçİĩåĪĨå¸ĥçļĦéļıæľºç¨ĭåº¦":9362,"åľ¨ç½ĳé¡µä¸Ĭå®Įæķ´æİĴçīĪè®©æĪĳå¤įåĪ¶å°±åı¯ä»¥":9363,"è£ħé¥°åĻ¨æĺ¯ä¸Ģç§įçĶ¨äºİåĮħè£ħåĩ½æķ°æĪĸç±»çļĦæľºåĪ¶":9364,"Ġåı¯èĥ½æ¶īåıĬåĵªäºĽ":9365,"ãĢģBrowserDevToolsçŃīæµĭè¯ķå·¥åħ·":9366,"Ġconfidential":9367,"ĠTechnology":9368,"è¡¡éĩıäºĮåĪĨç±»æ¨¡åŀĭå¯¹æŃ£è´Łæł·æľ¬è¿Ľè¡ĮæİĴåºı":9369,"ROCæĽ²çº¿ä¸ĭéĿ¢ç§¯":9370,"åģĩè®¾ä½łæĺ¯è¿Ļå²Ĺä½įè¿Ļæ±ĤèģĮèĢħ":9371,"ï¼Įç¡®ä¿Ŀçº¿ä¸Ĭç¨³å®ļæĢ§ä¸İè´¨éĩıæłĩåĩĨ":9372,"/æ¬§æ´²ä»»ä¸ĢåĿĩ":9373,"/Android":9374,"/JaVaå®ĮæĪĲç®ĢåįķèĩªåĬ¨åĮĸèĦļæľ¬ä¼ĺåħĪ":9375,"_prefixes":9376,"_COMPETITIVE":9377,"Ġèĥ½çĭ¬ç«ĭè¿Ľè¡Įæķ°æį®éªĮè¯ģè¸ıå®ŀè®¤çľŁ":9378,"ãĢģæµ·å¤ĸå®¢æľįåĽ¢éĺŁé«ĺæķĪåįıä½ľ":9379,"ï¼Įåįĥä¸ĩåĪ«å¿ĺ":9380,"ãĢĤæł¹æį®éľĢæ±Ĥç¼ĸåĨĻèĭ±æĸĩæµĭè¯ķçĶ¨ä¾ĭ":9381,"æĹģå¢ŀåĬłä½İç§©åı¯è®Ńç»ĥçŁ©éĺµæĿ¥":9382,"è¿ĩåº¦åŃ¦ä¹łè®Ńç»ĥæķ°æį®ä¸ŃçļĦç»ĨèĬĤçĶļèĩ³åĻªå£°":9383,"å¯¹çº¿ä¸Ĭèĭ±æĸĩçĶ¨æĪ·åıįé¦ĪçļĦéĹ®é¢ĺè¿Ľè¡Įå¤įçİ°":9384,"ï¼Įåı¯ä»¥åľ¨ä¸įçĽ´æİ¥ä¿®æĶ¹åİŁå¯¹è±¡ä»£çłģçļĦæĥħåĨµä¸ĭ":9385,"ĠHISTORICAL":9386,"ï¼Įè¿ĻäºĽé¡¹çĽ®ä¸Ńæĭ¿åĩºæĿ¥è¯´ä½łåģļè¿ĩè¿ĻäºĽé¡¹çĽ®":9387,"ï¼ĮçĶŁæĪĲä¸Ģä¸ªè·Łè¿Ļå²Ĺä½įåĮ¹éħįåº¦æľĢé«ĺçļĦATSç®ĢåİĨ":9388,"-péĩĩæł·ä»İç´¯è®¡æ¦Ĥçİĩè¾¾åĪ°æĮĩå®ļéĺĪåĢ¼":9389,"ï¼Įä½łå°±ç»ĻæĪĳæİ¨èįĲè¦ģä¸įè¦ģæĬķç®ĢåİĨ":9390,"ï¼Įèĥ½ä¸İæµ·å¤ĸåĽ¢éĺŁè¿Ľè¡Įåı£è¯Ńæ²ŁéĢļèĢħä¼ĺåħĪ":9391,"ï¼Įèĥ½æµģçķħéĺħè¯»èĭ±æĸĩPRD":9392,"ï¼Įæİ¨åĬ¨éľĢæ±ĤèĲ½åľ°ä¸İç¼ºéĻ·ä¿®å¤įä»»èģĮè¦ģæ±Ĥ":9393,"/æ¬§æ´²ä»»ä¸ĢåĿĩåı¯":9394}